{
    "input_shape": [
        18
    ],
    "hidden_layers": [
        {
            "shape": [
                130,
                19
            ],
            "weights": [
                "LkC8vTW6E76Cj4O+Ib8MvqOBtb3j3IK+Eg8TvTGoPz7NUJo9VUy8OzpUWr4rfii83zwLPQkOAb0Hf8W8DvsVvBkCg70kH9K8YO4QPcDJjDxRN9G9nvMVPuWgjbzB8j08GkSvvRt5Dbzkwtm88OnRvCLMZj2vhso7UGSHPb+49Dz6JfW81cUfPUXxND12QQC8Xs8gPdAFOL7ypfw9k1zpvapNu72XBYE9M3X0vO0fBL4tSIo9DvZAvqmYhz2gXHO7+ZEHPVsz0j2yz2M9ffTiux/JpT0dqQu8uamXvaA0jz1vCSq+hLe0PA+/Hz26Qfi9jAuLPaPVAT6DxXk9aavRPPtuyTzwqhy7z3dDvRJ4qby5Yp281IZJvevIrz0kFYm7/kyPPQ8AjT1ed8q9/dLGvHKzDD59sty9FoVmvePU2L3NVAK+M5dcvXWvlD1bfDi9hty6POcdRzomWAk+3b8qvsxRR71tLAw9TDWzvEdzOz3J9vc8AM4VvWtsub2tJzg9M7Dpul0bwr32Ci6+7FDIO7PBi77WGBO6gUJtvaq1ajxJvf48ZRGGvTI3BL4Qq5Y70OxavcVrVb0g8Ou84ybbuucZIrzxI4i6UCNQvREqZT53STw+hzg7PhvWQD1FPrO9a80JPQcBIb6cMSa+7DZhvUq83rt0IJO9TlRtu2FKgTxHhAO8Ffq+vOdhXbzg7fC82Q6DvjM7XbxmjjU9nWgPvW7+3r1gx4C9lkfRvWLUgb1HWt895FaUvU4bkrzPNcy973mrPZcvUL2sM8c9DxBOPVihdr0S/nM9fYYpPXRzPz2177c9di2KPnOBpL4C4pA8a06gvRjyvz2PA+Y8iiegPOPykj3wZsQ7+saMvCbGvTyD4WA8Kq66O3TOKz3KTJc7eHQ0PIchfzyj5vY8LIZkPTxm2T3Izga8XSUNOpPAgjyYK0S9P/0OvZR+5b00/ys97httPHiOob05VEi9E8tePWCopz0pPU28QUt1vXPaFLzkl545MZDMvPrr1L05iIQ+",
                "U0qlPcwcxj1is5M9q15avLvIPTwmvWI84ZWgvVXOmj1uX888VOBoO6f9PT052q89LSauPJM4+rzP/i09SU0zvH1SyL0lddS8zfeKvaQWYj3gh2S9QgAAPTP3Ub007Jw93pcLvkRJ0r2XYZM9JIIYPcooiDw9ri69rjsXvPjVVD1LMFY98JH/vCTzbb1K4Qe+S9CEvXnkAz35pYM9BZ2EPI8UWL0WTbi9Sqd0vX7ii7xiYwO8TKfMPWYWxb1hmk49E3MEPX9DED7L7nK7V8y0PWIFt7s6odc7fyWUvbXxvb2GsmI884TsPQ8d1D2nPUG9FUo6PQGimrvuuwe9zNwFvmC7Xj27Xdq8Rf40PVm/DT3eMAK826LzPPusMj0zEum9wsmxPVFgXL6vn+M9nrSgPMGsUDzSeSA9Uj6vuqfTCL3aSCK9JSoiPd9Irj32E3S9cjfSPViZQL3676K9F8jKPK7pobtaGiO9Y7yBvXfhYj1YaJe91BPLvTsOeL3duAg9KrkMvbSuoT2X+hS99Daduxjtub3jYZc84FuhPO1pZD0Eb+Q94x6IPLugr7sY46g9Wvp8PQAKMTzvYji7WlZVvaky7zxnY847ID4Vvji6CD3VkKi8uKiTPORKBDy8gnE+3D4CvcfN9Tys6pO9gRsnvB9g8D3m5wW+LzKrvFm2ljn4UKG9t7U8PM/bQL4iS9E8zMFJPuVn8b32vby7GvfKvHPBLj6ysmm91b2NvRSSXT0b6la8nG/RPegS8Tz7SJ+8vFU+vawm5ryvECy8XrYLPdm+P7wfbqW7MpEYvbI5dr0Jcw+8d2AAvkDw672NCr+7zp/KPD4g6D1VLtC9oFRdvE97NT1LKHY9tMNCPRxTw7x3X5E9/J0lPQJkJD2+SlY9glD/vT9Shb3DID+8flKWvRnhArw5pQs9X7mgvWGgDLz/Qca8o6BEOxjSmD20Q7M9TKbnPbQkXz0Aqss8ZEoXPfcX0j2Dq8O9pXOqPEB3FT1Sum+9DlARvjHnqr0w8R89",
                "65RlvZA9Vz0hwua9Bn/3vZZHY7ykgfE7Ok0VPaU6trxltjM9ItOyvIAQmT1lD1C9rM0uPcaWXz3RJCa+HLEwPbumTT7wppc95lamvO5HpL10kee9gOTIPD0iyb253XO8NHzeO9qsqr0l2sA9voOlvdDVoz0L6yA8sQ+YvajEyLwiMbc9bJ6svOuhEr29y6c9hwPjPVGHqj3otNg8HAvXvU6TDT3dBMe9FbyzPeZ9L70ADge+u5XEPMSxnb0Zc269dOr+PAjI7r2KAf08C+mFPUoypr0Jjyg96V4mPme3Ij1fUYY9I/KpPfOEUL1kgwC9NmvlveIFT70QncA8vpAqvtntgr0D6Tu9b9KFvQFCkbwl7qw9QEGPPLpnIb3O1gi+XB23PAwg8zyGs5W8kk4BvsffCj2IKJq9lzSHvatuBr1TJfK8YdtuPErcXL1PLoE948STO95/pT3HWGE8EkaAPZrEcD0Ko8A9ueD8uhhjMj20Dy281F0tvm7bw72fQRO+bYSJvOc0Uz3k3sy8CFB3veeH97xqA6w9jQjQvXWuvL0+1Lc9jEYXPUgecTreOda80De4vNNIgb2zspI9/9TEPe49Kz54srg9CQjYvO0mvr2UqLw8EqPhPc+oY73nrk68xKrkvSZCmz0YgtK9GRxrPcf+Kz3f9tw8kPRGPKIrlL2RIM+9qHJ3vZmtuj2mJKY7/FOvPYVJELwrWmY9gdevPIsJLz3uJru9TB91vRCca7yE/fo8fZxuvRvyZz2/uq09v5gyvbfpKz10vxk6Yo6aO9GTPrxUFRq+7DPivJ6zgL2vn+E99eJpPCPmcb02sdm8ZY3Sup7aCL2erY67efdRvPjVTjwjArs8yB24vTLuYrxWHU897p2ZO9kTEr7vYMG97dqUvZCuCb28srK9e0SAPTs3sbytAvO8Cy6vPCPrFr70nz079StpvN5KsT0cU7Q9L6aou1bIUz1UkK28zwZRvZxo5D3ReqO7TDSJPT0lAb6zBdm9r2edvYqGEL2cqVO9",
                "FCm7vMonnj3Y/6y7rTiWvJXOkL1jEKo91LAlvKBArLz72So8RsWQvb4nwjwjCWE9kQ+FvWzE0TvIjYc+KCWFPb2ChT7JtGu9YtFwvVES/z0SPjc+Vn3Pvd0JHjxpunm9mi/dO9iNGj13tsc86QHrvNCUW7yiMRa9ptDGvDblkr6Xcna8PZOgvO/TTb1mzxA9tvT+OjuFvL33ccu9MXlLPg/nS7w44Ca9ZGYqvQhU3r1/ogg9tNrZvdtPNj1vg5A9fRLuvE9DFTy9f4q8vGZBPeuUZT50mTu+c/OAvfwpKjuL8y8+zU1fPOeTBrvbFAI+sToZvUHBMrwxs+M6SffIuxrOCL2Ggty7zmvju8a+ar2nvUI91A6jPfsIVb06ZRG+/bHYPTuE170qRnu9E/DZvFANbTxvJao8rFurvRsLrL2IUbU9Lch9PfyzN7sIidi9J++CvbkOoDwuawu9YpImPKkEcL0V90Q993oTvqY+Xzz2Pk+9830wvj8joL1saEc9Efk8vUBm1Du5S9E8YRKCPZTYg70rFRm9WzDdPZwAhL0V5hY9GMMDvLx/FDsC7V2+iBoOvleQnrzyREG+lcSAvUdd2L00uza+o2l6vWdPDj4eSpW8JZhvPcwWib2UuEy9x6XTvWWFpbq8WEE9yOccPFmkAT3qmm48jIVAvXDNAj6aGb89JSAAvBFO7z1Y1Ru9dTj9vfPUe7yb5w6+V0uNvdPl8juSWbu9BbrKPckxWb3Q0f+8B4kFPWjB7zzjQZ09+XACPS+G6r3oWvy9ICnoPWl6a7w0cIo9PbhuPRrDvb2HIUu9HGoiPUPIgrx3qbE9qNjpvVlXFr6kQPA9zIwivfx1Az1GA0e9yShGvTGGWbzHE5m9EIxyvUdqVr3Ph5q+ty7aOxiHfT0acgi+MiG0vSAEpr0ae829ApYiPedmFL4+ukm9ImvAvHzhvT3Wmtw9mFH2vKQsBz1lCCU9mTa8PQCc0z0yCl89Z6aivYR/tTsKWoM9zg9FPaKdALziVAw9",
                "+JecvRv4kj1oJom7pX0lvc+CUz2dJsS91KiwPF9+mT0r6e49mRz9vFC6eL1zbGy9xxMVPPlrgb3bJ4C9ktbCPVS2Zr4s0ak8EBPtPSXliz3WnfK7zzqovdyuv73ZLT08ctJ+vDpEY7y4WbS89hppvTbw4byaPlu9MnCovKg9hTz7PhK+TniVvSHP8r3Of36+cqcHvPv6aLy3UbG95gJzvULMRT0M9iW+svUEvP92BL6x9IY9vIm5PSSQGTwgHhK9URLHPaIfcT1AcAa8qcIEvkwR9r1yNSO9jH4bvqYNk7sSmE++CUfxPLC1Fj3xTPy9ZtMIPtpPrT1XkM28QJ/9POgZ7jqmXMw8KcdHvPNnK70PH0E9QKJFvrjJ2T3z5uK7ximOvMBkhrzq3oW9b9PjPLz3DL4M9S49W3oSPoiJ+rqCYxa9MTrMva4EerxtsUa92iMSvKJ1yjtTkQW+tJA6PcfqTjzk/RS+ZeQNu0E6mb050u897m35PIAjU73eZnS8RNQhPVxNOT1uw5G81iyAvO4UuDxd1re8/wxpPOStw718hAU+cu2mvQPxRb2yGKK9Z2cTvajznLv8OCm9gZkbvdlTeL1xHgm+7ODSPHAscL2yKP46y5LzvHHqEr19UZW8PsOXvNzfXzvIVwI9O2HjPG07cb40QlQ+NI+Rvr+QWj4MLJC8MbOnvMIQDT4tnXI95ouOvGTZxDx7zDY9HXgUu5bXfL3PSlC8lNUfvepsDr1Sews958gkPMRvd7wFwMW9ohrDu5rpq7024J+9slaoPB9Tnz1uoh09H44yvYjQbr56WYG9GW9EPcvq+L2dcOS824Wzvc36vzpUKMG75v9ovfeGxT33CYo8wSYGvtDqv71H64q+S/RgvCoHH71/QCE9nL8bPhTSID6lHHE9tSsQPvYrsryrnYi9psUOPJ499byB2JA9Goi0vI23Mz00a4E9AOpyvfczXr7n+CM7F7IQvhz1wz1zKYC9+s31Pa0tejtlQIQ9CUijvJUzIL3h0Jy9",
                "xX8bvdWfuT3lysS9sSizvCrB5LzZz749OCWpvWFRKbw9tkK+3D86PBhd6L2EE/q9C5gYvv2rLz0+qCa+JwWrvW3LLr66H4g8eydVvZvWpb1UPnk9Z1oJPRLAvzyNe2k93WYevW8kjjwBuLI7PjbqPAiRvTukiTa+QszqPSWULz4l+xM9K8fVO81A8j1mh369dVCOvZLRUzqjoIg9DruUvJCWmDw+XzM9IbFJPQZTGz3c+UU8hThCvP3oaL6fGlQ8tVKwvQCqOb72yiK7r3lrvZxZIb6NgOq8E6Vkvvrucj0Agks7ENsZvYiomL3zmAG9phyEvSJojb3sslm9I1LnPTJkLz2K0PC9ZjUBvd0WH74sN9k9M8BdvRbgtT0mO686IyaAPI3ySL1jea89LqdIPT9DmDyTP2097BPYvHRjer17pQ89fukXPXTqkrwryFu5v+MYvZ+qsL2C+pC8xQ8hvQrBlbwgLI09uawCPh2Ncz3xfB+8PUxTPfGAhbwDwrq7ATxHPAkGkDyQvNc913V4O2tAlD2maJk7nScUPXxyAr1bGBK9AQOvvB8Ior1AJbk9fdKDPaGl4DywkYy9jkscPk4y7jzWPWi8cjtevBsmtz0xTyi8pmlnPfaCQbyPIV69wE+cvdKAnz2hmHG9tscZPrlEcr0iEX+98nuTvSkforzMZoG8z+MCPRNAnD2JaV08yEs+PTbsWbxXgxs9nJzdvHZA5byWs+A8bRcjPaALCDzi3tC9tJ4ovYJXADwVUMy9QQyBvBll0bz1H7K8D/l5PRY0ID1eOxI9pWJcvhRHAT1GLNQ89K4cPZv7A70He7y9oGahPBOMuj1qiiA8bB0ZvNpafb7dUkA9yDrkPY3jq7ymDT0+052rvcqyiL3N2UO8Unf1vf5kvzw/ZzS9xLzZvfJ5Az38dJ29sVTRvWdGDr1uubW8R1YUPCClojxg6vO9pHCQvZJoBL7VOdk96MuxPAoCvj13gaq9IZLfvBh1gD18aYQ9XexIPeigpT35dBs9",
                "1EtuPUoAYb1/uli94/+sOj0GXLy0/Gi8e+LxvRuN0j0KYpO9ErIvvulBi70aiYw93I2JvF3G57wTLxe9qNZcvXeKWj3Z58E8qEbiPZqgkj3FLMk9A88IOxukDj3cNls94fCKPAIloLz/A5K9btBnvg8f1z0wMYU8XOn7vShu8jvbxJU97+Q+PY3q6r3UzUI99OzOvIOzlruXmm49xmKkvc6udLzBgD89eTGqO2t9Hrx0H3S+5HQ3Pc4l/r0rrEO+qpsCvs/DHL24t4e91yi+u+FiAb5rioO9Z1cWPITWFL2d67i9XV/QvWGL2Tx7bQS97tA2vYYZo72tgLi9Ft9ZvV7DdrzPQOe9LSn8u4MbKD5Q6Yo9vgNwPVGMIDvWDYG9DhXbPT1FED5BIwE9UhpQvSNXbTznH9+9PROIPTfUz7uQFWI9VlYhvWU//r2MKyu9FY7LvVhGM72l6wC+dTLaPcAvLb374au8ftRMPCcter0+GFG9+7nouxylCjr2tSo9nRfSPVlLKr1feuM8ub+FPQS27T2V6re9RjG9PRNm3r1F5bS9DOOZvfeem73IRQC91TitPGW5+z0GS9i9ZqChPDfhUb0jjGI9tJggvU2uUzyVjX47ZzuQvfACFr2/Qs06+cKRvQMKLD1Hu147MaxUvvJ0lL2lxRc9VXmmvG9bZb3BUVM9WqyOvfm37bwFpF29BKftPFUMhj0rAcQ83Lh0vbL6BL365J296qvmvC88hT0C7ju+NnWYPpN/WD5svwE+5VfxvCkE6r0albY9W8mIPS9mZL1j/lk8Oq0Hvk6IJ73h56O8tqq7PUAKML3PTvA8kv0sPZqVl71fKdG9lgm0Pd0nO7sSMGA8zNuYvQhnWT1olOK95SUfPN2cBj4QDWQ8pgoYPe9KxD14SgU+6XO9OR7eKDwYNq09x+kiu2mafLw2V2w8N5h9vOnSCj3EV9e7EYsNvcYCDT5r1sE8TqYmvUPOs70ZV2A9r6yFvXjimzvbDeM8StWFvB5tPb3Xqvk9",
                "tzdKvUdpx7voMOA8kaylux9BYb4+Vo2921mOvdO7xb36uay9T2wSvXKm5DtmNC49wF0OPmROH709/gy+MkphPEFspr1uI+k8GCGhPTcGMj1xQHW9JrnDPfW6m73Qwxu9HlXRvUs+c77qeg4+l3wFu79TiLzcfL49g3XAvBzzhrzGQ9G8lwFTvTCBcz2QEXm9yhc2vQ0IADsxy5e8zNuSO1uCwLxrGXe8jdwqveH0pD3L1Iu9UBtKPncUZLx6VnO9/NfgPfHxlDwXcI89RqPRPYLG4Dx0yiQ9DwCOvQPNQrwNjN65epyKPavShD3B5hI9qEYxPTuUQD3eNdc9XbPOvQDogb618iu9x34OPRhyOL7z3lE7gYX1vaxCDbzd8Qg9VqTqvSSYhj24/oM8sYYCvY1gjT17wGa9SKE0PDXbvr02OfK7ssV6vGByAb5jao89Hc8GvsDvoz3xZrq9jryGPObS7TsJ1YS9i4spvRLBM7zFfY682QoxvR7TCb56jMw9NzYGPR6NlT1koQa90NEjPdRD0z2KTLW93kGLO2nWiTzgEMC98l0ivG32BD2xkOM8/IFJvQ60g73k8WE9F2f4PKmbO70fXhQ8qzjBuiZc5Tw8jlM977mwvW132r2mfDw91Z2fvES7s72cFSG+OmtJPJAbnLzFQd48v30gvKj/AD0zdcm9celbPD1ZAT6Zu5+8L7kwPQWgt70VPmC8fieCPZtbFT19m4s7Yq9mPO7/VTyTzpG8rRN3PPoeAz3f/6E9lSeRvVJIx714Vi++xhbKvaI2pTzqsg26UQsMvDB4Ob3Cnxa9mpw1PRndmzxlUR297GDqvc+FGrx7NjC9eXS8vTQ1Br7KOOG9HBYTvjUPCrwb6eg8208qPPnQ/7sbJTE6tI+mvZjXLj0+W9W82fl/O/P9Kj35U4O8LMvmPH9Ahr1JHac9SmsrPKPPxDzowKC9M6AFviXQAL6G/PK7cL+8PM/D2rwFW/67omSGvMGTFL3QEa89Jnc/vKokgrxAh4e8",
                "aJSDPQJ6S70NNaq8jsolPR7/Kj6DQrC7rjCNPOy+jDviFgu+Grw4PQ5Asj3R+Ie9e3XQu9OA271tSRS9Z8gXPSwu2zzsymM8u7SkvQcexLwI5OM80Qx/PCrTqDxw2Aw+nCkuvbMB+LypFLI8r03JPR5ZnTrZ/mE95GhAPNhYWr0z9d49RTMgPPISfL0wmcG9MBU6PZJLpr1vlRY9FlAVu5UTMrxYxoG9Id+iPae0Db0mCAq+V/ibvLkolryxL0k9BD8mPWVfzjxJ56k83mMEPV+2aj0a3IK8E9qIO1ey4j1aZO88rD8ZPVHuIz1nCL46Vhi+PdE1gbwdBBS94Z6RvYfoX72NxAY+dH7NPD4hFL1ChJE9KqqhvH6H7LzJipS8/ZrdPDKA5j32MBA8ko3APB2pOzlATpw8676tvTUE/rwJDgM+n3TtPc1kzL2Wr9u81gMdvlpOQj0k6Ma9h+mOPbOdVDvJyAK+WOswvMDePr3A8+Q9hWOTvIGfb7wdNyk9xy8LvCoi47uSbLq90KVgPRmsBL4ZkIo86d25PWjPZTxf6ag8cd6YuzLS2D2J9Ua9iXEQPQZG6zwET6i9W/YWPNwXsj2PEXQ9cyB3PQ5oYLvRIXk85KLjPAvMIr7LJ3I+aepkPIgMJL3F4DE9ILmqPbhEWb2Havo9eN7TvHm6Yr3+JMK8o1siPWyJVrmKlWw9kwv4O6ddprxAyaO82WWlvfYRdz0yORQ9+rDiO7+g1LxiBKC9WSnXvLPhuD2ORvu9pCUYvXIY9zvM+qg9QChvvQjcZLwLXiG9rCNYvb8ZTrtgP4g8dJbBPQhrCr6euPu8dWGyPXjdHr2vrGq9SYkQPayfYj1YGj+8+KnzvLV5uDyzHqU96EUtvMqaaL1ltFu90+4OPFPp3z3UHiQ9v5QBPHH7qr2hwz+6SGydvV23AL38R7G9Kab/vVye0j31DSa+a7JEvCPGoDxqcBS9uMQDvCiWbz255Co+fMkkvYqqnLzQJba88WgbPQ3gCb31c5W9",
                "k6cbvgKTAD4+I5W+/nj7O5kZBj74S7A81QkPPsQ+zTyb+Vw9J3SXPQWPBzuHztK9syahPJyYszxyVFs+oo3dvFmXyDzSEqU8Mh78O6Lyir7+JN67nOlpvd3nDD7Mlis9TIO6PE5Nzr2QiT09y7sSvb/BAT37lS89rtwBvB43dTwnawq82iOtPQjPFD6DKvI8PyiCvWCvmLxVDxq+W6LivEo/Uj7fb5S+JkzBPRvgxbySnI094ihIPcDaKD17CQA+kdJ1PHhraD1EpSu8IkcoPYWmszw87Jy8hVsrvSMONbxlCzC9HNJcPc8SFz36jhO92kwWvjHIpb2YKaw95z/ivaoXlD0f9rk9laESval7ZL3vUeO9nJqOvYyzFr11vfC8ZtQ7Pb28sb0Ce1E84zJqPW5vOT2tzPC9MaYVveOasr0rI7e8lpxOPVjJDb5zNi28qlJRPpYJtDzkhaE9l4XavHnLSL5dWPm8EGANPTjYKD1LNfm8Fq7NumwoTTu8oMQ7zLZMPGQlpjw2Fse7yXEovdwajj3QtLq90JGmvZ3Icz2u7w+92jIgu5cy271iabu98NMmPQnYH72CDME9dtx6PIl7zTtebx88EH3avaJppzxxuvi85PilPGReu707K9S9R6S3PQ15PDy2fRE9TingPSH+/LxunFA8bhekvBBdtDxnSSE8zXauPHyURz1NHVK9PyfEPWXJRr2eqxq9L+QdPZYvMr6+3JS90IBDPLDfHD5rat08vxL8vP9NKD744eS7UFrOvARxyrwFnsa8y/rSPTQdpbzmWh28MJxfuvSNqrwdtjC7ZeX7PKvGFb5if22+v+zZvR0lfD2elEy9yplQPUFYOL38QHu8tCxDPcqGzLtEVxW+5VKVO8nAsbxHokA8WOQovW2Ni71rK0695mlEOk0b77sH68u9kerrPSz1s72Hq788T7kfPRMlyTx5Dxo+/ztdPJvcn7zQDT+90rlSPalDij2qLsi778YbPdIqLD05e7g8p2ikPbKcXr0MHmC9",
                "sPWMPS/O7L0Wd4g9qWWuvS17B7xIoIg99iuVvUOEgrzrbwa9iPiAvaHfPz1FBZW9S45uve3FarwY17q8JuAMPYBVE7x3ETO9NVuOPP9hDL5Xszy+A4lnPP0DzTm7ekw93OrIO32Y7Tx7tpm9jB8PvQlAAbzakF48s73cOyKX+Tvr/Bm9DoBoPBa7Db586Gm9xeQCvkUwBD7XDng9icUIOnBFzD3lzb07DoJqvbILmT1EbGQ9PX6yvb63o71sQlU8RRVMO/Uk0Lx/6Q49FHQiPYMzuz0w8Sg7+FbhPB0P5b19Zi897UpEvrNTgD6fwhe8SUtNPbWu3byVHSI9GBMzPeLgtrxJKtA8WW8tOh52xTuy+Sg8JLf8vMSNvTuTAjo9DetQvGCAkrz2Zyq+cZOQPNY3Ib0e1PY99gZuPUIZkr3qNHG9vz4OvcasOr02ica89aWHvUeRQL26cb+99ev9PL73rz3zM2w9u1CGPCZFIb3QJLa7voS0vYH/IDys7pe9a4eLvRUACjzejPo8ePw0vo7Aa73YzY48NOjLPIbQA7xBZpQ9EYWzPRX8fDu4j1a9xCnRvM2oIbxALSY8pclGvOBdubyIPFQ8bpBCvtbakT05o749nVJOPY1TjT1lAY29qBUgPPI+iD35+Yu93H91PHBfkD3RXGk9f60XPZePmb2PEDO6fLBBvX6AXzzOGpq+lMbLPUNBMb7B8Jq+0j1dvudmzjwbfE+9hUTivbWVrTup2IE8gBViPIbrj7zXrcY9iCSJvMsVK70+KuW9uK0dPWvHrDxxKYA9pHjhPT4zIb3m0Z+8vGOtvZUlpL19LMo9TIsEvkLFg725zCS+ctasvbhLej3jEua7Q5IGPe3zmbxLbYI6CDkovTUFf7wgQWC9wT0wPOEZDTtSP1S9737AvZ1I+L0hEH+8H3UuvZMm47v9Gd09hkSyvTx04L3Sfcu95C0nPHv3D76bn0C8mzPJu/Jt9DzL+u48+7P8PMYkfzx8Xfu9McEcPduRPz6ak409",
                "HJ+hvSUVA70igCy9H9aFve/2oz0m/9y9+vf+vPT/n725IJM8IQJiPec+rj0VRWe9s0VSPRnyuzwUSTS8rAGHvNkCiz0iHdi9+VzNvbNFFz1L3cu8XZkmPMZB0r19Y/A9YVv6vVycFb2XFzy99R4qPUhFJLxHRTC9oNkFvWUzYz0w9oI8Z9yPvBhzor1khII9gOfaPbimRrxZDZc980Ufvd8mbD1yYpK85VH1vao1Hb3uIpG9l4EJvZCXhb0UIFE8S3pCPeggu7xjvze9mxMHvc4Wkz2BYhq9Y8N8vVJBDbxifry9uPgvvno03bzmWAm+wOn+PLWzkj2SIEg9aU/LO976tb0YqXO8QnS4PXy8Bz1GzzK9SzfPvcfSg7yE+sO7yGRhPSCdu72brEs9nXUpvWVsvDxidXK9aZegvLzxTb1M43Y9CbtTPfunoD2T5kQ9PWSevbNP4zkV8bi96+TqPRFr8L2IcYc90HG5OyNsqrv/iW49RjT5veUCD74W3SW98PkYvXx7L7xEPDO9zewMPlD28LxKng49gmyDPZvzoT0cGfY84eQxPAx0jD2jB1y7zceYPVinZ72jLy29RlBKvXaupr3STRQ+RU94PM/0hL3YjAe9r/20vFvSmjy0R0a9iCfKPMYxeLtHjIu5BsgrPH2m2btngEm8MfkoPY9dmT1M8nM70HpAvgAFjjpmxvC8BQ2PvcYcOj59Pdu8uz81Pbt1LD1y628+reytvRt7Yb1zVYu7Jl1ovETwxrxlAKC9B5ANPTCIYTziy4w8Ult5vAdeSr5ovOG9aNjzvTcKZz3z5gM8TkY8vbohsz2OnzY9yxaqPFCGvD2pYIC98OV0vD8LkD1roEa8eYd6vNTWID1UwOu87yqNvZCdXT3Us/G9mmauvUlAxT4tGzI+iV8HPrM5hzwT/NU8wFGxPaWOzL27q9O9lh3Ru97oXbxqPpO9p3RPPUMXxbv20CM9GFwmPdZrMr2pBhq8rWwXvn9dZ73EIM49n0TfveBEsT11AAK+",
                "+UaUvbqFDLxCVcI9S0OKvWlygb1n0Oi77j8LPjZeUr1vpXW9VOWOPetlyTzNjgK9YuWFPUmdlL01pgI9fd8dPsSJAD6xyQo9X8Gpvf6o/bxl0Um8enQVPku7zDug+Rs9byipvZy4kD2zrh287/bMO+xS5jsn7Iq9YTmwO/j0uD2nDga+Mh4MPtFXM7z9Hms91AnRvEHMkb0Ms/68sd1SPT8jKr79l309EuqEPb+wnbwPYeE9m12ivCRDNT1DS/A7OFoKvenPK70e7oi91JF8vVUwCI9OWgkPBa8HD9RNCI/g9wiPwdIHj1CdB4+fAgmP0A8ID4hOCI9gQQkPPnsJD+xDCQ9VyAiPBpgHD96ICY/7JgkPJi0Ij/BdKr66U749jXRzOxeC3r3DNMk8VWK8u0S/l7yoTHU9Xn+0vapz0737xDW9B+FwvLyhLj3H5RI9waZAvP33Gz0+exu+f5SXPJi/p73DjiI9gMVpPYkthr44mZc+5V69u+yUCz0f0vs9kqAmPWKNXjx/m2y9cZXXvNVdVL2xsb88C8uIPHo5fD2dgHu8Zyi4PKTmwTf7J+W8HiWYvqW3nb0CS8a9dKCWuwInZ70PKfM9VhBnPaFSULzLUpW9MUe/vXhOZbxV5W49z72MPSbAtD0axI09A+tMPVCgLbxGrLI9dIQGPowRe70bxrg9JGsOvQADVz1hSvC8vXyLvbHn3z25KD+9XtBMPRuhrr08LS48UxmzO8YNx7sH58+8iJsDvWudyzmcXQa9mOT4PeTD9DwW5Ty94q70PPO6cj538wQ++28PPbk0djw2pKO9CNGoPcDsuj0B1ga9Y9B4POg4xryH8ho9DqGKvNPmID0CwBq95DuaPHukTb3/zA09NlA7vg=="
            ]
        },
        {
            "shape": [
                130,
                131
            ],
            "weights": [
                "WFYmPFqggbtAsSu8cC+zu1L6KD2noqW7RsfLve48r7yigbm98GMDvWjhQb0wdZM8UV1MOkZENzzOeAE9D6JbO2xYhbw/ZT097Paou0kW2boo1he9b1LBvBN3/DuYqsA8WZGdvJfS+jvF3u68o1U1vLN287xeQZW8IGWhvAMlYL1uMaG7n2CMPCER2Lxwivw82JfgvAYTL7y4noA8KRFNveu8hTsItPM6v4z1O59T0Dvm7KS9tM/pOlhvf7zG34c9MYEwvHB0xrs0wUE7gb2VvGZnobzcYzq9R+TxPHEFOzzPlQm8cnXGPEmLoTuPzeG8s5wdPYYEO7xAJvy81Hb7vMeOlzkQUjM6TZULvehXqrwfe9y8leoIvJ0cCryLywY9KbdbvTb6dT02STe8GIwfPETjGbxngCw9C6LEvMpkFrroXUy8mlEivM3NAz2+Okq7p1z6PJcYz7wHVlW8SYYqPZVoorsExOI87rRlO3vtMLy/eBS9tZacuxTPx7zkTqg8R9OavJeltzwI7BU93YJFva5n8Twj38O8DcyIu6STarxXcZu8wR5QvAKMybxMx9S7IKCfPBVmErxj3vc8FikkvVNMD72B4IY8E1ExvMdfW71uzwO8YrH2vG3Kk7yYtf67kkVfvBUN9rvIBSo899CjPQfWBw/ngYG8Td0wvC+2wrypjIa8z+IEvWxgSD2QhAmPRIMHj8ZZCI8MAgiPKt4IDzCAB48IlwePEbQIjzd3CY9VqAiPi3cJj+zvB4/FLgmPxkMJj0EHCY/9BQmPBZMID4tICI+fswcPvU0Jj8QOCQ/MBAmPiygIj8hSCY/nEAmPTiIID6n5CI9BmwiPMT8Ij9fGB4+PtAePnzoIj1YsCI/0eAePiToID+OeB48diwiPr64IjxaVCI8cYgiPEksJj0NKCI+rPwmPbLwIj9hJCQ8HrAcP/LcIj7ioB4+OTAmPpPIHD9xhCQ9KyweP0uAIj2PbCI+kJwmP2UQJD+CnB4/BkwiPqgwID+weCY/UggiP",
                "cA8JD1HKBw9BeAgPYksIj0OZCA/BtwiP58kHj1GqCY/p9QePT3UID7rFCQ+gWgkP3UkIjzFuCY/ICgmP1f0Ij5c6CA/TWQkPbqEHDzXlB49uUwiPNkoJj//wBw8OiwgPTW8JjylWCI9sCQgPs1AIjztTCY9PrwiPjmAJj4r2B4/AIAmPjCwIj8rRB4/CyAiPV+wID3uhCQ9Y7wgPBakHD9PgB48DaQgPkPcIj3ZACI9SCAmPHAAJD+NCCI8WogcP0RYIj+w2CY8OXQgPCVsID0clCo+w6giP8W8Ij1apCQ/7FgiPkxIID3ZyCQ9CEQiPb1cIj2YoCI+1qAgPZPEHD5B8CI8k5giPqJIJD6olCI8QcAmP2KczvWtzk4/wOZOPNuySD7pbk4+fHZOPXN6SD5g+k4/pHZOPfpmSj+58ko/8I5OPb2qSjxhSk48qYpMPhpySj0U2k48A0JKPYoKSj9OKk48mV5MPlZOSj1lfkw/cyJKP1K6Sj0YUk49C/pKPulOTD/hLkw+9o5IPePqSj0Hxko8a5JKPy4GTj0+Okg82TJOPeuuSj0piko+0ZJOPnfWSj4t+ko/MAJOPutWSD3aCkg8zHpOPmPeSjxXFkg+gepOP+DWTj/xqk4/lbZOPNoeTD/HNko8+bJKPLb+SD07/ko9KHpOPLgSTj/4ek4+ElJKPEEqTjyekko8dcpOPp36TD/mkko9RJpMPUU+Tjy/cko/VT5OPz36Tj3sQkw+gepKPqv2Sj7Qik48yUZOPu7uSj+xtko/rUZOPliOTjwfHko+M5pKPtd2Sj7WKkw9sa5IPVWCTD6ZZk49tlJOPYxSTD0/tko9GgpKPymiSD9Vvkg/5lZKPdXGTj/hmk496gJMPjHGSj5SWkg9205KPXIGTj1EPk48uIpOPlJCSj6oRkw91TpOPBhOTj5x4k4/Cg5KPjQ+Tj7Qfk4+lr5KPwxWTj8Nyko96WZIPdEqTjzwDkw9ST5MPtiyTjzHJko8uKpOP/LeSD0Wnko+r8ZIP",
                "uPmSj2idko8YzAgPBrWSj/xxkw8F85IPZtaSjwkrk4+FQru7Y/6dvFm7eDyGFM48FvPUvN/glL3CSb08i5CBu1LLPzynDlk8E0wKvLZ9GDyGaQg7AVVpu5k2dLliX4860lcWvfBXsTuCK5Q8aQb1ubzwVjwfvVu8w3wUPdVv7btRa788tGgava0zib0xZ3g8c/+7u+Tbbjw9wx69IiUWu2TfH7wi/pO85LravKJmPTyoMFO9SLiRu/NB9ruD4pm7I4uEvEE0HL3QCu48sVOvPHfskT3+v5q56YiDvMP6obyhCp08/6Mavbuvxbxkjgs8bCuzO7fSzLyMiS29ZDJsPArgDLzTYzu86gTsuwNVF7w+f7w7qLMPPajMSz29GXa8/axyvLlbEbwzi8W8wls2OiM4Fb3j+n+9lDrrPN+c5jxsHvy8nwesuhpJ97zVCYI9Pd5wPPnK2bxUbXi7/s4IvQ5HCb3tdCA8EGclPBantLzFTaC7XM3yPGHKwTych7I81EgCPVxbOLz6t0K8TLGHvLv23rm5B7Y8rtOku2Vi5byClpy9yuSsO69AxbyfV6K8GFQYPR8rITxRV7k8XTQqPBi7V7ywvzQ8ia15vC4NpjzsC0u8y3WFvE4TFL3cMki9VJWIvA2X5LyGNPY7vvGzvFHPVb2uD1k9Q8+rvIlpq7xFzTe9gupjvP8T2jyodBE8lbXMPKB4CY/WvyY9rQQauygAFryAI8e7ynJfvCKSITy2z5IPJJkEjzJNCY/n5pOPriEIj8HOk4+Ir5OPsYyTjy97kw8aCZSPztSTj1AJCY/KRZOPZjgIj0RSk489Z5OPIkMIj6WHk4/NZQePxoCUjwxFkw/WtZOP2gCVj6B8lI8iX5OPWE2Uj/C8k49Cc5OPFrsFjxbJCI8MP5SPlCaTj/08lI8hvJOPtlEHj1fik49fLJMPwvwIj2zUkw+4wZMPq48Hj2z1k4+QN5MPnHaUjxGpB4+NrZOPKC8Ijyh4CI/uqwiPbMeTj04uCI/QnweP",
                "QM2Tjy25lA9hMpSPsSeUj6QRlI8cW5OPjcQHj+pMlI/fLQePWleTj4NPCQ+JwJMPiWaTjx9XCI83oAePzJmTj5Ijk4/1L5OPJnSTjx11lI9rpZOPI++Sj90yCY957AePO4oIj6LNk4+1bwePja4IDz0DlI8bYpOPUEmTjxxrk4/+wZOPZ8iTj0WHk499PQeP5J+Tjy/Fk4/8dAiP5+CTj7cXlI+bsJMPV/8Hj1zqk4+t8AePAKaTj4PLkw8dn5QPACCUj1qBkw+MdQiPIl2UjyqNB49KXgePVJQIj8TTCI9NNJOPcEOUj0S3CA9US5OPSnIIj30GlI+/Q5OPoPCTD/AdlI9fzAWPbjOUj0lalI+FcZOPL4OTjx/gk4+4kZOP9bcHj5vflI/FNwiPZ2KTj9p9lI9SNJOPfPQ1vVXVkg8KO5MPxU+Tj6ERk4859pKPwFeTjz57k48NkJKPJLeSj5hoko8PGZOPatiSD1drk48RZZKPgvKSj8l+ko98e5OP6i+Tj0doko9mIpOP8IaSjzLGko/+OZOP/eKSj5+Wko/EYJOPpmWTj8ewko/nk5IPd+mSj/FFk48ha5KPl5ySjyq/ko/dEJMPdomSj+vQko/w5pKP9WOSj2/Sko9ywpKPZAmTj1V6ko+JIZOPkLeSD70mk49JepKPnImSj/Vzko9eo5KP3JSSD0aIkw9Db5OPvoOTj3zvko/NDpOPALeSD5Xgko/a1pKP7IKTj+Mwkw9vdZOPLlOTj1p7k4/n5ZKPNzOTD6+Ako8AbpOPQX6Tj66Ako9eqJKPq4eSD0kQkw9Qu5KPmnGTj4yEk49+zpIP+oKSj3Q/kw9c/ZKPcFGTD1Rvk48xvJKP0IaSj5Jzko9Z/ZKPyb2Sjwm4ko8vXJKPeaGSj3CCko/+IZOPkiyTD1KGkg8P/ZKPJ1STD6qRko/nLZOPsFuTjyZHk4+1b5OPNV2TD5KKk48q0ZKPN8qSD6Chko+DwJIPdneSD+R2k4969JKP84mSj/Ekk4/dQZMP",
                "lneTjwT3ko/ne5KPlLuSj9+gkg/LT5MP6KaSDwYik4//iZMPxMmSj7F3ko9lBQgPya+SD554kg8X7JKPUi2Tj375ko/vffG7mdABu7g6uzuFcj28sJdyPAKY2rvkg4k8tve8PFOEJjxnMD8+V2WNPFOA0jyG5Tu87e1KvEtYjjshO+U6X7a+u+Pe9zzn8s08/4Hju9YJWztINES89IspPdHL/byrNdW6D9cZPEXLHj2PUTG9lJ6XPIHfvjoMX0o8vDgAPQsaYjz0M5k80m+sPa05WLsQRKi84AsZPdSQzDos3V8824CfOlcP9DzxWbY5wFkEPecS+7slwnO7YocQvCo3XzzYYjy8MdEDvdpVpDuXaMO7lLyZPOjraLzSj3e6c98lPWgbT7xtOU88o8+8vNDoNz3W5D48SdUyvbGXtzsQoKg895urO/4CDjyMH5M7ufcEPf16bTyjZaw7cU99vJeDKbz92bW8orWpOl28BL0AMiM9C3U7vAKEf7wLMEm73V2JO1ON0zykFKK8aAc1PW8LDTyJHSc8tgbLvImB7Dszvms8YovyvD+YBzy0IYc9cQJwPIFjdLyRQUG8CrfCPe9EUT0BpGY8vRY+O2rfSTzIYek7+Ho1PQxyTbyIMKI82dz/O+FifjoWu0O5D7vPu584vTqwBps7cWBHPVUu27wP5ls907/nPDFaTby0iOO7ym8wPHBx1ryPEkE82YnPuswh6LyHIJC8lEeFPD5UULwE/h69CcwDvWubCY9Rp5I8j10GvepvwboCMsu8JlakPFZ0Rb7g8Eq8V7r/PPh7pzzRktO7Os2iu8gqTjwS15k7FoEyvNs02jsn+L+6Gxg+vMpu8zysACA9ciSNPPss87ybsWK8YQqiPBXDZL0GrJU82hdwvYakVz3R6hy8USQDPZGmLr3fJyc7bonQun91H7xDGX+8DF/MOyzR4ztLVT+8mtkxvJRvTj2TDw29utGLPdoHAz2QJjW8v+R/PD5WMLwjg7W8q+4cvaJBFz0UXRQ8",
                "Mvm6PCQXBj6Q2RS9l2VRu7dzFTy0G4a8kEW4vIGehDzTHcu6IKLNPGoW4TtQl7w87NM8vC6awTsgrCA8jRMGPSDTh7xPPM08b3oBPJsyQj17OgO9Iab1PKHM4Dskma85uGAzOzKf7bx1m2C7gUYDPfLx/ryK83o6MnBAPamgHbwVJ/A83Xlfu3mdy7zw76U8cYZUPcO1hbujdj68OL/Tu/7ozDzuWr+8sNGJvOrwO71RHFk93mlcPKO6Ob1q8vg8JvA2PW26cbx5IBy9/+7/vMaKvzrfAem7FixxvAz0mby+UCC9+HGOvMNJoLykoQm9iLfrvPY1kT1dmXw8encdPWfbDz2yAJm8Nn6LPIGhRDzIros8WtzfO9pqrrz8aYe8gUrXPPWXELzV8Hw9AnrrPCInVL3x3iq9Uq2fvPgxzTwvs1k7YI0Ij/pyUr0i0FY9wSn9PFNZAzzc+BK9h2TgvSMiUT3xLuk6kfX7PHCChrzddsK7BNWBvRZ5jDtJUCC6Z6rnvA7V+bwaVb25MoCIvMk1Tzujf3w72syjPNN3prvsqDW9wO2AvE/giDyfig49IdAFPdl1w7qxI9q8VEI2ug0IKD0vzQy8d+gmvcouYr2zDhM9HL2uPMDSCz07k3C924MOuwDzP73+B4g6c95IPcdE1Dygx8C8yVscvMkYezybirE7qPXePH5Ck71+2Zg8/wx0vUnMaDySd6C8tuePPZRIUzxZcw89IS4OPaBWFz3FGx48jgsJvYyGAT2LXZS8Mn1YvH9jBb3Xk8u8uYf+vCJK9TvVY/085COOO4ajiTzmss06kqE0PWdFOjyG3IA85CE9PDhRozwIMlE8FxUOO25PzD0Qcog8zjvjvGqXBz3wnhc8rM50PCpXHLxPIty8dW3UvNP5Jr2E9A+62D5IPNfgFjxpzB49FcocvL6VoD21CYM8BrpYPLn6Ozvej+E9ccXtPExaKb36Rxu9jbsoPfFMCLx72U09VITevDw+wrzU21A9fTNfvD5fhDvuyhI6",
                "jSEnPRywLT25IQa8MZl1PJn0Ajx222G92W6/Oyv9wjtubdK7+nEKPKXUWr0i1JG7TMqBu+KyKbzvjx291ioIPRPtpb3tB1y8bNVzPK0oBD0qbAiPSYlBvQd+Dz6rMSy82nrUO09pjLppx0C+osICumPr4jrwbYy8cDR2vLPkPTyGngS+kd4LvKTLnTwEKNi8u3jgvIQqhj2q1hG9g1OFPb985DzpoT+8oH2LPMM6NLw9qVo7kOEkPal/j7sCipO8QiWbvAB3mjxoOZ86+3wnPPqA8TzWwH49QC+APJFTQr2zPyQ9zvmvOwYB1Tu4FCg9GkkdvBTQATs2jMs8eR0gPcv4TLzzgZM94OCdPXncArwK/po7M6YaPU6JH7xQDlu8v/SsvEw/AT0BDcK8JGGRvUqsCryUEgC9j+omPUngwrzhQd88uBZ8vDNcqzpt4pG6ixubPHR9zTymPyW9pfROu6N+2bxEbCQ9N5TYPC9BQ71syu68OdTPO9KCgDtYoIM9bWe8vHvM/DxMA8U8CakHPMHPGbtxsde87GBRu1EzUL1CcSQ8VJJluymXVLvdFxa9qgGWvIMd2LufRx+9AO3Ruvx4b71sxU+9iVJKvT9wpLy+3Q69VpZ9PWWAc72WzbW7ETSNvT2DcbzDzZk8T05IvE5qFb3Whyg9WM3lO5LfsDs0Fwq8CxhgPe966ToCL9a7JnjBu9Z2t7wK1UO9nQsLvQtQBToJ1jo9NwaqPN76wjvjQJo7iZMsveXg/7u46IO6PTOPvKbp4jyIgI07z9FGPOtnAr2QbKy7YjKDPH9vCI/XtbC89kNwvehxdjt2rgi9Ii0OvZDBpjxiJaO89qPgvD5lQruufaS7C43QvCpZrLwyAV68r44TOkFTCL2jm0W79M0DPBF6lj1hVQg9b2qYvOEjj7x7Ye875S0ivNoTGr1W3wI9/U04vDCPoryH+Q69OSaDPGN7SbwL6JY8DCHXPEeDnTvSVoe8H+KAvPJzyjyf1Qe8svH6vH6I4Twg+ZS8",
                "NPFVPdQyYLwO//c7l+66uz0WjLxLSZO84L98vb7X9zzftsg80z7RPHkiLbz0G+688cOtPP1+2jwGVMk8glEtPWtRwTxbsce8tK4xPdXcVD2yuk49bm2CPF5VHz1nAJ27BIy6PDqweLysq7K7JuHCvP18TD3OHqc7jGXFvNtMMzwaKY49GgHbPIReKr20MUg9cvqKPIb6bLxpNI49DpYbvLRZXT17P8Q98HkUvUZbbb11Woc7m+6zvDM7I715uWw9v1Q9PKOwYT0FmAm9Fo7EPI7tHzvRi6o8T41zvPahRrw0YIA9Ani9PdlFLzy6CWq9Lpo2PRb4ULyDIci8HaD1vPi717x17rq8cX8IPS8YlLzc1RU9uMuCvV8ARz1yVD+7GJQ6PBOedD2ASaa9JT7vPOukIz0FJmS8yLaeOkf7h7xATnW8/4KVPIWambwOGoe8JwGPPNZoBDrj+sm98m26vJX/QjwQZKe8PKIHDwIHYTwOM9E99PQaPQGU/DzE6Ii7f0F6vb0IDD7A5Hm9wPIzPbfRp7wbZiw6BwoFPfdCYL0d+0A9c9rXvAOUwTm2sei83xoNvKNoZLtFz8a8Ch0jPUZzBL0EUYo7qhsWPEsO47xGl5q74vWFuybAlruGj3i8CaepvIlXs7xVE0u6x9KUvFx/aDwBjFo8WokBO4CnED3yCy08Cb6ePG8B6LwstYU92JGVvJcDOj1pZwS8fOtJvcNjDD2LsKm8IAn2PLjJMT14nQ294Rc+Pfwy8rsFLUS8abREvN3JO71AdxW6Sef1uzS2hDxdMWG9axJ6PIlWjrwKKvy8nmNxPIeVvzvmMes6JO2RvA9jZTzqQvc7L26oPAtTbj3dIKy8k+XqvLJC17nECxi9RMqiO+yhKL1XyIS8bXBMu906LLymYaa8LRRIPeI5HT24WUc8v82cPDY3urxkLaI8JPl1PGsGib3bggG9iloovVPXxrwtYDw9kP3uvGPJarwRhLS8/hjfPDV3Sz3j7WY7Njh9uxa2Cb08Y1g9",
                "gBcBPQl0wbt33Be8XYGqvJt+sDsSyZi83tGxvHDdwbxbqjU8Cw1BPPmkIruJ/R498bBMvbCL4rzXCRM97rpevZtxgjwemxU9G4AYvSNmlz1W94S9p5KEPYFXpbyOXuO7qL2/vG4qBr2C1eS89MbJu9JzZrqOgwkPstV1vL4hZL39PbS8ivYtPMQ5nTzN6Ku87sW8PTiI2LwWjZi802LUPFh2wDyvVDo85P81Pb96YL0m78K7OpIGPB4veT13OeK8QkavPOzpHT244RK9a3dKPHmdIbzgSmq8eDDdvEd+Dj2TrZC79F3Tu0SLrDxFqAo9tTMxvF4LED03+yC98JmCO/PJQ7zHgcK81qeBO0rU4LwbHK28kGYrPBRpbj2aT2M9L2oeu5S0krzsRIQ7YkwrvUlod7vLvoK78aFIvazuPzvxxUo7QvtJvDedATys85+749I+vVDb6bpU3XY8Kxnbu2JTET3/vcq8WuroOwlhdrz3Tda8MisKvepWqbxTvC273ZpkPEJ/RryFPpQ8fFlMvHpcOL2YsLY8zRq9PJDQbT2hn9m83gUJvRh32rs68e48q0mVPPZDsjsq9su8oSvIvFx23jzvy4C8prX7vAILYToDuiC8j/jbvL6GH7yBSuM8p9gdOsxvsTwauEQ9xAPIvGZbVTykazg9OnxEPNMILLytEcC8dPlCO9xoqrx0AYM8ch85PEN3lLzu4go8iC8oPdGlkbxQVTk920gDPWQcMD0vHI44pPVuu6DjQTwfan28PuTpPKgavTxnKGa6jGbxu2a/krw2H4+8NnGBPZnvnDyEKFY9acXsPOj1LrzjEIW8Fz0yPTCpAL3Fsr+8gEPqvK+3CA+bybq8NgkJPF01Hb2xqiA8uj7CvJU4zLxBG948bSS6PHfAEbt38da8XDYlPY2ZxbxUebW8pbCPPAEdGDyNJ088D7srPHhpjrqHCpK84Mh9O7wPj7u2oLA8QEAkPH3mQr2bXxS8Ia0Gu8EL4jrWeR47lCWJvL+4HjxfCL48",
                "5NzUPIzfabw20ki7Zugdu0fOWzzbPVi80OQLvedcz7zbEC69OmafvDZTaTyxmiC8c9DlvI5vgjwpE7u8IS9cPBKL9jtxo748f7Y3vf+CL73v9ci8ezKTui3dBjs6LcK6YL+SvPE0nDtIVQa9eD0NvQeUWr2nXxq8QUwzvajoCDs8JZc7SlBmO21Ir7yoMQO9LRdgu52ITrzJC1U81cX6vCzoCr1Nvmy6tZoPPW2IeDxpMqi83mhQvEuDODxeSSG94ra+PSYt3DxvAYo8KvGBvINQBbw1FJC7S5L5O3rztTuwDvq6qZNsvb4sgL2WX8Y83T5QPEZtNj2+8DU9TAqsPF1D+zvy2qa8fqjxvETw+jzgbC89MR4svKu67rsIGgq7rTmOvCzNRTxB8768a2EgvUdBizsAMia7IbocPFGAYb1KDA69BaYQvCcFgDssTEY7hqW/O1dK5bvMgI48NOI1PE+tubsMbqy8JcQXvVyQJLuHl7E7/imYO9phBTsZESU9LsKVvYxE6DzT7LQ70DIIj4a/ebz3S8+8BbfzPICEt7zgRRy7dK24PD6Rd7388mY8PKt8PHstz7tekKG8LCt4vYc1ND4nKge8PdV6vXCEIzwNxgI+GjeZPBR4mj09N6U9S5tQvJXZZr0/41+9sJsnPZX3Lz2zl0i8RyBFvCVoiD0dFu88kCxkPXHImjuyaG88ropePV9FzTxCJq68yAVOvHfN1LyT4/w7LGgeusJBCr0hO7Q81eMIPeiI5byEu1s92wAZu+gnbb3ijua7s64hvT4o370McwO9CdAAvB07Ar3TU8g7fgLVvPYvorvhNFa+7/dqPKuKGb35FAi81qtoOy9Li73anda8p32mugGyzzy/W1U9/v5jPQgXHj0xcZS8VDm3vHQhLTr/3FK9vE4bPampnrzVwOa8bKKjPb+asjxKd9k7FSTnO84dFrxJhek8rzJSvMDzwLxRPwG88EwGvThknz2cjJu8ME4MPaJrujtoRUM9sloVvYkEs7yHPYw8",
                "gwhjvIiiYr1vISO7gfeFvPQo+bxeQqC9IxOavPAvj735TAO9Yf4bvTL9oTwsqwi9wq83vZMvGL3STZm8q+bNvAwEk7xCzsK8MV+ePBcNGT0WB3W9us2buwhrnLvKHLA8KcwlPZA01D0lhw09XQhIPZNtCb1JM7+7qOr1PHGyzzwOsru8g56hvQwgLz6okhu90cB7PaHXWz1Q3wiPx1S5vEpZQ702W8M8ObWOPRiqPD0y1qO9YyNhPaE1B7wp4og9ZNO+u9rAS7yzfC29e/LwPO8RzDz1RBU9SNsPvFrYhruuFW+8YXoCvXIVWLx6gMu8UdOcu88NbTyH6Qk9dKpTvI3/8zyrot88BRqRPPzRGLy9cec60LRavJlLhDyotBe9dXwJupbEDrwRZ3c8NBMuu44hW7uHlE68i4CPPWQoTz39uaU79N7LPTP9+LvHGhW9FG9KPQcTrTx0+eS80q6RPFnLdb1Jt5s7AuQDPfHT1jx7gf47ruJivO3ynLx9YFE8TM5PvR1Q6Dx8ZjW8o4ivOuwL7LzvqvU77j00vVIt7jz8Lqk8Tp9QO8cFgrxXI/489Xk5vEc7TjxZ08Y8xO6+uw32az2gbAy7p7WoOyKbKb3nF3w9SCxSPfQbFL1ptoc84pBIvHB3TD3ul8c89pcxve5s9rtVgjq9WRK3vDcUIb0omUg8XQEXPZJ7lDuR5oy88rmcup/OBj1lPiU7rizXux8OQjySosy7SfThPDi/ybsk0R09aRmlvKL7PjsdMrM7KSN3PUQABL1InuM7BdwhPbBo5DtOARW9YPEVvSE+kDtKfCu9WNdwPJWJf7w5Wrc8qB2BO1pk9btFaTS7faAnuv+1fTzo1RA7JYWJu3OeT7w1+lS8T1x7PLvZP7yDgx+9bxM1PJSWCQ9jWaK8GkbHu3YeCj1rVjS9lCmIu7cpHL1+3RA8MegGPWWq3zzcaCa9w4ZJPYaWhbyzaSI9Xu+ovLapqT3QYyS9zUM/O5dZajxPYmq7AIS8PMZ7VTxsde27",
                "+Fn1vI+MiryLn+S7jmGPuym4/DzgHLi8NLggvZ/Wf7w9LQ+8Lq+LPNw1PjvkKAw8bwZquzECtTss9iI7QzQGPY1Y07rKJvu8aiFdPGCIrTyfwbM8A/uZvCucDryeZYC8Y/w9PKj73DwRJgo9Wa3IvCcbtTypMMg8DKxPO/zhTDvxzdC81ZgrvbktdzsC5XO8LdaiO4stPjzV2US8UNj2PE3pkrxBjQi70o63PJ6kQrxJsE47EwfNPI0Q3Dxxtfm8I/ZIuqJzqr1WhfC8ASqAu3Qu3ro3bHS8R3alvHh9KbySrBU8la1DvXvVXjylIwK9HgOTPMy5oLptu/U7d7GlO1IPJz2JDoi8zTvRPCeNrDwiM328+R+MPJE8Cb2x/YW8ub/lPLlUBjz0Kbk76AgAvdA8+bxPftG6QnUHvS5ziLodx8M77DuyOynCiLxjPCm9Qy3gvJXq5DrNCXK8/m6pPLP7LD3uElk8SHyFPA6ZqbpavkA9WovVO2nTFTwY1eS72QbiPA+kBbx1pq+8v2JVPSYxjjyGrB86vF9Su5h+x7vUH608YB35O+qRKLwssaE8hfYHD66OFrw4ipi6Oc3kvE/vOrwWBTk8J3DlOhltlL0W+xU91kyNPDFXPrvWcCO76K4Bu2MaVL22lQy9gHwXPKC/J73AYPq8VfOGO/Ih7Lxk7q06dHWAu3/sQLzvNlI8QmckPPswOj1UU8u8iV4QvFY+CryPQ+M7xqSCO5dZ17wNHqW7HMZNPeTHxzwosWk8/8qAvMskPr1W84q87y+4PJFxbLwTOzS8SoQ2Pekz7byUV/a6oaBlPMooR706Y/W8tpuHPAFXp7uN+1u9ggaRPI8OfjwvP468LqSmvCLl9rwwX0q7nHl3upmkO71Nkry786mHurdidbxiYDs7yjwGPKaF+rzRYga8cBf1PPk6nbxnqma8GE6wvLS417y/A8i8ew+svBTB/Dzz24Y7ZiQRPbQySL2ugk+6A/4UvCUrarxCmU+8lkNGu/ApjDzsU/68",
                "bgZCPIrDOTwBRC09SjbGu4uvYj3Bzbi8LQ23PHUOXjz2j1c9T/gYvFB9W7yD0QU9nb5yvHL+PL0bn5y8rYhcOnwlULzXVM07YfBdPZQwvDxNlfi7dXtQOVCdOD0QLJi8YUGXvPtnQzu2ToC7hnWcvE2igTxA+3Y43U6cO95ZybzhSU68HowwPK3zJD2+PzW8m8KEvPXCjzl0BMc7lA/QOyiS+7u45qe86b/+vJLfmL0IHCY9+yBnPXCuqrvGCQiPefP6vJEB1DlCoS+8QLKZvGxQXrxQKsI8h8Yfu9gD0LxxgtM8oX3MvAwGeLybKzO82TJXvMUYmDwBRIu7Niy1O+SYy7wJHKq8XfrrO97AzzxWacu8DP2xvHEBQbwHkVk8zhvbvIj1WLxkqPE80ML3PNZYBb3zrEC7bHujvD4B0Loqha25gKVbvIbXdrxHxRQ8xAUWvDq2JL0qzZA6PUTEPS1e8rxlz4g8FkLou8pw0jv8FNs8c4EDvZbEYLyK98k8aEpVva8Q/bwXuk06bGCrumniy7uaghu8niuPvLzS77yKMQG9hcgfvPD8Y7wTDkG8hSOuvAQWsLq08QO9bvI+uy7ZuTzd2L+8NNNGvD5vhLxtBSs7+1ZzPEkuAj0YvOG7TWrEvMbetTyDOQy8ARGYOpE+zLzOmhi9VbIpu28ZfT1wZsA8162UO7IxhzknOkE8sv1tvIOvXLy7Jd07OxeuvGpAsrzxo6k6AHREPBUYKr3a7Da8lSwYPFDBVby4cAU9FfrUPLWVIL1a7zm6ZeswPd7xojz0Bou6K5pNPDcK5TskrXc9yQw8PLqHKbyNlDk63emlua1PK7zWaV48OT7xu+FiSLxWZwg6u93xvJZPizwXnAK8n/MmPLMF2zx3vc67IE/GPOxGibwxLyC8ZbJMvCV7bbwy9aO8Lps4PE+LMbyiuCq8IeLJvCckCA/joAs9CcvDvF83Hr3hooK6YzrTu2e34btk9Wm9U9bQu3v+vLwGUJw8SGEAPY92ojtPMIa8",
                "AFOmO567AD4JBII8pt3XPAbd17zGTbo6eD0PvRs9ibyw+uC5y9iWu/qcWj0wxNO8i/vzPNJjQrycFJa8Ei+1vB7//zoePJs7aMOXvM5CGL0GvN474s0jPfG+ozojdY28xohEu8OD3DyYcKM9/BblvL+ThjwGDba7nZVBvFuRA71xYXg7hhK/PB+r47wcw3u8oXoLPX1uEb1u3Oa4ZgnGOb+lWLvcZZS8bJy9PJrPIjwklHc8CCs4vbyjBD0YcZg8TGghPAeKT7ydRwM8E+psO4cmfTvH8B08aYBIPUTTKDzWhA27iMa5vOGPbz31LBK9QhkevJaMgjyMFpe8rFhvvJq3XbxPmQq9tvvGvBflLjw8VV+8Htk9u03gPDvAD5y8H7I7u9XdTzrgobi83HGfvAI0kLt1ySY9plClvPo8Qj35yeS8+M1YvN9xEj19GZK7RQ6JvLLLFb0ip8U9ZFr3vIb4LzuEOKS8KL0rPGFN3D19ghC8Y+K3PMEAdTxURIO8AawIPQnIxzx6PAC95avIPDkJk7sSAcM82xayvKRfoTxyqn488p/xvLMRkruropy83gltOzNBHrtoP508Mre7O1vcfLxdKCk8053OPM4pz7t0gha8AKYJDzj2Qr2CTMs8b6tMPKJbNzwZ6Yi8IU0avKFbgzzb62K85HURvczQyDypBB89mVIfPVygNj0aUAC9UKjAvDqhAr2Ow9Y8nOAtPd27zLve04a9zugQveNXjLsmySM9VIjevMEQr7yVBzu9ftL0OpM+0LzAWA+8640bvf4qS71IqcM8oAKJvb06Gr2uG0W9luUZva9lGj11QES6F8Q8PXYry7uSgIq8sImiPJRCKLxqfb08HhTVOkJdhL0L7wC8A8rtO0mAmTy5by+9aETDPZbeXb2NG1Y8HR3hPD3airsvvdE7CvDdO+PhZ7tT7W+8Py+2upfP1byE1QS8OlzJPFqyYrtQbBC8OqjVu8pUgjwZCyq8QyaQO8FM8jzTS1a9ysAhvXrQETxRPI07",
                "cz0ivc+MkbwPFba8q3KOvBFhh7w2pji9BegGvQcaWjskA/A8yYt4vIje8jzgwrC8BcbpuuyrhDxHdik8SezTPAkaZLwFI8i88zhVvZ1KcL0pqVi8gfjgPDmbD7wHOCq9SJGFve0Zk7xV25q77gHcvKy5STvSJqS6H7EdvWjBrLymR1S9FL3SuoHACL1pp1E8uj2RPCm7FLw+0Eo9eqoGvUfNXjwC8zQ9FSBwu/yGQb14l1I96K3nvENPjrvWbUa9z9AevcOHtro0wbG6oaeVvE+O07yfbB+9rxZFvAMN+7xmDAgP4HSaPFtUkb31ZNS749OvPCsxUr2RYXw98qVHPcmmoTvbhQO9f8DfOjjbjj0yjDw9mptyPMmhGr1HVk+7A91Nu10oVbu6hAk70lqkPA++Fzya2Su5OEEcvD3JjLxoj1+826dQvJNJq7xQn1W7W0l8vHAxkDwkt4M88tpwvZHSZz3M3E698E77vKVv9Tvr+OK7WuuNPFRjpbwK2jU9wNf0u5qjnDwMHTM9dHMBvMIkU7wd/5e8EGfTO3GgDD36uYY8W1U9PTEUgbwD41k9hyCjvNSSTz302pG7TLaJPDbru7tbbK07lohIPfrYnTwg+LM8aIYDPCkxHbxskX680zRKveP8OjwiwJU7XmuWumtW5bwc90u6NruIu0SMQzwVOew7uveqvOZMr7s+tS69i/7ivG+n47zao5A9RP8gPf+ww7pnyhO9EqHSPGe2frw/9Ym8Ua7yPI6eGz0Yg548LG2gvACAOL3bako9GJ07O7HjOD0FRSo8ERoNPR7G2TwdPs88+NwhvTGrQbx3kDa7AWdKPPZs+LssHPe8UvQBPF5TPTyxWo48UqfyvCdkpDw54om8Teegu4EPTr3cp7o8wcM2Pcd4LD09Cb48cQinuxSuDz0U+KE97kXyvCcjDT2ekOa51NIdO/WjY73O4sa8slICuUoYAb2PcPI7S1unvcrQ0bzvaci54sR+O9bHCI+ElK88bDPAvELzg7wOPV+8",
                "st43vHlp571ZNzS9UkR/PFH677xIxfy8D3WoPHCys7uuJaw2ohN8PKX/87wUW728FoMdvUxWtjzYMX69ssCOvHwCP72WBIq8LoI0O1sDqTy4iQe8ClmBPfymkbv5gnM8UnmNuyFliby3UsM8t2ukvNKwgzwszDc8D7rnO/ihDD3DjZG8JknkuzQtHryVQwa8ywL0vBtwxjzjaya9yeYHvWqMZbw5Xa27joXsPK385bx1u6O87bsDvaRBEb0fqqQ8EmMlvBZsQr3jAiI8LAGRO5pcsrvxcwg8hJd8Oy1JCL25k448bBUYvZO5QDy1eng8zZcRPXWxUrvliis9ukqkuzrOPTxcNV48jT5aPb8+jjtx3vM7uXrEO+6IlbmaGE48ASNiuu8MTDzzYRI6oh/ZPCQCpbtAqBC98EpKPQDFurqVGCq9OzQHPLCVLz14rog8oRJ7vawtVbwTbUm90JsUPFxOXT0+VmS5ZR5ZOi+rsjtCDJG9CvcBvRm3mrsJ3vI8c9s8vZuBCTyGrLi7Gb9DPP/M5rvHNU8828xGPDVXTTxK9Xu8oQ8jPZzQAT1dGXU80r02PHTZ/7u9Km08Cl6/vIukOTxMhMs866ADva8oDbwQc4O8qOtHvQd5QztLNY48Z5ATvVRBCju9RBy7Fn7bvO0zHr2rIQa97GYHD31ktbz+OGm83WzdPJFJFL1OE648uXbKPCNyAT0JVfY7t/QTPeeLqbwiTd09l/lKPdihLjx25Ju71iaRPNGM47zcsXM84EtdPXmW37o5JYo8UcWZPE2Z/LxgHge9xN7oupvxXbyH6/O80G+2vG4R6rxYv7y8fPrWu65llr3zNRo8lOrZvEJxrLzous88IP43vA0bJD0Mqau8aIqrOn8YTDyzMQK7BlkTPFxcFzyvi5i8fpHAPN6ABr34lRc9cxVGPfjikD0dqfy8/QNzuxi+M7v6q4S8ZcjwPP6EZTzwz2A7IfsDPdkaorx0u4y7NlPwvFpUCro1cUA98q7UPKz3+zzqN+G8",
                "2J6Ovc6iE730JFI8PKcgvCIgQjzoBNS7Ow6ZvW5gHjxFnac8NKC/vIP22rzeg648xHLrOxMiJrzxyoK78ur2vL31Rb1mhp28FSjHvJFkULzTafo8uMY8PS+y/7zLw1o77yk2PCRH3bxZx4080x24OsZWhrzGNbe7+vsOvLt3vb1rFsm8By97vEgRSLzatDw9GMcFPbryszwqjZC7MnKdvE9tBL3Uhuq8eq9kvU/9rLx9+ha923I0vZ8eILyd1Ww8dEA/PGhVoTvFB5S8W2WHPFQYobyBpDm9EZMBPBS+JT3MXBU8+i5dvOh14Dxtv6+9ax8IPe0PjTwdQj29R7gvO3Vt77wjcQmPKVqdOwoUGbyLBy88105FvcqEGr1XKaG8Bi0EvLQvZDwOlqW8Pu5svQN6sj2iJ449syMAvcopzbwq1lK8OYZ6vEw2EzvAMaY92W2QPBbmtrshTYu8R8HdumUAS7z2S/47qpfRPIRtPTsFY4K8oZZJPPEnx71kj6a7t8ipPOGKoT3LWuu7lua9vKAS7bzqOhm9nvvevEfomrw59T08mddFvdiQpDvYO6k8s1r0OyYXHb2tKx+9rCBPPLJDDzxCMAW8z0cJPbivSbwK/Y48ZVZgvQIs7rzPkZI948U6PQmhcDqzyyC6B4dgvZ7s8rlxRT695hyAOsaca7zUr608jetYPUnCvztmCnG9IJU0vXXHrzzkSsI8tksBPA1sYrvrf2C9u1cuPcdynbzHhIO9XhrpPCiOnjzisri7hpayvKLZQj0wIz+8eA/1Pe/HKzycZ/i8jcz/vJAVPD0eLvQ8QEosO2qp1LtEw4w8GwIhvCnAlbzf72u9w+xRPVeTLj0A2iq8FkMYveiJNbwxGG48yD3OPA6liT30wmw8dmeQPGc++TsYKGy9QfpLvQXGHz2LRwy9qAQRvZoHHL2z1dk8U7ycvEbRIb3rQle7QhmRvYlMkrxmbzE9SrerPJSc/TunU6C8i12qvIjxsbzw3yu8M0sQPZm/lrwYCYs7",
                "cJwHvX3lgr0Hz5y8PS61vKFvCA+mOl+8R8bSvLJuODsAJMK7PyeBvK1I6TpN5wePuW8Ij2NYCY+u8AgPp6EJj6gPCI/ScQePMskIj1rOCI8dZAmP44UIjxRUCI+xGQiPjnwIjzKXB4/8vAeP6SkIj9S/B4/fCgiPPIEIjyiACI+IWQiP4v8IjzI4CI/YWAiPa7cID4b3CI+ZTwiP7UUJD603CY+/7giPZfEIj0mICI94owiPgBcIj5qLB49FGgmPcfYHj1ATCI/bYgiPHDIIj+WXCI/yEAmPDm0Ij6JOCI9uBwmPDSgIj2teCI9hWggP3kkJj80LCI9KcwkPzvkHj+mDCY9cogePHSYIj9LVCI/ApAiPajsIj1TBCI9uTwiP+HkIDyUQCI9N4giP1UIJjwIuCA+oDgiPmFAJjxJ+CY95QgiPuWAIj+CqCA9RUgmPYL0Ij5qWCY91dAmPMEAJD1AICQ9f4wiP35IHD2oWCI/JSAePwIUIj0LrB4+zywgP4IEJj+WlB483TQiPwqcIjyFRCY9VCQmPD54Hj/HhCI+5ogiPRJAJj3XkB4+9ngmPtIoIjwIeCY/h3QiP3Y0Hj0uFB4+pzAePnFsJjxbVCI/zugePctsIj/KBB49T3AcP8DoJjyBFCQ/VAAmPDrUHj+ZeB48ToQiPOhkIj7qPB4+JuQiPU6cHj5DRCI8GmAePPQkJjxe2CI8qvgiP10gGj+/iCI8qVAgPFUkID/K8CA9XkAiPmPmZuxoVobxgB0Y8DNQzPd449rwaQwe9R1p2PDKnBrxTqK288FLTPN7vajycrzo9xJ/6Oqx0wzw2oji9F8uZO2DIeLtEdNC81T0nvZWATbzij308BjjmPPpkEz0gLJc9ov+/PKcQTrwfJZ68q5kUPdLu47y1Voi8DPJGuzAUSDw/xZo780hCvXSKOL2GSzU8DjSivJMciryaMCo8S6kOPR5ir7ptX3k8Mc8OvacEAj3LjiA9VY+VPNL0PbynI8Q7DLnevFiBhT3TINs8",
                "QhcUPSxUpT0ti7Q76aijPS/nHT15jAm8w3+VvOD1Kz3sq0S8so/JPD1muL0EVZG858fSuxJFn7zLyCo7xYZlvKF+HzwIh4q8q6cDvDVsEj3/vC29w2TOvGW6bjsKVAM9xFDiPMdx5jxlyQa9FMYmPEjagLzkJSA7jDvkvA1Oi7pU7gy9eIr3vA1gqLz+czc9kUncO295Cz1uh9O7fwoJvTyvqDwz6SC8lmlFPXfpZ7vcWwu8Rm4HvRc2lLtsCOO6MkSYPBt6bzwUvGK9IsiCvPCvibyCgI08kz+vu+HmhjxwMP07oOFvvFrJvzwp/Go9pIHIvGbwtLzgvkW9iqHyvOaVAb2t5Jw84b0ouqvvBr0gsA68sxHxvNdFPb2Q7wU8JItnPTixZT1gtwcPpyMgvX85Fb1IInY94BLVvExoLT0QED29EC4CPLdLlrt9F2u822opOxWxpzsq13g910F8uxemAzuoT5c9Wy20PKmfXLwZLhy8ODioPPeDy7zBvhQ9HKylvLGycb3WnnM8B9cAu3nGBLvSXV48vNLZO9a5L7zjOcm8qn0XvLEi8LkGaBk9wm4dPe02aLxMvRu8IfOHvGlS/bwxWE092nEPPdBeTryqnCC8QurWPEmT+Lw+ByG9GMEKO0ypGb27dlo9GPuHPUGDubsBl6q8J/5VvHk0trze7hq9pCYaO3OP6bxxjjW8+wUsvcPgCj30uPO88yz3O4TmPTzG4d086fYqvM49g7wUKOi8MD6IvDKBNz1mK0q8Wd+NPNbPxLxmVkM8RQ6BvcLpaLyJ19G8kg8Qve+X3rycqlc7u50GPbtniDw9Zo68XWlCPWruNTyI7+a8OO0IvSQbCj1bDgm9cJY8PE0n3Tyr4pK8jBSIPIYDrTwPTck80iBYuu0nBL2Q0Tk9gvHrvNrLFbybfCc91heWPDfkX7siucg99FHLPEVOrrtF7389VQzUPBUAfbx2X6e84YnPPFiSgLsCdHI8sspDvHVs4bw4zCy9LJ53vZ9jYbx4yyo8",
                "74cYvc45mDxSJ+a6ZIBHPPMHlb0q+ek8XbJuvDAJSr3JP2C8m/TyvB6mmjzo/za9CVGiu980CI8epou8+H3CvEQ9RL0yfKk8cV+9vOCm4bzTUtC8Gz4vPNJ8H71SGJe8IsI4PSckeT2kNc68ByHgO25WVLwVeuU8UCgNvJNbGrxMiB48brVhvTqpVruy7tw7qo2RvPCw1DuoE1g8ZdjkvNe/Gr1SYAi9A09SvKPpOzyC0pm76CWAvJpNJ7o2APK85PXeu8mMvrxdCl68YBM8vCsVwbwn+A48Bv81PERYLjssb5a8TczsuyLZiDz3DHS9YtBAuwn6ODwfh5y8lz2budtPCjy3yi29vOkvPCt5eT1SQhc8EYOXvL+ZPjxO3B+82A/JvIwMQD1vhCY90D1XPDF1pjwDW0e80An2vLtQUD1uzCc7lUEQO6iczjzLKvc8LX/tO9ksnTydhlE8JrIDvRxCQ73aZze9KUGPvLMb7jr+BdK5+4usvEfikrwP05c9XH09PCf5/Tw/ZHy99uXWOXC0fT0SWcQ7EgYjO8UQ8ry9ksG8Z9cSPfQVLbfSSeq7JvV7PE41xLvlJcG7xY/EvZ/zdryfyIA81kuovO44ubxB0Ig8FldOPMdmH71AB6u83+KCvOcLu7yn45e8ibfPvPJjFj3hjSs6Qo9ZvB5fgb11g0u8gBXaPGfav7zLiSW9X8/MPMMwoju9NFu7+EY/vSzS17y2YBA8YnY5vcAT6zyW81A9fOYlvPbgjzuvWzW8+csID6Kb7DtvTXk86fJ8vFxGZjxp2Ba91XvcPPevWL3kvqy89bnau821lDrvWjA8Pbm8vKU3lrwshM680ixfPVV2prq7uhy7bd0dPBtBbrxrujW81e1KvZzeorwgoqs8aLV5PHqs5TyD22A8C9YyvAqVAj3k8oc8QO7eu/iZRb2VVWa8yYv8vHpcSLyCBZs7JASHPDFtxLyGK6E8qZzVPKaLzzs4MAa8FMOOvO4iAb1C6Q487X9ZPNzK2LwVJFW7",
                "VyKMO529Kr2tL9U8ds8uPUq5NrzQPqG8+AqpuoODLDzVVhk7LrpIvHthk7t5Gh29evFXPFskILy0iuk59WolvHJDOT0P2ec8bB2sOysR/Lt1ox28A7AjPCmAnryKpoE70znpvOZiAz2YwwK9GRkaO65eOj2koLw77lDjt57SNDztH/s8mltAvEcClboWgPs7WyIgvM6xJDsTVvC8TnTJO2WnIr0jht67vvGnPH4g27vUFNK8kf+tPF/pHLuJtEe9bERVuz610Tx3NAS9+pIJvDUIUT2BYDC7wvvovIsJATzC8Yq8Vi4ZvUOUhjvbilA7xs4KvIHX/Lw8iPq7WLFyO62SdbzgngG9tw+lO6EGbLxVAow799rnO0as57xuS+48HN3kvBYr+zz6pYI9xVEwPTcX9bzNIeI7wlEYvAAvxrt/5yY9tu4DvXP0qTzIqwYP/j6xvP9OLbx9Eig7Z68kPCKpYr3NWW08cuNOPKyaDDytpz48ib8uPVT4IjydPsQ7lohJvF6S/rwy9pk8b4IePKYT3rtfyXQ8Xg5AO7T1mbw+mhG8TTtWPMVq7juLfp+8A/PAuiyX5zxeTyK86baovOk6WLzaNQ+8UcuevPc0tbw/TQo8rqg5PDGRvrwMbsY69lnlu1IDfTzMzQw7dY50vDzx1Lt27ve8xUUdOQNDSrz/U7C7ZuU8uxLQ9jyZZqI8jrkJPN/GxTw4zEi87J2ROUFEWDwYYWw8/ALaOX5+jrxo0eM8CCx3vNPV5DyMIaU8WfduOw4XEDsrHPs8sDfFPNSLNbxJzpS8pg8bvGH3wzz1Dxy8TL+Su3pdLTvbfMo5FPKDO8FcUzwlFIo8HO1kvEVsjTya9YS7FR/xu952Pr0isEM9F4RNPGGH+jt8KyG8bBIYvHTwrzxpe7S5qA2/vB76Eb0nxBy8qRTtOkVhODpvndA8ltuqtzB1PTtc8PC7kkfJPLfI9TwXYyI8iUOfPMWUBj3+RN68JegyvN/Xk7yWJqm8FUQZPS2e4rvBKyq8",
                "y/2jPKrcFT0n0HA8x6s3vELv5jx3pSc83QqfvOiepbxWhek8WBtdvLBUCruSPty7ngnFPEA5DL0K7Y86g429O2A6GTxKgiw86MsHvGAOmDzv6QW9QkUDPMv6CA/eMvY8liKJOkHG5Tsq0/G8CYGoPE+DJb1VOoC83N96POiRILziS1U9nPYxO9yETLy8Apc6X7CIvTl1gzwYbmK8FW4avYMCpbzIb4C78FsiPXlvxDz6mhI9Y/zVuznxgb2+zFu8GezOO3FVC7zaYzU89euQvZ9WS70Txe87/Q29vOjD9jwn6Ug7OtsuPWJBNbwORRc82HKZPPhQ8LxcMh69YSs2vRlvtzwFAmO9PT5NvQygITwSlda8Xd6JPKoysbxmMFq91GyyvDlTgLwxFHg7xUIQvCKasbzZ81k91hxbvWFbRL3wdZs9IfbAO5FP4ryHbz09CCvZvGncy7s8ST29HKa/PGg9y7rA/189tFlOvRlLdL2+IoG9jRqZPV2A4Dw9EgW9YzbbPEg6LT1oRhK9R8lDPHdPO71XbW09PTlBvaeklDsYqH89BqO/O+zNT7zsVqA8SP+JvLozgDyFN7W7J0FUvETliLy27Y08i5OGuwfjcjzbcqQ8EPURPYU9JL1xXtG8ujR0PK9laTuuI/u5zedOvaaYFL2wRkg9ybMlPN2YbbwmRMe8C0aGvQPtpjxtHQw9yFL0vBew2zv6DZ08IGtuPfJYiT0KChq8dfluPYkLOL18nBw8KUvpvHzFXDyzYyE8e3NxPXd/lby7q+i7BBIvPD1iQD3ASqq9/RnQOzXnK7xb5yW9KR4Ij8UWBTztGw29KDngPJbPjrwX+9q8X6wpvNrdZj1L5kq8n9r7PI/zlTp76VU9ly7dPEvp5ztri7I867tMvBpqLb3k4is8Vup/OjHLJz2Ljry7VRXNO8koWDwelRc8H6f9ugdCKrz4KvO8QpKYPJH0gTzm0oq9GwrnuuX//LwkBYw9h21+vFCpnbv0bc48ALokvGWoh7tPJrA7",
                "Kv7Ru+kHi71kZ249ih1TO+qgIjsy0h49ZnLAO3Lt9jvMB428cP9/OUIKtzxGpgs8knJsvUqOpDlIc2g9qS1UvawsFj1onBS8SnTzu9yAJz2I+dq7dnIDPfnRxzyAEzu8iNrDvIP34rxb1ji85Z/ovBbZoDrDbvi8A5jtvObBpD1SbLI89Owfu6qZvjsNJBw96w7eOxnjuryamVq7izDkOwczYDzAabg8UD+kPTZrGz2CRY2814IDPZLkbjyA3X49+0ucu7RUlbzzKVm8snyHvZww/7y1WO28peHYuQ3Kkz0nJcI6QLmzvJuTFL2Jliu9b9sTvI3BGTuMxpK8kLIGvUaxWbxPW4U9/FYavcnP4TxqR3u9JxS9PBSIGDwD1C69BRP2vG0dmTxhtlI8kLI6vPKtJb11XPw8GRwoPdxm57pLKGK947YZvP8KG7wOkxq8eZqFuThCXbzb4ra8mFCKPCE6IDuzWPa5OItBOKxF1TxAEgkP3xqJPGRQTb3VY0S898hLvf/2zztSfmC8w/EMPWS/j7wdaSW91jelvBuicTzn60C8fe8svQ15xry4cf28PRnXuuW7Oz3pjUK9Zgkfvcf+2zy1/yc8PVs1PT2yKD0Nmdm8IYXfPHyOJz2qgMy86gUzvdYXhTyi3g+8JYADvDhTL7wSOkW9xsYpvNa12jsLTV09Se/Fu0h/jjy5sAK78dg3vcj2Kb2jf6y8d6GEPOfvYL1OSsc99EwTPVzSIz120LQ8o4ZDO2TEMzwn+d88IqLZvFIZgLq8UYM8NA1du5GN1LzXKqI8/GVDPXepwjxFxJ+8/vdBPFIUyjvi0Hw8eixDPW+YNj1zOue8tsRqPMiNgD34Lps7mBDrPDtiqLrTCqU6tszDu778uTxMbJW8vYd7u0sX2jqltAi8qO4CvAoBibxmtzE9wMcXPbJ2VDyG6ic981yDOwLLzbwAmPY6fvI+O3eLDL1CM9+7WlTPPPIuCL0YOri7YyykO2F7gLy3rFO8CMPkO/Cufjv14xq9",
                "8ezku1qVnTz0XFi8pgk6PZHtBDxMiDe9Qu3oOXoFcDtcXAq8sBTJOyCl8rvbNGA8sUl5vMHFqryCfWk8vGSoPanDqTzXCUc7ktM+vc6lvbxwic47wxQlvYf7kDxUhd68mHmHOyRZUD0RhAE9Ho9ZPa3/mLy7HOM6rUkPvWNOCQ/irDY9ZrFSvCFO1jyzKBy8BQpQvUtQSb0/Myy8+cgDPXbBXbwCPDk8gLDDO7MyHr0+fpS789qMPQJp6jtnPeC7AMsBvfVoWzvYdhu8iKrBvGCLFT0btti6GnYLPY/e2bqY5Wc9iA4GvaN4YDyqah+8LbK0u5eJFj2w8Ys8g3pvPed6trzZSiy9P9tzvV3HgD0fiQ+86eOJPNnnPzyMa169OFWKPKE8CLzkKU671w3ePFEI/7tOsDq7RfcuvDZDhzpzL5S9DO3tun/KYT1HINO8w/8oPGeR5DzQkU69UaCNvBDT7zweuhg9smfEPErJHr0Mn6q8ZgfzvGewMzpkO3u7BCNGPI6INT082g+8bLL6vGhpAz23I+c7A8gePDTBwzwcNDI9WvvzOcowsLwdV8W8CZ63vfFjpLuJngo9Yp7FPF0hC72zCyq8XiXmvKhBTr2wQki6XsguO+svLrwiolm95KeKvWaeTL1RY8e8RnEQvKezkLzIk5K8IUpUvQagkTwvwxE8vsxSveeDrDxZrv27Y68NvQe0yr2zX9A82ZS1vOWBSbwJBZQ8CMdoO76JrLxiqku9c8+pvKh7QT0sIEc84xjYvPOmJb1Chia8TcqNPAoFJT3KR3q7nLYYvejef7x35dU8WvJNu+FTg7xHvxe6KhqDvKuPfr3ShZW9iBL3vKdJPr1g1Ea9fMoID737T7wuFR28hXC+PJrUHD3x5Q290UYPPVDSB49CIgkPYUEIj9HNB48DPAiP9WAJD4/jCA9xrAiPfisJj1y6CA/KUAiP/gQJDwgFCI+fKQiP4UQJjxEqCY/rCwmPPi8JjyU2CI9o4gePA6wJDw3OCA/otAiP",
                "e28JjwYPCY8IgQgPqhwIj/fQCI8DoAePJHwJj4BpCA8aWQmP/7QIj/TFCQ/VAQgPGYoJj1GCCY9GjQgPi0UJD6JRCI9/pgmPongJjwQ9CY+jpgkPpAYIDwWyCI9HOAmPdvgHjzaOCI8KdAiPNIMJjzDnCA9K7wePbHgIDzN+CI9g+AeP31QJD4bLCY+h6AcPK3AHjyQiCI+tNgiPKisIj20wCY/dLwiPt4AIj5etB49azwiPt5cHj/vTCI84CwiPss4Hj2hfCI81uQiP4mkJDxyECQ8rqgePdaAJD//uCI+plgiPROAHD1eHCA9uDgiP0N8ID/n6B49ekAcPicUHD1OYB49zNAkPiRAID+skCY9lCAiPpK4Ijy1JCI/UIwmP5n4Jj1gwCQ83OwiPk4oJj0SICI/wYAmPxbQJj9skCI907AiPXCoIj9KJCQ/uoAcPUrIHj4vZCI/B2wePjv8ID6MACY+n0QiPSz8Ij2OmCI+j9gcPVNgHD2vFB4+BsAiP7NoIj6pHCA8uXQiPIQ4ID76VCI+s5gcPEmEJD6KXCI9kpQiPOo0JD+6hCA+q/aq9gzedPa5GkjyBTUi9yvEiu7sGFT0q3um8a1g3u41Hf71JKDs5KDIMvLCvnTyJEgc8nHVhvTUHnLx89o464QYJPbsrkTwYUmi8yPA9veuKjrxvGKg8qT/3vIYUZT0JxnY8aCNhO5oclTxmtVK997EDOyvEXL1wkKU83tj3PHccszyjij+9nfkhvIi+8bzBTaY8jw6hPMFmFb1O1Ns8WLGdPcfVcbxOarg8EY4APYlKDb3eoWM8HrunvErS0Tv1NFG7xv9IvbX/v7ybl5e94UGTPCYXf7xRSBc8jGU7PGNZwrwomxC8VMQzPP6YOruT0+u7i7w7PJHHSb1/G0o8uxA6PTFUILvxhbW8TMSUO64UHD1bczM9fJLNuo9KJ7xKajK8q/9hPRjqMLxq2Nm8k0QxPR/n37x2QLk88DVePDnWHDxbU+O8fqofvXv+K73n/T08",
                "QTmMvDT1Hr1plYM8TVi/PAxhzbx9ATY88EwzvSlyBz33Gny82qWxPCBgFz0EdF49ehjGvBt8Fz3mekQ7zeFuPYtWgbysWKS8cu2OPTvrB70IMtY8tKQjvKItTzvO5tK8JtvrvHumfbt6SeY83EeqvMkPzzxjuve7IWafvPunWj1GnRC94w39PFfjZ72qbUC7kUEMu4059DkTIMC8SWx9vLw5Bw9zpD+9QkGuvKGU8ryBCLK8VlCyPHPjTL3qHQM9eC6kvMxQ0js2lU+8Hh/KvIBJRzz3DZ+7sZAQPR5AwDt25cW7wvLTOpt3gzz3DvU8FGAAPbiewrlsKYK8udEDvftgEzxZ/AY9uDfovD3KIDoK1JW7BoRbPJcrOL0wu6Y7PflDOwKSRDsJhAW9BL1evKtRNb3SARm9brd+vf39cjyDCRg7r86KPGAXFrz2xS08CLeSO3otij06xkq9bkKPPIU9h7wLNZC8f1eevMguFj2+7Dc8e+qEvLB6nzy2rdO8q8CxPAUQg7wAXZ29wSQxPD2QzLwO9sM6usRnPcOtv7yU/gI8KZLcPAQ2xbyFz4O8tKbLvGO0ubx/kr28TmaNuwkCv7u/vU48IJgGPX/FO702Lxm8xk7zPOiRaDwyesC8n+SHPD7yQjyOeA+9KfWbPNW0FD11CZw7VNIyvdoJ37xrnsK6SffLvHyzorxNcGo9NfGivBtQdrxNT/c5RYwTPHC6WLwlZRy9dtENPV5lozw+HoI8FdjUu6pP8DsF0+g5keLwPC6SFz3IKYi8i4Q1Pa0zKrwCHW09pQ/Vu6A2DTklf6q8NLvwvMyH/Ds1y5C8NF2YOwpoC7kguBM9Ad87PTqhfLv8jHM8bFrlu6bdVbxBI8w7H9KdO5fOFT2BdWq9wQ5gPKoT0Dzd4pk8nowHD2TvVzygu1e73xMHvS8pED3uOgu8NglBPLF24j1/76Y7VG2TvQlXNb1el6+8p0DTu3nWvzuoEDW7eDC/vJp6Jr1tW2K7ephkvNUBn7yw4SI9",
                "T0IEPd2xLb3IvpI8jGGQPKVQzzyntAa9Y6tku4iHIrwsUe66Lx+8vIyrEL2sahy8tw+Ou5nObbtSwSy9BJyjulS3AzxcSOM7jd58PDH+NL02Lx07ivveu385mTyIghs9kFSqvE3jVzwuw4o7X3AmPWhzRj3fwwm942i3u/WtLry3uSg8uRhfPXmnAz2sMEc8bbxLvagcgb1QycO7zl9VvDeN27xAYNm8m9p0PSblEjx6N4k7itavuF4ylzwgcio7wBZMPQ+4PDx0+Cg7AzOmvKrYjT2oJSY9zrAKvZAMQD3I8YQ7Q1FBvDF68zysEfs8JJELvSSvarydq+i7sb7nvGb9hjxOFc876hGYPMTfED3uxac8wAPNPOnUFrxb8zG8aeH1vJBH7Dyy6xG9Ei5kPIiYLbxqmoA9olIrvQrNl7tc0iU9g0uYPNqZgTvu3Ac8ilObvCIyYTx9kO+8k4XDvOPXj7vzCvM80+NZvMJ6DL0CiX08+gfRPGqrTbxKLvI8GxAnu5quF70SuU89Il85vVUMhj2/fQ+9VlFFPN7purqP/c+8thk/vKI/5rwRjUG4rQBZPdLDHLwOMwmPhkZRux4q3rsqTS69wd0CvDORyLwpbZq8ZMG9vab7YruT1yM8cXwGvTEivroqprM9ig+TvBx5L7tsEVQ7SXJ4vdDHPT1wDZK69hVavHBD3rzw9zA9Ve8ZPNeGQT241Rm83VmPPCmjD70lRBU94Ce+PIZ9r7ynFS68CJcaPP0cNbzMQwa9LoaAPAfM5TwidNu8SDOmvK6kHj0okms9PcjcvFbWuzzk44K81e+ivUEpdr3+jUu89HVsvIxZh7oQNpo9tqeHvaVuUbz9XNU5bWfnu6jcl7yXMmu69L+KPJ1+Rb3Ks6Q8eHFzPfF3gLw5jKi7Fc3LvMFFlLzexby8tnlavAXtPTwN8Ze9XleAPcua+7vOQFI8OVVMvA9o8DysHJO8FAhTOgi7cLzajZ891JFGvFrrATwHKPS84weovOWzyDxKwZm8",
                "im9IvODPyLxqFQQ9pLH2vP3q07kH4yq8RVpSPCYOyTzdnDy87z6ZubOHzT0Rctw81oSmPHrWET1bJi09BjSvuz7xdbw/Jpu7YQUPvdlg77woV7w6eUP5PLonq7u6AeO5ZcYKO+3JHz2EIdk8xKT1vNGYNzqGjUA9vPRHvVHElbzS/ok8uRvju60Lijz1OGy9LRqmPGU6DTzsjtO8i+UZvFJMQryrBM08bgXCO1P1gz07oIE8cHjgPGfrsbxXTQG9FXPNPGIoCA+oti87hw0kvRvyOLu7Spk7k0AaPezY/rzJ4XM9CUBqvbPmJ72p/uW81lWcOhctXz0nnZw76di3vVaJi72+FiA90tNWPfmCsrtPb3m8B+txvWyBF7xLCEK9s/FzvZLcNb16Pqu8upzePOZM+TyNq3O8gI/DvF5bDDyy7Tk7k7yjPEk1o71S1Ly8N78JPXyuzbz49RG9CvlgPDIISbyeAYC9ScYfPLd1EL1wV4y7az4APXKgVLyligc+PE8gPOePsjtFgCs9H/PAO6q2mzw8xGW9zBTvPO6PJbu/YQg+FUMhPK8vTbtMia49ZK4MvR9Hpj2xAoQ82FErPFMPkDxOl5m8eeuBu2qoL7vG/iu92zdHPXKYe7zIhqk9bSVEvbrh2jxQphG8u5fAuhpeG73PGmG8TpEeO1gen7xKUm68XKbjOwCshj1kik+8of+HvI/P/ToUheI8pJeKPTV8PLsZZBi9x/RlvTODAT14sOu8VdtfPINxbry2fQO9xS+qvc6MfzvA7Xm8NTOCOwTD7bxJd1i9ts/APEzFIT3Ikx+9BoD4vKSKYLwDrz49MbnsO4XZNrw8Vj87qPrAPHv2r7wliAa90fRAvV9Ajzw0Xas92W7iPGlIfT3D/xQ9MkMhPc4+L7wvu6g9ZtWTvHxhjjyVFUq8fXA7vb6YWTt8oEy8jALWPJAeIr2Tki69qCAJD3fftzwsN2O8sj3MPPCAbjsp+5y7BmoFO0mI6zwmp1Y8Tpnwu+rBqbyJQQG9",
                "LVYVPR/GH7zvSpS8EjOsvKyoZbw0e4K8uKCRPKURtjz34ZE8qFZ1ux8CUj2q87g7twoFvdSL6DtXDgS7c6oZvXXk6bwSOEy9LVpIvXTpEj3MOlm8bY0/uijp+bzb8uK7UqmzvBR7sTsD8mq8l4GpvP0FEzzzXFC9YAYwvd05p7tbGbe8kJf4vJAz1LxfnGW8h73XO0Hvp73GcCS7ewLTvM1zmrsggRE8gJJJvTDxxLxfcce8/ASbPPojabykqN67fso3vP26cTzdz1W8IAbHu3+WwDwVRpC6vJfOvLK5Gj0SxgE9JtQtPHFKPjxzlE64GjUdPfRPubzBdbe6xuz7OiM+c72A6Cq9qPIYvQAFBz3+reO8wSZdPKAsIjyljg+9RoMKvU2lEjsHrJM8S8klvPaNm7yuX5i8JQr3PPiZBrvLgZE8jYnKvHBAnL3n/7q8fA0IPLH3CD0cM5q9b9ogvBhFwDsf8BG9zJm7vNyv7rwJuam8triavD3mWjsITbW76dASO37QJL3NHEG8FADRPNjrfDxyDAk9slMOPNbb+TiRSig9S+DlvI3KBj2aRn88CGYmvAmHhrxyn/O8Gti4vH2/1Tx5Ktm8QOKHO6a/dLwl1pO7EvCQO2YrH7384QePa/FEvM/BGbwNhi09yWbIvEwtw7ynEyI9y4ZpPbAiq7w03oG8zGA9u+LTmTyAg1M9o/DzvAIMujtaesO839WDPJajTDuVShO8JjRDvCBdtrwfMgu9kwINvQ/0XT34sng7el4tPRgoS7xI9r88w+uuvHPWOrxAr5O82rWCPDIcursybSm9CS8IvR9NuLzfRQM9mYGRPGK2VD20syI94Qn9vGSZnDyaeYa8wTmGO98EF723sS29kqUCvYnKlz2Ac6c8JF3uvOTuLjzTPai8Iz7ru9jF6TsLwZq83W+XvF2fUDyHDSS88gt0PBDDcrzg9V29eRskva1dP732sgM921MPPARZO7ylg1W7e9sYPJ6XE7ykGSW7krAAvM9MkDxSxkg9",
                "IbAlPXIy6DwZCAa8BkKVPPdrv7ygTp28Nr2sPOMK6zvdXSo9WCBcvSFBnbxK94e6qHcEvS3Vfz1hh5Y90/BcPHXN+bs3fEC8sUK4vG3bCj2NAps8HzBhvL9bH7zIcdk8o+KHvEPuQr2+0iW9bpiJvFJKJDxHaQY9u621vF+2j7xySie9DnsNPOydujzdsXK8g/lKPKjuTztAV0G8rO4ivSnIiz0C9La7ePCbuzNnHzutYkw790M6PRD+/jvbQ0C9E+KFPReDpjzLFDI93smAPAWiIT1ncJo86jpqPLSIE72C8fw8yLuPu/xgCA/hdOe8TXofvHkprLuOpIq8a99wPWF+rrzMfUO80fL8PEE0CT17liG73lf7u6H0MLzrXc+9OIGKvBwB3LsGaLy7kTIEvf2cRD2FxEk8n+zqvDGO5rwc4vu80JZePDoHDT306h+8R7paPNSCLDvsovG8k5nFvP9tiLx7BMQ5OfEcvOk+17z2FUC8qkHLPGWbDL0Nqd06ReCJvcSS9LzBJs48taWhPBgvQD0xlgY84f0yvHVy+7t21RK81FmkPEaKszyr9jq9RI4pvEIVOjyZO3+8Io5ju6Sr+z3WbBa74RfgPbJDsDuzgFS9WJaTPFvOR71SpA07cRCSPCNkcLw/LIq8DDHXPK5OjbtlScs8Rc6sPMH+aT1yLrK8X9sXvMoxFD1vgLy8QLEiPIfDvDz/+JU8TagTvXlFfbt66Rs7baSkPMG4sryTwyi9PVuzuymqsTzadlC8FvzpvLBLgrscqcG8sFCivDI8Zzwo1Ck8XQKYO+jCDr2xRGw9MqRKvEB6hTyIjiO7eFihPTdLnTzkOmS9TSY6vd8sHz2s3x08DZFoPC92ijukmsC8VKIWPbDAsTvkOvC8vYynPCiCZz0uSR49JBzTPMaekzzRuyG98vCgvJJRvjyS1B89AXNuvAN7D7wdATy8qvj1u2EXfrr0pjc793MbvKVOAjwrTH696SBRvM4h67ykZIA9JisID2Co3bwZ5Q8+",
                "SpuXO5SWSjwr7Hm8yfv8vRI5Sj19ohO9xdVUPfSwrryYgfU8nyEEPD7LyLy2AOS8G/i4u1jOnzvb3ny82S2oPB0IfLusa0m9KNCBvJRC/btITZ88Z0T8vGjPQ71O5zI8qGhtvLbne72SfNk8inuePCDNnrzG3ye9Wbh4vdOOMrzsExC93haAPCleAT1vtzK9ACJpPKe0rTuj9p28+8pdPDRfu7w7/0s9kHO1PINcNDyb5m47R20Wu2Q7fTyDirw77UnmPGBIZr1/PDQ8k46bPJtFq7yPkZC7HTvyvTQviD252/A82QGbvD9OOT21Lwe7+/M6PaA2Hj0w6eE6RbZzPQFwjbrUS8U85Z4jvfZLzTuwrJQ8WU7evDraPT2+kaM9u55juwYGRD34rxa823W+umzDojyzIqe8b9thPah/E7wCBa25r6HkPLpdQ7uYBBE9h6sevPwj4rtX7n+84lsfPZHHWrz1k9q82owGPPl+z7sunKC7gfgqvOWZtDoMvWE9hbf5vDuXBj16RBy8/onTPP4sFrwSiQI9TnqNuyo5Vz0W0Zs8qWYJPNHyBT2Aw4G8GdsXvC/0FTwGRTA92KnGPDfrgT08mMq7UnkCuVUAzrs3TEc9NwSLvG+GhTzSaa08/BmnPAOBVjy3oV+8mAYZPbxlcbrovpm8D6EKvRpezTyQGAePYm8DPckyrby3BAO9JQfdvJ7UiLzMphG+rJ73vB5tJT10aVg7vqnQOqrjcr186Um3zy9vuxd4FT3ACpk8AZD/vGOtLr1EyWc7rVXwu7DIVTzSSz+8nMvIvJZE/bwPd4S9SD6mPC81STwZjuY8jb5xPaxwd7xKyQ69IieRPKxEc71Aqvs7wgPcO1XtoDwDjaI73b3+PA8w/rwcyfo5/H6cOwL66zxBY7y8xMxCvPpgq7ytyKS77TCyvPzryzz2+uY80CqVvG0vWj3+/jy7ltjtPPJY0zy71P68dHAUvQbfw7esclg883BpPAUw+bxz7Ba9KYKCOh4OG706ddo7",
                "EQ7QOyN6tLtVVpG8mRUevTI34LsSKD28xSSsPcd9ATzrx3Q80phiPK+/LLyHfLG8bN+BPGI5+Dz96ne9H6JavW8hQ70DK0E99AcivFfBID11noA421zUvOnxJ7xOo3c88x9hPILIAbzbSxO8pQ6svBcKurzaQFC7dOrFuph8VjpF1Ie8DJ1jvG82JrwC9Cy8yOTaupFQBr2Qg7686iR2vDywVbwux8S8e8s6PSPzCL2sKZq8ZcLUO9PxFzybldC8RkHevKPKuTxR1qS7/MstPe/KqbvD/ye9XuMHvX2Z9ThvioM8M5QLvNKmi71IDUq9cFRePNm2QLxn2Sg88GyDvFTHYjw4jYe6iwcXPXrEB4/7ZL688a+ROzZ2RL3qqKc8piDiOnWYKz0901m9AbILvUWVg7zVWBo95gFZvNk/q7xg/uk7obugPM6xcbs0ZL08reXpvDYC6LyovA29hp0KvbOYNLuZqpK8cXLwvEGWHr2vFdO89wdvvaCIUD3rnCe8FnRmvCOae7xf7Vq9K9s9uwgidzwF2cy77m0RPCyGEL1X/FY8XgDZu0YnlbxDeSK8FFzHPKbxcz0yTn497XOOPGKhm7wmJMU9e97MvLIVrLw/2vU8Q0c+vXV6lbyOjIK9bGkLvDiaiDxFAD097DQsPS2Enzr0Sha97EVePJyp5jxUOfK82VvWu0kbFr0JjJM5U3ZLPeeJTDweYAK9/sYcvE/VzbxWgum82C18OwkQhz3aXYm85Sg6PFu4vrqhKKC8Nhw/PMDwhz0E6KE7lsw1vQCLLL2kn4a76iTgPGkK/jyoiXU815kXuEgipbtIiYg7xzgSPCQptLx7Pri8Ds+6vG9zvLwm0X68thdMvfrVory3oe26dIRWPHuB9rxFL5o5hthLPCglCjxKd468K7MHvSrTWbyQY8m8SNGmvL85+zsLTIC9bfiQPLL9yLx9W6U8AW1EvCcsdjq3h5Q9BNXNvFUKnTzAdAM9GSHTPEzrFTqjwM076SUhPTGk1DwK+uG8",
                "rvehPGCaoLwJOZw76aHVvDbwn7ygIiK6TOEHD9h5M738WxM95fc9PWJ2CL3AcBU9lMk3u0qCK707Lja9F8WTuhrhjLsz0Ts873SoPLTjZzpe1ne9b5ylvDgsKrvKSJC8d7AzPWGgaD2ioQ480ALqO+MyYrwEPfQ8XuhePC30gzv41wC8xZ5jvItKWDzX0ye8/TInPbLbBL169aM7LgssPfyviTv1Ulq8waofvS4oHDuO2Bg90qiGO91HD72AURc8TqPmPLv1qTuwBya8C4tOvCFaWj3nuiA96hRkvV/dJ72klM28F4ExPHrEL70wqR+8NqI2PLIyCj0nvMm8/4x8uz5KEz3q+KA8C7e+PH64V7oqado8AtQlPGxsa7qjJm08J9j4O873EryudgE9LZ7hO8OX1z1gONG8zpBAvCILIjwFIWe8LLtwPf7YmLv3uhI9A8bDug8MZjysIHi9m5mBPe1YhTzhFw69k91MPQzMODxS/ri6dqoyPCUipzxQYZI8WtThPOPvDr24B3Y9eG8OvUdfk7tpv4K86azKu9Z107wVMOk84SMPPS9Larw4fp+8b/NmPFuKzLxzWVM8KE4SvSjZXT0GLI+8UYX6u8JIdz0+OLU7TW0pvVhMMzstaBm8bS5yvXisHj16fSo9te+tuyzuVT3O2Tg9J9y+vHqJvbmU6S48e+uduxtfebxNw+E8wi/yO+I1KDxeick8ZVzIPPdemDxeMAgPGZ0lPGpGqDu4Mt67cK1+uyvK1bpsLtW8te4ivIaSbTwsnMW7fMKavJFZT73t7cW76qmluWhlEb3ga028A0CJu2+Et7uAaiK7eM3evLd2czstGbO6gIAxvXRRGL2U+BK9n0OGvPUQkzx4SZO8+zctPZRVQjz7Nh26VpXZvHn7ybiqRxq8l7VEPX8vtDxHcRi7dioePQmlaL0suwO9VXyTPE3XYDw4X/y6wSWRPY4Awztw/e86qVS/PF4qdLz2Gs88JBbSPGyrFL1mm7C73LUfvJ9XmrvOlYe8",
                "ZcvMOxtWVDw/SAM974P2vMWYpLz37xo9wgAlve9OAb0j3Mo8LtkiO5AcfTx16Ek8YBCHObI/Hz0qgJc7gEhBvOBs5TuhZvK6+3+mvKm1+zoicFY8F7crPJjCpDyCQZY8Q7wvvXmfBz1Kw5Q8IVzAPCJalzsgJFM6r9dfPFv/Pr2j27k8VfHpO78ioLvhVv07ZnbdPGvhiz0PXpI7t0VRPUxXPLxtoMS5U+N3uwBXCb1eZYI7xLWtvBMDQLwJ/rQ7Nd2PuwGiOryPkRG8e1fBPNtKgTzRVYa7h4sYvUHBNLzM7Ea4nB71OkF2gjxExYC8oOHnvelotDwPCwY9vlXhOoLM87w71RU9iLEmvc5MTTv7NCG9aot7PLLEDL1JRcQ4hfeVvcSLMj0UbA+9K/izvF2pB4/TQKw78v5xOzpbKL1qN/G7eQ2JPI3cADpN8X+8XlwovG/3zzyjrQ68iPutvMO9g7zdBXO8B+wSvajMpD3KYkU91rnavKU38rxB4rY7KzCWOhKVxTxFnJU81MTtO6OXLrzJMeU7dcTWvGqXP7zMUd88rn6DvDj4rbwyFra8tcOxvNaKC73FaIM7VkOJPIdBzbz+ppQ89dkevds4Tj1y4r090QhcvMBw27vAgII7rIYsvOYQxzxjKZI77RDcvKpiDj3EQQC9KsCxO25byT2mFAo8mMl3vZb7JT3WElo8IgsGvfubyDwW6p28prsdPof27jsNw8U8L9cHvfHA9DzvDxK9E7yBPaStOLxJ3608Q3HOu7bDGz3FERa9+jswPeoJOL0x7AE7Yd3VPNkQQbsjVoi9t47TO/KeTz0EY5o93qLxu5VPsrz4Sk+9vIUnPdzJMz2ThCQ9nXpCveNzQ73P+/U7Mxa7u3eZLLwjVp876UvUPMhnOr2ydKm7sIr3uzoFPbwa+AU97WopPIv2pbzfPCU9K4dIvGgyNrzln3S8500yvIDzyjscxSy94BiRvHH9Ojt78Yy8YF3gupMX1bt7CA89mLOBPS1usDyVCiA9",
                "9LgCO1tVM7yJZn07ZLZNPXqvgLssrPE8MllVvO4wCLxvSKU7VE3WO8bS0zwEhgw867vaPIXlTT0uAtC7yj8JD+M7+zv1qX48SNYTvcO28zw/sjI9pYmRvfI42Tzd3508gBe+PeFqbL0DdHO9nREavcNLs7ypSoK8+O8CvXQNgTyqdSM8vZGftpAoNj1b2ma74rWVvHmpRT2LmFG9QxzHu6/mtTyEUww9O+xmvYghsDvynbA8Y7HCvOKIlTzQ9WG8nSsFvWuVYbzUMSW8UNpNPR6nLL1wZnA8X/6CvbyQ67qUicS7VrAvvdwCCrwEsl88T389vTA3pDzF0ie9Dw4Wvb4Kab3bkJQ8It56PN+xwLxg8wu8B/mvvE97Zrw6D7o8xiXYPAE27Dy4ixq8JTZbPPlYXz17Ghg7fZpSvc31r7weFv88By8BvYPwuDxWyNy8Al6TPErzCL2MV0G9J1iwPDK8OrtXJ8Y7EFdoPEjAszxVUSO9BOsavai3Uj1EOr84ut0EPWmuXj2tqaS8V6QtvakboDsI7bC8za6BvZQQmLxndmk9SX0nO3E3xLvQGkG8Pn1rvfnOk73DsU+9NDoWPBQiGz2Wi8u844EMvUPv1Duz1fa8zX2GvZ0yM72Kr169Svq0vHCIGzwnXF88EwueO7Hxfzx0aQA7o6PIvFdQYTsHvRc99kabuQ6pZb2RUaM8uW+KPPWaljzSf/i7vHYWu6Q8Gzu7FWS9WMiJvdAh27s6Kiy9YIDUvAlQ5btrTau5Ib1QPF/Jfb0R7QiPdreHvCXVvzsg/IQ9apwoul4imTz6eRQ9yln/PHYcfDyPDZ+9bxZqvHovEb09Ame8BBHlvD55mjmyaow7wzlgvG7bpbzP9Ck8oiFmPVGmUDvuqCa8kPfBPEB5Fb1TsVO98u/BvCOaurpvr8S84r8tPR1L3Dreq6O8QPMWvDWliTtP64G82LMjvYBgAb1W9Mi8BbJMvRBDLLzcI3+8dQAbOcFjDzpq8om84vuvPB7KCD3BbLi8",
                "q48BvVfKojyXtKm8s1LoO54lobvZ/gu9y6kvvRPPujto1Rm9dhBYOjfscrz7oCW8uWuuvEMl9DoadlU7FjoxvErnkzydImc86vj6vFuUibyin8k87fXruwvzFb0oObg7xhPjvPcOMr3U32g8MdwIvausnzxjtl29k2rAvGtspDsfdvU8fwjVPF6C97utyYe9ZUSTvMvb7jue4EY9s7ibO7c0A726SAI84jm/uCibzrvu7Yk7BDxQvN8GWT0nJki9mFSAvQjfGj0b68M6NwQ7Pfo6JLwl8yQ9kJJivPwCCr3FsK09mJESPBPkzLu55aY8JPGEvSvfIL2n76m858iAuqrzEbz6fFC8hm6CPPp/OTuvhMm8MV11vV3CAzsU6YE8ShdyPe0CoruHodM8n4zLO5HETzzqt/M8jm2Wuzw4KT0OfAU9aDyQvDtnMjzH6LC8Y1KaPHa0CA8UZzw8pCbyu4iCsjwOVj+8psPPu2SQID0LIim9Viw8PLwAgLyUMVO7SZi7u41nFL0dB1y8+6IzPXuT0Txnn9o8P0wsOZ+DbTzYale8RR0jPQEBhztWl948pmjdvKI+Fb0SyTc8sLDOOoFuojxu//y8aNYMvNZPZDsyeWY9rGqHOnuv4Tzv2eo740GZPG366Ltu7Da8jHE9O31wUTzLGqQ4kiD7vDjFnjwJMwc9ImCevH+OW7yZXv685vsqPLEaBb3VrIS9ZXhvu5ukJjyYjnC8gLKYOmYmi7zCEk88Y0xSPKxIUzsg7Ae8Ax/cPGV5iTw4dL48OLQ9PNn6Rz2C2b07mMBavLZIF72NgTE8pNkmPGhFO722zuG8H8FUPcwxqTwg+jc7lcqHPJ3PlLw0hto81G/qPD8q37w7iTk84DpcvEaqqbxx3au8l80PPSpVrbwCjaI8gShJOoErurxAWNQ6zlhtvZkWIj32uyc8zrG5uyt6bD3rt4k7m9xdvTV7Sz0OSAe8xxQ1PQMdHT2P0Ro7tbDVPAXFQ7yOGZk8B+6bvOC3Ib149qC8",
                "CJkgvS9jLTyGO/S85GMDPGF1lzwdxCo8yh+XvLBnNT2FZGy96icGvErdezw0lCk8NTG8vMAxKL2SGvq7oeu/PNc9drz9F708YQnpPCG8fLwmiQy9J3+zPHy+ILqZ1l88TOsID7F/nbx8M8Q82Hudux7ozDuQLkG75hw0O+OpLL28zdA7sf0MvTQmeLulmAy9gx+KvW43urqdQ0C91z6GvbaHZjxiE/M7PsCmPJ5qd7ujyAm8HiQlvQJUJz0YX8o7gHlmvMf1wzxupO08bMBsvLk1+byrugk9DJSvvJYPHjylXmu8PTMKPUV2LL3KuOG8vXZ+PekvqzqcRAU9S34dvXaTab3baM09P5x2vRnmybsUyDC9RqYjvZ5emLy9QnW8y+FyvJzAXr2Hg1A8FRRLO1GGpryxoC494vugvbLOtTvzkbG84ONvPKQaOT2TxcO92XYnPU8IqDscCIK828yzvI8XuDzsWhC9yNEOvFEInD1xl+y8QdyVOx4ZtLxJFp29SfBgvJhyrzxfcIe9ypCmvOLCoD0LDF48S5NdvYPS+DsL9fM8f2NFvHvLgzxIp2e8uvePvRSkY7kEvBe9zqCXvN3sK71DCVG9aWqfu+NJ8LrZ5CY8NcnDPEcp5Lx4dE29K5dVuyBuhD0RnwC83gehvHcZX708nc87XhqRvcFujb2Qury7KlgPPKnNcLzDkW48X3YRPBBR87s1Wkg8T3OPPE3iTL2PlSA9qejcOmpqNr1btcE8YqgjPUwXFb1DNNk8AY8jPHzTLrzdPGO9kMIevPccnrvDEpA8nzYYO6wjCb3OVVc7wnsGPbIjLL0eRQgPkP89OPZ1r72O5IO7/iqoOwR5bTyU+tw9JpkIj+abCI8EoQiPPo0Hj0t0CY/RygeP7dkID2bQBw+vNQiPMhcJj576B4/uEgmPpRkJj9seCI+r+geP9SUJD4igCA9x2QgP4PoIj4jsCI8G4wgPjv4Jj4ZaCI9IDgmPmEgIj03tCQ/BkgkP2gcID2ubCA+BZgmP",
                "Lr8IDwQbCY+j0ggPFTQIDyFfCI+WVQmPoV8JD6gZCQ95WAkP3V4JjythCI+2SgmPNdUHDzIpCA8L6QcPo4oJD0HZCI+UPwiPXdYIj1N6CI/R5wgP4uUIj/NoCQ921giPG6sHj1X+B48F1QePz/IHj+sXCA8f/AiPZW4JDxqzCI/MiwmPlkcID0TOCQ8QYwmPfTgIjwzbCA/fNwiPpW8JjwHLCA/OtggPE/oIj8jVCI/wqgcPpoUIjw+OCA8TgQiPtGkID7weCY9PKAiPF5oHD++VCA+IsAkPxSMJD0i4CI9K7QePHxoJj4ppCQ+R5gkPrmMJD8xpCI/35AgPBAwJDzvPCI/RBgmP1XEJj1RPCY/5JQiPDEsJj9I4CI/4hwmPl1AJDwODCI/17QgP8qoHj8YQCY809giPceMHDzGiBw8HnwePuQUIDx/pCA8zwwgPpg4Jj3tpCI8XFwkPCNUIDxZ3CQ8i2AiPjsIIj5BCCY+U+giPT48JjxUVCI+yxgiPzicJj5+LCI+kBgmPLxMIj5SLmr0vF1S7Y9lpPENYXTx/ihY8jX/ivGrxCr3jM628raGLO73xHzxjC+E7hAD1PAHVTztsbpa8l4NJvLqYxTu2YT48Pd72PIB/6TxjsJu8wUoBvBc5Urwv77g8+qjsvCfYCzx3xV69wOHcvN0omDxM2Cw8FpmyumlrhbyXzyk9Hy92PaaFE7tFjjy9rzPVPLMsE70GTuE8SH78PIeT5LmJZU+8XNqTvVFjN702Nbg8twc1PMOhE7zq0Oa8PakQvEUOj7zzYbi7Rbi7PFYbdjzfl3I8YM+0u9m3ND1wUPY6dsEUvAeiJLwJr9e8r20kuwwTPT1CW1O9ERinOwiUdT1tOpk8/lQfvLLZ8zqXx5m89achuxrTXT0MfY28hPPYuTlkoj2RIA89LQ9Kvf58bLzLqoo8FyOcvCFx4Dx7o/S7kU4CvTEpOD3yDrw75TcZO78ADj3qoke9C+oXPdb1bz2bIi28D/SQOz/OD72D8548",
                "99L9vC3qBb3ngx885roNPWr8tLzp5ps89Gc1vRzTB7sezT285oaBPCw3uTzc2d28K36YPHrF57uD5s+7V0AOPe/PBL1lLTY9X5gEvQy807x5lPO8PtJ3vLQlR70976g8uUZwO8a9ST108E08UbzkPKq4+Tum4io88XCJPbh6rTtU+Yc7q6UJj2XBLbxWabk7z+SsPLHVM7xiCgQ9ja50vVEdrzzKQsq7XSuzvKTF4TwfNTK90ndxvd79M7zd+Ug8sqaFu8XIET304SE8O1MtvB8ikT3qBJa7YFdjO1vCtjz55Cm6bnYgPZf3g7zyEyO9igYfvVy7pzy3zA891ALTPMnx9byOusS80mWpPN6wobmFja08hjIjvXBEq7yjA728p48iPMTZ5rxt5hg9qfJVvRcPDz2TJs675iDevBGMmLy0ExU9jCdzvanYQLcPW2E8tISvvKSbBDzUiyc7BRLavK4UiLuMI6O8c1uFPUFg/7phsiy9uVDmPAs7Mr3yEBS8plwqvbRv47x2qcS8am+pPJy+Kr2gnia8GdFRu5XNq7yxqWO9m2sTPWuOLLxIBzw6/mvuvMhrJ70GLrc7ZndhPWVUy7p9Bl08p9wSvZBrMj2xbeu8ORAnPY4SHL0DKaW8BUvaPEeuXjtLeyg8n7E8PM+n47x+kE88dqKCvEdi97zUqv675rc6Pb9S+DtzcLS8yoQSPTxQdLzn+5O7iMMEPfIz37yXtW66v3npOoioL73/0OO88s2PPDJ1ZTxrTL68+nmsPIkBgTupZBa8ZBiSvJvJYjyDnMy838VbvDa2YrzMH5i8Xz24PD9FEr2viZk8td6QPP4KSr1fGJI9LNUmO4GpoztM+MO8nlAaPd74Wjw5rQeP4V3jPOJ957zwV8q7MCkPOylqWb3aa0o8JoDVPKxEkDwMyuS8jN1TuiXuAz3nR4S7IXdnPKQA17vdcwK9I1tXvJLhMDoktAw6/PF7vFN/ury5Qve8YrrWvLfdIL3rd/Y8yE8AvS9FvjpYGHi7",
                "xn+evE13VryNjMs8jokTPdxf0Dy3L8c73fc/O4awyjxz5gG8dgFYPK9WtDt+U0C9iU0BvAK6BL31vky8Ar45vOM5FTzBH028/P4oPXyFOTx4rfu75iKIPXjk+7uOc0m9gPTtO+1KWjySJhe9FJHjPAxbOj0dOgw9WUPSO7IbFD3lOMI8NARHvdeWFbucyh28YjNcvLkG9Dv/Da48XSsBvK230Dw/RWW8gAKrPD6tFLs7Tei5w9ruuk7y5TyjTzW8KZq1vHAlHbxaFtS6BHhDvFNpTj1LNAM9xBD7vIMysDu+ykU8dDYJPad8AzyQEvU7yoSqOiK9Kb1JOKE7VVtevBLXcDxyojg8E2dfusjtmDz+0U88/CIuPeBo3Dw1Kt+87OzvvCKi4ToTyhe8soy9O3Lvu7z6rrI7u5i1vA5tH71ryqc8EwoSvNokzjyMI3s4CL4EPC5Hfzy3mqq7twg/PGKJtztfvkM8rXfOPDanN7yWtY+7nrR1vPo0crzcy1G86d1YvCa1KrtwqdI7Xy0jPbQUijxVqbu75ADkvOgVCY/CQ547lElQu45sGLwMdha84HoyOnsCrLwTOR+94QTLOmw7Rztcti+9iHOTvabvU7z0tyA9CpjEvDBq+rwqO+w8NvGvvFdLSD2DZgS9gqHqPLaXrLyYNfc8V/IRvY/nF7yiepu8pgelukgbT71fvhI9GpQlvC7jzjkc7A48pB7ZPHZm57wbEIe8M1oFvbRIsbtvEIu5MLRHvLWr0jzCJny8Mq/kO+EwJ7ybXBu9b+w9PZYhsbtNdRi9jkFfPABxAD0sjBO7UbVLPYVPFr0Lzd08CvmHvDGwObug/tA7+XgRvJNbMzu2AVQ91OkEvXUXvrt8ns28bc3zvKpGEL2+PcU8oS6XPOsjF7yNzmi7tFqsvHDfe7wPh6g7k1GBvbQt7LwLW+A7ujINPXp0UDxq40o8Ynxqu/1OuLxhf567VoxAOvqcKD3Cuoe8AwMHve46yTwAeok6Ou8KPBTeDTwrHIK8",
                "jBvHPDE0C71i0EM8kpIdvXb/pboyQZC8mE4QvahURDytreY8Y+Q1O7fapbyJiu26F/fkvLzGCL1Tyzo7tgHtu9GYtLwjnNC82GPBuwhEIT1sDUO8K5OOvDFAmbxidqk9gL4CvbzLzryoV4m8huICPEAISrxjYiQ86iDPvD0qAz30JVm9WH/cO5McWLwVkSW8yVpWPH4OF7yid4O8g1AtuwUvqbxMyMY81wcJj3HbAz3XA/s80mrdvIozgTs2Ea86hbfSPCYcCY86IQmPdFEIj0MXCI8jbAmP5KYIj+OACY/VuAiPtAkJD1dkCQ//mQcPuSwIj2RmCY+jdwmPFtYIjxWJCQ9MSgmPU+cIDx3DCY+Y3giP00sIj9W0CA8WigmPj30Ij2QcCA+CFwmPzEMJj+KzCI/6uwcPf6UIjz2bB4+3+wiPwioJjzlPCY9GMwiPklQIj5v1CI/V+weP7twID1WwB48sGQmPPWgIjxHuCA8c6wePEp8Jj+C1B49qZQgPJj8ID2wOCA/xrgePbYoJD89gCY+dSQePxJkIjw1wCQ9u4giPX0wID1B8CQ+0qwcP+G0Jj65KCY9sZggP+YoIj2PgCI91XwmPCusHDw+RCA9WzQePCdgHj+vxCI/8RgkPfOAHjyyRCQ/YiQiP790Hj+nkCI8zdAmPA6kID2WMCI/f1gePJiAJD4hlCY9DiwmP6doHj3oJCI+uuAkPvTsID4MGCY/1KQiPLp0Ij0r3CA+fpAmPkoAHD0JMCQ+82wiPgLMIj6OyCI/FmAiPG2IJj6NkCI9x9QePfCsIj++0CI+YswePdf4Hj2G8CI/VfAiPaeIHD14pCA9vpQiPQP8Hj5VVCY+0mAkPbsoJD2XLB4+xXwgP3CYJD9+eCQ+S0giPq5cHj3/7CI/6XgiPlygJD+udCI8jvQcPM0cJj3hRCI8pjQkPGH4JD+P3B4+LjTy9VKMHD4MsCQ/MwgiPkOcIj5o6CI8FiggP/xIID/Y6CI8SxAePBokJD+3WCI8YTAmP",
                "Ab0Hj6KwB49IlgmPp6wID8T3CI8D/giPLzQID+BCCI9scAiPlokIj/JKCY99jgmPkLcJj3JhCY+YHQmPu9MHjzfaCA9PWAmPP70HD8pnCY8w0AePo7IHj9KuCA+7XQkPJpoJj2tMCA+2PQiPdywIj040CI+WLwiP3x8Jj1TWB4+9lgcP0ikIj98ICQ9bZwiPpq4IDwzYCA9QDQkPEfoIj58DCQ9IMQgPLOYIjzpRCY+p3AiP4nQIjxIpCQ8KlQcP+VkID8/gCI+bOAkPGr8JD+NvCI+KxQiP8WYID/vBCI86lwiPb78Hj2f0CI8MywiPH+IID48nCI8FPwgPI08Jj4pBCQ/f1giPjFwJDwpVCQ+yggoP6wAIDxG3B4+RLQiPvcwHjys8CY9mKAmPYFsJj5KjCA+EkgiPCfIID/7ZB48JnweP7c8Ij1W9B4+isgiPvdoIj2zUB4+81QiPr0sJj8A8CY+OmwmPV3QID0KTCI9WQAgPidAID5+XBw9HlwkP2S0JD139CA8gLAmP0HYIj74gCQ9XzAgPd/oHj9ibCI/OuAcP0x4ID91XCQ+BzgeP/JwIj79oCY8tGggPepIIjy+FCI/wXgkPudkHDzy9CI+0uAePis4Hj37nrr2xvFi7asHGvEnYerrIO/o7Eq1rvA3ebTtZxjk9rgIUPLJP2D1xgFs9qHecPZRBeryA42g7m5AlvYkMSruv2MO8/xq0PLgMLjznnuG7TtVNPSp7d7zOBK288fkMvafrJ7zEutc5UGCeu0Ex9zoIw0U9MkN/vOOusrwnO3m88ys8Pfb1cjxAY+u8ZzrDvCCVILs150M6FvRZPS9CwDxHu2i8zBsXPDJTqjypnGQ8SoMEPIZqI70IghM84myTvJ37ZLvU19W8aJXcvIIDX7lRJgC5n+8VvdznP72c8g28/zs4u+yXHD1i2029ZR2kO35z2jzOuNk7GzkRPM9r6jtUWse6rDUxPDuNGDyT+Ru86NYNvYjrbjxZvQO9O1eRuqn3NLwhlcK8",
                "kxgDvTx3irtWQQU98Hxcu3Iu/TsfGxO9QkELPCRU1bwfFEy8Ks3RvMAHYb3NKa48yMuFvO/6Fj2doyW9rZzxPKo2kL1YUo88C9A2veoLBj2qIok9iry2vAAbLrzUvKq8nYDMvMUCBz3Wnxq8p33VvM9g7LuWnyy8AVWTPJH/Cb2H1/G8HhRSPL5Yc717EA88Db+ivCfR8bwYdQC8hlmKvVwlojwwXTC92cgTvdjavbyGf7m8e3vhvIf6dbxL7pU8m3bJPHzfnjumxws8IO8IDzMqLzsCsZ68dM7RvOpa6rvkuwS8DvzGvNqsTrvqYia8cHvPPM/DrbzNub88hWDPvE+DQjxUmM48BO6wOyYHX7xn36e8Mlj0O4Mmh7xjojG8nwyXPBS0z7uFATc7sFecvbaJUTw7//q7qyi0vHxlCr13fgy9Yji2u3Na1ryuYs07CFRqPAmECDt1H8a6vxxsvVeTOjw+2cs8tFMjvJbNtTw7FWQ9I74rvZOQdLwpHbO8dbl/vJWulLzTW608x1gOPZqejjx35MO8BCRfPOdcnrx7qg49JbmsvObLpLw87Vu8eTB6PP4sBz054tq8VcbEOyEoWjwnTSw6cHXCvGyXE7xNZeo79Lj6vLucNT3iGhi8iWjkvLF7IT2Y/C48zV8VPKXYMLznkjk8FLIwPMaZ4rwa60Y8wro6OkxDj7lFav48GkOmOx+vjrx9hkU8RA0jOgrsBz019bA6gPZMu7KqirtlEmg7uknwOpELlbz2jQK8bo+yvAo7UTyJ59g8IQw8vXeoVzzwAcK8TPoyPPyslL3beqy8rqyTvH0dTrp/H+Q8YMikt+2pk7zpXKS9uMBru2LTZTy5CwA8zZtkvaBkSL2tuIg9U9emugFmtbwTulQ8PGjUvMvYjruuxMU8hKvmvEnuu7v6Y/G86SGAPGwADL0rMSO9G+JaPGf2Rzwy5Yw8uOz3Ozx+kb25eAgPI/pqPDCeGr0PAM+8opMlPPpEobyePPg8JUVpPbpGlLv76s28",
                "Zmn2PJ95pDwsgQM9eAwzPS1mILwaVXO9Yny5ur99ljvklkO9pMwWvOj+KrzYG5U7ImyivGXB0rsjPC+9djCPvAY3jzuqBLy7h3wHvHxSXb0nuoW8RdOCvHlWoDwS4+O8LIo0u2UJejt7UIy9Mvuou5nou7t+PiY91utevXLt1rwoTcS83DdBvJLQvTs2KSY9s/66u5//obzh7pm8EF5nPSH+IbwKAdE8iOzDu0Reb7wQx4W8HYldu1GIaDsd+hA7l1zDvA/wPD3jiKs8+YVZvdvFm7xmFUK7EZbku0cIFr1l5Ca7XAalPBYdAr1C+8i8XraMu6zeAr31dSq9UDdDPHdjqTqo8Qa8dObnvCuuLz1/Lcq8N+NZvcM0vrnHPXc8LBBQvd/x+Ty/g4S8RmiYOwixKTuLDgw92kJZPSWyJ7ym5Ou5mRG5PBo+MLz8LfY7RlsuvT4m/DxnmR+9piatPPuCEb0Ob8e8B+UGvVeSzDy/FZ+7VJ89vBLeNDxRT9M88F8VPPiMqLw7S5Q6ua+evCI4HT0ovZE77MzDu5wgZD1iiMc8F9HaPOyOSLuPuXC8O5CYvOEXDD1YDpm856+3vBIhEjssDxg9B28HOTm+MTwajha5Eb1CPas5DL3Q4jY8GQ6tuzvOBw/40qY85QQ6vd37sTzRrcC5S90gvVUNrjzb1te8JAkcvQWKKL3CUPY79pcCvXFkiL3mQ4o8uHd/vUfsZrtoMAQ94yICvMcdP7ttfyU7MzwtPDHy1zv8GYQ8nISxPPnglbwBmtc8CCBZvNkNn7xJSq68dqGivZqljjuMoaE74qz7vE+P+zuMGXW8QJSOPKUuGb2AppO8SUZiPLUb7zyw3Pw7O3/xvOvWYbzYS9i8MbJmPTUFmjwA/hg9Ho8HPe9tUrwBLDa89dmlPLAvmrzewSO9/B0dvNcySb1t8FU9WUANPWPkrTy57uY8ckYaPZuMjrtmpQo8q43MvKOq0by7KNW7b+AJPXFhn7yyHxQ9KnJ+PZkRP7uyyaE8",
                "YQ2cO3KMzbv+5gK9BYYEOxrfuLyp3D89TKckPV5DsLqLh0s8y2MqvcGwIj1gUFA8HM+lPLwI0rwV9EQ9hKRrvBKCATv1Soo8KdXzO0m/CjyIDfE64r5cvH4TRbxer5a6/LqUOx9NDr29e+48dbIbPRcO2zuaJ5K8NcqRvNzTFb0hLog8wxz3Oyn6azsAOAm7KHLPPA/NrbqTIvM6pf9HPCfrUTyDLdM8CnQNOyJfJLxeeTY9T19RPPIAKzy1mfs8XIxyPaOiDj2jbHO9RJf9PAPLQj0vzVi8IKvBO9e1Izsv4ti5X5qnvEh7sjyVQAU8zE8JD/plWTo2Pnk844tAvPXiQbpJ6o48XRNNvacXM7176cy7CTDLOyCmBbxmRJG8Rs4qPdDWZbyTUzA8iLJNPMOEHT1Pljg88sKavDUetbyGYJO8bx4WPEFCGb3HfMG80fvJvM5V4rsZhVa8LsBvvCkhJzw3yaO7ZjeNvGDKUTx9Mrm8YWvtvGX2HztekVg8UT8PvA9YJDwI0Oa8k+/OvIB/CL2jDaA8aRE6PK5lWzxIosi8KiguPKn8zjwtkYC8wzzJvKo8O72zQRQ9JEF4PD1obDwB+lG68g4WvDgCgjubjlg8i8iCPZngsT0vzFe7+LSlPWK/BrwZR2G8q74IvSxm8rsRUEo6c0V2PMecMLuWVJe8uB2UvLOa8TxwcQs8/LUBvEftV7ynBaA82oz1PIPAFD2iJzc8mCAGvR1JPrzxOdU7swu4PY3FDb3IilG8SX5DPbUgibv2yXG8+FTlPD0c2Lxuopw7PgumPCxIjryluUY9GG/Zu2ibiLuQ+pa973osvUNhhTwfbzi8t9xFvUsaDLwC+gq9EOByvSRyTzxhzWI9WC1Xu1emzTw7riu9Je7LPCnXgLzkwZI8oC05vNd337xWn5479vkNvRY5szyAmIE8XpXoPGIUdzqlfcK6mgsRvQ6w0rxSBTM7UUQpvYIPmTvnF1K8CQa5PDtxq7kMkaG8qBM5O9PAqjtdewgP",
                "pdHJPMIR8bzDqJg8DlKZvD9bP70a8ZS856GPPDe+tbq9e2c9fjosu/fcKDzVDbE8y/kFPc9iHryAF7i8xoKQvDCTWzsUKxC9oouRu37cn7ynIbc8XBKGOzzyczxljEI9vQ+jvOwkxjy4N4K6TKWUvFVRhj16zyk9yz2NO9kRRLwasSG8H009vA0mBrxCm4G8+NlfPGcnAr3I3Cq9QY40Pd5SvrrSZEC8GFuavGnIvzzVu/I8W/LzPGi//rl4+FA72PSAvGsEOz3ZqUW83ZrgPMkchLy/G4+8cyU2PIHyNLxR43M8rsqsPHmaG7xih3Y8eZg0PL+GebvkTLg8O5MOPMRE4Ds75Uw9yhuyPNVLaD01VRe8bSRPvYq4PD3GfeY7M+24O/W9kzyw09w8DqK/PPYpirznHLc6SFe2u081drzOnn49CKE6PNCDDrwCQxQ8oh7YvDhzP7zg32i8zkcwvF6kFD36yhm92qw3OHLmJr3BDei7UAXEvJoxuzvy4uU7NPpoO/Pm7TyflxW8710ZPV0/Mzti0Ac84b8QvABqtjv3Lkc8l7Tsu0XeyLsu27U7rr8uvaACXrzSeTG82qacvJkb2jyBsQW7A0BhPfr3uTuEsK87faO4vBBB+by8rhc90+55uVWoI7zmNqE8UemvuzrwVLwILkm8gN/RPIt4QL2whF28cN6zvOf/CA9ntTo8M2aRvASGSzy+Pns7wYLsvGjNEL7G2oy83/YQPXc3mDw7Xbw71vsGPLL7ojzbyGa8T6dLPRExgDzfOxq8nh+1vUknFT3/Ilw9z6epPMROvrzHmz09KxZaPFJCZjzeBi+9mzGbO3XBD72pPbs8qlM9vRwiu7yEFGo9DooIPaGXND3inTI811wqPFJKg7oLCwC9ncUkPXacqjvKj1s6fRYiPbxrNz2NCta66EqcPLxPwrwrzhG8sVJGvRzgbTzHgi28H0kCPdxwqTyAVzu8CLlnPAW/eTy1ujm81VwkPGmN4jxToRs9SMzFu/aUo7w6CpA8",
                "+9/ZOqYFJ70wXBG8vCcRO0mp5jwzOkk986+3u14vQD1R4I28j5wUPFs+ADo0tiW9m0yyvNxCBz2TkSY6SRUyvXYd3Dsa3G26kbGxPM1LpLuajQo96tj9PHcIoLw+V+g7luKgPAzKFj2cCei8/AvMvPdVfbzTMt28dtN2vGw6FjzprDm88X9iPetfLrso+Co992EDvGFEULzArDo8aARHPDvc4bqDpVg81j+LvdDirrsHbYM7CA2IvArJ5LwezaM82AIkvQuciT0M3Ok8k6JeO76dxTs/Xwg8U1ICvTvrurz8hb88I/pKO/zLfrmpzbq8NY8APMYnybwVT/A85D/5PJTTmTp0tJW8LBGwvMML/DwB9ps8j2gJjxwaqzwPFj686gsBPac91DtgCCc9NZJPvTkBVr3Dfkg979cuPcRQ4Dw94Ju8Jzw7urBaWLyDRCO8+kjfPBLRFTzxTLG8GbOsPKHVqzwWuh094TXCvM5vIb2X/Bu9jKSDPHzx47nEYKO7CFsXPYOsNL1Z2qU7ghQFvSKyZDzJepW8a+/svN6YFLyKXp87HlzcPILyfrwn9Vw57kGZvF3KKD34Ypu8VAcQPZv6fLzWtTS8kIJpvd7RJTspH2c9uoMfvV8RCL2uDFO7VO03vGD+1DxuNoO8dHvmvKmmRL0mGeo89IM9PImsU7yGFes8ig/RvHDzubwsE0A9PH3YvAw4ar2IHyw808P4u7hmNjzkGnI8LDArvHbEr7zg4vQ8o11ZvELAcL1Loh488DcXvEVwBb0Lnbk8q0mVubVc7Tu3CTW8D4n8vJkAOr1BiSG8ZnVVPD2K77yu2TS8it0bvQyzSb2n/BK8c/46PXvkAD3FyN48+QCXvL6mzDwzaIy8i1V+PLwEoLxFmKs7kSWYPEQHq7yHX7y8oeVVOxDH6Lxly2E8fzc+PZKrpbzZfbI8qjXBOjt4Bb2Z3Ma8REYFPTAusDwjDO688zpVvKo5mryBGiy99hwPvb0eIDzPSyK8foEhvEUQBb1uHAw9",
                "aNMxvBy+ZTyVfi88UPgOPCDJI738ZRC9+QgEPCDGcjsPyQePppwRO11edrrPuXA7/9YAvDoUBTv/nRY9MvWCvahECTzdrza9eVahvLbhozwGadA8xrOzO0vZG7zznI48xpyfPN9veLyCeqc8L5HdPL9R6bzmq6y8LbbyPEAxxDwClwa9X5OPOzrQGjzIXLC8ZhrXvL3M8Dww/us5cfMhvDllZrqsTuc8RpLWPHqDN7zj9Rw9hUPqOh5UFDuHgwI8A4ZfveCUz7w+Ek08SCDuPCgvnLyxiM49zSv6PJEzcztml3U9q2oUPefRiTwC4ZM5YdecvLr9O7xrPxG9tgyGvB4AfDsSV+28kVoNPET1Az0Nm3k8ULeyPBqLZbyHRPA8RomCu7nQjLypPnm9lSgpvDvrmjwnoXy7qJgfvTJq/LvfBLy8LMfcu+mn5LlNho095wPsukrGtLz7Zc684rNvvLyDNr2ce/q81tMEPftdiTySAjs7KfbNvDExZDuUZyA91VFePV+c5bzHFUK8l3ixPERrzDwgG7q88E8aPPQKjjtiGQK9e8SIu5dFoTxxyfE8dgnpvIjmJjySzBQ8z7s6Pa4Cjry+QVk7I9eHvFwNwLwkJI886oAHPEgnrLyoFHa8y2mhO2WPEzuW5v88XuNUvPiHrDu1unM9z1RTvNBELzzKizm9O8+kvD+lPrzQCzs7nt+2vMzshrxKyKc8DLouvdUWVDyK7bQ63XIEPfplBw8VFJI8fbVIvDcDijveQqa8vVNyvX8mh7wWlgePscwIj2amB48vSgePZhsHD7XQB49c1QePnbkHD0xXCI/jhQeP+EcIj1AlCA+ORgePU0AHjx8+CI+VZwiP+3IIj23/CI9cvwePcqIHj5yOBw/gxweP2CEJj3YqCY+mngcP1QoID7y4CI9KxgcP4scIj/V1CI90xAgPmK8Ij2ANCI+XyAiPRCoJjzEnB4/pmweP/G4Ij8LYCI8a3AiPT94HjyimB4+1+gePb34HDxWeCI/NsAeP",
                "z24Ij9WMCI/5QgiPPhkJj61RBw89LQkPH/AID90/CI95oAePSWgID1YDCY9FnAiPsp0GjybiCI96mAePflAIj3CGBw9tbQiPxgYJj+p/B49/QwcPaLMHj0M8CI/LVgmP1PoHj60HCY+ZTwkPtYkIjwjCBo/87wiPVkUHj9iDB49LIgePuFgHDzPGCI8QxgiPag0Jj6UyCI9W0AcP5/wHj4ozCI/CsQgPoikIj/0dCA809QiPNloIDwtUCA81CAmPFDEHD6fRCI/5vAiP7RgID1QmCY+ttQcPzY8Hj86zB49DagaPwpcHjz0qCY/V9QeP6WkHj+3CB4++YAePIFUHjxvVBg8fHgePzqMIj1LCCI8mJAgP1EsIj7xHCI+HZAiPrJUHj3ZECY/4SQiP7wEIjz+sCI94TwiPUpQFDzcQCA/ygQcPhnkHj+aWCI+QwwePKfthu5xZirxNq0+7ANAOu0KCuzz93qC7dsUVvTGp6TyQWJw9/WeqO+xlojxf1cg8RDuHuvnwsjzSlpk8aSPyvG9YxbxdYN+8YiV5vBUYIbyPxuk5MzfBu9fm1ryE3mu8/2ycvaLgtjyXFD+8nXKuvKXjJLzb8Bs8WLAqvaaKvbw4CBy9mYtIvV6k7js/7OW8LSUkPRuhZ7nqDAg99Km0PDYOz7wCBlU8VKs/PZvbF73QxT69A772vNvdArxiv6E709oUPXefMjtBHOC709elvLHVc71E8M67Fh3kPAl7MzxK+bI718ZkOqA8QrxzpTI9NwyAvLAD47yhKCg9EgBbvaz1P7yOizC9E4/SPHt2Mrymvsw8dPyNvLHbLb2GC248YUorvTKfOr0MASK8ZXl8vHq54Dy6BTo9lfVqvUtQ4zxZ8xO8TJm4vCvk9jwzMQi677KWvO6D/bsQMAW8KVoxPGFsWb2IXpq8vk2oOj3siLx8X+y7KlKOvLbt+jx+TSI9qx09PWLfpDt1aoM8aAPGOf0OB7050KA6E6Myvacwf7wIg8I6UYCDvKFtPTxr7T+8",
                "Mj0cPEglKr1QRHu7oWaJO56Jtby3RBy8BhGvO7blqruW5MQ8ru4IOV4ZIDz9aOW87HefvAARxTwwrvO8JjErPRYPM72j+QcPiliFu8K3nzzPj5M80otEPPlOuruw0EE9X+4VvImJKz02ky89SbPOOnzuLLwtFnW88MtovYueVDuGZlS9hewqvFI/3Lz5F8m8eFOBPNzj2DxhfEA76sonveMqurtGP4S9fnBsvKRM2Dt4a8I9D8KDPC4Tdbzkdoa8tNa8PNd7izxVRhy9FLhyu/Dir7vgtoc8Hq5PvNN2/bz4Mxm966E+vZw6Eb0b7rE8zBk4PEmyvDvFCZM6Cp5mPLW6KjygPia8cGWWvSF+iLvPuMs8JmHYvICHn7yLJ0k90748PJcCjbxqnRa8TBQKu5YwszxgflU9vgQWvbTSHDwM+nC8FmI2vQPuk7ye/Qu84Xz1PDUr5DxN1Ay9xXfNvEGpvjyHv0a8gPMyvOVXZDvSjBa85c8Tva/qW7xYwls7VjG6vDS8Oz1V+Mi8XNKpvUeSq7zy3xO7hKcyvaWcuLxonri7jzFoO5uZoruJKs471TMTPH3UcTz7uqe8UfuauyGapTwlPSq88zHpvFtUUTwFrQ69JICvvTArrb2PvtS6ny3zu5pP+Lr9RaU8okmBOy1m+7qQJwo70l49vP4GUDxULwq9KQkCPTcwsjy+F7u7xZ+nPHIWp7tkspS8UuQxPc3eF7tAadc8VXMpvPLNejxbI188Y4tGPbfFH7xNeZy8LZfyvLJ6GrywrF88w2LTvCLGBo9tU0W9uzRtvWPGDbyoVxM9y74UPWwhND1OwAiPcPcIj1SUCQ97dQiPVYUIj4itB4/MKQmPecoHjykRCY90HwiPv/AHj3e2B4+H0AiPViUJj4ABCY9D4AePZUUIj6u9B49PqwiPRBUJj7xxCI+PDAmPI3YJD1QjCY9ChgiPl1UIj3xTCA8j7wiPc2wIjz9hCI+5FQiPnKkHj0dhCI/7vgiPjWUJjwceCY8BdQkP",
                "ROQHD5pGCY8X2QgPU50Ij/zYB4/TAQkPVVsIj7RlCY/cVgiPTnsJj/l6CQ9bdAmPUNoJj90qCQ8fDAmPU/cIj3iICQ9r4AePGysIj0ngCI+vNAiPN3gHj8peCA+gewmPYnIJD7quB4/RCQmPrsoID64BCY/Q6QePXWMIj8wxCI8GLwiP9wIJjwvqB4+KPgiPQUcID9+rCI+IcwiPVeAHD53KCI/j0geP8/oIj1PXBw/6hAeP3BgJj0ucB4/ZygiP0vwHjwlcCI9qxwkPRboHjxdBCI+UWQmPZzEID770B4877wiP0nkHjzfCB4+kYQaPdHYJj8sVCI9uYwmPFaYHj8UICI8jAgePhs4Hj96OB48/1gcPd24Ij+QzCY8uZgmPUawHjxxpB4/EJQmPmBQJj6COB4+PmwiPt3QJj5f3CA/xTAgPHnEIj0piCA8kPQmPJEAJj7sXCY/XWAmPlAsJj0TIB49nLAiPzn4Ij6I1CQ+yuweP8QIMvby18D1Rm2S9u2C2vMqcnbt6HiE6q/+4vFOP5LwwjdM7OfcbPNgckb1uED+75SAQvMBs57zhJDE8VrW2vPrjiLzNXv08UrYXO4oFgz1NN+U8r/QQO/FHt7ynY9W8OPlevYnHDT3ZnB09DNoKvZZl9TsSPOw89t7iPBIqHT3/Mw09xii0PYMNkrzx5vM8Vju/vKs/wjx+YuO8q5EZvGH4hD3CYRk9IhsHvUXjPjxkncK8yZ5eO/EP3Lv8DNo8XOf6PJpw0zyO/yQ8OM72vBg4Ajxw0/u8r3byvDOtvLvZBVi8B/V3Pd6HcD2tU809+TP0vGPJ3bzDUmU99iJ0PIVTU72Koww90FaMPXdzHz3txBU9Tlk0valoUz1K0nc86yfMvCBsBTxsjji8eLn0Oy/FA7070oC8KL1WvUKUDzz0uIg985dEO2N44Di2CgA9XFjvvJ2LLr1FeUW8MA6zvDKUjby1Ciy9uVYVvTO6R7xFFTg8BcmPvKR6LLwImSk8MO+xvKhF9rwiMQu9",
                "fm8HvRPgv7w1Ybk81rRpPNQj7DrwIVg9lze0vGZaUL1fXWM8KgOBPKTs7D1SfDe9NfXDPFau0zweNn89tOnvu/bBMzziNR89xBJkPW5UaTvi47g9k5TFuwEOjLyuhoE8jmY1vcejvbzviAePNkquPOSeCb1f+nA9h8FYPIxfnDwwS5a9akuQvNJw2jpSg/q79wquvH/KZryBhh872AfOu4W+dTw0/Ca8k04TPUrMWLusshY8RvBRPIYWWLuDkJu76I2COxn+Kb2cZUe84XgiPT5IabyjIq+8y9sfPGk9HL3JINS7uZfCO9IhQ7xgn6882KCVvMy2qLwG+SY9X09HvW9DzLxQIwC9J7a6u95QmD2I5lO8ZddKvOBeAD0q/e28YAKNvbR9zLyzTGY7IKaOvV+OfTzaVWY8UH6aPO9kurv1ktu8EG0XPDerLbwmZ0s9e/LjvEtwc71qH+E7CRiqvD0lGr07myw9csSAutSCHb1WrTE8BB0CPHWUKL0jyg89WLFzvbB/lby+/QI99ms0PHfOs7yvMwg8muDkOw5rSbwewCC9orKtu+Ddo7w2cCC9uAcluuKsajsKm9M4rCXqO3JJwbwWg5a7KmLsPGH1Qr2cnZk8DU8MvaoGyTxoK/m7wagCvdqJiTpTpQU7v3oqPf31zrzyOPE7TGlMvKoRC7zdvCs86bMlvcXS37yp4K68kqV8vDY8Az1VjLy6NG8avfd3NzzI83g9m5+WvVzCEDwx5lo7c//qO6N/CT18Azm995OOPNxA8jyayRo9wzgWPSBGDDxo9gS8HyntOxpz9rsRhZ86hgMivWvKa7wLIPa7sDTdvP6ZCI9HW3E7MXHVu3sgHL2d3nm7Qk94vA0trDyg55KPi4eSD1hRkw+0SJOPf5qSjyWikg/oD5OPqXuTjyrlkg+KupIP58aSD8Koko+a3JKPDIySj9wVk4+PupIP/y2Tj2cIk49VepKPCUSTj8zUkg9rFpMPGvqSD//Lko/Xg5KP93STjw2rko/Dy5KP",
                "WZySD5BNkw9uhZOPvZCSD5Bjko9Ur5KPnkmTjx5vko8sc5KPbeCSD1cakw84tZKPd+CSD+mTko8iuZKPG4aTj4ywko9m4pKPV4eSj+01k494yZKPGsiSj/JAk4+e65KPqEKTj1TEko/Mo5KPaIeSj0ggk4/3xpKP4gqTj90ikw8Pc5MPeXKTj0vrkg/KOpOPTm6Tj/kxk48iopKPQn+SDzUyk4+Uo5KP2fSSD7nkko+AgJOPSseSjytIkw92gpOPKmSSjx/skg8RoJKPLvOSj730ko/w2JIPGLWSj8qPko8OlJKPQmiSj3lwk49EjJKPVXiTj4VZk4+0zJKPU02Tjxwuk49HjpMPvXOSj/3Sko81/ZIPN36Tj0pjk49FZ5KPrQ6Tjzq+kg9x0ZKPUYGSDyzykg87AJOPedOSDwDUko9RUJOPIJWTD90ek4+wjpOP34uTjxOPko/X2ZKPCniTj1pik49vbpMPZhWTj7M0k4/zbpOPrq2Sj10qk4/JOpMPFdYID0u6kg+WdpOPXn2SD4G5ko9kvZIP6KYOvE1f6bx4Ie88w6doPR1inzmQA2o8uPu4vNW9bbzRX7w8M5/8O0MbiLva9S28GrfDu8IUmbzsSvc85KomPZSzyby4cku89e0FPZfpdrzP4/q7fTnXPMPiK7yDfFI7G90LPWiEyzwdXxQ9L07vPPaQ0jygS4m8pfo0PIIDt7tu/g29Rs2vPDwKUz1LEp68ZxGIPHb1h7vHumm7X3wxvOswyDz68+Q8NqFtPK7dq7wJUIy8zYvbO466T7wHWZi6dDC+PK/EwrxdaB27hoHSvCz/TbxZzNI7BYcvPTZfDb0u7JW71FgRvYh/MLu8Eg48Yzy9OhIVzLvlWrk8wj+Ou6o8bj13IxQ9LC6ZO6X1Ib2eF/08dAUEPDud8bxXwo48xjC5vJWR8LxVpca8OJ5SPWX6W722GXw8OTTEPKRTzzyoqhu6ajnBu6NhRbwPGMQ8+MDkuw3j3zs1xgO9BB0HPZmAaDzXjA28",
                "+m/HPMX0jbzc6Wc8l2omPULGWj0EOxy7ekb+PLjgyjzUSIu8VC1WPZhEUzyzE5+8u4ObPBz7PDyxyZ87TWnUvM+8sTzLGtq8CC1TvAvvo7tkfmk8+t4Ku18IhzwHNyi8Nn6iutjsL7zeDYM8hKFlvHgkcLyB4Dc9xpN8PHgBqryjxWu8Igbku6U3yjvHBAiPP3WGPVo7t7xnZsi8JGJyvIMF+7ugWn29r01bvICqlLxrGtI9VPzHvCzKBT3tVRI8Vt4LvWUmcLygLuQ7xVRMvL23l7vNXQ29Y6KBPPvufD3EIXy8grtEvPt78DtWpRG9GnW+vXnPDbyjsHa8fvenvPiQ4LxhLmS9M2SBPMI9/bw/owW9BEavvDbBOz0Ywri8BV6NPFNeCDz01eu8Y+sXvWozpTtvb749IoW5vBwRv7xR5yC9l+GoOzXpIr12ZZE6+a0FvgdDg707NYs8aYSFPX90rrqYvvu8rpHYvCT/PzxtmQK88sbDO1tQdLzkarm9ZUj+vGd/9Dxy86a9IrkUvQ1bjjsmoji9d5mdu4Uu/7tdy+m7DogOPa/747wng6s9wugdvKwARD3B1Ew9lIfHvdG7zzvahS+8ITFrPTv9Rr3sZWG906fhvYgln7znnO08ux5avP4gUDzeJzO9YrNNPFmQIzzSXOW7zuIWPV++PTwamw67ZoJRvcpP2zyMPUW8nRlqvDilJLtw5Ly7m7KbvAc8nLz0Imu9XaJXPD/s7rudaOq8b66MvGjwbr3NFN484GrgPDXv2rtLoeq87LjWvMikXbwmtiO99yePPNMwYTxoCiG9XxnFPKc5Gr07+HE8DbP2PDe/XzwQU0G9495rPCoz0TvahnS9+ctWOqwYv7yOlhu8eDcDvQJxB48nPpk7jJFrPTfafLyuX1m9BSQFPewSpT0R4r487ZAOPFk9iz3lsL07YOe9vD3Kr7z1b6k83RDOu/BiMzxygK48CuvKOy9wHTuYaF+7AV1/vAY8MTxt0lS8KylGPLXOZLudw+A8",
                "mjMgvfRb6LzJ8RQ9N0lGPcnWPL3kIfg8tn4Vu8koHbtDchi9MiRovHqxWbx801y8mGIjvIrnbj3Mr4g6HLw8u10sMjxogJg8emGjvO/I0LvxTUq9mcyAOvhOVrzrIho9KpZ9vH/kK7yGbds7EuwNPb2UTr3dD1Q9hYM7PN7okLzd01W8vK/NPI2gMbznjm293bjTO2eY6LxawZC6ZpgAO/NFuTyvUxk7xhNiPITMkTxo+pC8wab9PHEdd7yhAxo8eFZOvDad9TwzjrA8WvKpO0kt27wM+NW8NHBwPE2Xp7yHaIu8lQrAvAxzyrlmRDk8lOT3PMJQgz3rVww8qONuPIo4yjye/Ay9bthRPelcqbvz4mE8qe4bPbLKijuNatW8WwMkvarNMz0D29c7W6mRvXk48bz2fwS8mR0GOyyn3joF+KO8OlOnvBDTdLwNmIa8ldTmPM8xqTzRvII8rGdcOzy4Hb0wXhw861M5uuvrdDzdTAY9YasYPHI1ZL0fsEK99c31OnLoIrzhNWi7dw/HvPht9jzQdBC920ruui9bCb0WGkY8mU4ID807jzwQG088lG9NvP/pQL0AlRO8fJmvu5bOJrwdVzS9dNTsPOl5Hb1zWvc7nAwRveowVDwe23y88tyMvC+Jazz1Fnq9+4fkvJj78TuOieE89SYXPPr5izwLGlC8jxZMu3epCT2DQMA85HfNPONIGD0BO3W8kv/POu6e7LruXOm8YH1QvKLknrzhpzi8dXKiPYvnPzs6bti6o1E1PQU8JLvXoD88vhIiPFPXDLwHv/G8EkN7PKJPjTyUlGq7yFUFPTUN0jx/PQE84vSZvCB36DxVgz08LRayvGVqPLyZ4xY8czgNPQE+6zzt88W7JmX9u0ZoEjz14u26XI3NPJa/qbxsOHM8ja5CPMTuD71MJ6g7vdr+vDHiG70dj7S7tWq0O5j40LxmQD895B6fPHszZTyDCqy8buotPHa4jzz6Dcw73xEUPeRq6bxm93y8KBGBPPe9irwGZaA8",
                "oaSlO+yNYbyoWmq905fWO1rZkjwDXTa9KXaAvQtjjLz6k/M7RZcHPa4zlzzuA7S53cs9vX3CfDyrGUU98a/RPEKxfDwNfi49YVw9vF7qVbu1LBI92BcMvYnl6jy7KQK9deEsvSMdobxB7gE8UoufvMhiDL2OTuA7xyeJPIDxTTy4U+07ftVMPZD5NDydII48q62WuwxCDTtcHJG85uXCPJEGhLxzfew8cMMTvFE2yDtFkwkPnW8vvM8Zwjzm04o8VTvWvCAmrDzX3La7nefKvHKUmTylmAS7v2kcvUaYDb3EoGi98TLHvG87AzwF+Um8/QXJPCsFHb2eskq8vMzWPJHlWzzQSua8vLgeO+Q0arzeibO8aD/ruzJxBTzCUAU9XLWwPXkYWbwdko07zDxAPEEA5Ltcp+E80QzBvIJ/OryNBPs5HvBvvL/Lrrqr6gm9cySxuyNUAL1IAPQ8YayJvNVvwjxhfJu8aNyDvN4cxbwyjRq9/nYsvcL4PDw/IM+7ZsMNvLH+b7w7WZ87TDhoOoP3Ej2uaZE8guw0vVT+9rsiW808z8qxvGBDHbxaO+C8GLEtvK4Ajjz9sLy5jNuJO5/DVbz5tFm8JRlkvK8uMjxZwxG8CY/nvM8N0LuyKue8xF7/PO8rU7pk1EY7URXGvFfmBDvJOA88erAnvGHVAjwCJYw89mlyPHyqfLy4BWc9OJo+PMbFJD0zqPk7EeI9vVGf8byBwMe8F0/lOhgauDt0wCi85/uevAbAkLwd8PO8aPcQvJrJHrwrI3+7+vDNu6y2trw9Fuw8rADwO8L4D7xcsii8i5k0vHZmbT1srzG9DgB5PVdQLrzGhc674aVJvMHo17xdw1u6I1zHPUn/AL0el1g9zRbtvHyt/Duasui7IIIOPDbrNrwRIC69ZUOEvHFwkDyITzy6Kbg0vfiBCI/ufmk8F8+SvOikGby4f8a8UQHJPG1fNrtx1weP9F8JD7JgCY/o1QgPKbEIj91ICI858QgP3TUJjxpCCI/GawiP",
                "VF4Jj9UXB48r/wiPcaMIj0a2CA8plwiPdL4Hj2+cCI+OTgePvsYHj7tICA9TCAiPaXgIDzL4CI/NHQmPBCAJj0roB4/kAQmPiCsJj1V/B4+xtQaPkgkIj5quB4+0ewkPTT4Jj4ebB49v2AiPNGEJj84SCQ9cIwiPEgIJj+4VCQ/zRAmPzIkHj+YhCY9/gQmP9nkIj5JoCY8fbQePSvUIj/H0Bo9bxQePL0oIj/AmCY95OgmPgbQHj5D7Bw9IJAePV2cIj47+Bw/s+AePkQcIj2ebBo9gfgmP4q0Ij/gbCI/9DgePKksJj6OsCY9oQgmPu+MHj0ABCI+v2QiPr5gIj8XmB4/7OQiP6X4Hj2r8CI9mrwiPBJEGj3KsB4/dAAkPyFkIj7OxB48XAgiPRd0Ij/xKCQ+dwAePRtYIj51PCI9XyAiPIPcHj5bzBw+tHQkPJEsJj4i8CA+QKgiPc/cIj1WdCY+9rgiPUN0Hj0bzCA/6awgPoT0Jj+vdB4+XVgmP+WEJj0J3CY+l1gaP5AwJj7SVB48ykgiPeQ0Hj3dkCA/ITAmPkVAJj/lsB4/eRgYPV9MHj5seCA9C/gcPjQ8JjzktCI+yDAiPURoHj252CY+59wePXIQIj/ioCI9vsAeP1OTxvBs+CA9fOAmPLFwIj9oECI8f0AiP1ksJj7VgCY8iDgiPZtUJj/GQB4/b0wePb7AHj+NDB4+XnQePEKMJD3PrB49t8AiPWGsID4ozCA87VgiPqqUIDwLRCI+k9wePPZAJD3eSCI98RgiPahoIjxbkB48WkgePgxQJj/6AB49JPAmPs8IHj3qmCI8BWgmPfsEHj8aWCI+4jQePv4MHj6MtCI/t8wePVCEIDxEmCY+nSQiPPycJjxebCA8yHAiPMYYIj3pVCI9gRQgP52YHj0f5B486QgmPekkID8Q4CY9Q1wiPQ8sHj3FMCI+f9QmPTZwHD/nnCI9j5wePgyAJDzbxCI9SigmPFl4Ij+NfCY85zAePY3gJjzLPCA/ouAeP",
                "8KsJj6uKB48m4AePhLQHjwAzCI+qVwiPnIUJjwqCCY9cxgiPrEUJjwvOB4+E1QgPcq4ID6DdB4+E7QiP+FYIjz52CI8ovgiPydMHjyyOCA9t1AeP024Hj2XrCA9N5QePOfcIj4+2CI9OMQiPuK0Jj6ACCY+aGQmPC7cID1YVCI/zHAmPifUIj87ECI/gYgkPxmoJj0oUCA+ZbgiPJeMIj9BnCI8Y9wiPMk0Ij0ZDCI/tbwkPu2AJD/b3CI+HVQgPzNwIDwwFCI8eiAePl0wIjyCSCI+vpgiPIKoHj8//B4/1DgmPzTYIj7GtB4/AG2W8YSZ6PVkW3zzjmSY8u25avbdkkT2sN2o8EmfIu5OJSL3PH6o8kS6zu24TOLw5DL47Dw1Ju72aCTzW14I6hpdEuq5ekLx8Nh69fX8bu3aNGL2K0Ei7hSPIvIZzqzvfioC8P5APvN0SVj0SChU9/K0mvfCHEr1Yr1o9GYUcPdd7yL0hXy08JUCbOv/WnD2qpk09VJ/OO7YPs7yMBco8Da8pvUmZyryeOlA7czCoPZ+ilbzRBgg9nyGmvbc57LyKEgA+0YrtusgNejrfnDY9+jA+vW2gEL2nLjU9dBx1veMPLb2NRZ88iHm9PHA7NDvu9pa8WQdCPc9cLb1Jso095I5VPVR6tbyLetQ8chV3PBpJKbg+74m9DL1VvWfoBD2oWWY8JiEYPB9diz3hloi9zgihPVrBGjzmOFi7mYBXvfAY7Tw1CFE9HJsLvW0zGrsHwQa9F3MIvUwBcrweDXS8M/+/POJs/rsQM4q8gcqCPGEUpby/Brm8mhXLvLGqPb3GadM8LNhjvAO/tDz0wIS9IBcNvQC33zz1mcS8US6NvNNlhr0A3oI93hLjPC0wDTyXl5O7BgcvvZNy9LxmDaI85dIvPOjbVz2tM0S9QQdTvR3YzTw8mqo8eM+/PB7SOL0m0HQ8B0ZPvQqgPr1SGB+7YT1FPFRjBw+JQQY8ZoHQPUdseT1vIRc9lWCJvQoE+rnKW4Q9",
                "H0PlPGjacbwtumK8/EMdPF2wvDwH1yC9A04wPOnihrsatvQ8J9n1vM0f9Lveewy8CE6bvOoK0zxP9oU8bZHcPDVXs73+Pja8ypUnvWKoDz2D84u9UxtouxwQoLsaZpU8FruGvPuTvrwKKYw6z8MrPDbvbjy7R5M9rmbWPZ25pDwxxp+878I5PLksTLyR1eq73v14vIhXgj0GHh69uBUlvBz/pT2anmQ81RrbvINenrx/s0O9tUY/PJOyhbxh9248Uw2rPBPtcr0pJzw9lrefPJn74bzKtcU8iAxcvP0aLzyZ0Iu8U6Q+vXSCwzyJ5p87kvdivWlZpDtuC3C6tqkovV8rizyI2IS8uRCgvPda6T2CW9e83EOOvBsNKj0CdC69sPAGPT02Nr2nsy49mAekOwPd0LzbUZ88S4v3PK49sbxVlIo806AMvJR5Mrx36xq9Vh8RPf8d4DzIt/c8bRDPPDVkHDydeBK9UkcYOohMm7xrOCs9wHggPEeMNjqIqaG8euDxuyFUO7xCtRA8ROfsPP5rPb0VH7U8Es0hPPaEmTxkqxK9aPoRPFQ2fT0t6pE8wbj3POytvLzdXza9nIrSvKZOHL1816g8aP9+Pa3Ij7wsapU8lwoWPTFtIT3/gvq8z+MIPenBOD1CXzG9qNsIj0pv0b1n/xa8ssFxve9917zG6ZM8x553vUKrrz0MnuY72519Pe9mALzsp727VofxvKzhGzx0GoK8AC8jO96KvrstSBI6zUjbPFEwErzZXWI9AcQuPBKkpztRzbO7YmzlvBdgAr3pJXU9tJPXvNU5aDvFVRY9gmPkO6Wg4Dv+mwg9HyMdO97ekrtCYrO8jjRKPfLlLL0p8qW6qk9NvASJVDs6aKI8gdIuPMzPLT0CoBs7KthmvSc/UTwGvrq8S2KEvMQTujw1Kp67t3SrPAF5cD0fS+c8pZkBveJYET3tXr27t7q3vCNNvzttuvg7S6TsvGWGgjwn7127NWKrPLJu/jyNBVG67ru1vK6A7rz7oSC8",
                "ZDvOO0NGAzy97QS8i43bvNnvljvCGDw9EacFOoMhprvDdkA8xEAfPMK94DyF+lC78ilYPA56nL0fKbe8idLTu10BBbyK9vY6lIn6vKwGUbyeE4e8Tx/sO/NH/TtdcYk6H6QFveQAajxUpIW7yUELvMK9XDsnBpc8y5iUPEHcpDzScg+9rec1PI+CkrxQ+408/bclPRLo7DxtljW9pWVOvU+ydD2KCRW8I2JMPKqZh7zE2wk8ue6TvKW5mbwMexS9P35eu+gJLr2+Tn+86rAMPSTIAb0AyQE8dAfqO/3mLTxKxou97J4TvYy5Jb0SgpS8Bw+9vITEdDmCOgiPf2jEO/lrdTxS3e28UGpQvJn+07wGbQe9fQNXO3aLC70VlzA70Rg8POWn0jquH948ocfLu3u8rLzkjHo9VRh4PGA/AbtLu8S8OKHHvMzYjTxvpCs9z/gAvGFUBT2o4uo8S22/vCq0b73fvfU82gz3u0kyIr0C/tG83bgKvRV8Wjwj0Le8tzQCvG6+Jb3K45q8AHNbPbHqAL0CtGe8ffbKu7YM+rsRKkw8umuavCDR97z9cy+9Z4E+vdLNiTxWFQ68HuEpPXmTa7zm7E86ofImuxnQmzoRFKE8Z0EGPRRG57uTMQI9LJXmvFvAVb3NyIC6OuByvQVcbr1WgbQ7GMYxPa+TwzuqvT+9ZZRSvab0zLwcUSm8A+X5O2dfH73nKa28hXScPXjGMr3nify6rkRXvA02UTvLX628IwdVveSfRT0zFzW82e3vvL+MtbwW4eS8jF1+PGVV3bxUFFs6H3GMvFeatzybwbq8UfoHPYAvxzwYhKi82ZiNuzO69Lytzoc8+usDPRV/mryFxka9lAQevWHTSryxt4O8ptidPNGIAb2Wp1a93XSVPErN67ybBHQ8UEcBvL6xSj3Ugpe7Zm2rvBTe57t/IZW8UXzHPGNV7jl68Fe8txuFOsGH1jzuu9I86/7QvHjmGL1Buyi89xYgvQrK2zzHnAQ8objVvHgbCb3X0Pg6",
                "YJG1vH68B4/upoO8ucTBvEROTb2QArw7jgUZvf14gD2wo5G93GS2u2R1oLvkHw4+wPUmO2CaFDzl3lO9DLI+uz7H2rzV/Nm87t8BvKHnbDrwipQ84K9mvBinQb1zKT88pEZhvIcynLwiOoa7gZXrvKKQ3Lx4VlC8uT58vcv/Er3BcOQ8xXfLvJW6gz21+Xo8G5RXPMM9Ar4xHKy86v/avBphJTuNXt+8o3KQvdV9LjwOGxA8ekU7vDvYiLybFQe9lgpwvK1uITxDaTW9T4H5u5rhE71G8ya8vJ/4vNvWcb3qCJu87u/cPAluAT0QZzy95fcrPfKDrLx8Pkk8IUlbvR2cb7rq+kW9JaiDPM11mrzdYhO8yOEvPB+oEr0c8xO9jewYuTRz9zvw1d+8cq8hvC2vED1MIh69wKJWPaS46z00SMw8DUmBvTrDQ73cxHA9Avo0PUJbzzu36aU8T1Piug5KZjxnCbU7Hbw1vWkCLD3esxC92E6gvJlGfz2gdFy8qB20u54DjDrEAUU8sIaaPGX4jj11Dtm8+Q04va8sTj0Q5xU941v1vJHe1rwzmDe8y+byvKEviDyK4v+8VX8MvWkBjjxmyY08oy6mPM3jvDyaDTo88gejvbLiorxcGcE8RXiJPIsPz7wcqjI8LJ9bPB82aD2Vs648yMkfPeFbFz2Ny0e9Hen6OzWRp7xwt8y8rjEJj1Zgo7w8xds9pA1tvUZQ4jwiHSW9Ex3hvDL1QLzQwJe6ZcUFPI1Onjwq6WM8qggnPWbN1j0UbQU8ikATPLfYVzzQ+OM8ZuzDPel2ZTuuvwc6L/IhPPp2GT0B7FO94EX2PIZvjbxqcdW8mHA5vM1hGL37koK74yg6PTv917xBUnm8TnJ1vBaG17zdUTO8NVF5vOq7hbqBKlW8YkJ3vNrGGLzhkSG91Z8wvb7p5bwBvp88PY4fPYqYn73Vh6y6FblWvJ+qMjvZ9U88PJ3svMgVa7xNtik870GDvHT3uLo+KqG6MUOVu5nhwzvZ8ag8",
                "g6B9vKv8YD0CaA684C+Su7UoELxY3OK8YulPPSE7TLxRGro7eZRJvBWAyzl18qo9olgEvVNaBDzX5R+948SEO2LmAbyhIt88H5B4PChTFr2gXNy8YPfWu/hy+Tzex0o7e7qLu3ERNTy5Vg69jxAKuY1p6rsxAiG9oHqQvIBZDTza82A9LESZPPqbLz1aCFQ8HvNCPN4wmTsxxS09U6sXPOjstjx15Na8Zk2ePCyMlT3NWMe8cWesvGUQADwYpu68QmIBPTTUjjvy3Me8wCbkPGVg67wk5JC7yeC5Ob+Zibwby3c8BE/eutz8DL16Yiw8+MPLvAWglLy4tF88rnpbPADOs7vwdQ46qvyWvIhuEz2FxtQ7Uax7O4YAIj3GwQcPez1uPDeaN7zATO68uo5GvTHqhL3K3n29fZoHD/YPCY+HFAgPIFQJj+/BCI+uaQcP7okID2NXCQ9tCwgPRzwIj0KNCQ+BegePQVMID+8YCI9KLgmPkXoIj2ANCQ8/EgkPJb0Ij9XnB49bZAkPvAsID+UxCI+7MQkP6UcHjxWBCA8EzwePlAIIj8IHCA8NBAmPUngHj0d+CQ8DuwiPgPoIj1nVCI8Z5ggPjh4JD7hMCA8XLAgPPTEID4fsBw9yQgeP2PYID8VZCA9qIQeP/REJDw24Bg83JQmPHO8ID3g8CA+gegiPBCQJjxizB48X2wgP/oAJjzd6B49k0AiPOfAHj66lCI87hAgPWQ4Jj+EMCQ/YUQkPYbMHjwZMCA/SawgPRsoHD5feBw90EAkP9wEJj1/WB4+kMgiPmhMJjw2ECI/PcQcPDvwHj5MICA/jrAePWxMIj7rEBw8pQgkPHN8ID8ehCI/JPwkPyNIIj8SyCQ94oAiP/E0Jj6qQBw8ArQiPvEIHjxwxCI/0vQiPmskJDzbSB49DdAmP2LEIj6qLCI8hJQiPmwAIj3EMCY+6SwkPQT4Hj7XYCI+MngePbZsHj3hYBo89kAkPvAsJj7yiCA8v9gcPrrEHD5RVCI8W+ggP",
                "PMsID/D0CA+oYQmPuWMIj/rvCI/q4AgPL8AIj8AECA/awQePMdAHj9u4Bo8VgQkPHesHj28DCY9W0giPVt4Ij/HXZb1gkwkPqOMJj7r/CI/LEwkPFuMHj7+5CI/H7wePJVQIjwnRB497cgiPousHjyl1CI8vwAcPYOUIj5G+CY+nKQmP4jMID92UCA8SDAgPyjwJj7lXCI/gvwiPvjAJjyCQCI9hngiPEasIj4DuCI9k7wiPueIHj45ACA9d0AgP3pkIjypECQ9vIQkPR8IHj36CCY82qAcPafQHj8ONCQ9T6AcPbRgJD/gfCY9+TQiP1H8Ij0nVB48F3wcPrEkIjxzIB48H0giPKS4Ij4KxB4/XsQgPdTEJDwDmCA91awmPNkEID6qICY/rXQgP+QQIj60PCI+pVgmPTmEIDx6JCI+sCQgPPl0Ij3sMCA9I7wiP+RwID+OoB4+7vAcPC/0IDxTEBw84eQkPZIUID+eCCA8AhwiPX6UIj8ThBw/caQiPL38IDx+NCY/izwkPlicJj5r7CA8bXAkPIE8IjzYECA/eiAiP0dUID66KCI/PHQmPJXcJD+z5Bw84PgiPadUHj3RyCY8OcwiPGSQIDzgHCY9BNwkPz8AHDyPqCI8YbQgPUt0Ij2c9CY/R7gePRUgJj0etB48C8ggPMWkID6aUCY9CjggPmHQJDzlNCY+wLwmPdH0JjxfYCA9v+wcPcvoIj9o2CA/RKQiPm+gHD5h+CY9xcAmPMTEJj8IGCQ+h+QiPYtgJD2QUCI8oqwiP+x62vZs7Pjxcaos6DMQjvdmf1Lyo+U2982FaPc0JNT1qVbG8n3M3u7bLQzxrahM71+EgPOutGb0w4tg8nSNQvYrzDr16t9K8HUFZveQiAb30Sa29DEyePP1HIrwn+1u9sQr5PG06TD1eDIy9eTqwvAR67rsUuBm9iF7cOw0fczykYfi8S5rqOyfYiLvoGZK8cAhOPE2bdryGy9I8w2kHvX56sLyJWXQ8LigHPa9LBD23bK89",
                "MKNBvclOwbs5Wve8kHg1vWdH3byncYw8Lm3gPJINPz01l4i94nibvOxGtDq23BG9Z/m3vMl0grxz8Oq8trs2PCZMa704qo+8KsGWvIuayjyodNa8B6GePF0+HL2xYY29BHKRvcR5d7snd9M8VYl6vLkHib2Swjm95WwQvXYwKjsI/uO7ZrOtuQOWzDyft468zmoSPU/tMjz3Tdg7Xw0YvHI0ID30xEI8hh77vOiltzyLul29MEzWu2+LAr3Pkxw8vRYZvChRXzz94wq8W4gQPTuAFLzpqms8nGIGPPV9xDxI4R09i/e3vHl1Lrwfl/O7bvchPACLDb0WxrK8v+xBvMJjgTw6Caa89lG8vKVYQL0s35G8uSjxPHlzMT0H7Wy98GRuu99n5zupZ6i8k/mAu8chfrq+vFe8N88rOTcUhbxVBAmP4QrRvLa5DzrpmhW901bYvJMxjrwwqG09B7p+vbgeuLxvex88XG8NvD3uvryiMwi8gu47PQ9JvTwHpWi9sSFpPfAdlLx/wZk8sfrQPED2Az2xAVi8U8dfusVs0zyG2we8vUkqPCjLJrseyxS9VqQbvE1aB719WoA87kfyuyfwcrwkfGc9KjXzPD8I97sUi7W80MrSPBRisrwjgK68btbAO++DdTvRDcK86L20O7ph57yzCwo8WXixPQGRFb0iwy49wQ3ZvEH48zwn8cw7D63HPFU++DxDZRe8DGZ2PAmIx7wHCao7rRnFPOx9LbwmFTy85PQfPKVihLvXM608BSlTvLLzIj3VNWi9rhN7PP0wBz30E+W8PRMMPHSpIL2aVqw8d4X4PJS1jzulFi89VTwYPLIhwDwDtGo8Mj7OvOq0qTqzPXo99AnnukuqkLu9eAq9+V8zudUZjTsFQ6A8Bg7bO2HDHLx9WWe8vqFZuviSLL3uD9C8Wa5JvUXy/zsk8k69/gfDPGv21btopOa8bq8YvWnn+LpjfyI8L2GJvNsnjbt5fHm8gv7cvNnWNr3QqFM8bXvAPJCaHr2tHLe7",
                "IKQDPWnBDTwNTIK7GhShvLx0jj2G+0C8LcDLu/H2OruePJ68LXXcvMVmBL2fpcI8MSWnOukg3TsoDnC7aFSOvMc2Zb2kJJ67ugVxvNTKB4/2vaM8aJpLOv6DrDvi+uw8kwyPufjJnzxA5C29P9ImvGoqLDul3QM6ypJOPCIK/rppr4G8rslduyRoV7rZAhW8sa4gPb45FL1B9uM70BnIOw8LFbwHxZG8v/KSu42DEzs5mUc9e1XYu5ktR7w5LM+8RblFPBoTOzzLB7k8eoRuPEUSID3Pdrc6T1YKPCS4hTz7zPm8TEAROw26H72l+9k8LwqGPLN5gLqQZs47LJqtvEXVX7z3ICY9bRWLvFadvryzPy09Spwku6GtYLxHOc+7/gN/vKnNNbyNVie97HGLu+dCnDx/cJA8KC+1vKkM+7vFWD69TPYjPCcQhLwK1Es8Yy9muvWDJztk5zq8PMHzu/A1QbsBDSc9igFGvGCyJLtEAaA8DrxvPLYpBzwTvFI85HOGvPJIKz0cJN+8t+VtPZeT9zt/iCW8AsuGPUJ8l7w3orm8CGufPA/WjDwLo9u8cHWhPZvsgz18/6C8ccUNvZzQPby9qnc8yEoGvPIelTpZrlo97cMgunfwcjqVSm69UTi9PK3jDzo/mqA6yb9Fu4QM+Lv/wgA9XuHQPCg/mbsWXEc8hQOJvKKEz7ww8JU8UXckPCVcvjtzoqO8zjdIu+2/HbxQOl08nvsNPUzFQzxTzmS8WaCXPL4brrxAvjK8iQKPvG5CDT3+qro8dm0evLebtLsY0Xk8BcsIj/TFxLtHmdO75U8PvYohCr3TAMs8klCovFSbG7y82+U8ztiQPTN0N73lC7E83EeSPNIs/zzAhWS8dScrvcaVcrvYdwC9G8CHPInZCjtRlRY9V5dQvEmPBT0geQq9QcKzPCO63rwvXDE8Z3tfOqMZC72aMUg9FSSMO6cl57zPlDM8cTNovYg5Aj1GE5Q7L/w1Pa94BrxX7VG9OZx3ve0Y1bzpAPO8",
                "mph9PVm5kTz8vGE9MEPZvMWXkD14YQu92yDzPKAQ2jsajzO9DVMMPdA3Ej14pUA9kHE1PVE2tDv7Ve+7gv9rvKg05jysIQS8Z2e6PdA8TD12zda8jwsrvcb36zvn4Gs8M83fPObyfTyiyQ284qt3O4pDjzoX+dA8xqX6vEJCCz06TwY87NH3vKYzNbwYFX29gkBJvETI3jwLA9+88ExAO84VHr1K4j87QTjCu8ZYGT3ZxIu80bSVvWibKLvoIdu8IimZOx5ZdD2HsAk884nAPHJAITvgvNE8Ns0RPWIhJD2GLQm6Vf38Oe6lK70ZAHw8y1XaPIxfwbstBdu8NJ6Huy1ZlzwlYTW9W5FcPXx207xQIXM8GEPsPOPVPTyMFOk8ZF0IvTfIDr3P/og9+agWPc3n4ryrD888dqdYPCWUfLz4y328DPZEveHrBjw/3yy9ouUAvO+thT3z2hE8upM2vWmoz7xvAAkPngwMvb+G4LwJ7zm9qtt+vS4Ixjt0+4C9mDc3PDJ/YjxcwVE7XZuVO7C+RrwtTya87QIPvCIlhT1JYos86kPnusZX07zbaaa8A4WTPD425bxoDyM8GWomPNfb/zyC3EO8uuUKPJ3gOzy/HZu7JPUXvRyI9LyKPAY8sUsbPDXzCTxrv/M8CE+ZPMXwL7sfGCS9jHqIPIUqTTz2FGs8eIMHuwbnwTxc52C8pEMOO51rjDzbZk68qmIEvTJHFjvC8b88hcQ2PDleGzlEuhI9Hf6AvENhcLtRLbW8fZm+vbQQWb2CkLA81yyQO/rqXL1sS3699atdPEkl9zuGiwW9z6ILvKQi2rvqUhk8h9afPD+IuDzaOuA8IYW3PK86tjuQ0iG8KwmyvNX8ELoXioM9LziTvXapfbu24F49r+ICu2znEjtFM448OXsUPec+ED1IKz68Bz7TPBohAzxGR9m7+VSLvJJBsbz3cxy9m4kaPPNdIbxzXQ+8qCgyvWS5PL2bQfE8D1mdPcvztry0XXG8ZwF9vIY1o7vuSnC7",
                "oqQPvSI+Gz0Yc4A8RdXTO1LmDzzIKCC8Yj2nvOC7SjyZv3y8vMMOO8Dp1DzGds074tphPBw1HbysswI8VXgEPczDELtT6yI9KvCKPGbUrTzyroY9i5SEO3a8kDzlPuc718O6O4yADbmuT5272WUMvOESCY8D6r88WYngu8//hL1w/tc7kMOKvWveAL1A1Q29Bq6kOu5PG7yetfe8PTeavKVi0LtTh9o8VCHwvHSGkj26oeg7OrTOO+ZUI72RCx29X5sKvCkrnDyJmIG7Dm2OPfEs0j3Qqak8UsYaPV+TNjxOQCw9mb5rPH9xejxUHK67nO2oPEIwIDyQP5S8IJW5O7wnuLtaFaG8fdirPX5guzzUqUE9Ub5GvXMplDum0g09NLAXPSV/SD3zZic8aQAHPa/Gyjs32M08QtM4vOP4TrzA7V28yMUwPOT2mr3wBFK8dtHQu/1NZDtCa0o8EKRvvKy9BT0AKPq7fcf7vFt6RjzUH4C8HJqVPKTOID2ieQo88KxNvGCttrwU6LC83JU0O1wzZLrQn++85SCvOuNmrjxJnLo8HuRzvIAoOL0xXD+9RqK7vKXOMr1QGJG8Xa/8PJ5ACb0+61k9Iru7vCLixTzvYjk9jV2APbB+kjz51/G8K3yYu/fbCz0Sey29+JYyO1NTXLz8Sgi9djAGvOnFnLwpAZ49JWcMvUn5jbzGrKe6q5uEvFB5sju1jWU8jp7Vu6vZybvd+ce7Bijsui4U47wIiWy8PVyzO0d4G7xKvIw9pilaPdsvKrzXCpe8YzgAO52+NTyekiu9BAw/PdFSJ70bdje8EOk6PF8D27w/oog9CyJLPQb+Sj0MnG28XKUID0zPRrynLRK9Ej8ku9ZnXL1M0ao9nQMlvsnb8zqrv+A7rPdlPIv6hTycaL07wXyRuwiaS7wmqGQ7JEg0vM36UbtWSzU9xspQO12AFzracko9O2nUu3nsFr2aBz87it+9O6nvZTzBzzE9DZPWPCmhNr0cNTq8Gt4cPONsiTyYTZW6",
                "GqhGvUsT8bxoJ5Q8PMzQPMP7FTx6dhe9hn+COzOGjzxdKIO5ulHxvOpv8zzVhrK8dQbOPDZxXD0/wBI8tuNbPJXsezwWM8Q6/17uu7yFLz0aWUm8TsXXvIkNorzGdxS9sfMCvENI17zps8g7f+Kuu5ipBL3z3sC8vaeBPeb1kbyuIKs8Qh3yujgAGj0XrdY7tJ5lvM0aEbwJz5083xUGPRQ3AT1RdPM8XPfCPPqNSLwdqBc8UDK2vLNMEb3oBgw9ba6hu9guA70JH+C8RHJruk7ptjoRhUM9sdPCPCZ9FDzz6Ji8PyeovHQlhLqmbno8/1RnvHsq/LvMO647kdSjvERVY7051km7xPvDPN0LTjy78kG8xC4RPcEkBLzhDiY9+UcavcsgPr15vX48SO54PKnaATy+Ht68sufKPNBlV7yvwBe8roBJPK0dHTx//TQ8SBwOPNHvw7x4+YG8fucYvAmAm7wwf8S8MvKJvAf4pDyLiDk81whhPFs1WTyJgQQ77jQRvLWKi7uagQkPF4ckPH+sKrz4Khk82yNaOnr5NbsOFoC8JAEIDzZcB4/BVgmPPFgJjweUB4+lOQiPf20Ij2zJCI8LpQiPXhwJj/XaB48GfAiPehkJD9WtCI8VkggPA50Ij+CkBw95vggP3hEJj9R3CI9c2AiPl3UIj8iZCI/2UAePTw8Ij/BfB4+DEwmPwV0Hj9LhBw8bBwiPCuoHD56lB4+QrQePsz8IDyFxCI+rHQiPQeYHj/zjB49XKgmPhZAHjz3JCI/25QePMykIjyphCI9g8giPdJIHD731Bo8QgQgPoT4Jj/FCCY+D+AcPka4HjwODCI8/AgiPdBsJj78jCY9jPgkP+mEJj9G0Bw+yLQiPzyQIj3MeCY+JwAiPUg0ID1F6CY9zjwiPoIAHD6INCA/UpgePVHwJjx4hCY/SHQmPc2QHj9BsCI84uQcP0o4Ij+OQB48T/QgPzFgJD19UB4/cyAiPQ2IHj3Y1CA9B5giPW3MIj44nCI82HAiP",
                "tuoGD8ZKBw/fTAiPo+kHD9lACI8ZagQPv/UHD59JCA+/NAePiwYFj8FNCI+yRgiP3XUIDy42CI+sjgiP5e8HD3tZCI8hgwiPOboIj9XmCA/h2ggPdFIJD/YCCY8AZAiPPAcJj/1fCQ8GVgePFisIj7S8CI9bNQiPjiYJj1lhCI8+BgiPMqAIj3G3CI9fUQiPEkEJjz0RCQ8NVQiP2NUIj9qBB4+n6AiPJZEHj5l+irxEeaE6IuaMO1KMejyhy6K8MQfOO7gQxDu/oYm7mDaLO5o9iTrfCBo8YUduvOW0lDz+acE8rObtPMqY7jx7Wre7KYATPVqQUTxLwLm8ojrCPMRBbrul7to7vKsbvHHdkbzfKoQ6zYEKvNboebxVjLM8VnjJPHst0LzmS7w8kB1aPWVt5LzzGPk8dVBmPQ5SKz0JoRs9MAQ3vRJieTyauKM9g956vIT3krt60Pi8N/AEuRGuQjywTFU82+gtvM+KrbyuOus83bUguRTWKrzy1NG7sgaAPIql+7ybu+m8BSRjPCLPnLyambm8bUE6O/rd8DyN1KW89ZMBPfUnBj0WTfG8xx/ZvOwCs7uBjyC9vin1vArGOT2D5Ii8qvywvP31lTy785u8nB2ou6KSCTyFj1C9UMM3vAoFjDxgxy48mS1XPPqcHr0Epg+8moxaO835tTySnKa8Z4njPPRr17zSFGI6+c5OvI83gLyyAJQ6pOQ0O1uzWj1bCZQ7T487PAgjxjyn65A8Nbi8uyXP+7sSLYW975QavdQycDwY9oW6sXmJPESmj7ythyK8oSYEPNK2hTuMHYk7JrG/vJ8l27xGxUC823O9vEnwEDv/mG65necGuzUbKryyxWQ8wk74O6qlJT0k+hk9QyF4OvDIzrzNDe88yggID8JLLTx4rQu8/hMGPb4mNDy5xN88EJAIOwXB/bxkoKY7p+8YPFzszjqwS6M8100rPNspw7yBkWk9X3SmvI6E6juj7SI7we2uvOD1UTxS5YY8AHYrvPX2HL0zIm27",
                "qVXHu6AZMrvFAfy6+7WmvHQLHr2BLxS92+3/vPJF9zywO1o857z9vCwvsDsQqhA9UdUqPOc6O73TUtQ7PTQsvfAghTxCe6e8awN8PCB+Pz38O5K6sHgMu5W2PzuhgEG8cplovf7BzrzGI9w9ZdPZPOuX9DsPnza8OJsVvbxnBr3WsDI9Lx7HuwqCjT3Q+bK6cfhDvaljJjoIxQ28OTIUvIPysbzNgQo8wb3PvJENbzy7HDe8masrvZPEcjyl5Tk8jX3JvB4CDTw8hdM8bIlbvQP/A71I7NE7o6WEPOq0S7wljaS8qmmKPH/Em73QXhC9IjkEPEQaTryMzjg8qzllPLdZaDzjoEo9i9mSO4Zx+rx6bxG9o00cvXGvF7wzAoS7tfdiPEwp1DyXqSw7FxlqPK2dQLyfTYm8Y2kNvXz3mbt00iY633cVvPq4s71B6wK9/v/Vu4hfzrxYvuo6VaVHPAtWzTxwJb47vehIvJf+iLwtoTg9AKTJu1dWUztcjcU6JY/ZvJGlWj3dg/47yCuiPB0JNrwjIDw8Utuau+8uvrydPqE8nM81vRctu7w9egmP+RlCvSL5ILwZltk7o93OPDkMhLyKVjA9qYOfvauV0DycNW+9M4MrvEgawTtwRaw8n3ULPBhWw7zrlai8I8L7uATRGb1F5+c8aO/PulrCrrsOvSE9tITvPKDStrwKXma9chyOPakHAbx63qC8QtXlvDwKWz1fdra85NyIvK7wAD1qsN27FWGWvKhZoLwrgxw87aMlvLiY1rxMYu88OSWkvb3hlj3LQoY8uyUEvTzZDL1GP4C8eWJTvaODt7zBOu67nZpIPYjWVr2x+cM8uiuKvKWvYDzuaLU9oqogPcOhjLzg3CE9bj/aPGmgAb0KWxU8hP2CPdmfs7xhuFc9YY3hvOTszLwIggW9OONaPf5iJr117FK75dV5vZbEijvU2B894o9RvOWXcLuRKje9t1ABPVnk17x0/aU885RiPZCRkjx504K8jvMqO+1FAr2VaJW8",
                "8n/BO6oArzy6IPQ7gXw9vaWEeLsI9yc9wiXzuiHQqrx32j+8jvtLPSiGjrvNagc8fRervE88Wjwxrjc87hsZvT6CqrxbZva82rmOuzPxJj37zYu8NXEjvcNGZj0RqwK98XoJvU5HPb1RpYM8Vm2OPOeeRT1UDBU9mOWmvVbihLzJWeo8e/D7vNN2d7zS15+7a1rnu73QA7zxdO28owdLPLyTirmn0X26X8KSvdabCr1EYp+8sAcevYHuCA+pSnO8z3uNPRphML0XUqk8hfwnvUZQJj0gKDc9pAY5vQ3pEL2JJYa8zAd2vAOPLL3mKpC840WDPcQ4Jb3xGKA81ptnPIUA6jybDRG98GmvurLpuTwC+SK9O5ieu/aH/buVrT07voEDvZ4FhTzCfqc7WslOuxQ4z7x8rrY8GnqkO/LmvbxM9dU6+6M1vB1557ltI4Y9IEAkvQKig7wB67W6lIRUPI21oryw75y855iMvFknfrz4f0C6cECPvDVaL70kUfm8L/8zvNAhkzxoRcC8fIADPGrmgD2DRLw8fgcZvXK4gTyAuy09gSI2vDjSLbwHVDG9wwXvvFperrxfdY09Hf+qODvtIzwOfYi79PJmO209B73fJHg8D2p0vG2jRDyHLAM9A5mJu4+fAL3DEgY90rXAOqy7+Lysmsy6zjY6PPaBHj3H+Ik8QGFlu23QJTsyc/K78UIMvXRbkzxlcjM90iLpuikMEL1IQgY9YxAAPBsaW7wJhyQ76/ROu7U2Bbx3/QC9s2dAvbUJSr1tMk29VrEtPaFNIb3NlF88k4r7PMgmSL18I3i79U3kO1PVyTvoIVA80yopPIUcoLyIJKG8BGMOPWqRrjx67l688lzzvC95t7x0nM67RJyburxCmjwd/Nk7GHgFvSzJyTz3oZW8SSEAvLWEIDyNmmu7sIxSPczQfDwoCnO8IqEIjwaFBj11lg28XMpwvEncpTxl4No73ZEMPKURgT1GvkK8yESGvC7XRrwLayQ91BEyPIQDezu1/Ty7",
                "wJxmPEl9KT1lpya93r8VvV57qjwRpu27jUgxvBikv7vts8i8RBo/PIr8GDxPEkW7kFeGvRpQAr3TBZI8CxTkvM+kqTwrTB496l+bPBkcLz1i9A695yEjve6PhL3elia8rMjGvJ2zSrz4hlk5WPd1PE9WjTuLgDO9QnyYO5lDorpA4828tZrYPFq9VjsOiTG8qyY0PMzCFL167Ky7AoVHu6Jim7y8IOk8JD4gunjcY73Aciy7WRvPPDuzCb1eD/e8q8mXPCAtj7yWvLk8kO6DvG0LyTuMhZE9/8/IvO7GXb35zsu8jrYPO9VT4zxq8E892camvUXQHr1fJ4I812r6O8nAtjv9pgM8zk/QvPIpDryfTQQ7BWDMvOak+zuU+d482p90uqMNG71qCJ+8qqRKvEdpVztqibq8JErjur+FCr2BJQE9DhW2PPO7iDypJPg7rYeLvG7qhru+3IY8ibV+PcWyH7yzCFm8q12kvOcGFb292SG9qKD6PH8RlDwOXKi74W0MvZWAETiNgwo7+MFuvDc6Kr06TA68BsW8O3afN7156Sy5KOYcvWF59DzSYlK8AQRLOscHFrwyxS09m9PHPLIfA7xFyOy77emvvFjs47wnVwWPpq7VvGcwqjtO/Oy7n8zqvG7tzLx+yiQ91B1tvYS8mjx5Zi+83ACfPPlYyLwvJFC9ELosvRlag7yEKJc8F5zmPBktcDmYLok8ToOKvMXjI70Akhe9K+KMPePq3Lm02s07nlIMPQzx0zwt6D28LjMEPYFR07s93BW70SLvPKsfIL1Rgji8G2jCPN/PirzNYh89QpIyvbRFFD12cgm9AgV9vakWET3YEA288w6iu/NlDjwshbc6S5z0PK9hAr3VVS28fHB7vbO04DtFL2O7s2dLvaZ7nrzpDqM8wrffvKyVAz1SLAc98DoHPWU8dbyb+AC9dT5tPXjQAD2HtLK8NxXtObe0DzyaII69utvyu/0to7zRD+q7kKo9PLUGobzBU5W8K4qwOmjqmDsX8VG8",
                "y9X1O/VJCL2fQ/S6HGlCPDm/0jspeGa7Rav+PB0agbyizRQ8kb6fvMpgEL1JIQW8fvnjvFeiBzsK50y8L+X+u5Md5Tv6P4U9krOMvB77xrsysLS73PRsPSy4RrxFQ947PM73PHvUAL0dxQw9AqZFvTB0sLxM6VQ9Yb8WvI/AZ7yQMse8gCwZvagBPDxsayw9Hg0LvPnANr21Qj+9exKJvJYNlzzE28C8b1oXvGGdOTw0p0A8bC+nu3DNQbzT2aI7eSLcu4gjBrwoqTG9BohqOMFVojz7Wr47YWofvWI+CI8Fa2e7QK8zvIOcU7tZm8887+x0PGwgAD2SkQePNXsIj0DuB48NnAmPUCwJj/u/CA+ubgiPPh8JD+QbCQ/wXAmPDXQID+OTB499+AiPmlQJj6ixCI8TWwiPTzYJD0ePCA+CxAcPcnIJj9N0CA/YRAkP4gkJjy9QCA/EzgePOacHD1khCY/3GgmPaBoJj0SxCI9ZngiPFH4JD+huCQ+oTwkPOR0Ij905CI+EWgkP3V8ID7C1CA9wiAgPeBQID6I5CY9KIggPoIAJj2D1CQ89VggP+nwIj0GACY/ImwcPpRUJj9FiCI/bnQiPOT8JD+A6CI9+xwePaK8Ij1kNCI+uZgePEOcIj/Q1CQ8fQwmPRtsHD95RCI+PtAcPYyAIj096CQ8mMQgPunEID1R8CY/m4giPaXUJD9QgCY9yEQmP0F4Jj5R0CA8L3wiPYjsJD9hKCA+HcgkPRrcHD2bwBw+xrAgP96QJjxSGCI/H1QePpnAIj+yzCI8utgeP7ssJjx47CQ91tAgPybkIj43TB48rMAkP+lEJj8npB49JBAkP2ikJj7HjCI86rwcPPHgJj+BdCQ/v/AcPnU8IjxqaB4+00QiPToUIj96LCI89wAcPVKAHD1gxCY9urwgP2PMID4qUCI/8mAePuowID3jfCA/AhgcPQk0Ij+mMCI+9hwePnvMHD0MKCA9XPAmPWwoIj8c0CQ8vuQiPsH8Ij5tECI+B4ggP",
                "lfagvUjjprrFg+q8vCoqvd/KDz3aQZw7w05oPN+Cobzs85o8HHByPFxodDnlTzI80aP5vFXQ7LvsaK+81XPLvGrnsLy4ZyC9GhYIPe+W+7uak6Q7VvW/PIbREL08oFO85cY3O5MTEb0kcTM7XH1hPJzPvjwXDtM7TVaNPBd6nju8Iis8qQbVugVRoTwBk+g8gyo9u8JhZTwk7im9V1OZOyZURL3FdDY9Dmy/vH0knLytMsI8zuEiPdhOPDt9JW48uzfKPFrUuTxGlLw8JkMcPQKJEjz1Mfu8xc7mPAmMuTzNTSq94Lmju5UWnLxvmxY7Lm1yvD08K72L5847oClNvNRreT0z+Hw93FixPL+Ecrsmz3K8YJSZPL3S0bw3fra8IR01PKQBNz2n5h68zdHkvALsUzwq3687TAwrPYDTjrzbQUi7GqbSvF/edrzuk5S84ecvO6RKyjvBxjW9xHvau5DvLL19ERO9wQHDPNo8qrxRMoq8+Y1uvSWcfr00l9I7SKMqPaxnJr162Y68EIr1vPU19Dzc3JK8zr5XuwEJvLz7h+y5TY+Iva9d7bt8q5K80oIzOgaUnj1emas8uWsVvH09O7yGAyo8fbZXvC6AmzyfTwm983sSvUaaYDxQJJ68qBouPSrFej2+67477YYzPbdPFjsFCwgPl4BYu5JRKD3gGBy8ARKhPf0Q1rytjdO8uOkIPSMskjmeSCA89plGvCzavrxBy2S7qHrLvFQlpry5T608KmILu3NYQb2OrYa83vOlPObUHT0lqtY55JAtvNdZG73dQoI7JD2wvCzyhLw4uQk9BP8avayDh7zAx4W8881avPw+ijy+noK8VtCbPO3iCD0/kpK8GX4YvNGDmLvryf68DY3UuyUl3DvIK3w75fmiO4oVojzT4sG8McYMPQp1mzxywiy9Xsx8vcCwWb2QwDM8WL6Tu7DvATsN7pG8tx4LPd34ez13J4M7SGmwvI82fjxyXzG802vnOyjdwry/D3M9K70susJ2e7zqs988",
                "tJUTPVEW6LvSqZk7huFivVwtKz2K1RS8I+fUPG5XzTxu/IC8hsmtOqhgJLq+zIU9LqJ4PVC60bwX+Ju8/wocvOJZpbtTXp25GADUvHcbDDzsMAW94vNuvEk81LwCP/o82WopvChANzyjzBC8N4C8POUhorzAj7c8vsEGvbX9sTxsCZQ6/ApJvJ6B4bsM1mE8mB7WvL/gk7yHYAY889oIuw31nbwxX248zEPtO7CPHTwnzJ08ERnKO9WSkDwY7bU7JDtcvGFS0rxvqP489tMiPFpJuzoSSU68rr8cu4zfBT3UbHk7FT+zPGnE/jzoTi096fxXveANTD1CrEe9RVSqu+iXCA9EXIy8ld+PPMpV6zlMJPK7/TiPOTCriryaDgE+qYmvvE6RsT3hVF674+okPN098jsBG+w8rO+IPfnt4LxuiRA8ALt5us/wLD2Qnhi669OKvQdq8rw12XM8r1VOPfu+EjnzIe07p1SKvaJRATz4Q9c91l7SPBdnQz3VixE99NvAO/ZInz0OSJG8XFxFvfRsxbsWVt09LAIcPSuFNT1bVUe9IOzFvPyVJ70Hiz494NyEPaSBQD1pJi491Y7COkXBpz1tvLc89KCHPRAamL269be56j0BvLrD8LyE/vQ8VwSrvEwfEry3ywM9VXKDPT0Hkzxh3UE8kc4YvathGTyyaYe7CzwovaViHL11JLc8Sq1VPVrGJLwtRWq6NLoQPMZBUr2ontg99ByVPXYWvT1nIvs8kIFRvf2/Sz0ADnC9sCSWvWy4XD1+R3Q86lCEPMARgTwI0TK9YzV7PLuqMD33P4M9/y1LvaE7Vb2LlXi7OlFXPQkIJLx25se8IOGVPBBkIb3hmyy8IZmFvY2LST26Z8C8Q0hzPQ3FWT2aCWC8Rwnwug5NJLw6vDY833JePRWAwzxPahu9AnvevJp8Eb1CeSM9xkj0PILFw7xeuaI9V+k8vBnOibxTnYA9TytjPLeaMD2+68M9XCVvvfEG3TxJd2S926UZu2db6LwHfqg9",
                "DTS3u8XwtD1RoaY85i0JD5NUqj1FcjW9k4nAvDfzBjzGGng9GZ0CvcPznTwopRk9N7g3vPNW6zxq8iS9zhOlPe+Mubr0VBa8aNEDvaklwLwHXKS7QDfYvMRfAbsGs7a78X80Pa1DKT09ric8uIMFvGVip7wDWza9hVNuvQOuxzwWzFo9QUywuyK9Yr2Sygm8HYLJvJHEMj1hWxw769iGvR/eGz06MDe89PaHPSZ9U72CxhC9Cl84PFfSNb2C/7+6PIUMPDWW57u7RRY9pu3KvNjwFT1cKi69rWUiPTTgKr3702W8xd7YO5J9VbxYAI27oRABvVS4Kr1HTD69wSAEvJ6i1zx34+E8bIPkOCNa9Dv90JU8YECCvRDuEb1q3O85HlDtuykO6bwR9dK7h4eHvfm16T11Nmi8Il1QvfIT6DyavN280ZtfvLrkqrzVSCy92hRrvR9rPr2XcJw8w2vJvQmPB7ycqwc9oszMPNJGCj2Qsxk9GroavY19HTzf7Em7YfwMPa0qijz+DJs8gAYcPd6E+TudsQi59YOEvfbDI7w6rfs8wSIiPZ6Tgj1hauw7FAA9Pd0ty7pfami9aqY0vUVWPzudXZY8EBW3PBauBr0Rsbo8eWflvA3Gfzzh1yc55jGKvEl31bvFGC09Tr4NvHJ1pjuC7ak8w+aCPBmmIDs4GlG9OOOzPBRA/byUPdG8FexOvZYhwr31GAmP3z13veyx9LxxS269K7IpPLzlkrtajjQ9zcYIjwqVCI99YAgPGJIHjxqSCQ/IcQmPKc4Ij+AnCI+AgQePGocIj4K/CI8nSwiP6u8Ij/EvCI/HkgmPbT4Hj/FMCY8LTgiPIa4Gjw0QB4/VMAmPUoAHj+ekB4/r6QePaoYGj3bABo82pQePlyYJj9YOCI93gQePtSUIjxB4CY8T/QePbA4Jj8oHCI8gAgmPjAkIjxaPCY9m7QiP5rgIj8zsCA/pMwmPcvgIj/AZCY/1LAmPKrsHj64iCI9+xAkPwr8Ijyk4CY/TqQiP",
                "MCAJjyJ5CA82fwgPpOMIj8lDB48w4wiPjXsJj20VCY+JVQmPRAwJj93qCI/78weP9RAJjwFiCQ84rQiP1TgIjzNFCI8jzQiPnhwIj+bvCQ9pxgiP7NkIj/hkCI8YSgkP0n4Ijzn9B4+xnwiPT+8Ij2V1Bo9tHQiPXicJj+QECI84MgePV18Ij+8OCI+QDgmP9/sIj6ptCI8CdgePr+UHjxbUCA9BbQePASAIj58mCY9JUQiPHLYGj01uB4/+sQiPCaEJD3gmCI852QiPUXYJj+3EB4+hQgiP2TYIjwkRCI/R2ggPUPgHj3LrCI8NxAePNL0Hj8AdCI9w1QiPEscHj2sLCQ9q2gePRZsIj1HqCI+2MQmP5HYHjzIsB4/TjwePIrUIj+oVB48WDQgPz3gHj6A0CY+C6wiPFAYIj12MOrwOTNU8L7NYO5RM1rvAwJ486lk9PfF9Oj129nM7iD6CvQ+jxjyFzb27oJYDPe4B5TxVrZi8OEKTPORQibtqvu88LqB2PDiXTjg/6Ay94A0bPOM3g7vISiw9XMjWPN0qGr3BPxa8qb+GPLyHpjxx8IA88cPju4UeHzvCZam7k+iqvEaFarzN9vE870aTOhtFATvNlDY8fN29OzFKE7xuFEq98UsHPR7sizxZPD89Hb1YO2AsNr37NoE85uOKvJjPjr0X/QU9IrPtu39rD73YQ3273d+kvNqKB71t+EM8CPBsu/0EyDwvVQQ9tdcHPSjtgL2mwUu8qgwNPeDWyLnkB5u82LY3vaxl8Lw0P4Y6xI+OvNxmlL3SQCo8QmLGuujYkryT/KC7z/SNvYjLT7zYAzo8bSyUvHiMlbsmKaM8Kb2dPJu/JL12UZS8r0yrPYiP5Dwdusa7iTOXPIwlCTyzOWq962cyPfu0ozw96Zo8v+h9vCC7BbyTF2y7ircIvBmvl7yk4rU8XDnqvFYOtry5+/68JevEvELIUr0Myc4749rhvM6wXL2psco8Rf2XPE6YTrz6IBG9LM+6vKODbTwCsMs8",
                "Rg9KvPuMojuz4Am8cXynPZDNL7ywqgc9XaGcPLX187uoYVc9n27MPCPBYTwsHVK9saoHjx62Lr1U1fC8IGQUvSsEWL3rZZE8Rl8aPKCKYD3rAOQ774pet9iGH7zWRl26sqr2vDpJhD1c6B69yKftvOZoELudqwG9ewYZPZZyLbzeeSK8ZNL1vN/EwDwjkVO9eyo6PfOKObzucoE8w4XKPHAgQLx0n0893gaUPUZa0LwSZJM8R4RHPCCAkLrfBCU8L0GQvLRTHzykczi9CLMgvbmr1ztfEma86RoHvG4MYD2BzJI9u39jvaM7BT1Dk0O77zUWvT2e4jzAeOk7TwGqPGgQDLlwE7Y8XcVMvG6H3zvSZBI8qTKiu358xTyXKFy8r1VZPSYXmTy9Xte72ELyOyWA9jv7CWM8+8aDPbklwrvSWgq9SfCivKi7QT3nowO8duqlPD+1Jbx4tTa8MypfvZEaqrwQRxS8jsdlPaRUUj0t7568NJJ0PEhcNz2I1Mg872jRvCF5Ez3OhjW9G60ZvKfVC73Phby8n+7RPHEDd7vt7la9o3QhPWn6wbsfxV88P+EXPXG8nDxaVD+88yhOvM72MjyKfrg8UfNVPOSNDr1hx9C6lmTzPEM4vzu2Whq7+5gOPXX1GTsF1ke9jq91PD0REDrFyn086Fa5vM9lmLnGTo08sAc/PUrrKb0+sJM88Xi+O8SxpjyUSpI8dV/Mu/kNi7xkGEe9C4kXPDCuxz0yuRQ7rqohvTe7r7zTaAmPyMcSvBtmN7xvL0G8rxL0vIW7Hbw34TC+vHkFvW0mpDzsaoC9Gw9LPSzp37zHVYE8oSe6vF2EULw35HC7n5bPO/K3Hb3zxvg8LMnxvDCzoTwZUhM8tBX3up8ShDwweV68rTjfPIGQvbwchPk73tJXvAqo2jzsZNU8xE4HPDOWJL3dSPw8x48jPKeZAz2F/768GsxGPCUyxbxkFUG8HskSvRf+rjzoDo28Cn6kvCFQt7r3ieg8L4GGvF8Z27y0p5k8",
                "Uyu+vIPgibrB+bY89H7LvFjoSTzZwC08a6RVPeYJn7yQhDw9FxL9vO/9TT2H92s8FJJ+PJSyq7ykRQE9oWr1Oy8lxjySpwC919cLO6YaX7zTCd28IvU6PLdEiD3Kuye9ie7hPEPyqTyd9sS8YmeWPDxbDz2BCPi8SvpjPUaUA70IcL+7VUsXuniOIbyfs5W841MAPd6abjzlfMS8iH+CPIA3trznof08I18Eui2597x01t08Xek0uyq5uLzumYg7Vz3vu7lzAr2RatQ8BuoCu3m7Cz3913g80ZiNPF9S+TwevIa8O7W8vB+EVryHk6W88wQiOltUNLwRm0A9UhVTPF9PRDz1wis92zd9PHQUrzx7Q5u8bwIhvD07jbwv6Vc8p1pLPABIAb2Vqjy76HhWPOHpgj1Dnoc9FZuAvOa61jwX3Wa8SRfeu0/AB4/pJUY9ET8nPAmU7rvnCgg9tfq5PPxFM73wjY+7rQdJPL6blTzYeoy8cGw3vcFJJ72ml5A8uIDxOv/n1jwNOR486KKQvU8pk7rRETk99DXBu+rpGD2Nyl89qoT6vISlBTw4YDQ94WuOPCRuujsNid+65o/zvBFgDr207Qk8N32BPC+onbwUKzq9YKENPVjCqjygXNG80fABPJr2S706yme9IrCkPGD/Ab0G9FK8YWqAPMsccLzmRsy8JhwsvZwvwbwQUN+9XAULvBpLuzxQQ1085twovLl1fb3DaZw8KhmUPHm2IrzhE6q6AHvHOupBZjqx1gA950EtPPT7u7y1WVU8vf4KvQPOOL0gwLU9WWIyvDjcYL1uO8i8jKNJPUkZhD2Lg/C84oL1vCVnvjzA9FI99RGcvNqdf71FNIw8gvn7vDmy4jweMQw95A6EvWcp3bog51c78g+uu2oqSr3TX2w8L/JRu9z8jbq4RpK8gI/OvI8eoDp3Vy89h38iu0TfF739hqI8pz9WPR8eFLsCaKq8iQSNvBViyLsQpxS81jBovH/0hjxEAyG9vly/vKiWcjzj2Ec8",
                "KNaSu36biD0K8ZO8lASTPHUZED28dEK8JOtyPRYxN72Ltda82lyYvAmwAbzF9QK8LnBWuwkWqLyoPLq7snUZvG6xqbwrrbq8toacvIcnA72wSBm9TkMIDxj2H7xUypG4zz1hPQJzYTqasM+87YWOO3WUB4/mDwiPv5kHj+fICI/cGQiPC0oJD68dCQ+zlwgPCTcID98CCA/yiAiPa7AHj4RvCI+PkAePPGIID3TUBw/XOAgPffUHj+/2CI+BtAiPnqMJj6A9CI81owkPPhMJD2u+Bo9C+waPwqsHD8gvCA9iNAgPDRQJj8RyCY8qXQkPLnQJjylNCY9orAcPjuIIj/3iBw9hXAkPQzEID2Q9CI/FUgkPtKwIDx9JCY8pegmPsAAJDyTMCI/MWQkP8UoIj+mkCQ8SqAePGHsJj86pCY8ixgcPNL8ID0i+B4/CXwePvUgJDwhwCI9UoQiP5aYHDxPWBw9JXwePYZ4Ijyg1CA+acwePZv0Ij5NcCA/ZrwcPWgUID301B487IwgPyzgIj9oECA86wAePhnsHD9tvCY9JywcPFJoHj7AqCQ9LbwaPxPQHj1SNCQ/TnwiP34AHj9nTCI/RtAiP/kYIj52gCI+z6giPUTsJj3Y2CQ+uvwePudMIjy86CI9GtwgP+KEJD+H9B4+LkAePIZ0Hj7GdCA8C7wiP0vEID2jRBw+6PAgP010Ij7wpCY84IQgPIRYJj0ptBQ/IqwcPtM0Ij+gfCY+DOgkPBM4Ijw6sB4+nMQmPdHcIj/o6CI+d8wgPSDgIjw/8CI9V/wePeZUIj/h9CY+ltweP2/MHD5VWCY+sggiP2wkIjxSnCI+INL29z+79POgsKTxgSgS8lVb9vNcoLjzPvrM8b+6qPMWn3TxShB68lgKyu3DgCj0pM/W6nDHzvPiD1TzV+wO9J+AFvf2RfLv2/dO7MoWZu0Wo37zzPQy9rvemPHfAGDzV8ge98h47uzBNCj1e3Qi9wD+UvAABNL3xgHU8P6ujPACBursIe3k9",
                "snu9PLeDw7xtE+i7Ty97PAkYAbtZjAc9UhRPvc3JjLsjGc68OVJMPOFD7DwLOR088MckvX6dtjw3E/g8tOzQPLstDbu7yOS8ij91vABNwby7/qe8/uQPPU2n8Lsarkg8xrXRvJr75DzAizU7CTjNOm7oNjx6UOE6MVW/Oa3sTLz3Dru8T6SPPH1/FD0K0jk8Y371ux3h1btPr4a7Ph88OzO2W7vSZ4U6rRYVOikacrx3KHM8kkOfPL/8tTzz/R29OZ/iO7T8lbzUNVi7uHe8PEeYNLyrD868wNyJvL7VmrvANI68peMGPUrv1LuOzhw77ryzvHvpeDziBp+8uwsOvM5TIb3Re8U8elyfvWP6jbzGflS9GVTYPDi6jbzbSBM82SkYOinYsTy9eA25/N8cPdnVnzs2MZG7ethRu+dsgzwvE4O86Qz3O3GN/brNaCA7wS/Bu4OedjqKGWc88pFHPRhMOTtFCby8jNYUPK8eB4/0ygK9SLUhPBenIb36y0Y7szNLvDE5vbzv9948YNUpPD4yuby3qTg9oVmEvIicyLwDvaW8vwTfPLp+NL15eWS8/aUgvQO5irtqaEo9wCCfvOfZvjyojqG8Hn3CvI30r7tI7CI8Xp+pvJLBAbzb6BK8/r24PJQzkby9NWY9ERhhvEEHCr1pbfi83EMVvOwk5bwNFaS812V2PBg1gLwaGJG8x8T2vDv8ZrytHca8mrpoPCX7TzxtDLa8+CW9vAnBkTzAl0m9CglJvVKHyDyqdzu8bnWBvM9KBbw1kJ07dNFQPV/Nt7y+qF68wF4wvf2TBL0CrPa8KM8/PLQw5bxRqNy8UeOMO80vtjzx70i8OAoQPJ3M/LwRmsm8yzi2O90aqDyMy408ZWxNugcZxbyfqyG74xqMPNe7xbw5Dgu9DXloPCT/OL3J6Oq8vgO6vBDCIDv2ly68//T2u+pVLTzB9yi98X/7vGv3nTs1fNW6/ZGFOzb6yTuxdKQ7lJLTPEub3TpYa5K8GCBSvPxrq7wpRUK9",
                "M+AyvCbUFD0mk3k9Lv1IvRLvEDwwsRM8adibvGgRHjyAmsa855LWvKQLHrz72uW8CG6dvFn9abzfJYM7LFZWvdfSm7yrWIG83qf/vDn6JzycXh08wif+vEUzv7zNqUs6wSa7vD4dnbubqRW9A6JjvL1UmjzSzMa8hF0GDxPdMrxWdAu959hLuoGsXTtYUj29FI6gPalXJDzpmgu9TV3jPA2hnbyVVqU8fH6iO9vftLty3f67Pk8hPfzzUj2iBLc8LHEtu9mUOTyk6Rc84KdOO0AShbzmhO07DKUgPeA0TDx9UDS8KStovJ/A3rxfKie9T2AGPUMzgbw1OCA9Byx3vPjpuTzGTs68NUQ1PJt/kLwOBic9cA9zvHP3hrvecu48IC9wvCq2qzyxOiM9bMdjPBMfgz32DQ+8Mt+6PIC9mTxIcfg8CB64PGGgt7ut1xi8DnU3PbIHlDoJR6S9EBp2PMzRGb35NnA9l5wAPbZm97y4xiI8caOkPJVcljo/aOQ8XoiPO9HcrTsgr548CVxdvFpVqbxTboi7258VvLJKDr00WYs8H5JNPIICi7zmIeC8fAe4vI7VxzvdDDg899eZPWzk+bwm85c8E7ajvDuhALr1ZGs8VfOGPGOssrzXMyU96kmmPE6u8roziIO9t3vVuxoXTjzW/Qm8wSLNPH7jJDz+IQC945fXPFTreLqHETK8ptQkPMFRYLyAVKi8djOBvKIaDzzPP5m7IxtIPIOJ5Tznn9G8vSx/vJ8O2DxpzAy9mK2su8CPjbwJ9aK8YpUnPVpTnrtrRoW8adBGPFYWCzyUtM28HhUyO+5KV73NNYu7zCOgO6rXKj1iniQ9Cm1NOq0x0DzIjwgPOTmAPWwAF7z3ohu8hUP7OjYDVjpg1ZW9vS+avFLRwTzwxzS8RhwaOqNYHLwqUlm8bw5zvEmXFrwlePs8HXi5PE1lVjxQda28QhKzPC/fUD2pCyA9WNe9PDwfxrrFOn476BDgPBStPzziC4e7ecshvE5o57wwXDA8",
