{
    "input_shape": [
        18
    ],
    "hidden_layers": [
        {
            "shape": [
                130,
                19
            ],
            "weights": [
                "xd3NPTnnvL1Kcva9whurO2e/mr3tE1K91BtpPJOJez4aISS9Qxxmvb1Fbr195pq7x3H2vYH/HL42dAW959GPPf9QrruVcoq9dXKLvhNOkr1PCo49TZsJvc6gAL6H7Wq9VMIdvld/Aj2MIx8+A4foPDLrnz0B1gC+P9VMPNVu8DtENGU96K2wPGu+j73B2Vu9fqyJOs0C8TwbTAY8PaMPPf3N1zwIhvw9SQCCPZlhWb7bvNE932CDPZrZbT3p92y8ID5AuzjnBj6XkRg8chmJPd9N1D0ur206dhWPveDEFz10gxm+9l6UvKsB1j4PV5A7ca82PtNBWrvMM6Q8wM4DPdg0jzug/is8NfDUu9ahCr1RngU8EsdluyjjErsdOCg7BhQfPCknprtr9Pg6WDDbvjxEq72uPxI+iJu+PU3Pxb3MgrQ7q8IsvZm4x70Kvqg9OjemO6vjrjv3uLC9qdmFPLnOkD2mX3Q9zrkMvfIljL2QJbw8xMqeu2R447xwTNo9D7idvDRX3roNKSw+/uQCvauJdrzxO1U9I2gEPmir8L2yXTs9S24QPPUxzbz4mKM9YbDVvJBIuz2Li3g9ErSFvCKLSbv+GP+91ocHDwtRCI8SVwiPJTAJj2vVBw8fVwmPPPwHjwT5CI/QrgiPY8IHD986CQ+xWwkPmR4Jj/GvCI8doAiP0nMIj7CdCI9XmQcPSj79vellP73yP5S9a1NPPODM/71iUEY9n/WaPVnalDzM7VC+BWyMvd6CALyFOOM6neWbPVsbZj0W7Hq9v2+7PI27Wz0ZXZY8093JPRC3p73wGeo9Nq/SvWx8LL7UuRS+vIq6PBDSVr4YxjW8oUgkvQpKrD22/wQ9y05+PA+Ap70tIo48fAqDvTPHODv49vS8NeZHPdgGlbwnIPW7lLidvXFdab10ZiO+m7MHPDlgzT2IvcC9AfWQO0pgUL4Me4y9RqefPfi68zzWLdY8pGY1PfYg1b0fX5q8YpyyvCyMB72+TPU86Xo3voT/0LyY1JE9",
                "xR8HvuThyjzcfKO8XUC8O/bxAz2Aic+8gllevD1dvTnwqrQ8DsItPAAD+zzMafc7b3fGvEVekLvn6Ae9H0TvPEOnr7340HE8xti4va5MB77UkzG+XhKLu/lZe7zb1hC8Vv6rvYdbg72By2G9Oo6pvUv72L1KutI8DEzXPeF9wr37xYU906Y3vVbtmL3bdj89JsnsPGpyhL2W/Tk9J9wZOzHDH769AeG7D46TPQhNir3pu+M86oD4PSKUYb0rR9o9ucPdPVv8fT1xXVI9UsN4PTgJtbx4qZk8itzFvaJNSr2QdVk9KGWLvWoFM7xswIo9GpLIvYf0MLynB7E8PBuDvCciCT3cQx89dVRlPGhRgb2+Waa8+4PLvYSAGb2e/zQ9JM3fPHr+Xr1eyXQ9qRhLvWYwDz4yzUq9Ml/ZvNrs2DyjGaM9cm4cPq272L0dyaM9/y8IPPz11LwZAJ678VogPNktwD2Ra4U9S4GEvDlGOL2ozkG+aTM0vZNlHr2OiYe93OF+vWAT37wva2u8/qYkPfICgb18oTY8csBTvaB5Sr3puZa9CIzIPbJSSTsuGpE8yP/KvRZlRD2gx1a9sS//PIZPKb3ODwa+y8zPvcrBFD1Vy1U9pkoavc8D6b1I3jK+mwi0vXj6vL19cDw8j/znvL65pr3J1909k0pUPY9KwTtSBQ89yVObvTKBcr3C+EQ9wV58vlMQFD7F5G88CRkLPvtEBD5BlMG9SEZnPWtVgT3zKUY9Zr5dvUO1/bzETae64FkkPTsCFjxMf4G8pKxOvJztJ72GyRm+hi8OvmclLD4bSye+cqSXvVwkxj2N6/E9V1WBPEHPMj0QrQM+t1QGPcGp4LzRA1e9EHk5PWsR8TwcWkA9cJYyPIwVZL3MHI49D1WMPTNndbtJCOY99/prvMrZ5zx2zDc9lEKivRL1Vrzym6c9QbGjuIbcFz1h5Zk9risIPsLSxjuH7o+9fO3qPWMmaj1Bsae8pVhlPZo1ED0cU4Q9gRYOvmavAj6ji4m8",
                "C7VAvQT44zwvEQG9Y5ehvWihyD3UF9I9FplOPY1V6LtxGwc7I1KmvTZoCL4g3L07trBKu1l/rjzom9+9ms4ePS/2Yr7xdQo9M0uIvfQkgz2TP+49550cOwxI/r1vYZm9hmwoPUgF0Dq3q1Y9DUXBPGFtDTwDEEa9De+FPGzu4z3r1NG8/1VRvT09FD43t/88gM1BvfKsFz3zv189y0rxvRMvIb1w4lW+2nXdPEaW0zx86ZS9sAcDvr5Yl723uzW9dXO8PdSF8DqgYEQ9HdLNPU7rKL2If2o98nNVPWQtUz1GYLO9hfHVPUhK5byD2s+9kZi5vIMNvb1UW6K8/Zmmvdj0jbqehe29/bCCPI8k6zws/EO7QaDdOzCNTrs8qdy72R4OvfYIwb1XhMC9O3wevlcpzzw9spm9/jdouwuOgr2jwWw9agImvQRUbTu6sHs9PgIRPL+jyryw2SS9fqoxvV4tjT0++X08u7LVvRaGWj3brwU+3KkWveiq5rxnstM8sArqvTVk+7z/EQw9NAiuu0TFObqVSs+9657RvHE5MbsFfZ89j3mmvYwnBD3d7Lo9Zlp2vQMlCD0bRx4+r7IMPo/Ek73Yivo8eXGBvfiSPLwppra9MeOcvQ/hBT2hOO48nHGTvfBsp711Wk+7SdkUPD2CFz3r0WC93tGdvTZ8Nb1fUKO8uQu8PaqJO72NKtE86GvGvVbYN70/iKa99MLavG3cHT5FrdS93dUXPHb6LD6YMDA8ihe0Pd7uo7u7Kls8GGb0vNHpPL0LFFq9PP83vaWxT71ggAQ+EegCvlse3z0R+om915IfO1iUyTybdqg8TH4pPYwBxDx705A8sdXeOtHcDL28WJC8UGQTvf0BrTzfsc09cHo5vde5272fg/G9WAEBvgX3HD7Ttbw9SeK8OyRaqDuJOxk94rY3vYYL1b1TkEG8c3KBvMrovzsZlay9u6Eru/PX/Dxn8Au9DDncvDtDh71Zy26+67sqvR14Fb6+chU+ZYpgPLj1rjxeeZY8",
                "eKNIPR4+wj27nRw+w+t2PMRsqbzJ9Z686OXJPEp5DD2OALg8fzEVvAXHwD3yFyK922pKvohk2T13A+o9Hy4XvkgpPTxhWKK7imjvPfU+szyNnkK9ypoiPgRjCb1kfFU9j5TaPKDyyDzaBau9mMUVPUsZp7zPCBa8cEeOusdB5T36p6c8i9rova/nFb7/dz89BSlNPSn9qr0Ll/w9FflrPLX3i70ErLC9gCTkPBscvr15PQi90m5MPfhYnz1Ibly81KKRPT5Kzz0BvVy9eAyqPdBK+b1Vrhe+/zMbvU/k5LwCBwO+ljkDvfKp7D3aNp+9pRJ8O7dgqD3pOdo9F1dyPQ49uLtDsYU9uQ9RvXz7ZTw7FqE9kjdPvaMr671VYQw+gauwvajdXT1tHZI9r1BQvVp+JzvV+RQ8/vBZPQmFgLx/Vhs9NU9xvZ9v1zxQDUC9QGdWPXtDqbnDSFI9RNL2PMmV1LwUT1q9V2cNPonUET10BVe9w8/du9M/JD2A6ra7qnhZvVZqBb0zI1o8Uj8OPGs4OD34xE09/4xhPQcLDr3q3S+9exB6vVRrpj3MZtO8DMHWvR4dcb6WLBY+M0C6vKLh4zwJWgS7S1PkvN3Pkb33wWo9BWkzvZyV7jzw13G9CQwvPU1Je72yoT4936AOPV3ASDv8FGU8aSoDvlfpJDylwJE+LqO2vrkWKb3+0Lq8Sdf3Pbg9qjy7Gww8R5ROPc0GvzpKv9E8R/WBvHlXLrsFHcw8mnYnvfrlxzt011k8pmuFu1/cob1p39e837Qhvr2jnb6ytk2+PU5XPAqMiL3VYmy9PODlPLzyjLvOWS89SpLvPExiQj0cAA29fj8vvebv8LtKCAW95Kgmvec/BDzdMn09grJyvAredb2xcSO+mlEAvkIPOr08LrG9esqEPVU/IT6ho2S91XvZPSsXZrzvrzW9+Kz4vFlPAT6nacs8D2gavaX4Or1MQqW8uwFuPZxOiT0ADPO9qxwBPnh3mj2ojwk+evPTPcVMxjxQLic9",
                "D2h8PeJgmj23hM883oGtvDUdlDmOtOg7kiqGvd+kCD3dEYI9MNBCPaN8hb3Hu/+9ODDiPRvIsT1CVIc9/4wmPZUIFT1gURc913mLvd3KE775hKg6yTmIvXZRzz2/2IY9dkkJPSCaJjxJ9KE7KWGlPa6IDD2NY5W9+NKHPcpYGL4e3S2+8+TlvXgbK71JRHW+QYOZvbwdCT7JpbI8LNs0vX/p2r2A+Xu9Lu/YvHxvXb3sGAA9TLViPEcrhzwFMYC9epc6vVQnLbwCg6q8ERSivZTy3DufBZG901OKPeiGvL0XuK67/Z0cPcNr2r0BcQg7gx7MvYmtJTuZ+TI+qzjFO5HTsT0FsoI9UghPvbDYIj2+OAY+5oOvPVKQDr40tCY9/kWNvYPyrz2cLlm7jb4qOy/YIj0sMy69OtpJPaTk/jufuKO9MAUWvVP5oD2qL5u9Dy7bO5Th2bye1IO8LP+NvTVWjz6KhJQ9G56ZvLZqnzzVVgu+ljzEvHr0sj3rcSm9xwWTPFmiF74s9RE+2Yj8vWY+YTnCTm08095dvZ169bryoc89A0rMvGp0Gz283m29oyipvb0lqL3QHqy9FAEMvQRPCz2Rki07cnTDvAEyKbx6EKO9I2y5PfLFPr3UUms93SPBPV0lP72Umfc9EGf3PQJiwjzoOEU8B7BBvX6TmD1XSAq+zuEaPTdMq714mqY9/XxnPVFlrTxOE9U7RV5JvHq/TLr0A0698larPR3cPD1zuEo9OVWmvdH8W7288yG+pQeKvVmPOzxMp/y9LXwSvWw3oj0IhJe8abCIvd3MwzyyaLK9PG3JvKn6AjhTtRo+InxqPXbiWD02cv09qGQZvbOYZ71fxsi8LA0lvdzYDLsUwlq+RaFrPlzqs706TjY8Q9ySPNCkAz1YeqE8bSKUPZ5dmT0vY409MsWMvc1WuLx/em69gkmWPb6albt4y6Q7iFUOvNudXzzhV6a9JV63PJnEfr2Y2fU7E0hgPb5WUz6x9K49L7sjPflprD3DmZk8",
                "QYelPHEZ8Dtech+9rQ9lPTslH7wZF6894yRevTjiPr111rE9R62lPJJzNr6EpZu+IhRWva3+cz1JOOu6S7SyvZEX4zzwYoq9xhWIPNoBtDws5sk80B4MPRaBTj12C988pZd9vRnZmbxZvBQ9NkaiPQyytr1SapW9D6n0vVhbPz22qJO8rXaVPdDFGbxQ4Ak+oWd3PZoO9T22pZ+8n5nAvTezlryRVKc9byFQvZKum7yP4ao9UoGkveZ42b0DGDi9/tCCvr+MQD7V3CW8oceYvZncxD2b93m8L7LwPIPxO75Ns1G7TvmPvJPyAz2I9ty8GVlGuJCtsr0+rLg94XsVPAzcRz1VFlC+CuspPu1Q5D0YbZC9UWFIvlKH0Lzu41m9KT2DvW/mY7yvU1O8WBWPPfmZi72vYpO9urykve4s8zzK2tK9roGxvbomkTzeLHs8WkadPdmUxz2qIwO+C3hMvlgHz70tsTU9IfgVvTQYELsOyhy88TxFOnNvFT0+jhU9OGqAvZyCqr1z0qy8R7HJvfEsdrv2vw69I+kAPe+LLr3GNTe9AeNLvgSR/z1wLS89dC6tPcjLnj1FIaI9FC+SvR/m5r1eKxe9BGb+PQsw6TwR4ZK9fmbWvNbI8DySvlA9bP4IvA4JXTyNXgi+ln/GvbUS1T1M00i9lJ0EPZgc071usSW+LtGjuzycIj66s5U9u5T7vD4O+b3A6Is8efs7PYie4LwP6pQ99jDZvEUYk70nQo29s5+Tu5c+Iby32A69sgHCPRYx6r1i0Ic9mzADPU8K8b01Ba+8kN0LvvH7oTyOyuU8yEamvB733zyIVQO9BAKAO7WCeTxF9I49AdeIvd684L1XkzQ9OzTSvTgxYz3mG7C9PUJeuylWlj1t1aS9dupEOwcGBj6Kwwe7InkVvH4QLr3sCne9grhOPUaogz1goS+9FpA3veS2Jj1aDMC8aBEYvo4BNL53hjg8Z1v6POpMLz6XlAG99rwrO7gFfT33hyk9a63LvSUd7D06YC69",
                "0LZ7vTSr6T0+ckW9sWyGveQLZb3IGAO9e3/yvWdhtT3LvWQ7+Xm8vWcEP73rK3s87XiuvXK8bjzdNhi+OcKmPNI1mTziGK69RsZlva0QIT1wIz69ZoOlux4TYr3HHRq9MKq8ujJtm73FLs+9/np2O+v3FT3Q2tI9uOI3PUNOLj4/eJE9eT73PfhFmTw4bAG7ZA+GPd8UOLwydYU9UfjKPVBVWTzDkIA9VNMhvgs+JT5Nypi+N1KOvavijrwd+Wy9kNnpvMT0ij29ELy9YGK4PQGGbD1K0c+8W83qvHwhtjyfHBE+lzWgPXZszT2RD8i89T9OvQAitT1X0SI6ErRCvGmvJzxxhIw+QyNhPnjcMLx2xZ09irgBvUs+TT1OUr+9YioivEYkwr1dD4O9S9BMOrCzW73a8Os9BBx1PGaKhb3s+Hq7J+zIvDZ+Fb2lfxY+WlOIvQbWUb1r40S90CswvB82ybyfKGE9vpoFvpCKVD0ta3u7jJqPPVFHszxt0wo9K9Ztvd//rL0W5p68Tr6LvSHf/ru6/Vm94S/tvQRZf73KLIC+H0D7Oxhmhr2l6AO+AwaCPUN7sTw9JQ66DqWNPbt48LuLHGE9eRqtPZRnCb3//aE9QZaxvCpuxb3sRNC9CyQjvcg177xzgAS+peqPvUsEqb2mfDm9jFxGPnahlT3D0MS92guyPQKtOb1skI+9VenePEMCFbwhm/49dGIVvaUSYz3bgbu8/sCfPO9o+70XqcK93M3BvdYACb6PtRu+8sXTPORwFb4+EZo89K0FvRK3oT2+ZzK9bqgsvAKk3j3HI7k7UrINPDMvv7xPP4q9lf1WvDV2KjyMYeQ899iYvQOvBT7jDKq9PEKZvRT3D73zOZ89HQ1hPX/CsDugMvU9Pc73vKVWRj24adi8BamfO/2Mgrwnaeo7d5tQPbJkNzzncp28wJ9PPtubkj3G8bg+Euw3Pt4hjD5yL/c8et+vvDAJvT23ouO8H4mRveC0oTzOtI+8IZmvOkg8B7w61Ik6",
                "cKIqvTvbjTwfNG+8k0SzPOnBwb4qf5A9pmYBvWZYDL58J0E9nveTvbHGs72BE2O9Y/wgvl/UcD2jboc9zhGvvYmeSzzU8Sy8149IPBmRmD0LMeG8O0+Pvf6F2ryrKOW9Z3MjPVQzir02Og6+8vMauVbvvbxSCQ29xMEvvAGngLyC4Lm9o5bjvfw4qb06hbs7c37mPSdLITyPaCE9EnwgvXLOQT3r4GA9afEMvbzt7Dr0mRU+ncOCPir9KTxhFz+9RxmXvQbn0LynJuI9o/JUvXxTZbyqj5697tcJvVIVVb0+qKM9qSmHO8QFOD24hc48J3d2vD1Lar5vdP+6XabovNNFHr45hlE9UzqAvYWrHL537em9acMEPhZyEj2BdR89JkSuvY6jnDysNae97xQMPUhkvb24d2U9cedSOyVSKD1z1QK8uZ79vU6nIbzOxDG+fRQmPV0R/TzhUhu+BNNovZTfgz6B6EU9jzkYvXbgJ76ZfoI9aULGvYRqxb3QiMu8x4IKvU2s/j3TBaw8ReVevbg9MTy4UwE9S5hvvUiWNbzOCtM9U5wKvoxdFjsoUa+9pBLXvV3hDD3L20G9W58MPvKezb0eXY691kcNPdxKjb3MztA9ZcQJvaoPzr1dvLu9vqcdve9ye72I+rQ9REGNvT2oCbxnZvo8sIwovZYBzr1jDnk8OnhUPRbpIb2aKxq9+/2TPcUf97rlK4093eWfPcjQpb3tOD6+yQEgvnR6Xb06ukg9V4pFu0m1Pj7byXm9AmlQPfvNGr0I4rA83QszvfIRG73Kawy+TSWBvQsHAzwQ2qk8nr4yPRcyPD1TRuO8bh/evcWnQD2/y1g9UOyYvUyRyb3QNEg9eazKvZNvQL2eRaQ9WjSvvU7PArkeOD48FAO+vU0MLj0YZBC8olHFPVMKvb3PQAI7ehSovclUw7z4XpC9OOaJvqyYUz7cppk95og5vcXmQD3245M9NjlivURaqD3S1kG9IYPmO6uTxT3wu/u8RF9XvaHXtjss/ki8",
                "DhF0vbEfbr3tMIa91OehvZ59Q76tLb89hBvcvdzPIr0Vzwi+w/J/vZodgLwI14M8aLUOvfIGIT6P7IC9jIgLPMeWAL497fS7jjwAPYoK3TyrrfW8MBzqvBSi2z1yjS4+RVKHPeG1g71je5u9ceU9vn5hBLwOFKG9RYCnPOLokbw6Ww6++Q4CvlD7Aj4nzaw8/1SLvLwC1DvI3o69icg7PI52Vb3XkUU9v+t8PiYuXL4AXPe9dMZQuiNJ+T2UG9E7CtKou06Epz1Y+KI8UdQOPMu69julmQ+92x/qPAA4bz3MQJA8rDkKPHS/rDqZRRc+PSbdPbY6Pr6C/xc+j5AXvv86c72U74M9Cg7rvPu59TyAhEI9XBNNvfDSYD1jqgE+31eMvTsEcL27T+I8ARKqPVxrbbygKUI7ARpKO1uCdj1qhHK9vMMxPr6BgDw4goy98rMmvOwAjj1yABS9ilWWvR9DMDouuKS92TpgvPdOXrxwHvM98RDBPQ8DxLwcNA29P/ETPQVa7b1rUao9fs/4veB6Z7614r69JACbPb4qkb4j5Vi9gKJUvi9ozDznv8m9hHcKvr2m7rwxlE490pkNvcxs0rv80uK8XA8VvfHbcrzYoyG8iOLNvaFsqzw82Gu8l9PevVl8+rsTszC+FlixvXxabjt7cl28ZZsEvFf0LL7S3vQ8TuNGPYMq/zyMmkC8Zl8+PJTJEr3AM1s89P6CPWveyz05Tyy+UKRHPY+ZTL2apwk9TIE2vSvpX71UUyw9Rp5IvYJi77xl8X89agtQve7vLTqEcNy818ARvV9ElTxX95+96r1UPD4C7L2EvB49CGQ1vab+Ur5xpBe+EU6WPWFN6r3LJJ29hZcjvk5GLTrGVO883U/avMZaHr5hlOW9iLtPPFz8yD0Dhzq964R9PbNQGL0LJ5A9c+3VO60auL2KZmm+8bImvkNVMbumIv699UP1OqfSJ74sl+Y8aiCJPHpnzL3kT566pb4aPbGsIrp1rqy9aGOSvUdShr3ybg+9",
                "1kOTPNpC/Lz1Nbq976IHvmPqDrxGwmC8x7ZOPfuIXD3KwyM9zlVwvYMhib0ECgI9MIicPC7+e72udBU8ygGsvW0pfD0Ch6S9I3cUvZF94b2PBBQ+D/f8PWRpJL4Kp4892EqjvDv2yT1eYR88eVF4vLslAj57RNM8lETEPLVHkzp39/67GKCRPPn13byA+oC8/7hvPen/tL2UpHy9gNYfvlm8UD6QnYK5pgorPTzlC72kZ7k9/QphvdKxLT7p+g++/yUOPXmMXbv8WZI936tJu7xRMD1FPYK9ay+YPbOM9bwvQnA99h0iPHZP9Ds/GZe8DzLoPdaBgrs3U7g9V8EMvg8CQD1kk/K9yD/KPfXBAr0D90K9oSwCvboYDLuIIp09CwlOPSUIk73M7h69g8mlvDrNGb19orU9vkxEvmD4Qz6X+JI9F0b4vWQgAr3+i3693I62Pa8DaDyVht480URjPY7khj2ZAZY8PwNavHYwLL0LdH88uIOKvKfXKj1LJuu9SN4ZPlqpJL4ak4s+sOJIvWSy+r3DpLc92X6HPSa32jxXdfs8TecsvYr3+Dve3N49X4Xuu1DHMj0ZcGw9IOelPd2MDTytvSw92pievcm6uL336dG9RNsivQ3w2r282SU+mnGwvbbgjjwRUhK9exxLvCWpID3bfPE9/91ovgBUYr3/nms9tsHROwZgxz2iJsM9eJfUu5Uwp70fvwQ92GDOvgmqMD2XJla9t5Wzu2GYiT6HUqo9UgHvPMHb/j1TyGU7dwDevbVmuLwxF0k9dL0uPrxah71ew7A9OLmCvY6NgD1PMKG+LGitPFklQL7HHyK+t7DePdTE7732Fxk+O5rOvIcKD73+JOI9n3nuPByVPrxRB/w6JQxevADbiD083sq717RYvZ/6FT4IMai9QQdIvv5cd73a2oC8qGTOvCsqID32bYE9FRemPITRczwLT9G85YKVPeff/z2lgQs9tYrjvNb7iT1tdKA9Lu2Wu/0o+DmUd6s9t2+7PKkUCb1A6F09",
                "+pFGPV8Gv72WJI49LQmsPUccSb00z1C9x4ByvffQyr3LIgs98jEmvV4FArsOvIe8o0PPPcRPobwl9VK7LvmivWvJmL0TbIK9a0LvPXBPe7x9zG091hK6PdQSuT3Y+yI9r6n3vISTuD3ot8680O6mvbs06zzdoFO9HtSHvAqReLyJhRQ9fkSHvGIGjL3Kc4893M9AvlrpNr0WIcM+vfKhPq+2ED52mDm8/r5OO3OCE71Kc5i9Gq8dvs64OT1N+Iu8AEzZvLrkdjx5GMA9vJO5vDL3Oz0t57E8a/0uvRn8fr6MiDI99MsUvkCxLT6zT8Q9fG0oPU6NxL3sHxs8V5+CPLnNi735GYg9Sd8zvPLIKjzClk48j+MkPCT+f7xPUHs8lEwxPb8PKTt95n6+438OPnMCJ72r8gG9gA3vvVXlaL05o7280viKPFsrFryn45A9nXHNPCt9mT1PTiA+DLcDPVjMTj0nG128NZ9SPTy6f7uPeZe8Ie8Dvadv+jyHwNk92gMLvnxLEz3SjNY8gkE2PT8Ybj1KX1A9CPjHPOIFb70YN/48P4/mPCNhcb3c+gQ8Jsybuwp9Mz1mCaw8v/soPZ2Jk71qmgi+v+/hvRRqfb7brF6+MJuovZR4Rr5sj6m9cEzMPdSm4DuDzIE9xxUrvuWsCj5RBVY7Gz0EPF7Mcb3K5FC8egBxPcgLQT0o8U49i0yNPQvrkTzYbAY+Av+ePbX6ob2DB9690R8cO8xZa7wmvug8yEjzPd8HTr3iUMy9ebM3vZXMSzwk7fo8UvHMu2+uvTyORbU8knN7vhgJM71mokW8ERC2PceiIj6MjXQ9bHgHvqWGojxhvFG+bkeOPBNHW70efvi8eskFPeXpcjz/uRq87OOHPSfCUj1V5kE9qJgPu9ycUL7aeYw9wrw8vY7fmr0n1UU9LKJSPclrfL1zMJC94XGvPY/xAr0Xz9+80yiFO3I0Tzv2frw90HFsPeQKsj2PNYQ9xKyZvfG4ED5flSC+pHU0PiXQrTyqJR++",
                "WP6FPTWKAj0x5Y29uhpPPNAqdL03TVK9ryH2PKvVvzyJKvG9lXogvS6emzvHYQU9LpOLPQNwQ73aMoS966PSvR+9ZD17XWk8BWbovYStbjxf/sS8XAhWvcHtGz3GFQq+o58VPQ6I+jz7pCc8um3YPUYzuDyIZfM8WJwgPWwrj7yy7I29BNFePZkR/LulPAq9w+OAvYlrajyVkLe9R5/fPVDN1z1Ycsg8CkSyPT5I973hi3S905V+vF9K07yLuA29EjRGPF1jFzo4Fo49/PITvFgfBL72ycK9HSOMvA1injsjEhM98QRNvXgRnj1hTRE+yfywvCCSwj2Rgv0940oivWt/UzzJitW9cbRbvDHgmrvBcwi9SB2QvZZw0Ty8B6O8pDl4PXS7RzwDrxy+VNyIveH6bLy0FSo966ZyPSrRZL1/OFG9F69EvT0rQD2XBLy8N3fsPFgq97uewzc+5JEDvWipqTzp4qy8R/cIvWt9Tr7mYw49xhMPPoX+BL6LibM9fS71vHCFJL3Zz5q8jhphvMKR77xHNHi9dUO1u23R6jwbEs08SLK7PfGulL1jUiM9Fe/Duqv+FT32GYy9wOoQPi/OpDwMIg++2FOKvcxzfb3pQw29BhaZvduaHT451QC+9TNTPQ7ASr29VKK8ABa2vdsxW70EPo68A6MVPW6mS73AFsY8XL28vPxm1D2F99g98gdvvLnMlrsVfaq8WHY5vj999jxiXnu+ODVSPD1GgDrWicu9X02kvSgl8DvROwe74EZGvNzyU7w9SCq91EGavdN5o71wM4g9WJcrPljLzz1rMt28rHIsO1jZC72J4Yw9MRV1PGO91LzW0By81sHivKED3byardA7s7vpPapG/71mWIw8WnTovAY8nj1M2JK9qRLfve4N3jvjHbG9HPUCPehLDj1zqxo9Y1NNvf3uyj1LUH09027IvDmT6bxsqC48pxCdvIYuT7yhFsu8fW2HvTFTuT3ozUY8bLCKvLEpgr3bCSS+XUvwPMp5rT2eSEG9",
                "WQWVvQuicT0VGlq8Ra3HvSHhPz3dXio9tmZjPfFnm7zpNsK8uOKtvGEP8DwWaw49rBcZvbEBfb5pJKe9wMlXPXjIub3Qh/S9IzcGvXJWBr5M9R69VmD0vNZ1N70hg7+8D8uYO0yzAb4g3rg9+CwQvTVYIzzsDko9s12cvPAOpD3625+9jqsHvqfusj2kdtM8a9RXPdQlhL1yJm08g00cPaWwjT7E4929shEMvE5NLT0hmKC8dfYMPQKQkzs69fG70t82vSAYTT1gPsE870efvYP1br3kEUK9lNsOvsmSsbyZfJk7swXnvW6TDTzplnE+2hQOPT7Dv7nWbqC9dbSGPfAByjtNfl698p8XPb82Or0tO0c90yOGO7/EqL2BXgG7R0EMvgEx470Y+ke+8U8KuvvEAb5Tzqa88WVUvVlz/73ipVQ8F610PUgZy7sh7Q49BR0Jvl/s+zwVIxQ9iwppvegDjD0BHnA9VlrrPVi74T0AFSY9X9PVPdDyD75+f+K8Ep4OPiRN5z3sK509Ne6iPGl7jr3ZaBe96QyyvH8sRTy6zrO74b0YvSXl8D2YMAC+n0kTvpF9+Ts0yBw+T1MnvHBo0DwMXBO95TILPY8opbsioBi+iR0KvoDeUL3u1ts99QuoPY/1U70AYQ290muqPWKHBr7Hx8A9vuWqvfb28r2FiQk9F3X5PIwydL1Mcxw9f3ILPYi+QbzsdUK8WLZxvZjfkD25/wo9RdAXvDm5cT22aQQ9N+bUPWrhmb20yLU9EfECOMjTAL6GYpG8As3rPDQgOj2LRs28T8oUPZXxzb1RL4o8FCdnvQQQoL18NWG9SgEYPJtIiL03vJu9ZLGRPeCxdr1M1XM8vpyQvec6Ur2S4Z08S66UvQ=="
            ]
        },
        {
            "shape": [
                130,
                131
            ],
            "weights": [
                "tFanvL1oPr0selI9+ApruzQDxzqp4g85g2IIjxHnFz3UA029ZT+wOkHgv7zM/Cy975NbvcHMrLz8LVU9jiM5vU4hi701Bkw8VZ5IPQdwKD0+X+O81AvPu38mGbyT1Nw8VWvTu4fLGzs9WEg6IHWru0eKEL2W4cQ8Cm+Bu2U6VDwL9h28ZNzWOkvSwDxzY928ypMJPQ9UpDvyHJ+8hl1GOzNoo7xW9/U7569bvUdEmLt55Pq79qOzPK8ozjvdYA+9TBjCOy7qqzzjGyc9FWp5PFN5Mz31X/m6TRzJOwaMzrupBQ48DeqHvOCwALvvVSo6it0DPQEX1Lzx+IQ9H2IJvPiIfz3B+FO7e6AUPD3aGD1aEkm8pOfuPOmDFr2Rqw+8cybZvBZFhrz/tDS87zdcvc73ObywxIG7ekPjuzBdQzw2wTI9S7A4vXQRfb1xgA08JhAOvezA8Dz8cXS7edm4vGM4vTx34Ie59+EquvF+Xr0/HAS9n8nOuw34wztd3Lw7d7xovU6Hdb0rT7u83jaIvMYB+ziyMAu9W8+ZPN44nb31js888kaTvOPtCT228ii9hgMevLaUdDzT+io9yxcSuywoNTtlwVM8ydGkPFyprjyc56M60Z+uvPNn1jvgqRe9nqacPJ9ukbx4k029tJC/PO4aKL2x5wW9JqfAvPLv07yBm1S8LzvLvFaVqDyMZQiP+IAIj1uFCQ98CwmPGM0HjxtrCY9HLwiP+TsIjzS7CI9aKgiPUTUIj1R2CI/yNQkPxZMHj/QyCQ+krQiPaHwHj6T/B484ogeP3V0JD0zcCI87SwmPS2UID16SCI/p8AePIjsJj0iVCA+o5QePCqQHjwfLB49dqggPxV0ID4hACY883giPGysIj8m0B4+zGAmPzNIIj9l7CI/KgQmPrDUIjyusCI/VWQiPX4gIj9FxCQ811gcPLfIHj+OYB49p2gePH/QID6w1CY+CnQePsyQJD3/HCI+j+ggPHn8Ij5pTCY8hCQiPFrcJjw21CI/vcwgP",
                "FvYHD5xcCI/zegiPcW8ID2dRCQ88ywiPZK0Hj6Z9CQ9qewePncwIjz0mCA9qogePa2UIjzVnCI+fFgmP1yMJj2tZCI+LbQiPNcYHD0BACI9FJgmPGtQHD2zcCI/uTAmPLgQIj5J1CQ+gigeP5jYIj6Z/B4+0vQiPyMAIj4qJCA8C3wiPF3sID7HGCI9EOgiPYicIj9Q9CI8aegePKfQHj4wPCA/AywgPiJIHj9R0B4878wiPZlUJjyZNCA91lwiP+IoHj3XJB4+kBAgPRZMHD0B6B49ZCAmPRSwIj6SgCA87dAgPr30JD3D3B498agePV7sHj0zJCI85hgePXUEJjz6eBw86uwiPiScID+tXCY8IjAiPjYgsveVZiTpzrZC9JM0ZvEi+Aj1h2mA9Wp5KvWtWCY+t48+7f2LSPPBre7xcqHM8vs7BPHywIL2Uahq8fjiEvZf6KL2/10a9zB4nPfViBTzYTD08hfW9PFHOaz1rpZ48mzipPC1Clz2P1ow8NKpaPMNh5ryJkAW9BHdavdo7Z7y9VdE7DFC/O53Q1rx5a2a9i6uNPFbjAL36w0i8x8yoPPZ+nL2V1ua81vmAPYFRhLxuO4y9vyMKPaJp/zzAHHU9KeXZPJgU0zyE/R08cnrZvIW7H70aLAG7dHYVvLqpED29baA8aHc8veHqO72VtcQ8J+O8OyhbY73I5fG7llbyurEEwj39JoC9FgwqvFRrILu4tLa8o6dMPRCimL3iuSC8qrbTu85PP73SZLG7LRtwveBvzLpKP1c8aP0XPb0IM7v9Oo2822GkvXp9XLyST0884k3OOkv0BT00Kry83FZ4vJDZ3D1rhgK95JpDPdE4+jxqmb48SS0BPSvYLj2zExa9e/MMvZitRLwyT528JFWwu2nYQr1ClM87V+GTvFRwxrjiNM68QMGYu1m21bukNPe7HRW7PGeurDxTONk83EegPGXkxLxLwsa85vGVPHsw6jrOEqs68SJcvUAAPLxIBcu70GDxuxZxlDu+6/q8",
                "0zjVPCW0gryq7h48HoeSPJDXTL0x7Cq82O3rPNf87Tvd0SQ9CgDXu9ZTNrzixWg8Bq2EPDlxezyegho9+N8Hj5C3Hr07cog8BvMVO4ZAOjxmzbk8rWQkPC8rwjojtoe666WbOYI1k7x0a4m8xVeKPeKoDj1HAEw8cKEjvLxypTpicTm8lHvWPJ6xlDw9JQQ9qYWSPBtjljy0ltC8k13YvDhD2Dxr650881Ybu+yAdDyPNx09yonXu3+ASD5S8+g6aGohvD/MXb3ZMVA8Wm1SvBSlADsJRwo9eD4zPIpHIbzdesk7T7VauhWIvDv+n4u7SLLtOwQxIjvxiaq7cAVHPav4sDzOvHS8T1xovMaN/Lth/gK8oisKvSE3dbyKhGi9SXeuO5K0GrzDNa47xYMJuxochTvpso48IIQtPZwAYT3hdYK7DrwrvEajFLxH1je8KHBiPEVLBDwsxke8Kt7SvFo06zzpF5m67zBBPK1k3LwQSOw9vtYUvZg9hbw593E8QBsHvGh50TZlH+m8+3SAPEV1YzvP4jM97o8MPbehG702fQS9pEgYvWWhpTzJBbA86JavOxSOp7n9IUc8NbS0vItwqDxAhia7EHqRvE0kQz3lsfY7u448PY17Q7yMUIQ7jCoSPMzdQTzw1LI7H+YMvQEMmbxDVPo8ct2lPJgYFTosn7e7ejgFO3jt2zsItPM7NHfLPK4R/DutqBA9r7V0PPg6AzzJkgm9uPZkvF38H77fhSI9PZnaO9XXyLwgiQq9kILSvE6AIT3BywgPVnDpuyKPJjtJNpI8nHlKPBbv0bwAFwm9xK5xPW9YybxWY2I85h5auwfDuryqMyq8k+lkvNzCnrwvQVS7GfelvQyTFDyT/YW7rsTUu+UYIryIx389PYGBvM4MVrjGI5q7s/mZvL/wh70wRjI8zpAhPF/XQbpUlIu8aF+lPIygOjiJG8M8pfrfvKP6S7z7c8M8FF0rvf8rjbzk+wa948N9vbFP4TvriKM8XcR8vXGShTyBeAe9",
                "nYsaPJ3pab3seSI8too4vCmKZL3V7NS7CmX8vBBx9Lm4dmG7RZ+AvA505Lqfade8QOYBu87QFj1Dr8C7Xuh6PJZJLT2d9Wa8ioL4uaplRbzYb3U8TOakvBWIqDwbut47OfvfubTzC7zL5zg8ef69vK6YWD29g+48I1rdO8PphbytrB89MaiPvRnQozwXX968dfIlPfCLq7wvWA88VwxFuiOvFjwSmAS9kdFqvH1lfj3OhDq6BE/8u8R0hzrIiNI8XL9AvBAGED3yxJG61QSjvOeeQrtAcJU6/4e0O74FkTvjtGK9ZvspvEPDpTtPz7288TDUvAx3mjkLgHU6JRwmvfQC9jtn/9g8vGHGvKRXXbydZPu7XpCCPLfisjsFj1C8tsgVPaKInTvlZT69KKkNPaP8sztgjtI8WdcIupXEK7x+zhs9A3OovLIygD2HCIO880Y5PCpfCQ+seLA93LmEPL0GYz2MZ4K87AwXPZL52DqEHRu8sVzavCccZ7yTLg29s+NEvY0ZnzySXis8nd3wvH5DAL0hBDg8woWWPBGc8Dpa/349QgN4PA3V8jmED3M9G47zO9/0Mry9t368v8SFO931/DuTrsI8zaAcPe9iizz3t6S85KkevZz4NTyf1QG9dsKVPGRbo7yPacI8xO0wPbBjk70AnVk9jy1+utXQszz2/WO86buIu9ldYjyfy9S8ZlqGvAAySjwITVG8REPjvNg8Rj2GmEM8gxYcPRwdJzx79L66byO3O8p5ZDyksI87/sPwO3sPsjut9We9o/5WPYFTM72XfJs9V97RvDmSvrtXP+I8x5UQPaJddDxTIge9B/68ODSEijwJfee8OcAyPaqhEj0OhLs9BtoZvCYHt7xyrWw8VKiqvIagmD124KK9bW4SvbmqHD3f1v28t9ACPUZ9Gj3n6oQ84KyYvE8xIjwrire7WzmlvX7xG73baga7veajvHEr37vsKpI9lU08uSTG87t2Dl48tyIKPeTW+zxPK8G7+YfnPBqDtTz7IF69",
                "gx8SvRqTEL1iOoS9O0kpOyoUzbwOrjg9WdcDPezY4jxrS5s8X8ZMPeYvZ7xzow88gdEXPXpMt7ySL7k8j/ikvNQj1zxNKVq9Ia/AvE7GqrwxoKk8FcjAOxyMd7umXce7QD0Ijx0Z+rvrCBg8unR5vJzgOTvMBk08krmPvP5t9Dv5pX+7dHoOPCPGmbu62j29RHxFPDvYoTzl0h68jM9PPDjnGz2psg88XhTWuvkv3bsW6nQ9YJ3zvIHIsTtXuaG8h2p8vOhHxD1uGKe8/EtevFwc4DzWkA27q4b3uxdIIT3avk88V1ZLvHMINb1ui5Q8DdypO6LGKDwLtoM9RfN/O/m8AL3cijM7OZ2BPIJmcLxhyTm7B784veQQ+zszf0G7FpWHvONMl7tb4pg8VCwmvEiXGLtVUZo8nRhZvBAshLy0gdO8ZFzhu7LMY7wfzL88fDPlPFYpTLyxZyq8RtGPPPGHmbzm3KA8sW/1vMOat7zqFHC7BQcYPfS8yzxPYQo63nCeO9dVA73bkxG8T08bvSN2BbpTq6E96rktO8yzqbxHVzC9JNgRPBdi6jxNmge9/U4ovV3XyDy0MBU89rGdvJbLK7xeV0c8Btt1vMBtyLvgNks8L26lu2//QLxSMjS9RMJmPCgM0rwJIis7mgqOPPJJh7wDd6O87+eSu71npzx5GC094byevK7GkjyE4e27/LmMPFHBuTyzFbO7ytwlPdWS+rx8g6u8FO+QOrjycLy2NkW9QN7sO/yF8DtIWxg8dOnuvBJjLTxUBNc8O9/tPN1sfb3vnts9uBWHPF2VfDzrzdA9+9VDPf0OKbya/AiPYlvpvDYx9TxuGxA9QBf+vFW6F713ERy95ndkPYCjqz1vscM8NXq/Oso1arsKT4S8GOZhPZN8cLwML568v2UzvafSUT2U2my8c2qwPMFQsTw0LFc9bOvROm4aHr2JfBS7jbGDPL8PML2qjdG7F7xiPd8nKb3/9jK8yyo1vVscgzv8Q1u9a83kOzVvUL0Ac9e7",
                "NG3AvOLiibzMYhE+tEwjveOPZTt9gvK872IFPG9/ETymgyC8nH4svE2nY70Mqku7YdtTvGmFBryDteg7ZRCLPFP6hbyZbb28coC+O1PpTTy7cse8gdeVPP7+3jwLg7m81HLsuw7VjrwNvg49RTcbPntjCD1wAbu6iP/bPTO6ArzoBi89du2GvB5iFbzX6h09Dsthuy0CXr31Fea8cTVPvPIun7x+WkO9BJQIPbaybru2Qw48MmZWu2TplTtighe9/ce3uT8xK7r4Cx88/CAgPbsycjuIzwa89g1KvD5sAj0z2j69vGQ3PMuUCDz0eVY8/pE4PaBzsjzqxpG8lQm8PMdjdb3wrTQ7Vh8QPcPEuztng/e8IUabvLfENT14xUe8PBz+u7ln2rxFfc88u/UEPQkVOTtw/TG7sqpMvam6D7wag549Nmq6uiwT2Lx1O8I9q+6cvFh85jzum2u8uiI/vnBrCY/aMgmPb4kIj/drlA/5XJQPq70HDzqUB48fTAiP68IIj5stCI82CAePwkSUj/w7lA9wTwgPSjQJDwSkk499iwiPnpYHj/mwkw8oNQkPaIWTDw8olI8dKQmPP48JjwMMCY/nbwkP0YkID/JAlI+smAgPk0EJj4YrlI9dQ5QPrucIj4nfCA/iWAmPluKTj6R2lI+fKAkPakEID1rMCI/075MPpkYJj+zBB497kZOPmJsID7LOCI8vKAiP3X0Gj/1MCA/IawiP67EHjzJ3CQ8kFZSPH3CUj9talI8MggkPn0F6j/BTCI9OwQeP4DcIj6//kw+fjQePXhaTD305CY/whJOPMEiUj+ChB499QwgP/QYJD4ZNlA+gU5MPjAoIj4ooB49NrgePIAAIjxtrCQ/IpwcPtdoHj8gtlA8z1AiP8+2Tj3yPCI8gU5SPX2wJjw+YB48JXAmP8g0Jj8IoCA+miQePrT4JD91KCY+yRAmPg0CUj5k1lA+HIpSP8aGTD/hmlI/d4pOPVS2Tj1eKCI9FWpSP9ZYIj2eEk4/vUpOP",
                "eVIHj4HHCQ89qAiPfzoJDxpwCI9NgQmPqIkIj1itCI/GewiPU6sHjzxUkw/SVwkPyTgJjzU+CA+koQiP7bSTj8PHCA86nwePSk2Uj4IflI8RaAiPLykJD6ztCI80OZSPUUQJj6tQk4+eXG+9QroID7YMCY9uJQkPzQ4Ij6MzCY+aCAgP77YHj7C7CI9uigmPo44HjwwZCY/bRgiP1vkHj3s8B4/rjwiPYAIIjxk4CA8D+wiP//8Hj4JNB4+zbwiPeOYHD94FCY+08gePzwMHD4bECI+/egePcZ0Jj5wWCI+zoAmPetUHjxZCCY82jAgPYlYID4LKB4+yDwiPHc4HjxQrB48EUAmPHT8JjzuJCY/7ugePm1QID+LMCI/tLQmPh/wIj857B4/ynAePtZoID2hnCY9mdAePKMYHD/paB4/wvQiPp5cHj5xiCA+hAQkPcekHj8fRCI8DOQiPXtQHDxfCB48dLwmPs8QJj72rCQ+fcwkPYroHD4ZtCI9XbwiPTzQIj+Z6CI/AuwcP0MYID+AMCI+/CwmPa8gHjw1cCA/xfgiPaVUIj4KMB4/bFAkPj84IjymsCI8zUgePiSsIDxz7CI+JNAkPCTcJj0UTCQ9IvQiPBcUIjzmICQ/nFgiPZbkIj9gECY8EwggPz/4IjxdlCI/4LwiPv7AJjzMKCI+0MQkPs0IJj9TFCI8UiAgPvYIIj41zCY+q+AePy4cIj/aAB49UXQmPiDcJD0YfCQ9XAwmPNXAHj32IB4+20gePOuYID/MCCY+yqgePe+IHj6PDBw8qJwiPhP8Hj6nLB4+4dwiPU1UIj6MSCI9XvgiPtTkJj2sFxL0LuUg91l7IOq0okzsQpOw8mibnvP32c7xPXwiPDmtUvDisVrpoy5S7r58lvFsFFj05AA08VnwgPV0maDzFEKk7S+8POfleRT31xqw9UMNUO5A19jwBOR28fxmlu+vwAL1EorK8a8qdvA19Vzz420W9L2WTPNxzgTsdHv88yofQPLOj2LwixaW8",
                "aj89Pf/W7ry49Bm8Pg04Pd/dhLmjYtC8dhpuO9Ct6rtKuJ+80xJQPCsgvTvqXZ68yzSpu2E/kDy79Lm8bMUxPNextjx5vIU8F11CPTpJmTy4JiC9ffr5PNYanLzkZfw8Rg8jPQIpRjwvYAO8F2KmOwf0wbw0JNI8yDBDvYwX7bsNBja7U7G1vJ8sOLvsbs48EyolvQVrxTwfXYo8jDK0vC17qLwBktY7ET7Su+yiUjwhinY67i1HvUD8rDuJsqs7QEnXvB/z1jf/ESA9uyOxuiLOe7xFNk697nW0vB3c7rxIxrS8VkgRvadN6DwxDw89R+rcvOiPubz3aog8GyYAvJ0uD72hY0M9EiFCPeiAyrt0PjS9WJDHvDkLCzv0Qi69b//6vKlKDTx7LNK7WN4CPYYWGr2w44o8qk+sPPxUjbvhYM071jiRu7OagbwlwkQ8RRolvSRYhjydz/k8KH/cvG9h0bq7pn44JxvvvJYoXr1f4KI7lk1Yva3QpLr6RaA7rpAWPKIdRrx5T808rVESvRz2xbxiYxg9K3BCvQo7CQ+tzK879SSLu0HonzybtRI86o4iu+uqM7z4Pe67JwJAPKwJQzxNPdm72InivE+/xbswfcs7uYAFvTDUVTyA4dM8A3uyvAUrnbthYJ273e6cPBCClT3sNmI8YRcLvQXs2byZKmO93k96O66hQj1w+S69tomBvAfvK7wdADC9qDnlu7hVJT2cPdu7MxcHPapHP7xCNIm6CmIcPc0mXzxsfww8CGEhvcyqgbqtSlK8hTWRvPfPMr19lA+9IZ0SPPt6aL1fmr+79CH9PB1rdzxikDI8kwkFvKVf8zv1//U7PA4zvTG4qDww/NO8oi0XPUM+Jbwb5947X3YBPLhzVr1eXqO9eQ7OOxZkJrzaWam8095wPSnEWzvZkmE9kxWiPK0vGjzgJ/y8W6CkvWq+jD3jsyC9rLRAvRIfS7yu99m7ThDcugRQ+zxbEwM8SlvivP4PU7yq03w7rJhuPFhYmTwAZ7i8",
                "0ogxvLrKkrxpqeU7D73OvCqPBT2rU0G8X16vuzu11brVTzq9P6gIPAButDzugVW8EKH6PTI1lr0zwpC8GmvqPAiHr7h8fss7nD2qvJ5rQz3JtTq9Hew2vaMJ2bytAQo9Zbn2vJu08LsX0vg8XV2gPUlwmbynoTQ9CaPEPbuiyDyInSM9SaQHvGTaBb2Lz8c74xmRPKIDwjyB99a8aBLAPEmD6LuuCk688RAJD4eV3LyNDm25SZO1O/uHB70LFBS90v1Hva+iazxzIUI9r1A4vNeSF7yRj3U8dWqEPAh05bv+G1m8V4P6vJlG0zvKlwO8tqK9PEIpIDyJtFK8V22xPEW3Hb0gOAE6PEo2vXsJELzqTMO8APenvDdMT72JHmQ9ZlIAPIG3hzzjELI7YyKLvJ9+LrtWs4U8Y84AvXOVXDx0JCY8JEAiPCNxhbuhu0E6tRmyvPmOWTskdTY8NLoAu4kkKb1W8MK7yBe4vJ52DbtMME89DU3EvHfwWTx6pay8/rhBvAUOebyMhdU7x8r6POllED4jPOQ7LnCvu5EUiL1tOjc9MCL8u0hdGj2Njdm8FCUJPDNo6jyDDci8rf5UvQi1rjs7voE6kSkAvM1bcLwmlEE7sefmvHyZYbsk5Zi8Z2Gpu7kO+DtGEgW9f3JTu67w5rzi7uK8jTdhO+pjxjtihR29vBTlvGtOhDuomog8oe7HPPFf9juJ2N29D8OwvOqKVL1rX867KyhkPdoOoD37PDg8KBKQOjreXb1eO4W84rQTvQZksryIr7M7epu+PJ0+mTwFQ8E80SvUPFtlE7xNvwW9NQwqvDL6pr3rINM8sHXZvByMPbvzAmM8JzFivIqInby3eRW9ctWgvCiFETw59/y8e2rpu2V24byik4e62Y4NPb95RL09kHW9trU0PMU0br0TagiP82wuPRyxCj4xX4Y8myKlvG4qor2Xa4S9l4jvOylqDr1DUoM9Lg6LO9epnzwtWcI8/wZSvBXwhL3Drkw8PGHXPFG0OjwbnYW8",
                "3zQSvbW5kDy4RVU8o46HvJlMCr0h0r08tEq/PPccvjteIYM92qMFvUJuQb2P7v28TsMPPcOpoL0baMa8FXdAPROJsbx18yK9mS2KOg5IDb1M1/E8fC5+PbK/cr3Nk7U8I+eGPGByZbzhZd281czjO+kEurqqlio9IyP/vIB4Vz1PnJy4DIUqvIGH1rySm+w7UhjSPH++1TsFzxW9bxNRPK+91jxr7IK77WMDved92jzaiiI7mVGJvTM/hbzv9UK7XDgzvfPsvbxQQu28ElICuy2Sirzg50+9IYhvPDD94juLG8I89R8aPN+eoTwEWQg9gQKuvB5FV7zgjzG97fD7vCcMTby1fe+7LLkQvSKfCL02GqY8gFLrO8EWrbz0xGy94RtyvfhBy7xcRlc99sJRPLSdjbuQ/ca7mBq4vGC2MTzxjzI8TIbJvIwmML2ELvo69pD9vJRBpzsfJUe847fzPG9jObwC16U7ctOfO1EWRby7KJY8nfD6O62aDL2XuQG8pLJOvE51SDs0aiM9kVGEvH6SlT2sIcE8YcrlPNofTL1RFw08xAq/Ox2JPzzua9G871yaudJWqbxJz2I9Us86PVn3Bw8anu085EYJPF0hAb3KGWy8Bit7O3hI0TybDdk85cL0vK+jpjzqadA8iZOUPF/YCj3FODw8cEHOu49iazu4gG88D7cZO7usUzwJAea8FROJPLQpI71RjsE7XB2vu+XZm7q8t1a9JzcgOgLgIb1wc7g7ZDaCPK+oMjzEHgy9/xH+O8PYX71NMqe8/psavVpqPLy2rXk63y8jvat6kjx8RIE86G94vIsZbDz+GpS7k2NHPDSO1bx+dYa81SSQPBBJubzJ76u79vASvHoAJz2UBM28I8OBvJFz27xjVgA8ybmYO2ZQHz3YePC8IuNIvfAvtrxMdBS9vP5gPWpKO7zenrI8cjC3vJSVrLybKOK8RFnVOuWWGb0o2DA9JzWJvO9mBr2zst68d+iEvM9jBzxi2YY9MMwCPO0bGL0xraw8",
                "JpGePMYHSj18+MU8b6AuvWBaoLw85FW7dDijvJfaXbtH5Aq9FdwSPaqR7rshNOa7o7wAPTUukrxPqom7O5b9O1QrmLxMDoq8qE2mut3ChL00eiA7sSu8PFZDMD3vgl+8hvBKPPl8U7vZQx87HAYsvSRQqzy5/7U8P9EtPfPAMbwOH0I8rtZiOgF7JTpBvA28FFOaPEPQajpf/Fa9CG0dPRcCaT25VF88IUktvE0a/TzRpGi8VkoJj7hbCI/X2gePv1UFj4avB4/yZAkPeegFj6A/CI+TwAcPQa8Hj63/B4/EbAmPjsoHj2bABo8q9wiPgPsIj8s/CI9MFAiPDhQIj/yzBo++UAiPLJgID+GBCI/oRwmPyhgHjyxJCQ9HBgmPlCwID7y+BQ8DTQmPp70Hj0PyCI8ZsgePbS8JD+0WBQ8ftwePx3kJj/2NCI+coQeP8JEHj3wGCI/CpQePav0ID+tkB4/ebgmPab0Ij489CI8/oAePYI4Ijyt+CI/JVAiPUI0JD4WTBo89ZgmPJ+8Ij+lECI+qoQgPuI4HjyySCI//OwmPhCoJj1RsB49H/AWP2OwHjw8hCY/d8AcPOnkJj6pMCI9WOQiP7VoHj3sTBw8YBwmPxhwJjxXyB4+cqQePgpYIj8fvCI8PbgmPH9YHj9FMB48/RgkPhPYIj6rtCI++OwiP6gAIj9SACY/vNwgPPLgHjzUgCQ/8AAmPkLAIj+xSCI9ahgiP6m8Hj9MGCY9PnQiPU3QJj6ipBo+cxAePTRgIj3JsB4/0jweP1boIj06ICI86PgmPlrAIj5GEB49m3giP2b8Ij9t8CI9/iQePPRwJDywiCI8GAwePFNoHj3fWCI+DPQgP9IEIj85tCI/HRAePYxAHj9glCI9nBQaPYXoGD6chBo+VxwkPS2sIj6BBCY9EjAiPNBYIj13ArLtc5Cy7s3tbva6kSTwCWBw7Iy2lvHNgvTs8RgkPowudO+N9Rbyfx5W70EjHO54kmj0k8Ty9r7enPNd1a7w20987",
                "1D9EPfB+Hbvocsy8jOcku3Wb0bzRq488w0YsvMTpIryvs9O5NhsSPAhvxrtlXR+9j/SeO3nHMT39dh69TU6jPIq3Zzz+7Ou8kfSpvEdcirxSnnI8AE+JPAxXybuwHD09v8F7vb9wNT0D1lA9mgSgPUZ7wDwf+PA87Tg/vFIfLrtnxD+9UECDvWnRZL2u5QY96/g+vAlFhD0ypOq74+pKPAvTPD27I2q8sjbkuzJg8bwjTE28S5/qvEsLo72OCsO8hh/wu7vGZDstWSm8AUPjux99Fr3Bccc6eHtMvZSXKzy6QL48c40EPW3KVD3PS/A8A0U0vOxxiDyuHEg8OB1XPNPqET3jrYo7bsOAu4kkTj2vmjQ9x/wMvf2LJL2LzLU8BZk7PCKdlbzEIUC9JTosPQxhGj18r0S66D0nvWa3HjyaQro8AaxqPTkdKD3lQnk9o9I+vOd2UDp9+/m8LTCrOyPEaT0vdhi9G+XEPNA75Dte2tw8xGUOPUw4jL35sQQ98loEPIbmHjuGagW6B0WIPI9K8rvE0fA7tjf9O0FsgrtnveW7f2dlPY7Eprzzibw8SwN+PMdFeL0dGe482kaJPJ+3rbpu7hq8KhRCvUjRCI+S6wePPz8JD33dB4/VPgiPBJgHj/s3CQ/QOgkPPVwFj1PkCI+H7wePlKIIj+0iCI9pTQmPzooJj7aSB48YqQgPufYHjw+sB48pZgiPdp8Jj22fB49dCwkPNGAJjyE8CY+87geP6osHj2GECY+sYAmPrk8JjyosCY/uoQkPntYID9J4CA/AxgcPv4wIjzAeB49CsAiPgWkFj58FCI8uAAmPDz0Jj4qTCI90jAmPMyIJD8q7CI8LoQiPGwkJDx//B4+/2gmPWmkJj1MxCY8FKwiP15UIj7BjCY/QQQcP2FYJD2nRCI+0mwiPT0YIjzgBCI9lHgmPojwIj48ACI/EgQmPX4wIj3eTCI9wpwmP2OgHj7yOB49DtQePtk0Jj/JMCY8TKAmPZDMID12bB4//dAiP",
                "I58Jj8UYCQ9lhgiPItIID4k+CY8QoAiPIfMIj3sZCA/zxQiPs+oIj8jKCI/GrggPcxIJj/p1CY84TQmP0CkIj4DWBw++IAmPX6EHj2qnCY89NAkPeKgHj7//B48UuwePhAwJD1WbCA/LYgiPy5cIj73OBw9yKAgPaAYIj6wlCI9S4wcPVr4HD0fGCI/8/wiPqDcID6aRCI9azgePPOcIj938B48nWAiPrakJj0wXCI8xUAiPkP8Ij9P0CQ93wQiPHj8ID0TpCI+1iQiPqZIIj6xRCY+jn3q9aKTePOaQ5jvAicC8+Qd/vLfrETsFVza9jlgIj+9h0Lx2rKu6/1p+PR7bjrzT7NQ7Ep4/vJUHwzxY0388q3x+u+0zvTsENvS882wevcaDxbusr+E8LW/yOwl6FLxuNLo8uMtDPIAwaL3owZY8GIbJvHgqAjsMPx48EICMPKMo+bzDGOu8t+ADPcf9rjxCYzK5RtouPHa+lLxHgFg8+wy4O+tUsLyGAwK9hMDOPJqM4LyJ+4683u7PPBjiFjwX9Hu8pyUru6ri+byrNwE8y6ldPNWcy7uGeKS7pFoXPWZzijzFVnO8XsOyO0RrPL11+AO9MesXvFqb2TsCYw69mB0OPU0AoLuQWnE8G7AGPSCMsDx0Rlc8vdwzvWHMHLqUbLa7x7cJPZoU67sUqOo8cSNJPYDVtzsurS+8TEzxOsc+ZLzgiC49MdNuvI7kBL1YPci8cKQEvC3ruzpbgqo9fEEau9486Lx0pM46JJZGPSQi1bn8H328Nl1vu1MT6rxDWKs8iG+cu9pFOzu1u887ZvCIPTqikLzDcdS7Bzp6vH5FPDxSySQ8OkI5PG+UUjuD4KQ9EEwSuYGtoLx333Q79B60PC06ULypAVu8Iw9gvV/X9juNvxm900jUuhKg1rzbA+g7BJK8Om+RpzwXj68859aAuzeLSDzD5E09jRn1PFCbs7zIGh69XZK8u/ISLb0kaG080HvIPIEokTyNzA29nCVVvRMOxLyjaggP",
                "INgHPdHFar3l4hQ9lWptupNMojsIoVa8MdWtOYCv1bzxhvo6RoFCvUs5k7zhhm+9gU2RvPYGBjyntAm8ZAQcvTj2vrxhAXc7ds7UvOUqX7wC/2Y8n96Xu7LtDL3rGra8TYfCPMq8+zw14IY84sMovQYFnTz07708kKGcvBRsFT2JJUw92IhuvfClUrwj7xg8yNJLuwf7ojwUfCK9xNRPPXZU2LtQYsQ6ATWbvHNyQL2ecDM8D0o1PeSewDwiHNK5mnUkvZcbhL1eQ7K89XKRvE69UD1Y4ku92sFUOiF21rzDp5k8oUGDvZCg/bypjDW8XOS0PDBspjxAInK9Stcuu76dQb0T+Aw9c7/3O7LYubvpHfG6YMaWO8LV57v5fu+8tjOsvPOzOr266RO9SzdnvHQxg7wIf+A8/Zrnu65okzxPB5I80DEBPTDEUL3YXxy8MCMSPAdjKjx4UTy93gFrPI0LTj0y3tA9WbZJvewvTz0GnOQ8/z2QvDvR0rw22iK7wvN8uhTZBDuTXAC9t4cyvJ+gVT2+VE68r1Y+vZn+wTx9VgA89d8SvE6lf7yBxIe9a80svMbFF70jl+e7skgUvf0UDjz+8Dk8hB2NvDFCSD1/xLS8gwkqvPC8hDz61ik8qRoAvS/QoryzP+E8PoDoPGkxZD1jbtu8vD0rvfUxw7zSD7I8M/NFOTfkBw9eBxq8fFoVvNhmxDzzkdg6YeMhve01ybw+HBo9aORjO1GT0byefUa9psViPdnM1jyUVfS83nOxPKdzYbyTS8i82zBtu+b0/byD0cS8MUmWPAN5hzxbRDG9htPQvFnsjLwr4My7tPYjvexcdTy1y/I6KmgEPNlERj3ET428eehAPP2VT7246yM9IX/JOxjoaTvPgy+8zVNBvOgBX7znio290ZqxPDNKIr0ElYy9OQ0CPCwZZj2LJ+C851RIPVsA7Lwapc65FzjpuwdhXL0JnA88EQABPdWRgT2nVnA8eqRovHcvtTsOkyy8LmHRPGDd4r0w+US9",
                "3wkDPdJaRTm96Ee9SXMBPR1zJ7yuqqq8Fr10Pevn2TwdJ4W8hmhXu2q7Xj2Tm6o7PXWNvKaRlTzLMC28D0o6vFHw1jw/CiS99N6bvBmZSbx+DnE97DcovU8LR7z6C4i84aosvYtWy7wc6Ni8STqtPeN4vLwqKLE8Hb8ePBZuSjzWpEU9VaPvPHi/LrxKF4Y8MnkrPU+W5rpIn5K7qN2FvL1lIjyCqr08J4siPA2u+bxfjhK8MLz7vJKGyLzMMFa8IjQivcSJYD3e99y7d1AOvYUUkzyYA/c8SuGiPDhJSb2NC4o8sKLgPAexrbwu6hK9akswPHwM1Dz8y8+8lETVvHGoPDyHGM08wzIEPabL0rzFLUg9c/UHjwMgtLyKYOi8XetNvII4JjwMtuY8ov0evJSgv7wjH7Y82G+Ju23i4zyg0dO8cTGwPQF6M71NIB69qMnSPIPYu7w2eJO8p2cKu8yRijtEHrm83Rg+vYjdVTtpE4K8dNyIvDBAgjoxaaY9hIIrvINJuDuZ4wY9qpnBvBb5njy/RTQ8Kpp5PMbm8bsNybg8Q/rwuxqsIr0NMZQ6xEi4PBamPbyVP+O8y0jVPG8+z7vRjV89Jh9oPUeUwDxIPbq8nfnfvFMbCb28CGE8TyfquoH2FzuiWMg7JCDqOk4iljxo+0o81vd4vMRgNrybrwu8kIkIOyw+IrpErB480e4zvOdZyjvTi0q8spJvPOpJiLtpnEK9jzybPMsmDT0kWhS8kZYvu4KKQ71pQVm776vDPErIwDzjl4I89TSYuwoWvDuSVr+73UYRPdlRULzrPBm8qac0vRIaX71XG128FNbDO+5E9ruO5By7sf1YvJnsB72Ah+m80TGRvGrSXrwQ/3I8g0aHuxoMrDnHPlS7O1gGveZ+CjoBjr88fCHJPPU+77uJE4K8fIfqPMDHJzyIgo+8ZOeAPNYYdbxj94q8QPwXvdTkhzw4OJu8/A2vPHH+wTqn4/u8NeL0ukt+BD2i3gO8YQnmPAsSKzzeW008",
                "/qQhOzRRxLx5GQi7NHBhvH4y9jwXW4y89nwdu4tIPLz4ZAmPTY7RPPOF9TzYZa49ZAlfvKac5ruK/fm5mUxJvFCIdbw+PoS7WbOiPfxz8zpvlO07HjYHvfwFrrvH/kE98BgVPc5q0byt0h87C06LvFWRLT1Oay+9swA6va7pljzcTei8HgxgPXM5mTw/QC69bg7ju0bbgbvlD5I8l0wpvAb5jrzAW5I79dtevItd3zyb5TC86aG/PRdrQz14t3S98osjvAH25Lxmk4k73A41PFeHfr1x+jc8G93TvOadh7rJEgU7XztxvOU0ujy75MC7bi9AvENEMjyowyy9LIMsOxHyUb3mLKG7fk6BvTObJz1GF/E8iAeGvH8z4LxuGyW8tzFnPZJz4jwrXSQ8e2NkOy8XhLwScHS9ryiFvNjeijxgdlS71+aQPD/JAj1WGK87bHIAPcOsYry+pIe53SG0vEV7F70iwz08ToX5vAaGJDyTzSq9584Nu4lgFT2QoVi8gQbIu405JzxjtRI92KL8vLkCd7yRPNA9e1C/vOHypjt5fS88MT/iOzNs4bv5grm7mwmmvBzoLDuq7Oi7ML2gPbByeTudGJA9K+IuPZHO7rvuKxs8OqmOuwWriTx2UB290tiBPWaqRr1lVbK8xcCpOizXxLrt43q8D0hOvAt5RL3aDdM8X6tNPbOPLrvEsH68+mnYvcT6mDtsnVI8jV4oPIpzgz2/+aO8jIUjvdS6BI+wXda8fh0gvJmcjDpSnpi7PvCau5xtxTzEJpg8Pu0XvOJX0Lsf5r67B4sbO6oYjDueaEE9ZVzqvLlhDL3R/hy865K7vPmdNTxJong8XKhdPdVRlDxPbKI8qYBSvB+rqbsHbVk8YneGvDuTg7y7SvI8c/XAvKfq+blEQ0o90YXlu6lMfjyPN5e7qNxluxXwKrxCLF27zYI0PXq+cjzLjZw7vblZPDVAD7tywdy8Gb6tvCf1frzSigG74OrqvLIYRLxV4DG7gWrJvNs5fLyvp9+8",
                "ipC/vL++47wrZ5S7eaeBPHM/bryq10Q8S3gxvJzcCDxjn9G8vm+9vDuhA72raoQ9+1rsOyC5rbwGh708AlCXPQiueLwpjFu9ngbFO0ajyjvFw5G62FAQvAnR5TsHzgM82rqcPJFPz7ye7/O8DY2BvGmkQ7xNo9K73RVZvN565LuqTQk80BOyPEtc1DqcnHK8L6kHvQphLr2QNGG8vcDtvK+djbzOF8I8Bsc2PXji8DzjS/o8w/ZyO63dsDvcKgc9tYYtO2QnKLvPFXO5m3wDPLfVGz1QOyo9UcSovD3qLb2mATs7GKyJPWfELj2LOGm83ZGuPBqO9bw73rO74IAKvPaRjDzzpbA7m+mZPD/NFbyGFZE7MVGhPB/Nx7zWlZS9A0wEvTqVBb2iYKg7bX7NO2pNGL3axq68w5QIjyoWGTu1lcS8IzrBPLNYdLwi3i48G1gVPZQn2DyMpzS7mSNfu3V9KbuKrEM70kxvvNB4uT2qsbO81XYOPa8nZb016zO8Lbr8vHo73DtshaU8j3kHPUWwdjwDih086323vImZAz2gXRS9K+8ZPCwnQz1GJqm7OBZCu3vJujzgTSq7QRdPPIs1/rz1+u+7+/NxvXBa4rzp2yk9Mm4OvAqMRju3O2C8X3mSvMH3A70ge369wfihPFObOrzgGhE8cB4zu79rzLxxBBm99oJyvIddAD0xwgm9KIKQvByuoDvKk9y8pU8tvTvnETw5bVc8oGwgPWKCKTwTW4u8VCG4PJDRWD1iSYK8fCJEu1a4wby/5808ZqQxvdhOljyd3wU98cUZPaCw5jzF55I8XaRNPXteQTwteLm7pa2KOywqdbuS8xm9580NuzugbrpZcQ281rt8vNbbT7xWVIe8alN0vEmuyLwlPF07Ix0jvAQMdDwaz4K8ka8RvCRwz7uf4bu8oUgpvLrHKj0SHHG7jVBmPQ2/pbsHIFg9ZpgLvGggvjtKXyC9xDAJvTCuKjxEVIq8yncyvcKNN7sRzMG74pNrvCDRNzyexT+8",
                "M/AlvYQPCj2Rax88gqtGvZHdKTt1fu67tnXWvOw1ND0Tvs28G3eXvAaKHjxjJ/C8gzaxO6/wHrxdTyq9p1j9vJSZLLplMQmPP8jkOrMem7xr2g28hX0OvEbFkztMbCS8wyfsvDCpfrzqhEK8z6TZPHxUmT2kIjK81a6pOquJ2zv3Bws9WwmZPD3fTT0Iqgm8gXeNuyetCL2CF2y8l+ugPFOQCjy4H1e8lBN7vbbPxbsa8ky8tqA3PIiUujwT9EU9Sa0SO3BIG71o/Z88MhiqPF6MWbzLGzg8Id3LOhjq6bwPioe5jvrWPCghuTvG6gy95KaDPWN54TqciYu9/N6yu2RSiDwx+RS60qQCvLvh1DzANT07rooivH3FKz2RwqE7fFCXOdIS8bxOy548agvZu6Ae5LyJCkU8qCZVPBiv3jwTqpo8/wIHvVQHubo2ViW8oskSPEP/Sb2J1cq8vzeCvbCro7vKxv88cKGbO3+/MT0efdm7dhb1OlbPe7y8pom8QpsgO9MndLz08Rc9YICduxE5vTxr0/q70ez/uwCLzrwnoRE8wWEFPFaH3Ly5FtU8ZiMHPUSXRz3FmFW9NxlGPJJnOrzSlA69IxS6vNjjCL2VyIS7HAk6vKqmkTxurQM9FeffPB4IMLwd4o87co+ovHclHT03lh69v23fPCdfnrw/zdu8qZ1bvLb3nLwSb0i9+cZtvTTQ4Lxa4B88EmPHOUaD5ru9GhG7p8Q3PCstXj1Zz4M89TkCvf5sB4/+HAmPf/gHjzswCY8L8AePWJ4Hj5ggCY8kFwmPIhUJD1VTCA/angiPe3cHjxiWB4/0VgmPiqcIj2mdB4+TqwePv8oIj53fB4/PvweP228HjyzpCI9N3ggPXdMIj1GrCI/9+AePE9MIjzMHCY8TXQmPFvoIj6FHCI9r2giP/YwJD3rDCA/wIgkPB3oIj4TnB49IJAgPGLoHD0uLCI+40wePpK8HjwRbCI9prwiPDvgIj2vvCI+GvQiPSuEHj2J2CY/UJgmP",
                "DjoIjyWcCA/UdwgPIyUIj4i1CA+y7gcPcO0HjxUTCQ/7ggiPoycJj33OB4/qAQiPz4cHj6UwCY8VkQePTL8Hj+AKCA8PbgmPFWsIj1QiCY+RVQmP/hYJj7ArCI/ZNgmPA80HjxxkCY8oBwmP0OIHj0/gCI8p5AcPergHj31tCY/yTgmPafAHjxJwB4+uOwiPnmMJDwvvB4/gdgmPH5UJD+2lBw9KlAmPpN8IjxYNCI8svAiPaucHj2D3CI+4AQgPVgYJj2hxCI+89QcPJrUHDz2YB4+5PAkPX1cJj3rXCI+SpQePrRsIj5MhCQ+j/QiPfzoJjwYGCA/eXAmPeVQIj0dwCI8ZqAiPmvkHj+kmCA+DIAiPekoJj62UB4/yoQiPAKAIj8dzCY+OsgePsk0JjyJdB4/ShAiP6foHj4EUCI+Is0C9f/JFPNc9Ej1GQGM8AkmRPHRcrzyCu8m88PkHj0Giirxc+6g8v/TXPLe/arzeSZc8s45/PPIAFzzkEBA9xmDYOyAPP7w1PyI8maROPL5pJzxGmBq852ZdvISvkLwf+Vo8nNPJu+BaTrwG6yC7SSScvIOj37wuFyS83U/cOi8gjTw+6cY8fyk9PAFHJDuRCd08THWjvOEgIb2wx6M7+RoOPRbf9zuGDlw8ApcwPQi6Db0pDxI8ptgOPQxiBj3wjNe8wvmaONYBxbwkbBO8Z45jPEhSRj3sNw68elQoPZsmaTwfcem8slKWvAwlCj2ly8u7REaEPK4hkrpe8ck6q/EyPC+b0jyZxjg898KhvLWP+byyv4A8cMqkvdCfLbvQmOE8AOjIPBIYmbyvWE+95y0jPTsUgDw6l1k8WpyGvGrogjxExwu9fbaTvR3AdbzzzEm9dNwXvaAG4js8TS49J/cOPbnzu7xuUz09bpphPcQKujwgQd+8jM4KvWDBwbvmpje9PFEIvUgQzLysYHY899m1PGmnebyB9C07K/QfO1tbOzxf/qc8amamO4kF+7z9c8s8qUWDvOBqAb25JcS8",
                "j3wUvMQq6LptHdA7jCL7vCMseLy5+FW9muDJvPsXBj21ThC7LkgOPId5mDwGaOW8yBOKu2ndrTyhqhS9Vzc/PI5ECL1itrm80IFMvIE1tDp8dtO8nQ7kPKkbJr2NBla8ZxLrvCZ36rxMgAiPl4sAPHQRC7xdK4A8eEcYOhXupzt3JSK9uL0BOzzCrDxqtZy761rjPJukJ708Tg68t9aFvYvCmbym0sC8hSVDvXoe/zx6vne93/LHvNx1Kbz87CI8EiB0u4fg2zwMY3y8uSIjvWu7Az3hCcm8MuZ+uoTDtzwQzPo851XCu48DW7xcxLw8/SapvEGF6jpuJkU9Kg07OwmtErwP6ri7qJq/PMmtCbyeu5S87gV6vM1HQLuKcLG9Pd2pO9CJiz3D51u87Z4vvesN4jxBXTq9KfcuPXcpobzUmZC9ll+hvPTYHr0BjTq9W/KTvF5SPjysi1a7cKXlvNHltzuYgzC9lUHUPA/Pt7wbw3y7stWmvMtPlb0kC6E8liMwPPuCh7zL+rO6I722uwctjj3nbdY85FMCvCb4ADxAMzo9H5NMPcBMArnP2J48djYMvJSZYry/ha+815q5vCZ0VDuqaIq9FroWvWjrcT1c/eA9OIqRvIyG8DumCre8VRohPKIrEr0VPxC9TGiLvFLUjjwlybA8U2BGvLLvKTwC7hY7sWoKvGCGyDwK8Fq7UYZkvKvbyLx+k6O8O3jqvM5ZCTyqeMm8Hq4QvD9TA71sm4w89/MjPTwSojz/7oY8zRTSOYVzdjzoiYm8c8/yOio7Kr0wDK68UdHSu4VUxjyROyE9dG+5PH8DBLzWGWW8AUY4PPX/Bw+VWII8pgiovBDDkDxSVIg5uDsLvQIezDvpTIi8RycJPJf+77pqOAi9t/ybPBxxM7w7lpe85v/2PDvZrjyOMn28osC3PNh0nLyHKJ68oTx7vHWUQD3164m7zFebuhjiMLzKDTe8SlwTvaAzET16YNY77THEvO8hy7zfjr+6ctHfOwX6iDyJaNK8",
                "0w1yvMe/rrwUkOO83t9jvJDDjLxLkAy9cWvRPMfmhjwVAQi94sgDu9ebgzw5KcI7N8mUPRNxWD2/QL873N/jOl+ksLqrXBC8xBGEPENocrwGKI68Y3gbPOmndry5dAm9JsA9PP8HQzuw7zk7gbkZPLMt0Ly11NS8kyKyvDgGbLogSvy84bnSPBpfYjxfgea8oJ8nO2doeztUSxW8iDD4PDt9tTr1XFE8oKAnu3JymztGZ8g83EFevMphUbwn1WA9fFF8vZverTw6FJe8gpPxO8I5Ab0yStQ8nIfMPXemHDxCj+G8L30xvXGRMzxX2xm73XK5PK/VczzIj4S8gz4BPfyMVzw/+Zc6ycWSPOW/Qb3dkwO8VSX2PNLFBrtFvmE8nt0uvcxivTy6g6W7qcjpu8WDCz1zr8C8ZDwjvFgkQbq7H0e7MnIavO4zF7wfJrw8xtJZPQ82DrtNL+27S6g5vFKoFryqKL69p4UiPJMJPTsl4Do8b8ZVPYYvCjwC/As8YcUIjz1AL7xpo0y9cPZWPbTTZrxsqdG5Hp8kO0Lzrjzh6AE9Q4ADO8HBazuRZl+9Nv/API6ztTxQQQU74zKCvWB5UL3Q5d08pTceu9LzKzxzDJS8iHgkveoWXbtbzBa8qvPHvGZET7yJlYs8k9f6uydQyD1c4ic9nmB3ucrArbtcM2y79R1bPHqvLrwrsfg85LFavO1gYzzkYfy6sk8mPQhQEL06GT26UsPuuvxVDTw1tNm8fKHVOuIdQT0CwAe8FrAavQuFHLupHTE94lm7PO3kMrzrvtC5IWUwPJMYsLz40I69uxCrPBV7iT3d84Q8EPG1vDOeH71a3xs9G1b9vPsYjD3j/oK7vHWdvEeoBD0hE2U8EX+Iu6sk4bsOqO88BDaQPUrotDuO9Vq8aKmevX3LS70QzZu8J6vkvHdLcbxZGQe93lM5POE5ljxwN6K82knBu8T48jxv16u8BfpDPMwhGj3Tb908OfqwPLMssjx/oQW+fTiVPGIqjz1PE728",
                "1sunu+JlLD6BD4G9foCUPIekB7w5WVm93e7avOaubj0Iy9S8DaXnvF+MGDzrYfU82I1qvTMpsrvHTm+9zuCgvLPudrsj0QS9+gdgPLXXerxW5em84hUsPaOnjjsbqUU8GIgVu22uI7vrXZO8X4ekvHyWr70IaPK8SP1MvNNU/LwQg++7luuVuK6GuDpZ9AiPHiTgvMu4h7sb8ce7guMGPP34ETy6Pg48d4NjPBxIF70FtGQ8Iq1DPRVzZ7xzADA77KNRvda+S7zj/p086azUPPCWrjw/0MW6UlwtuxL4grxaLi28ZjpjOmiaXzzIDgq97CJEvNbvV71MkDc8QA2AvBKE3zxs51C7xzLIu+bB17zA4wi9SaF7vAagATytJZI8R2SMO2hZEbyClru8/Oy/vNGRGjwQMsm7+LedOydI0zn66dc7aQLRvNVwqzx7gRa9h6ZoOMoVDjxEQ/M7bVcrPfcmMr2K0Se8uB7evFHwgbxc11i88XnFPM6R/rwOYpI8qKM1PAwxzbzmZ7I8c45DPSJ7Gzwpi+o8CfjVvFsw+TwPg4y8nJc9vfxU97tUGIU84B3aPIg2trvO1Ys9c2aEvKFGxrw+SLw7i4GyvIiYhDomxE+8WPmFvFFvrDwWdBO92y1Du6D8BToDnnA9Fk39OwJbdT3adUO9d0gbPI3mL72LOaq8M9s5vRCpJjx+Tpk8knltPBuKCryVH9I8RYVFu1hbP73XQIo8YgTUvKRPfrpxwLy8T83avMnwojtCPGk8vO+3O8cpYbyiGTO8ruWSvCywc7wu0728UY8dPA+IgD30Die8CtWgO2JOETzP98W8e10hPdISYrzZbM87MvqzPBcDQL2BF4G9kxEAPeY/Xz0BHp0859k8vUUVCQ95H6w9lGmlPN4GKLzrpyS9roJ6PEaOZzulnU29hw1xPDNqpDy3gUw9XzQUvThHH7zc7Is7N9+qO2Z6Sj37l1Y9VI+JPeYwFT3zye87FRxGPc1oVr0rctm7TrnTvJkeZjsJ6vu8",
                "8yrivLhqCr3/F9o8MNqBPKMSK7trokS985NRPQiV7zzWq8Y8CcVAPcHyHrytIeo8UUCBvVlSYj1xVZI81/QdvaCyiTusrEy9qfQhPGUIKT3KEic7hcvyOtCG97rPNyu8kNKMvLlVuDy87mo80Km0PK46rjzbp4k9ZQsvPf05xzyYAu66bLkJu7N7O70MP3k84zKaPB99pbxhVKQ90DShPL82hzrEaFc8+phcPfKwErx2OJA8ZYwAvb5pe7xYh7O878TpO83J7rsdZ/48Ssk9vQ3XYL11hAa9VApBPlmywj3HOii9aWeePMo29D17sCu7yo4YPG5GqT1Kmqs8LagMvXm27ry6HgS9hjJcvEmjtDuQcQg78TjYO8aY0jzPfVo9cEYwvdUiGr06OkO9WtewPFPGWryoBko9kIcYPSZTCb26VHc7PysDPMNhkrx7Fmk83ichO3xP5TwC1TI9ctK6vJbMUzviFXy8kiEVPJDiFT19G7g8BVChPWO0Wruh+BC9NDVOvMiKjzoErOe8I1Zeu0P367t1MkK7AiQsvbhO+DtfNJ68Q6QIjx6bZz3Y2bE8euXPPM/W5buURKG8UiF5Pd73K73mM4y5lrfGuyaALb1YzzC9Bizhuw1ymjuEJUI81Te+PD9Ojzyi2rO8KkYfvDgToTxx5H68rFzoOz3bZb1a7rW7Pn5ivJKEqjzo5Ec7H7YyPIFnHL2bynY8tpYIO/Ek6TtbMgUPRGw3vBC6cTvnQz89qYxEPLISNrxAG4G7YT5hvbCJgby2Hg69szfsvPBCmjzw6S26l9slvJ65b7oh5Ro92dSNPIQ/e7yYVg07Vqe+OpU/UD3lgm68PBTYvDCYkLwzEeI7q5TMvL4teL3sZ1y79D0ZvKHZdDwbHy+69fd5vDldqT1gvAm8+AvMO21zH707Ni68MjozvEnXar2wawQ9JBrROyiHET1gwgM9uiT8vGda1bt6jRk88YSpO6VBnTxDlvG8BVwWOjLkDr1Qdiy9joVnvDo/K7xxVMq7",
                "pdCzu8YqWr3sUI25GdYgvOS3+TrkH6y9OZIfPOJyOT2ShWm8X5z9OxqnLT6Vxfo7L2gVvG3GFDykBBI8cp3cu3JEDLzeEDU8c8iJvVMP/jyzvIq8rtOIvL9Vmry0W6Y8kN1HvBjMR7pV5ii9u1i1PFklPjxyaU68rdC/u4pXKTzZNzY9hWMuvPTWWz1sYD284c1zPfQ5Bb5XOLe4+38rPXHIxrsZAs08EFi4PDN3jLwoNwmPAAbJPDO1XT1glCS9KW6vvKV9Br1lesi8yEvWOzedCz3/zdG8B6MrvTWupTy4dI08qs+VvD3TN7vW5Dy7kzcdPe5a47nEPgk9a2eYvB7CwTu9WUI71zOtOxygcbx7iuc4RUsXOs8+OD3t+Ma77REYOvI+XDyfPvc73TNIvB7l2TwK/Qq6FqZ+PIm7pTxfCaw9C1LXvNux3DxgpjI7i1IrvXyckD34Xp08AQInPcfvUjs/i6q8Ly0vPF7UDb0SBP48n8Tguz7WHb1Bn2E8Yqs9ulrrVr1EX8W8XvkbvUso5Lwbmps7r15FPH1lTTzVxN+7w5DbOye9i72cRv28+tNjvCb7CL2JNMU8ps9QPKCG9zxEMLu8O8KMvToEN71hrl68GOHSO+u6q7wa6hw8QqFLPdczp7zmwyy9bTJ9PM5x/7wpEE+5qk3vO6JE5ryQqKK5s6KruoaCwrx3V4Q94Q8GPY6wDD2ZDAu9Ww+lPLslAbwCqba8gqULvC78rjxe7OO7NaXdPE8YjzxDNhi9558bvbECebx1dTU8EBTgu9Lr7Luwmfy7RNmavPT5dzz9r4+8UW0Huw83Cj1xOJ48JezcO1lWmD32fNi7BaLtPLechrz8Jsy9pf0Kva8U2Lw9LrQ8d3NSvX/BdDyk1am8mkVUO/SerDxmtRw9qrpAPVgcvjzpAgu82QazPNLtCA86x4Y8RDUivBsblDyviqs84fbQvL4Hx7w4XtQ8VhFdPFYO8rvYn6q7/KfGu6ri9zv7W868UqAJvA7LWr0Km8+7",
                "R5epvJnRpbxdJyu8q9r8PGUYjTz9BZ88nkzEPBC32rxKdLS8ES7WvCeqdbvMD9o8cAD5PGa+mDxFBnI926o3OwoEPTwYwtE7G+kBPKDQQT0p3dw7jGsSPQ7b5zySgci8+3X7ukDxQbzy86i8s25evP/XKz3yVoQ9Aeuku1r3KLvIfZU8nndYvJruOz1WlZW7RdCZu8YfSTxaZfY7fwVuvQjQxruR14E88zomvFe49LxkunS7VhqYO98bB72qL/Q8VDZEOrrt2zs+iN+8H9QaPRrEaj2xxWU8mGqDvGfbCL2ewe88W6AfvV0Muzzc7KY85WfSOwsCF72Ov4E8mttePHA8nTyyjWm8bpGpOqIoA73UEIM8fGjfPCf1C70nyrg8jsw8PB2317wxjDU9r33iPHVUuLybeMA8QfLePEShUbzPr7W8P78HvPgpML3rSY87JZ+nPEwK8btsbIy8XyQ/vEMucj3qTrw86+MhPCcXP71hSJG8o2MrPcT4oLp/R7i8Pjjhu4/1Ej2vLag86TwUO+6bdzxtJaM7OXmDuwRG4zoipkE9/+10vTaMyLyg+vK8oWkJjxI5CI9JXAmPf84Ij5RMCI9f1AiP0sUID/ArCY+zUwgPHE0Ij2isCA/c2gePVOgIj7WvCI8ZuQgP9UYJj6KhBw/KYgiPAbIHjy0BCI9+9QcP2GUJD2HmCA8hmwiPzIIHj5y0CI9dggeP7mAJj+PWCI+3WwmPjVgJj/lvCQ9CYgkPzdcID7UTCI8bTQmPLT0ID9FvCY/M6QgPZiEIj/2KBw8G6AiPN2sJj6n/B4/YUQkPAc8IjyjoCA+INAiPDHAJj1qaCI9+9wePfpQHDxtYCY+6RAmPrPwIj+wDCQ90GgkPm5wHj2VMCI91eQmPSkcIjyojCA9YGAgPS1UIjySaB48wuwgPB8cHj8jzCI+THgiPIREJj+fDCI88iwgPh+0ID46GCY9S9QiPA7YHjzt8CY/yeweP+hQJj99HCY+jfgkPmSUJDxrqB48RaAiP",
                "tyAJj2Y1CY/CiAkPOiYID0iqCI/kTQmPaSoJj/18CI8AGQgPOpUIj0QrCI8maQgPZDAJj75ICI+5NgmPRGQJDy4eCI9QCwgPJhkIjyovCI9JTwiP7CMIj3e0CY/GQQiPPI8Hj6DXB4/j8wgPWncJj5gpCA/pbgeP1Z0Hj9SzB4/vNwiPcpgHD/rFB49g2wiPYUoJjwa1CI8sAwiPG+cID6v3CI8wRwiPhZgHj7QUCY+w5wiPwJgHjzkyWr2qtEi9Lai4PFQk4Du/yHc8MNEvvbc0gL1J+gYPkYHovJPoEj3SM447ZreMu3ECCDwLt8w8MisSu5GcJ71iI+s6X1CJPdoIWb0baos8txL4uwEuBz1IFOw81O2PO6wwgjyNLRk7D9skPXiXvjxnl0G9dx6VPJEl9zx4a3q9frjHO1QaCjr2RZK8HwcEvQVZBL1GbCk8xcZLumt/pbwBWOk8d07lvMTQYbrC3QK9emq/PWqJ1jyKWI27itn3PGVY8Lvuoai84XVQvV646rv7GBg82maBve39uDjabbI9V8bhu1Vb5juENUC7beenPMQDN71w3yI8MXtGOyPfWDrVEMI8BHU0vfQLCbxN6fe60++ivIrlBb0SeIm8n49oOzgqkzxhIUw8SCI0vfaQLb1Hmza9YzoUPEeybjt5KjS8598LvBESVTzcYBY9IXH7u1xTljywHNI6vWWPvKybILvKZR291E0BvYaAJz39bzg8NSlWvJFP/jyCRr6800htvG5QF7zWD1W8M+5NO9fW5zpDdQA+4W0hPbprwLt+b588x8v7vXb33bxxfNY85AiPPPrwCz0kKyW9D6jtPPgooLujH2+81OPlO4MnZD2QF++8fncEupyBj7zk8Y+9Pm+zPIxjILwETHm8/ZYYPBRLoLyRJac7LzJzPHAgTL1m8bK7WZPVO6NYdT1fDSS8TBEAvXn+ZjsrGs+7GimhO+BGMb1z82C9TWQUvWHACI+Kgxk9z7RQvXf0xbye99y8j+kbPOfxED1nBba8",
                "Aa/0PDKQ+TqCbUS8twthPWsNAz0Tk/c8L1dXPSFCUjwAuR48RbGhPOCLpLySrXW9oSsuvVyVkrwijJm8el0PvMyHQT0iNgI9jZ3BvIg6cr2LKXy6y+A4vGGDYzxu3EK9JSmSvRqyU7w9gPc8NrcOvaD4q7yi9XO8H/bLuRjvPr0EDja9Kd6OPOWqkrzSKRU9ejUDPWj6s70nsNo8vltLPXr0/rtPxFu8gnC6u2T3s7zV/N+8P2CVPNmZJD2AbKe8tPTGPFVjTzwSOQW9p8AgvdLzNL3MPbs9+4VZPK/NTz1RwsS9be18vZfymjwryyG9R1pavXrVxjwNfsK7dVMZvOBuDz324De9Lw5bPQxDCT1BGLm8v4KLvMxiUzzDU+c8VqINvVYT0bya/I28jy8YvcVBO724NHU8qpyLPNK8hb12yhS9JD+Du8uQtD0ZIxs9E7drPfGmjDxVAxm8o7pCu6UB3TpO+669punHOtyR9js6urq8PlF2veRZbzxWWyM9XgWgPMQAbb2jEnW9u18qPR/cVz10XW89YngSvIn1jbzoo2W8M3sKPclKPTyCre28bVWbPDGcbL0B0fy85sh9vUlmcz3xrFm9AsZ7vMydyLuRMRk94FykO+SC67zqe2W9t5YMvdDFlzugXsQ8DVUIj+ZnTbrWb5a88T26uwY6wjvqJVG9iI45PTMUK7yC0y077GyKPI0O1rxkFuY9iuNpPGbc47sqNYY8QKKPvTYBIry8guu7WiO6vAUiWLxn8ja9Ym4gvd8cfDzXSoG7IAdJPd4DQb2Q5zY8tcZfvW/7tzzqnVK6WbvYPJi8xrtd+ku9JIogvRR4VD2z5zM8vUmUPJDko7w0l6G8ecWcu7/lsjpCA5I6jjb4u+j78j3eEyW8FAthvbCZNTqCDjI978hUvbwYobw+CpI9E/1WvZQm1DwOUn47dDs2Pc5VGDzMbLm9+EsmvD0S5Lyquhy9sPfhvJimqLy+scG7z114vAv0/Lz+7KE8O3Iovc8wGjxZDEk8",
                "NNbevKT4UT0CPMa8s5wYPRUXmDu5aUi8wzAdPRi4ODxd1PG891hzvH6wl7wh4pi7on0lPc0a/7g6qiK94ZyaPGSWfjuV3cC7TpD1vI7oJrv6JH0801DtvFS+cj1aMti84A4EPZ13x7xZ3S+9hJ7gvCVnKjuVTAk9UELDvPeZhLw3Q4U942kGPZPoGb03C6E8Caocui8soDyrWRi8MARCO80orjwHKKM7dquDO6vDYL0eXAW9iIGdvOM/N7yWyXw7GM4UPH37AL1sZQI9qSAhPdlLM7xpxZG8K7klveBDvTwvQRI971I5vOXNCryUSY28vm39PDINHj2PRweP/UfavGFY4jwsyDs8Rm63O9zakrxETK27Wv6EvCv7Bjoi44c8codCvGNZST1uuDe9VFHBvB1hLLzEJtG7J0uuOij20rs27jQ9m+qIvOZy6TyVdiY9fiXKvPD2i71LMb88keO4u+B7uzw5VPg7L8aYvFH38DetgYm8/yBnvDuneD2JOqk8GdVcPOXuJ72bl889lvcsPOWUpLwBQZW7uBZ1vQRnh7wqLOa7QqMMvdLSvzwDN3U8EKQIPdSZHT138SE8NxouPfuhA73GfTI8/YC3PIQyz7ytpDY8kxBqugdYvrt5nKI8Lbr7vKxsJbwvOJs8TbpfvQAzWD1LPtG88Aeau+oSjLxt1qm8QofOOwmg6TxT+X+7ady7vJ9NrLkFKfm8bWOyOxq8urul/bw8aT5KvMzfmbxr1ug8RClavWz6Xz1RHTS8VKyCPfQwmby0k5E8KelhOrlz0zp2yom7siI3vL0rVj04Ue+68h23vNK/qjweldo8vTV4vS79QjzEtwU9kvpsu0KlhLz84xa9eO+OvKxTozyZfzU7INIZveLPFb2aMmE9kIbfu/EruTyHTRQ9+YnWvD9fvbu1DhY9v09nvB7f07zNGPm8jhTgu+LvhrvKpOG74Pu6u0ZqEz1rkyQ8ObEUvbHFKzvoRlY9GqabvT0rizx9dCK9J+AlPBBjf72pOxC9",
                "Bvg6vaq1Bw8SYhk9f09vuhHywTzTObq8RMcdPaupQLwy6ZO78cOFPTnV/Lx3Zo0818CGPft8HDyl6jG8MBWgPb+xiz0aG2c7nu+avG6Tpbxm74C8hkQivflvGr0TK229SzaJPPTuQT2PwK48lg/uvCMp+LtGW0k8NnYPvNP/ZD2cv72827iGPPggAL1Z1YM9VY18O19oGbyu05y7758gvO8fCr25rfq8Ir8WPLHJqzxguYA98R+NPEkXHj28xio9z4fSPeAQlbxfogS919biPO8euLzwNoA6Ro0dPdBIKj2U4Kk6g5tkPDAqUT2xzq28pQtRvKxhmbwfVTI92zTaPHFXrLz5o6K9tLsYu7NRTzpE4gW8H4BAvKoZNryQyYS8BCj1PGy/Gbz4pVu9K5/SPZAHwLxwuNK8bXM9PFCAQLwUYj09ApJSPEOx+7u9gIs89wOEvM1oQb3vRQM9R0gxvYfZsL3JYhg62qMnPebWprvTldC8P00ePmhyxTwkFNk8bagKvVrr6DxIVs29hwSwPfOy4ry/nFu9XjCGvfAg2zv2aja9hwM3PFSD3rwrosy7U3JnPAoSi7sSHpA9hkDNvAsUxbyayRG9DF0dPWewlzyUO109lHw5vYBlq7wRDyW8RjrAvZ7UET2w43W9Eqc0vFWFZbzW4Jq9kZwAvYi2Hj37lq68H1xfvRi08bv79Fk8uEIJj+GLCb0ymco8ZVgSvK3RHzyMF0O7nzI4vDj+cTyWvt48Yn01PIzHSzyhqcU81fq0vFslrjs/Cf68BIOgPOafBj1kCTU9ldIyPMcstDwJAYI8htDKPH9oortvbLo8EHJCvSg43Dyn0Qm7uGEfvXdlxzy+4CG9pfSrvGpqhrv4+v47nkVFPCA+iLzltVG80/Y7PX9n/Dnvbfy7PUX8PHwGPr0gz0w8MK8IuhkAxbydDoG8l9+iO9FK07xOx3+8g8KoPPptUDyq9im8UL1lvDM0Yz3FhMe7ZZBGvP2OmDz7ibI8hF2rPOsJxDzFwKy8",
                "zQDfvA/tZzzw7l68M1KLu3RmILzc+6U7liyFvMtkLb0ODHg7hNN6PLPBFjwr0R8944q/vDzlCTz6Yha8Fubuu2nKCryeM5y8CguFPaYJZbwuMc08Ab6LPNlddjymmps8xaCBvA8Wdrz2TgQ9134RvZ0Qn7vVafG8jT+MPEsyTb1Uh5e9uGqRPJvEljzw71Y9ecDVO5/Ugj1exgq9upEOPeu52DtRX++5qlzWu7ukLbzjJFG74s2mO4BmkLyvyZ49CgYUPWX2ljtewbO8NFIRvOayRDsvWxS8uhGkOYmevby+8R874SHBOzEKn7sJvou8awNjvQL7eTwlqNE8sEJrPPZ4Ib3I2AiPO7QIj9OZCI8sbAmPgNYIj9TACI8NzggPhLYHj+vFCI9n6wePV6MHj3EJCY/vngmPsWMJj2APCQ9cnAiPbOQJj2zRBw/K7geP34sJjzpiCY99aAgPGUMJj+tOCI+rmQeP6t4Hj3qvCI+xAwmPH9wIjxx5CQ82CAmPswgIj2dmCY+OLQiPnA4Ij8gqCQ+mtwiPrYsIjzRNCI/MSAiPB90IjwFqCQ+qhgkPoLoIDwsWCI8GgwgPizwJD6UMB4/4rQiPOXYJD0mACI8grQiPj5sIj6qhCA+qKwiPQjoIj3WaCI+/9gePevoHjyU/CI87twePMfoIj5PcB4+j4QiPhU0Ij5rUCI8a+QePS/MIj8PkB4+bnQiPYZ8JjyeYCI/WOgiP/4wIj3nSB498uAcPVecIj5EvCI/NygePtosHj4zuBw8xIQiP9w8Ij80UCY+JBwgP/2wJj9RmCI+/wgiPsxYJj39KCY/JDwiPMgYJj5usCI+KxAgPhQQIj9GzBw++4QcPHV4Jjz5WCY8YLAgP5QwIj3KSCI+AZAmPCTIIj8CBB4/g6wePwA4ID+rkBw9efAiPbY4Ijwx1CI8s7AePDgQHD0azB494ywiPZ4wIjyBfCY826AiPsPAIjyhSCI9pcwiPrjoJj1e/B49OYAgPq7EJDwJrCY/SugeP",
                "HbEHjzSlB48QuQiPAHTRvejTcDwx9wa8Y7kTu3w7DT3CnxC2C5SAPDUPCI8CAis9glokvIBnVzrF4re8CpWevDYGFruSF/I84VknvX8l5TxqHuu86ZsOPDVpMj3izyI8oVPRvJmzMryB6B08whmLvKNmP7lrW+q6V4IuPKcsnzyL7GY8716uvGzIlzywjE+8FYvauwSrxztjbT49P2fUu2K9rLzn8mY8w76tvETrFjzI1ga8+25gO8Nuu7xJdt08biyzu8+mMzuTWma682DxuuzM+rxws6W81sSwPEl7nTr0HvW8qumvOTBXwjnVd7S8XkKsvLADXjzcKwG8Iua6vJGzNjxhSoq84F3Eu/aZYbyTHu88gKUVvT14Vby/tT67Y7SbPANNET2jFJG6kBMYO4jqbrzGlkG99Oe4vI7z5Duuewm8oY2MvCN+ibw/SJA9TLqhO7FybzwNb6O8QBawPCwPa7qIla+7ejUCvHItILuwXna8E65CPXMOLrz2dzm8UetRvLnZsjx71re7zQS8vMqnxTzcvJ26YnF0vR1oDL0GtR69qFhwPBBGkLuqY3w8DpaHvEMC0rw/CM48nKS3POJWDrzWtSO9EQ4RvDWREz1SZm28AMYPvXtzhjr/Y2I7rKAbPFNJULv69607y63bO417Bz1z8Ee8w7a2O5eWuDtt6My8RAVQu+Bkb7wBbh69hk/bPDAdjTwmspO9zdDlukJnCTyui0g8A1xKO+9RkLuI65a8PvUGj+SahLzAchG6S2JQulrEjzueqQc81KEkPfzjxTvSJ3M98xWcPND4PD0Ddww9YMMcPN/VQL3Z3ca7doNpPSUh3jkUuDG8EialPB85vLullhQ9b12dvAowKztO/vQ8KHdCPVTu0bwlnMW6V6AjvQepybxrsH28+XR2vC/Fubrb60g8UZvbPFHj8zzkXTm8Y5wUu2q09zzZIrU8Y6JVvNzbATxQEaM8A3yXvD0JkT2QF9Q876mPvNRazDxsGqs7zYC3PIMc0rzwcJO9",
                "tUZLPFc6GzZUeZm8HgIyuwS54bp4RPK8YQZgPFdcYbxecs07SBpPPMQ6Jz1pBdc7WHHYPIn5kzvHgsM8J1qovLwMn7ze/u677qU6vZ6hhLzwY/E7LM+0OT8uJbxwCkQ8O5g6OhpRxrx2Ec885989PTzUvDzLQFS9tDB2PG5+qLxQEgG7FHSLOg9V/DydKpY8A1CJu2L4Ujq1jZE8FVinPQaa3DyBigu7HBiVPQWnrrtqQ7S8G73hO2FBML0l1LA7p7ITPCy4zLuL8Ss9bcY+PcxfCLwzjAa72+PJO3R3HLzefZs7gPXcvAgnjDyk3Lg6dPoPvSPKVr1t6xy93R0RvcnbqTxTAyc8IS77uws1Or0J1hw7t3m8PayqW728tc+6sVE9vN6NI77gKlm7AaIqu38IsrsBEj+9ciB7OzcNTL1vOwkPgfsaPdRhWLxDlUY8t0KPu2+GDbxMVxU89289PH8d2zzXCJW7dvQ8PSPJ57z/fpS7McILPR89rzyKEvw8u+hjvENwNzw0iRC99h1gu3mgkby+WbA8C0YMvZCsnT0h6xe8IuMTvXN51TtzpFq8qrfbuax9WboSoGY9OXqrvKm7Ob0tLVq9mcw0Pdw7jLx0n9m7kXLVOwQmGDzuZxi8gB1WvdYugDx6h0G94Z2IPXqCaL3EZoC9tvXBvHEpAz1mlTY8M+UdvUxUpD38Psu8elqEPdY6r7waB4o92OwpvP4M/LxpGAo8XTJJvUsAnzze/Yu741a2u/XSFbxAjUO9q355vXpqJz3bEdw7X01rvLciZ7x3wI88lL5jPE63Cb0Uix095AS1PCd12T2rNTI9JSmTPJ1GKL3AnTY7ayMmPZ5tFzs4/yy70VkaPB5uML0EHiS92TfvvPAxAb2mb229r0PNPHTwBD3kUso8K3zKOtv7AbvlniA8r8O6PDcAWj3RV287cpNgvXOfoD3gUJw8PJP4vOAaeb3x41o8FUiuvDZy0btbPQO9F/6MPDi7Bz1aDdE8syBJPO6khbtbrzG8",
                "ecp5vOY9ezyNv0E9UWAYPSa1MbwPTas83elLPLQ1Tj1mMja9Muu2O2+ay7zi2M08Pvl3vW5UUbxO9e86ocIoPaQFuTz5Gwm8qB6ivBpYB49hTXG82dMAPQVUJL1+M5Y8fyWGPLBTVjygDe48KhADvB0FrLzYgPC8rp94vWlprLtbrUQ8qpe3vKYAxryz1RC9X86XO66mqboEqba8U5QUvZKNuLxeJDU9IvonvNHjUTyoUSo7Ppu3PAFWiDz8Ycs7DW8MPNY7QLxOhRK8HZ/+vKK6zbwZBUI8WikVvWrsEjw5NGG7NYHgPF5lMDtzt/K8+giTvCDp4rzsW4m9lVChvLrc57vnIfG6/xA5u4nCcLy/fcs7pHDvvBUKHL0Xsum8B5rDvHfq8DynAB68MbypOuJWirx+SJo8CicoPO0zTTxvhYe8Iiq8PDxiAL0ACx89Gz0bvLz6bL3l0Jw5Aezzu//KbbwAt6Y7pHCVPJIVar26Vp08OfXbPJbXFLxlFjG8TOOSvRfCEzzplzq9hPAQu25Fk7yHn2c8okRpvOda3zuS2ds8+Q+0OsiZM7w+eq47tjcLvf3g/rxJ1yK84WH6vIARu7wP9bE7xVCoumq5kTws7KI8rxgLvd4eobxEGQM9qiUXO2opFb0YuLy8CK9uPLMoJD2gYOo8Uc3DvPV//7tnje46p/5TPEJwo7zdoMU6VtgfvRODOLoNIRQ8y7/pO9xdkjy8dBW6OoijvMZoZzxt1s272uu4vKN+vrwPqYM9ploMvS5CfbvFWk08x2OFPAllC7wVbhC9bVEJj6cuq7wBUZC9aeBqva1MSrx0S/G6ZZiEvDFuRbx9HR89aGmVvPiBpTwrYvC8Bx9XPT4S3rxnAiy7dfr+vLfM5Tsp2oM8vrkMvZCXQb0s3AW8BlyzvJRTaLw6olA8yUJWPQSubTtyhMU7bozrvNxnRz1j7wO8Q5Dqu8z9zLzrbQi94roJvFjQozyykcA80wBNPPu6Rr1zQhO9g/0TvQHGhb2CPA88",
                "VwJJPaBEdL2FxXM9jTxRO5udorzKGtI5xUCrvHEFbT1BYWS9/fyYvHJg2DsM2wG9sas9PcnsfDw40fg7bp0xPOocir2dCpg6Q0GBvdaqPj3UtdG8lY8MvHohYbx4Oo+8wtb2vGfEVLyb+V+8vrcZOX7RTrwNmRO9KpuyO/E/yzy/epc9+XrKvJs2q7yWcaC9Ih/Dun4LrDzDlpS8EjtUvGdB/rppOeW8tUneu9GfiLzwkQa6xksqvXE7RL2pa2Q8jW6wvB3bEL0xu3c7HN5VvM1U3LzEZUM7KCVYvEF0Ar2TaQG9p3FcOFE8frzVpF+8TMiavJrbeLtBdQ69hxyevILJL7yYmqe8CFj2OzWjtbxSETy9vNJEvaLSSjs+Rey7VGdbPV4kH70a8i29gPcdPG+0q7zy9Ge9U1YhvElnbL2wwZy880VFu7lk4z2icRO95caTO+S7mrsAas+7Diq1u16nvTwU0gcP/EAnvet8Orwvyh693M8EvJldGz1OupK8rTBGPdrwdDzER489hZEFPV6VxrynXZk96Ys8vbThNryitxQ9WpuXPNsdQjz2CfQ8EOyuPBtQeTn0mPW7EPn4PCSDhbyYoIE8IHYrOzd6qDy0jsC85EtjPWHgkzx6k5o8a9xnu7orTzw/g2A8hBTjvMY/tby+tLO8iLSCvD5pbL1U71W867jFvKrFBT2Hwde86DjQPI22rrxiIiG9JpLFvG8bs7zh46+9q7TDupkaGL3qHgI89/kevOjJbTv3v028Dulqu45AhDyH4HW8+5AwvGvXz73pYWW87s+4POdY1TxRG14988vcujZt5TqdQQq9LCWRu/IkDr0gmZS9B25tvcVfOLxSxWY9KJCYPU4JaL2nYV8900IGvXlSorshqUS9fvUnva5Rmzx3YaO6AjYYu3LlnT2+cFQ8LJWmPLHbJL1EHY84+BOWPD0nHL0Uz5i9ZuwAPsPFxzy8Jga9cl0WvdjplDydwCG8vBi4vIdt6bjvHXa9ssscPKAq6rydJ667",
                "kDfEvMgHA71sn8y7IpgPO9AkPT3+YgK9ValnOz26vTzF1K68eHO+vKGXVDtN8l69xaAGvIkuuD0GIh89ZH+LvcUttTyz/l8738MuvZ2syTzvQsu8SeH6O7ljCY8GjgiPE5YHj6ISCI+nzwePyosIj0RgCY8kpgiPejIJD7mMCQ+kZwiPBsEHj0tfCI/CHAmPhSIIj4r9B48gCgkPffUHj3GrB48kKAmPXM8Ijx8OCI/09AgP48kHjy5qCY+rPwiPZecID7ZBCI+8LAiPOvoHj5TRCA/ExwePhpIJj8UECA8K7QgPyi4Ij0hwCQ9GfQiPnfkHj7iLB4/1nwgPgLEHj+UbCI9ZkwiPIA0ID8PiCI+VTQiPlk0Hj2WOCI8JJAgP210JjxxvCA+6vAmPCz8Ij6NsCQ983giPFe0Hj2MHCI/rSwmPEC8Jj3RuCQ+oHwgPpNEHjzMXCY9zcwePMo8ID6HaB4/QDAmPwYEIj88cCI+2bQePkMEHDxQhCY90dQmP1zwJjySRB4+8dgiP5pQHj3ScB48+5wiPghwIDx88CY8pIwmPWooJj13/B48D1QiPI/gHDyk3CY+DOwgPbCMIj+rQB48iegiPsrEIj4s4CI+RjAePL/4ID9DnB48DMAiPjmgHj8yLCY9vEQmPUvcIj0iUB4+PwgiPoO0HDzOlCY9WzQiPRLcIj0t/CI9jRQiPUuwHj3AaCY/HIwgP1kwIj+afCI9o7AiPd8cHj1Q9CA9yDwgPb7wIj5whCA+/kwgPELYIj10fCA9GIggP2EkIjwTfCI8sfgePJI0Hj7sdCI+Z4ry8+d2qOyrdjrztDbA6jISQvCaGbTvyZoM7mhwIj2F3CT3H8/Q8wMspPewwjLz7eoa9UqVwPAbYmLvhZuS8h8JBPDpmn7rDfdu8EgZKPOJHVLuZapG6EgtnPKWTVz2qEDs8BqzhO8Hf8rvTOOa6660DPb267bzwiC+89KaYPE1IMj3FFSy8YvHQvPh0QLwmS5e87LvGvHNADzyBkhMR",
                "/JJrO7jpZbs55cG7g9iVPHCbIzx72Iu9fvv2vG3HQzs/t+287HuMvIKbVTt0eIC8od/purdMm7yenvc8rfDMvDXikDtSHKe84MGevHBzTDz+m4i8deUEvU3Q/jzcpv28DjONPEakyTwu/QI9RH7mPDhlNjz3Q0E72IM9PanBGz15gKK8IhG6PDjnaTz3Dm46YpsyvdVnw7yJoI08PToTPeUL9rvvbSU8aLcCPDFkwD0B4Re9rmU9vBb4AL2fnKi93iOyPP5KLzowp/O8zJ4UvQ8MnrugzFQ7vvCHveJl/jyXgMq8wD4CPOSmrrx2Ix680lKMuneFGryYCWi94xnHO/7jwD1CwBA8A/0xvUvDhbwSUME8JC2aPEJxyz1p/BM99HCAunquxrrgRBa9CSq8vOTTtjsrWBM8L+fnuvVMvz04S5C8JM0cvZmwmzuReu07ckkMvcnq07kpECk94AaxvN32ij0GzOa8RegVPSioCb4u4AiP6pwIDzwNCI/GZwePcDIJj2y5CI+vqggPIcEIj/3iCI9w9QcP13QID00HCY/fZQiPUAkJj6IdCY86KwmPhioIj84LCI8f6ggP+yoID9jVBw+JNgiPLPkHj176Bw+ZkQiPMOAHj9aRB4/1lgeP55oHj22mB4+R6QePTsUIj33zB4+OeQiPflYID/5YCQ+RTAgPu6EHj4MGCI9FMQiP3+4HDyHKCQ9PNQiP3kEJj00lCY9+5QcPmhsJj09hCI+1cgeP2dUHj1ImCA+VuAiP0wcIj4USCI/hgAgPB7cIj9QbCY9u+QiPoegHjzcxCA+1hwkPOiYJj/0YCQ+VWAiPAFEIjwFpCI/DCggPnXoIDxzECA843giPp48Ij453CY8LJwiPKE4IjzOsCI8oigkPacAIj++dCI92jAgPpWgHD7WPCQ/CRQiPZzgJj+VvCY/bUgiPZbEIj9WpBw96KwkP55YHj91ICY84GgmPQC8Jj0JZCI+hkgiPHNcID5YWCI9YyAePOT4ID7eBCI+uJggP",
                "RxEID0LuCI9M7QePqeEIj3UnCY9YngePjJcIj3NqCY8E1giPJwUID12NCY9t5AePqyAIDyiICY/icQiPs90Ijx1/CY+g2gePwy8JD/dYCI/UBAiPamEJj/ExCI+d2AiPc2UJj8I6CY8nrQiPg8cIj+5kCA9XSQgPCc1/vQPfHb3TlGG9SNbKvJ7w8LvqDoQ7Zn6fvHcpCY+CcsA8zBS/vCI6XL0cPjq5FavAO9llTT1lEPa8B4NsPSpB7LsjQ4y9s0WHvdmZhzxMmlo6suwZu+e8uDwarEC8wllYvO2SJb3xTNW7mOoePOProT1cFIs7p4ylvCMMhDyjUI28woMMPWykrzzupCU8zSTqvFqAzzvsQ1k5DZhIvfRLKD2RBrq845/xvPo69bwb9RS9IEU2vOKY1bsKTDI7Sxy6vAEIrbzBuzE8QNSSPGE85rzAj547obL7PLeXi7zd/uW8CHdxvMk9kzpVxIg8OIcTvZYWo716Te276vTgu8OOF70iFCS99jmIudlxfDwCOpu7Kd6vvSb8J7zk0zC9fuYmPW6OqDweq0Y8r40NvOquj7yWaaQ8Y4Kbve7yuTwyodg7398hPZp+KT2Uzli8nh9TvdjfhD0pgFo9C5ONO9dc3rzkjjA8DRUkvPuPL7z4keK8nPPpuISTxjyIZWc8lLIkvLg8Tz1O3eY8d5hcvez9Frud0/+7QYbcPOY897sxuxC92oZDPJwbhTyCsQe9RH4jPEdNDL1NkEe862oCPQ/foLy++hO8T0UuPXA8fD2FUCA9iKW+O0xYSTy0tMc7ExoEPYDmTLwGMUA6oVOaPLqMv7yDhBW9iQASPt6uL710x3281RtsvQerILzmcUy9LSgIj6wvCA8vsAiPqncHj6zqBw9caQmPGygIj+l/CA9c2QcP16UIj0RBCY9JdQiPYZ8Ij/fQCI9G8AgPDEgKjyOlCY81ZQmPkPQHD9g3CY99OAmPsnIJjzOnCA+APwiP+boID114CI+drwiPo54Hj6M/CY86iwiP",
                "V3MJjz2GCI+apAkP+VwJj66QBw9jPAiP3JIIjwgNCI/2EAiP31gIj/pUCI+nqggPzGgIj3RsCI9OigiPAcwHjzYqCA/aWgmP0a0Ij716CY/TuAiP7NIIj++HCI870QePOkQJjzeZCI/IMQiP5mMJD6nfCI+oPgkPJl8Ij2b2CI/+1AeP94QIj9TmCI/ovAePlfUID7QoCY9dXAgPlZwJj++ACI/BeQgPJZ8Hj1hRCQ8vPAmP5q4ID7S5CI+PvggPeHQJjzRmCQ/bYwiPk/sIjxZrB49LsgmPEtoHjxbSCA/W1QkPysoIDwYvCI9bDwkP3gkJj4fNCI/0kQmPP8kID1CUCA+JTwmPJW0Jj4saCQ8ITggPou8Hj33cCI/KgQePsTcIjy8PCI8NmgePg3wIj8EiCY/1nwmPPZgJj+0qCA/EawkPD3wID7gjCQ+I0giPc4IIj4ThB48GiwePFK0Hj9xTCQ9DFQmP7N8HjyBeCY/KEQiPia0Jj5MwCQ/7zgePBAsJj55VCY+KjgkPZeIIjyVtULxa4Ei8Gen1PJbG+jvhOIk8mkYnPMGxDL0aPwkP6kTIvJqdQ70iaIe7MS8APLQ9MDy6FJm8+SEjPUTtEbsgcx28W/cDvePRkrxZLmQ5NlDgu9xFqDzrary832mfPOenDzzBUv87sFlEOzuK2byklUs88sWsvH3mEL3qDWA8F0upvGyJLb1phqM7VqYGvOurID326Pq5BFQwPfagRT0Sh1U9UBRhvL/+Ab3svYA8g0ibvAjyITwEX6O6QQbOvAkOTz10hDe9paScvEKk2Dymrpe8Rqo7vPolxbxooQO98X+JvOS/KDyV4yM9aaiFvM+Ccb0zsjy8Fz2LO2IGmzzRsW479T4PPS75zbzJbM+8ZknxumSfTD1KAES8SGu5PEMz/jezz6m8eOODvDZkjztcgOS8qSiUO0c4mrxsG1K97YOSPEAE2rxiPMA7K0KNvQVFED1TGrs8DzyOuul1Hr3kq4s89N3QPCLPBb5kJn+9",
                "vqKMPJZ0Mzz5GUo9AkuGvB3/LrwaL268q3aYvX78Az3CYdu8ENymuonpTT1qvcw6TgDxPLjRJr0ZjiQ9aZiOvGUl4D0smIa8kvKEvHHwizyl4IC8dBMSvc1JmD3A1UE7YLP4OxUFTzyn8uO8SheJvHuKfLw9W5A86rU7vUjOhLw4+iG9JJ91PKh6AL3KG0y7fbCEPHCBjrsDvaI4AJ6ZPCaszbz6/U29vH5WPMEkYDwHtOs6oL06Oy2eCI8R3Dq9QxgZvI1KlLxD6Zm4JFs7PA+qsDyC9FI8OIievA5WkDmx/ge8hf6DvJHdsbsaD3y82OdEPVXh4brs2SW8ZCMJvYalbLwSvQ09jRYNPH2Y9bzo1K08EdXvPL88m7xv2+W74jnBvFobW71ZTzG9U/ZLPBMDNTiCups7O2QMuyV6TLyNU3u8HhIBvOikCr3OG468PZIOvZniprxj+/863m3KvJL2MDx2ibY8f1R6O28z4bq7p3q9Khm/vCcI+bwbMpa7fo6ouafUNr3gfyu8RfxqvQlwaD03yRe8SWrGvFlBjjxyGaC5ZBqpvPmREb2uYka9Gynku2unH7xXh7a8uWGWPCoYdbztuaO8FFE4PfkY0bzxPXu8Cf6nvMoXQDwI4JG8+1DgvDWpgD3ctNO8sAoCvD+C0bzeQgC9eg+jvK1xaLy/a7E7qqx4PJfPP73cRdC8vs1COwpihz0lOVK9+Ql1O8wMK7i1Wa87J+KkvAwae7zAxTC8YUsBPdrh/Lwzyzg8x32FvEQnK7yY47g7apxCPH6T07xo5Rq9Q+o2O77oqTzyZda883PpPBx8wLy1swe9QbDsvHZppzz9lV+8j/5fvBsOqrzg9Ui8Ebs+PMuOAL3ZRaO8RlswPJpGVj2SneQ6y8/HOnrotLzVTFo94rQID81uCI+AfAgP8PAID8jgCI8IqAgP1ngIj2YTCY+xrgePldgID60xCQ94rQePlP0HDwtfCQ80GAmPstEHD4klCQ8IVwiPF1sIj3NACI96rgeP",
                "HrQHj1zZCI/GBwiP9xkIj/3pCI+aSAkPkqEHD0YYCA+RIAmPSPIHj/PBCI+M+gcPUeUHjyKbCA+tyAiPN9UIj0EFCI+XJQcPN0UJD5YJCY/3zAcPH04JD78LCI/SIQgPJuQHj7PtCI9YfwmPV5kHj1NICI81mwiPdXIJj3trCY+ZBAiPRW4Jj+ETCI8qBwmPkREJD0uWB49vzgiPh+8HDyQNCA8LKAiPZkEIDwV8Bw/I7AePNKgIDySxCA+EkAkPBxsJD0nCCI+f5ggPIocHD1jeCA85+AcPFjYID3dICY8FBwgPOTgIjxqsB49lRQmPhkcID8UwCA9qagiPdOkIj+6jCI/G/wiPvJkIjzY9CY/LlwePNBEIDxdlCQ9mIwmPezoJD99kCA/XrQkP5lAIj6u9B49cEAiPWSwIDzsaCg/u5wePb94Hj4gHCY8XPQkP2VcIj/XlCA/l3giPvFIIj1jVB484ugiPs2sID5xtCY8M7AePL3AHjwpTCY8v8gePgTkJDyYLCA9VKAgPzy4Jj1pjCA8wwggPLGEIDwzbB49gDAmPnR0ID7HMBw8zPQiPcUEIDwEEn73P3weP9i4Jj4OyB48VkgiPq7MIj6nWB4/BpAaPRM8HjysOCI/7lQiPFJ0Gj74CCI+voQePel4Ij0S8CI/1uwePfvUGj3KlCI/UtQeP1TAID5fyBo+ZRgiP+YUIj/7xCI8sIgePQ6UHj55JCQ+0vgePb20Ij7oLCY+4lwiPdE8Ij3x1CY+ibQePGwIJjwmTCI/HBwiPRbsIj3RxCI/KWwiPLtgHj/uKCI/1WQmP9bwIj6v6B4+GbggP6BoIj62HCI8MDgiP1ikIj8T3CI9t0gePwzAIj84CCI/MeQmPNOgGDz5DCY8/igmP76cHjwxECY97IQiPFr4ID2BlCI8dEgiP4kMJjzZSCI9vwwiPu5YIj3tQCI+MBAiPwbcIjymtB49xLAeP2WQHj6TWB4+QoQiPRnMHjzlaCI8KLQePnPIHj644B4/wgAeP",
                "gNgHD/N3CA/VWwiPBYYHj15VB48xpwiP6c8ID0DcB4+0SwiP/N0Gj4d4CI8iNQiP7yYIj7tyCI8CGgiPZ8YIjydIB49UQgmPqWIIjxNoCI/dMgiPiVkHj3LzB4+0MQiPFAkJjzBzCI9CXQiPI28Ij6ViCI9uVAgPbmIJj4B/B4+6zQiPmIUHjzPCCI+3AwmPJMoIj28tCI+M4wePQ6kHjw87B49qdQmPKEcJjygoCI9s3AiPvYEHjwhSB4/I4wiPn0/WvFdoF71rshG8graSvKRx/Tzl2Js8U63UOz+JCI9Q9YY7ZpWrvCvW97yooqw5FmM8O8VuBrzuZNw85BP7vOkSjzoNGIq8kfKWOt5+hz2UPs88AhMlvKAd5Twb7Zo8tWmyvPiezTxD4SC9O7UTPSJUE70wv7m7zq86vQdM+juISuk9vMnDvGYsUr2S3Lk7DH0avTXEbDw8xpm8oykFvWnOyrzNQga9Sk+hvAofMr2u56s8+HbtPP8MILzz/FQ821Y5Og+w+LugjEu9ar5jPTs43LyjXNs8aZP2vEX8JbwV1Ye8htqevPDyOb0vhi68s4MfPaJBx7zH3rK880NSvE9qqjxEAgK9Y2m7O9rQIb1l7qG7Xx/avCoRsD3HAg29FXAGvc97yTkKpma8EUISvbzIEb2btDK8VHgUvBIMZLpjkuK8a6kYvW+jgbzIu8q70gDQPR2NvTzECQ48jE2CvSVUIL1tbni8jtzCvESrhL0+8Om8OJzdPMnJJj1MtGO9InsSvdOlTb0y6iY8E3CMu4nGKzzUtmI7l5JkvIadFL2Zbvo7qIh1PMAxpjzHAFG8dSUMvVPJsrxuWZ07Gm/kO5gQezv2aac8Pdp2vAvWez0JqFu8L//TOx4strwvvQS9EoALvMmFFT0eyfm8rOGzvPaAKL13uIC8086/PBEfsbwibwa9N/wAvGgex7yzp1k9cjl9PHW0mTwP2+28FLBZPN/VATwVcQc8guIIDy42+bzLNpA9NldJPKRxHDwIXXq8",
                "ezTavK338LwAvZ+88bmUO6P/S7wqmGK8akZ3PKQ6cry56Ry8S/E2OriwWLzps2o8OZigPFlGdjsS4927OlBivB9lL7w66S678JQEPegpvbpVyXo9DaQoO7/GCrwuxny8yhKNOZkjuTy/fG46d61iPKUzyDwZ0NS8Wrc2PcMhFb0wkeg88bIKPYG9lb1Q1EY8LdPSvABY8zwSeu88yGHSOANkkby3XsM7affBPMEkND00KE08G6uNPMGYFL0CpAa9LdI1PWVuKDyP9ci7/jw8vT89WrpUFoA8UNVDPRwuQrpCbw49qR4svIZfubya48Q78cmrPJLNIT1tO0c9Cm0su/+0Nj0lLOc7t2CSvN0rST0ncdo8AERQPULmrzz1qfO8z0iYvJBeHr2SYyg96IvOvOfkfjtsnkw90YBePeZtjz07sVq7FhpPO8Ohcrw+wJ88rmkbvZ9jHT12n5O8uwKbur6CqbzFEPm8dYXxvE5/X73xBIE7aP6mvJnn+7z+kJG9dxV/vFsqpr21kQQ9g02bPL5sP7sMGne8YAIAvZSoSrwW44c7XtWIvLir8bxxIBc8XBf4vPR1Mj0yUSM9l5GEvKy22rz4dos9mJskPKIpsbwVofe8eenmPI/dIL3lmsK7D1d8u3wdmzwRXM28ATwSPTpedTwfRwmPEShQPXsiJr2zdKk93mVKvQdTqDzGzpo7gy2MvKpko7wjp3K8/aciPU0u1rxkMky8i+ELvOuuSbxst5i8c23rPDSAPjz7cZm7AifQvJ6VWzrjcye9lM87vUm/QD2q/wO8U/MVvVrzEr3LEKO75aVhPFWxET0qshq9nivlu2WoQj2YY4+72J8EvRW+gD1Wr7C87UdSvENvIL2C84a8H65WvSgSj7uMPPq7D1YDvYOQbbvYeAs9qNu2PGJvGTuhLvI8pPU+PVPJhTwNzwA9pJvGvAPAsbzi4aK8wmb7PIJGAjyNmSO8sqmGvHbZ9zvrNJs9BKlzPPZWkjyc0BG94qCuvATiOjzATdK7",
                "6poRPCyqo7xmrtm8s17avNZeHDwAeeg8WCNUvddXFr1VA9+8/HcFPQ+P8bzGexe9OGDGPO+q7D0DhVE9L3yavFX8Erm38YQ9yDGHu5nTeb2N+Lk8K/u1PNIoLrxi6py8ZhHqO3PZMj0an5w8YV82vMbZnTx61I68PwKJPNhd8DwpvKk8mZS1vO7m2bzvQ9O8RvTAPOO7kTzeJqO79hqDPcPKr7vp4qq8/UccPVoVhjse6Nm7ALRLPTlo0rr034U8z87VOrJWy7wPTvm8of/Lu+wjarzNd/G8MIh4vBffhLwzvpW5KdjhvH1uHr2GgD88JM5KPWzzhDve+ri8Mti/PHQgCY9FwFe9cuy9vDWlJ70sTIi7ewiePdsy5Lw9rj69QAhvvNdii7w84J68J7I8POqu3Tsh4Lw8k5wIvYuvB71CXCe9xIDHvBc39bwC2NO7PgNBvZRDizy9xIs8jf4KvcSYRz0GyjO94Cc8u59IpTxDEUm8uASBPJ58ErzXkyu7Gc5LPKK4pD2+UE+9CtgfPMdZm73wSxu9xRpnu9ULuTwDfiu9tYl6vJ8qwDxplfY7swIsPcumhD3YLQI7EDIPvV2b3jqizGy7VY7LO6k2gD0hhkC9FL5UPEorwj3QC0A8M78SPUgsRDxbNIg8RqiFPM0ElT0wFhw8L0JGPIQ6CLwghw+8EywavLzNLb1e2O48I9QmvLfOE72iKDM8k4KYuyRF6rwbm767nhKhvHC4gDzF5z88M9d+PLWaBjxbrsI8a4UWvbjcvrz8w/I8EzywvO6dbTy3E+06ENJwPHcFwDu1Ib68fgkXPNku67x711+89ptePOLf8rpRTco6Xd4FPaPeOT3q56C8ms7bPDd6ozxo0J+4tAWLPAGG2zsoyOC6Ob+BPb2BYDyntv68k3MHvYg9wjtsjFU9g5IdvcTOKb14A+a7ZRpwu/OHALwlwIk8NYYJvcEf6LzmoBi8JHYOPSkWprq1iu469rmXPA9XLrwDfiq9HtFfvCo8wTwPu9u8",
                "5WWHvNjePT0kpKU7yOUHDzYpGzxl6AU8Y/b7OxaRCDwc1ma8NmPzPDZRW7ylfFc9SMIqPFjikbtKZCK9BoOXvciAhL3MsFA9TguUvcSidLxY5hg9XNosvA7pOD3me5I8teeVux+6DL0qeJ687/DFvHKkqLwMk6W75cu3u0zEFTw5M/S8HO8avHgyhLwSh1+9GCdju0ffXr0wXwg9RzmSPOvhFT0txoW8aqpHvUvQi7yInwc8HZsAuvH4xbzKzKu8pwHCvaJKA72Wrpw843FcPbhWqDx+8p29L2I9PCRIxjzJgrm8/HkRvPQPD73lSPW8RrSvvI3mpL2CmM+8WgcOPDEfxjw/Upy8PmPbvJu+lb0tuNu7pH7Eu1O0Zj1DI3K8KbhmPcagZryPdME55ZQXvDUmdj1gC5k6icTcvI5RyLvHGDG83bXkvEru4zxx92i8ZNMuPQsLhbxU8WA8MSaIPMa8Hbz0tRE9f307PIwdijuSJGQ8FZ1hO8jaN7un1gs7JHe0PKSap7yAmES9r9BZvN6/1byIu4K7HXkUvQQe3LzJDRa9vcw3PPPmz7xrebc6oYnAvC8nq7yH4lA8l90JvYRV97sCi0S9GFGzPNAMujz2x2u941vqO4OYCjx6W4o8JcgbPWMHIz01fya7pNMuPYyDHbw66Qy73g2yvFlQkj04pek8xI4fvEdzqLxrwSc9UCiru69KnzxHzgiPVXihPGxvcjs3NGo8igoSvB4LrjvDETQ9SIjBvPO+Z7yTeAe85AruvA9YJL1b+ga7EzhZPHdqtrxlob686TlzPPuDAztLQYU8UA9QvUPAIDxCpH48smUCva3wEL1uiis9cqX1PKLcm7sObl28PKwGPbCkrTu6Qje9al1tvQ6yv7wR2Fi89TTXuUU8db0Wjq48l+tGvdYWZDoOu5G7ndWpvPODEjxbxuC8F1acO6I6aDtM6ja8jyU5PeXACLxzrJw8NxLeO8KhgbxgAgW7xunQuw1yXrzD4xM9T4MEvboMx7ysT1g7",
                "fuXmvBq2JDyNvPA8Ey5CPJEWH7yJRV09kjv5PPSA/LuJFXe83NYyvYAErjxudzc8ro0jvLKEhbwAE5Y7R12lPKkQoTsg4Zs8Lx8UPFy6Hj1lJfE8WaDdO5uvJj3Kbvq8JmCbPNhggLxB1uy8jlMxvBeprLzoSNU8WxkLO3e4aLyZHk26lqDEO1ppCLyQyGA8/5RZuZia5zzd6n68eiUNvRVJMbzUtkC810YzvYwrmr2olLA8cSLluYcaojylH4a6jyN0PSIZujwG1P8857yXvLsJzbvzH6y7VYCxvF4mgbxyQZ08AKlyOyEAGD2ZWiY9zwFQvLY7gLx9RaA72QoOvZTiI7s0vDs8c31aPOno+bw1p/K8nJVTO70/zrw/Bi69FCMwvXdbCI9T9Aq8zvOxPTkjKD2qWJS8yLgSvQd+PD1sRNO8H5ACu41JJb2SyCm83HqpuYkKSjsN1Bo93vPFvEYzYD0Av+a8UkcwPdUdm70X6i+9fPYhvIriFT3aLyQ8ykTKvLvzp7zYUyK9WmT1vCCdoj1JtWI9QJspugVOkb0K2xC9q93Eu4F5N73aR8g6XW7+vP6x9zzscnK9KaqBvUBoF7xbPEw8AgNRvF4S5Lsvf3K9eroZve2roLyQaqQ7JE4YO8/Q8jwh/ie9tvfQvBcNIj1s2f26nmfTvFW6Pr3yzb68uR01PehPir007iQ8AKdGPZL85jwA64O8RsYjvRAnEz200xO9Dsu8vJzUFDxDnaQ8KOHfPNkXI7wO5vE8+M1Ave0cIDxNAS09ZVp3vIk3Ar1cORC9pABTPAW+Pz0L2Xe8qSWOPT66R736uLU8bDkvvTTk1jxPb9I7YBWgvabpfby+Ika8M3eQu4BqOLyyymC8X7HKvEKli72k5Q881Rd5PLwnWr35ymA8/jdauybEoD2tE7a7yFSDujKakr18xxi9cicdu8U1Ez0Al7u8TamvvJ0H/TyMSSe9rnD9vBZFzjyo4zU9fumFvPrZ17zKsbG8OWQiPYaQIr059Lu6",
                "UHacPQ+lC70UhY28WZVlvSBpOL3mGTw9YxpZPBl2J70zf3G7uAaQOzIclzwbiAI8tTYJD0hZuDv46988ElvUOoqvMj2+rQ09JviCOhVeg7pJHBK9Be0wPNIFsLzswQ68RfK5PSvCurzsfy87jNKPPJxtCD1Khoo7E8osPN/Z37yUYmQ8kiKDvM2/BT2kPrG8+S+wu5Z53T2dWYA9VI20u6oLGDyhnjY99kW2PHmOJj4jkRo9iNbRvN5RfjwOFeo8tEF5vfwPFzueA+U8Olauu0tBY7yZHLI8i94JvFyPAb0Io2A9P8HLPJTQBrwgToY7JEEpPB7o3TzydoU7ZVI1u/Vi4ruT75W7bezoPOAWBzxssZO7rlcBPPFV0TxJv1k94gMCPWqBEz3f/BA9m+1QPfi75ruvX/08V3wevC97HLvhFFC9q/ezvDtCHb3M5P07SiK2PKRlsbwhyZe7ndbqPN3bEzwbzbo94p9GvJZKAL1qJmO9nEUgPZlQmDs8x4a8VsJwvOLSHD1L9Yk9j/8xPfJxljsWI6+826dZvWlpq7xG5l88KcdePXbpfbtPDgS8ySEMvSjLcL3gzDm8U78IPZWvij1Lw328JfPfvHsni7xEgse895wyPanunDw6siM6d4suuvcopbxy19Q8nGJBvYXOfjur5j283g07PL/igjzJBns8kWAlOwoovbwH6hQ9ZwpdPKM+nb2sAve7I+8ovPN0873XK/E7sYgSu/XxsjswF0E9xa+Uulp2bLw1xAaPTOKMPGvnrTwjhh47lTWAPLEMPzxMk5Y8TJ5+u/1Ob7ykZOk81oL5uqNPN7z8vlI94pi+PHqk6LyNX+u70DKkPGq+BTxN4N88AIRMvEruqTyGN2K8S0CYPCptnbzKNwK9V4ZrPfEUQDuJr2o7EhcuPCmpH7k2Y/a7GdbQPfZXIj2k2Yq8SeYeuwzNiTyjCF08VecqPNFd2TyOJvM8ick5PT/7hjkApZY74R7/vFUmrTv7ljg9+kuNPAXKeDxwgrk8",
                "P8tAPX6PGrrZNtw8rD2fPOcEmLy3bzC7pAzsuX9t07zEFec8Q7SgPHRItjx+vJA8XpRNudJBKjs/wRM9/4MhPeeArTyxvq883UhMu5I58ztJUrI73wcUPCFV1DwOFcu8oRguPA2ujbzHgaM7ltEPPK2ulD1g3Y28il/gO7EtYLs5xzQ7ZdLpu++uizwCxy87x10cPVNWDj3W6t+7M2RYvJiFA73Daua8mJiPvJLI6jrZC4480TWHvMWLzDtV1qS8gQjhO5wFpLqEtbe80FyYPFZDfjqV1Um7FgDLvDXIn7uk/hQ99NNPPAsm8DpHZka8nWXGvKyDGDyBgSo8ZeG5vKsqw7zB8+M7T5vFOhFXM71MCFU8OeVjPAkd4jwu/mq8Fl7/OqM37btKp0+8x/mFvnHj2Dgw/NA8P+AhveIt4LpIROQ88TYWPeQjCA/t3ju8Cupeu7lk+LvugT47JgzgvBknxbw1mz86nIolvAWkwrsZ8Ks7YOlfPIlvubyotLe8TFBrvFghxbxe8L87BnAGvYIG5LxhBz+8kU+qPBe3DbxVOw084yssvZ/txjsvo2u8m/PTuWrM3bw6quk7C5luvH8aEj0idsG7XvCSvNntmjxRl5C8g9quuxJCAz0k308922nAO/aY4byuQla9tXvDPPcxrjufpBE9vr4NvUnzZbxmYoo8BIjCu4aZQ7zKV0w5WopLupPSMz183wg8XZKhPH7AfbsXF7y8vOKdvN+pGb2OZnW8Rl8CvU3QlDwQ8mi8flAUvbX8OTzPm+q8mh9vPR6bC7zdvdE89l4cvXiWq7tcEZQ7UInEPGOIM72o4Fc9TKQBPcQAvzy2q589sV/9PNECzTq0yL88+4vhvOCT1jwi16S6/da2ua7ui71gVxe8n3mFO1C6P7zb9ii8IF0BPBt9mDx1Xl28orEAuqomgj13vtG8SQeauxijBDqPorK7L4igPMsZN70kZk68apMLvfYT9zyLRdE8qPA+PE0MvDxQjh49MvFCPP9vhbxk5Uq7",
                "LJbXu4PpVbykfeu7+Hu8vKbpzztSyJk8mPnWu3j7+zxuzcy622jIvCmc9bxhbZg62C0RPbUIOL2OHhK9JrifvDxiUzx23hS7hhQpPEVjGryYIHW8hwgJj07eyTyRwCI9FZKPPDc0n7xM9628rFSQvHmr/zw7ZHo83eWAPPVufb0m24Y83yqePCGNFL1aS7C857pVvS14irudXhY7Q7Rnu6fAM71xcAW8R3BTOzWJ3zzMn9W8GHMfPWgNXr1xEq+8kmOQvYGkBD3KKXO9kFFXvSwK6b2r8fs732CluwtZgTzh8pw7K5AcPFPMzrxEnb+7ZJzhO+T3Qz3mDq67tpgkvdB5kDzo1pE9jtcPvc5Psbw9kbm8D4pxvbFkErxmvW69aN3HPDH41zzMwbM8I1uKvcz8YD3ztgw9tkzbuxplAL3Prke9E8pEvd4gXjzLK5E8Ea4bPU8YSr17CkA99pkhvfqJuzxMBnC9ej7EvHWB6jx5nJ48eJ/wvKOkvzzab2G9ekagO8p+ojyieCm9aMIHPIpwL7uQ05282hsuPeY8Qjqw6209XKsLvV/f4jxlSHe9NTKXPBEb8Tuu7rW8dlXivBmUu7z6KFQ9KG/tu0o7Tb0GeW+8ggMCvaaeCr1lsbi77pBrvFzclTwApc28wm8cvHesBL3Bcx69V3ICO0DhjTxJG7C7NAvxvNoffbw2lOE7IayMO/DngTtRrgK9olE7u373F72lCEW7RlKZOjKVGjz8Z/08cb8xu4LVCb3VtaC8ATOJO8otjT1b+w09whquvEGk3jyw8Gc9RtluO1nONz2/YQiP73D2vJftkrwd4oC8f0PfuhHMID1NChS9JGtEvIXzv7trh+o8vGyNvIV5PbpJpZy8TdsuPYCVgLyrj4O8oZbuvGd/zryvwY28BVf8O51xcrsqr6S8KLGAPZjoML0HfEs8Xj4DvWJw3jzxFPA8mlnXPBRHFz0KUbq7+O/QPE2B8ryKRiY9fHINvHvDGj34gWG8qyUKvcdN/bzFTCE9",
                "AB8cvdOl2TrsNM089LEQPDBjNL0/i7Q8Shk9PfKHY7sbF6i7Dd0dPBI4s7y4Uus8WQvavGF7i7yhnlY8S9+Yu01AmjywWtE7LBO8vEN3LjvRIfI8MFkmvGL/VDtl5Dm8VcFVPYECjzzFEOW8JaYJvSkFgrlO8qC8hLHwPMZepzwavci8zCInu8nQRTtWQ6u8pne4PKPc2bz6Szq9hJHmPGoJJ73OtA88NiCfPCmpWbwX8Uw8ZX/HPIt/E71HLQg9vw4GO9kEDD1R3VG9v2+CvMsYwDzXIa871vnRPKHlA71O77i8bVhPvOKL4jwh4Hi7wsH9uuYEMbytdmG8+giEvOd2CD2HApy8plkIvEKLH7zXtR29okKiPBf7kDwQoog88g2QOy5VPbysogM98xQEPI5WmLzsKjQ94vvhvPtzALxzPt28UOkIPQ3DxzlyM72885a6vHEsOD2ZiGC8hYvzvNDksr3W+SY7tXFhvX7xBw81wW095dw1PJLbhz0s8Ve7HeegvTcpLT1VofY8itc1PSPJML1EKAG761dJvNegG73ZU7W8G1+nPfO2aL3PhRu92KUpvRMBU72tPUq9I6IsvexDmj2okfu8EMqqPAaYXz1TIjS8VGMCvazZhrwCtIc7AKS2O+8nfrxvx3W6oiumvfugL72DkIu8Yq8HvMe/Abx9uLq7AOg0vdoxK739BLK8P0U3OxZ97bxwccU9CnCHPAZBRr1w5WI9oVuIvQPEXL1ymoC9VXOZvPsG37wpLbE8dfggvXW/gjzVVs28lAmivT2lRb0lxTc9WE9Zu0oXKb1ysxY8Zl+2vWa48bsrRXa9uI1Lvfi7fjx19Aq9bAoEPf9v2LyxYw29PGQ/vQe2KT3Dog+9p11TPXZ55z3r0g29LIYjvNR/+D20/RK9tlL8vAtuWb3pe+G8N82EvUZFhLsmAYq9MFKhPHJCPr1DRlO7MnCyPafbJz4NNEo8huVSvW1OvDxJaca8O18ZvIKcjTw1Vku9TepGPEpoAj39kAa8",
                "bdH2vJhmDDusTxW73/gcPGKaRb1hjn4818eRvIazFz1BL/y8iAGyve4yvbxx42K9rqCjvKB+DjwpjxY95U/nvC9hUr23Fhq9OvuMPZ0quLwC2bK9GcUXvZ+QpbtFH/49cqFAvX4h8jtsZPe7/BbNvCIjfrqSbBW7MiYIj4bwGLwP9KQ8UZz7vE/Ndbvn8Qs9LDctPLpEw7taj0O8/lo0OVCrYDwp49c7s/PfO56XGLyJHi89T16NPcvPmbtXOQ29thHqPO/gAby1zdM8ZuBYOo16zTtLnxu9yF0wu45vvrx8z9C8mVCZPLE29rsVqoC8hYEOPexqcLwYeWI9AM43PaBvbLtyGCM8uUJrvGifvbyDHjM8BrLAu3MkpLykz3C9SQNxvA3rXTwN4Qa7yxoLPYLwk7ze8ts8wqJZvch0gDusaXi9JFgUvTURuTsSewG9upwNvdyeqDsZzIu8DTCDu2Ws9jwa+PQ8cEOyPT8Pw7ybXEg9mMekPLzYCTzxIS078yQwPdSRrDtL1GO9obUQvf03CTz+53+721LnvCDtGb1JpMg7UTsePatnCb0pFRe9Bdu6u7Xo/LugfWk9DjMOvdJiwjxSOC+9cihtPW4sebyHX688XHIWPMbKjb0RNga9Gx4XvTUkjDzrPCU9Dtd/vEQoHr2GioI8CAhxO0J94Ty5Lhm9fB7BvD+Pp7ss2ow8eHHKvGI8g7sqnEA9OyQVPfseRDzqyjo6u5AQvY0Gjjy1MOE81rzHPJPQqbzsWsU6QdIpvVgAVDxHW5U8AA/4vPEmHTqWgQQ9dmiEO26Z8jvbu5S87LecO0xrOL2I1A+9whdCPVpWmz1pifE6YeORPPKlIbw0GgiPpnWWvF891LtkR0M7BY55OlABVb02QGm8+QPiOwy5Kb1nAiW9LYthvBH0pTzgyau8XtoVPBApO70qwF2742z1vATEwbv7RkU9TPMaPUM8t7yaRpO8j2hLvUrQvzxbLvQ8I/gEvaAdRr0nSsO8GipzPOLfqbw6C7M7",
                "FJ38PCPbYbymubC8VESgvIHd9DwJgWe8VXwruyzQqLxTdik9o3ChPLryqzzDHv+7oSQ8vJRpCL1+8B29CLMUvCiN/ruujpm915qMPFCruToY5C88PREGvJzbNb337De9/J+Ru/bFNr1bspc9pjMRPUZtvzsZaUc9o9uDvB/2Cj11B2o6uIrxvH8MK7uRIRA7M4pPvHTkxrx7p5w7itiCPRG5nLyOxiM8/HeVPG2UXT3LTmY8myyovX4ykjvTdjM8yuj1vBOwpbyBc409MnqPvGiipb1WRAa9WFslvPCgB7221se7LkJCOvu837sKEik9mD0Mvtj8Ir3ojGO8S/rAuxERgLxuRFM8iJIdvXgIHz26XVg9oJfKvHzy7DwgsOy8K0zlPLYJ8rzowrK8v+Imu2IfUb1eo+U8YLC3PL2yLbwUQWW9ZaYEvcn7QDyU2YU7koRYPatGPb0fpRK9VkcqvGYxqrxbGP87SRU3vcD6Ijziota8hjJNPF3wgTwjPIq89OrlvBIDRbz1J7W8NY0CPR3LBw9LUza9LhkQPNeG2zx/xDO83Zs8PRnVGb3Cvom7pZHyvEBDdjvfO6s8YI6EPCL907yU3lu8G/imu431JTwJ3du8ANEEvW3C6DxMHVu82/ygvMsMKz2f8Ci8pgvaPLmA4zvjs8i8m9wuPEqahT1H0X08M9H4PLzclbvEPQo7JySzPCcgMjz566Q8WSszvKbuKr1WVVs82A+mvJvUGL0oUDC9GAYVPKd6ljqI80u8M7ayOwKRDD25MaI8XzrzO2aESj0hPng7vaRtO3+HaLyi+Wm8CdHWOxI1Dj2Q5wu8BC04vR2UtjtssGa7jY4Xvd8+vLwqZCc80vqtPPTjtDzpepO9MwbJu8+KxTz10xa9pKx5PUQ59Dz5d4a8Zh8pvCen7Ls3Gz+8wL1Wvby16zxNZvi7vmpBvaNoHL2SVLm8s76FvSqJkrtFpcg6XVn6u5JSCL3B4508SS76Oux0Er3SLP28hmcgPf+ju7yB8NI7",
                "Mu5BvLv3nLzlEM48rh46PO3wTbwlPY+8PzF+PMR2OD0Yogc8pLzUPb1ROL097Xy8bqKBOyVEzbz4g9y8/S9SOfZD3LxOaI08VqIDvQVYFzysmbW70zlMPT5vrTuq9gU9wdtZu+62DLtqo408U7WdO+z9VbxCJpW8S231PJoM1jvP/4K8kokGj0onB4/D8QePhxEHj1XVBY8SpAiPJlEIj7OpBg8XFQiP0zcHjzvgBY+kiAYP02IHj5/FBI/HoAaPoEsHj2AlCI/kOwgPigkIj5Z9Bo86CwePTGQHD5AYCI8UygYPTXQEj5xOB49K3QiPm18Ij1fRBY8q0QiPhmwIj1/aBo8cGgmPK4MHj2YIB4/tDAeP3E8Hj9PjBo/CNwiPtZYIj4vvCA/tLggP93kIjwLmCI9JGwiPBh8Hj7zKBo+OwQSPERIIj0kICI9eawaPI88Hj5d7B4/Q+wcPxoQGjz6BB49p9wiPwVgGj13pB49ItgePoBcHj2IGBo/RhAiPYl4Gj7wuBg8MqgiPT94GjxEmCA/T4QaPZuEHjxs2CI/G4waPB1EHDwH3BY9TAAiPmdEHj9zNB4/TbQePgUYIj1ILB49TFQiPOlcHj7FNBo/nxQcPzbEHj7p8Bw+QPwiPdJUHjyijBo8NIAcPYPgGDwoqCI+9IQiPgb4Gj0gICI+WDQmPNVAIj7zlBo9tLgcP8pEHj0XLB48E7wiPLfYGD5NWB48JXggP1/YHDwvkBw9W6QaPTcYGj3HECI8sPgiP8YEHjzTKCI9vqgWP8GoIj2+/Bo+drgeP65kHj6Q+B4/JNAaPBtEHD1C9B48K0wSP5MIHjw+rBo+uRgeP3EoGj7V5CA9AEAaPZUEID/mR6bjj+IG8jNaXuklkarvf5gO9ek6XOwyIIz3mcAiPAVV1vBeaWDsKC9w74pLYu+VmEryb5OE8+QG4vHCKSjtsH387uFYBPYlt47uXoOu6n30pvYPAerzAPCE87oAIPTutLTxXS/w3aq5lvCe/vzwPmbK8",
                "QM0DvLXW4jsiWCu7boWEvHE0Aj2o4X+7BtuVvHglLTzaFY+8PHIWvPk7v7zevp48jZ2LO3nvGT2Td4y8qcsxPP4UDb2ULtM8/minvG2XoLxr7sy7OeeAPB6m1TsLeN88H/xmu6X1hjx4SR28aicCvCkaLzxgw26771YOvdtCHb0cDCy8oyUFO1HmuzzLdLO7yEcevQEcAjv4qZY63fxCO8N0fbyvD0a89PFKO8IcGL1KRRy87wW3PHfI67sXYV89K9CfvJ3Ytjs7C+46ZHipO1PLT7tM3vO8HmX8O6dIpLyUHxq8sofoOtV60zuK4+m7TClEu3ZfJbw5Y/u8GQrmPNeLfbyVql094Jrxus3sqbwJYH872W/APHIX+TpuqwY8wkKHvEEExDzjmJ88PBOOO/d/jLwcmZa8+9BHO9ZuQb2VpAS9cnKmuqwt6Dzgyb48VhjMPOGXm7wNOoe8R4IhPbMKZzyWdRc92rpoupb/mzmFfnw84u9oPP6Jizsqyyq7uEuoPOxUJLzlr168m5z3vO/QBDzf7NQ70LVjvb0ODL0z1OS7F3t1PEiVvTwfepS6cUR6OznSCA8znZa8TpsOvWquz7xFz3I7/GIYPZzNu72oZ748Nkk8vU2gZr3PU4U8HrR4Oyz72rvpE6U8nfBHPNHsubku4HO9vrlYPRx9+zwEqN47X5hZPJ3C7bo5dpW8ljF5utEfRb2sPAm9I0XKvNvXhL112hW7BNOZO+o8D71yvr287TfbPNn1sDyGqik8pAMOPKcXnzvGu/I71JqKO1UxoLynvig8n6sEPZMk5LvykSC9+IlEvWP3xbyaCoC9Yc21u8dUrzzSfzg8rTSuu0qkhb02l9w7LusBu7kc8bxCNra7cP2/u/uniTxuUZC8TgWmPLrk0TtzOma893UVOy/6I72oAy29xg0DvYTj0TxGeKE8I1D6PBV3ijx7J5u8q3RLveKnHbx0nRK9wSltvYmyRbwHt1I8fupDvRzcmLxi23S8IbduvVT0GT1evEa8",
                "Fx6DvfabxjzDGy08gyUDPbX6IL22zMu8eENfvZ1oSL0SVqy5b6UpvVX3eT3x/z+9Mq4yvdYIurwt8bu8nYEgPVmTsbvR7oK8heC7PcGv57vrHno71bXau5cz7jyBoXO937cTvUwbBL3iqhq9AAlOvIV1/7x9vJ68LrCCPd78l7yPadq7ZV+EPFkasbwXfCO8H2NmO2NIAb2nNo28cgquO+W3E7ySVtc9gvJvPamGBj2i2Ek9m92VPGGsBTi4MlU8tv8Hj9tntbwAuVM91nCPvTtnFL34W2o7xc4KvUetSDyeLom7ivErPJ8UNb2oSXg7gC2AvD3C3TwADCS8zrZBu29lQz0fR0G9HmGhvIi5aLzvH447Zm1tPT8rBDyWGiy9E2zGPGtPnbs+/fs8mnEtPQBqUby6nCg7o1nbvMurAb3JwrE9xBDhPZpL/DwwMwW9bL4BPgKUnryfsL487U+XPS7WJjvFJYI8inblvKm5rTw4vri8nYrCPeKfQj0qVqy7rd6FPCYRRz0G19887phOPboMhL3ASLC7FsCIu3yQ3ryrZgq939fwvOZlTL0uC7O8zhkqvQemmzsbU+G7njAtvNycDL32YF+9/A8avHxCiruO6p49Nvf6PeCWl7zwuh283ky4vCPqFDwXjZ68WQuCPZH7wTwYMl690M//vBcGALxD2My8yxHJO4RN5joZZ/88/4jPvIbDHLybQmE73hkWvacnar1AivO8nl0ivdJVDL0V7ww9qN68PNgBKjpEQmk7/L0JPbZKib2g8UK7sM5KvPmrCj0ZA+s8wB6UPOwASL0TP4U8R0IQPWkcNrvJ9Vm9P67AO0FGJ73pPTi82vZuPXV35LoJC6i8weMMPEAdEbzeVA88rSSlPcnjAj44bdw8WjuWPfWH5ryuFzy92wR9u5PTiL2dyjQ8fr5APYdlTL110Pk8x8DAO8IuJrw0mAmP4/Xuu6qZDr2Qr0M5o2vbO/L5zLwe5iq3Cx8MvGULlbxYPgI9LGpbvDyhJjwGNXc7",
                "4QcFPKYYpbyAq/e71fm7vNziJ7zlWFs8lJBsvMne+Tw28ja869sSvf+sYDxG47M7yiMYvCF5KL2LJjq7T4qiO6QTELrz9+W8/+VAvKN0Fzxww548eOyIO//6mLulVZe8G5Q0vQScrrwPehC9hwCLuzStvrzX6q28ZNdNvb9agLrecYA8xfr1uzG4STz9qX89JQfSvP5UJbuETi69pts0O10Xbbzt65Y7SLOuPLvViTucDtM8yVpJPCNiqDxVQq+7FThNPE3AmD0SVKa86c8Du8oouDzAr608+1i7O1bTv7wjQ+e7NUSAPKjEOr32Os66rZP0vNryQbx/Ut28vFz5OwtT8bwQyU07i1hSvJAuYD1RUFE8g6+RvJaEmr0nF4Q8XRD7ux3bpTsGNiS92aCAu5MXLrzbV+U7FFEYPfSK1rzvM3c91vkEvXYr1bvAYjY8ZA6QPLF4irp+zjk7sIWNO/Ma2j2fogO4j2N5vLzYkryRzsW8ke4IPQSP9bzCXkm87At2vNmCyLwEZia9daeyPE3jCz2Govc836HuvBTBMjvcOHy7uZFdPfYQubxIoAy8Cm3LPO079zxa0gk9htovPNnYCI84qgiPOrgID+heCI/IcwgPErsJj/LpBw/iNweP8ngHD1CoB48dTQiPOQ4Ij1FsCA/ioQcPMcgID9bWCA9dawiPeocIj1G5CI/bPQgPnf4Ij3I2CI8dOQmP740ID9VhB4+OGggPA9EHj3hCCQ+AfAaPUGcIj/b+B4/Q9giP2M4ID7sqCY9VDAoPRIkIDy3tCY9j4AiPo6AHj5RSCY8rogiP/LIIj92RCA8sfQmPFMsIj6AjCQ/6YwmPEqIID4ynCA9jVggPG0cIj4ChCI+QWAiPENoHj/q0CA8mMwiPyLQJj7FWCA/BpggP1tMHjxeHCI+IAggP4x0Ij06ICY/uXAiPKnoJD6oDCA9bbQeP7a4JD/PGCI9WXgmP+WgHDxM5CI+4hwmPsagHjwGoBw+qDwkPSMcJDwzhCA9iiAcP",
                "9YwIj2cXCA/5GwgPim8Ij0A5CY/M9AePPGsJD2g2CY9xjgmPgGkJDylRCQ9c1gaPWY4Ij4cyCI/WvggPHikIjwlGCI/yeAmP1JIJj9AJCY812wgP5ZAJD2FgCY8f1QePzqsID2vyBw/XXgmPWRMID7ONCQ/IMwgPMX4HDwilCQ8R8AcPeA4Jj3bFCI9D8ggPVaMID7OkBw/fowgP51UJjwGpB4+AkAkPZMcIj0lRCA+PkwiP/n8HD/leCQ9vPQiPyxIIDx8fCI+a+gC+xjYID14FCY/5fwePbGwJD6ujCI+8XwePQx8Ij3XzCI9O3wiPOeMHjwdHCY8SUwiPcl8Ij8oPCY9TvQcPmukHD2KkB4/HmwePnxAIj9waCQ9HPggP3mMJD1FQCY8OxQePwoQIj+6RBw/PNAmP+w8JD3C0CI9O8AiP+tkIj9loCA+TSQmPHxkIj8WWCI/xSwmPqK8HDzpkB4++cgmPKNwHj1IyCY/MUgiPJr0Hj/7gB4+gswcPI2gJD6LsB4/gFAmP/UQIj2eICI9UxAePZVIIj+ieB48IIgkPrZIIj50QCI+daggPQ2AJD9lnCA/O7wiPZ6cHj0tdCI/sIgePH00IjzqbB4+4ZAkP6RsJD9TwB4+s1AgPEOcHD9JOCA+3lwePi84Hj6r3CI8X4QeP5IsHj9DdB48IQwgP9DIID/8CCI/FpwgPZkQJj+giCA+itAiPB+YHjzKjCI9mTAmPIE8ID3lxCI84lgePYYsJD+kKCA9VTAmPqjkJj50GCQ8zhggPoIoHjzPfCA/WaQiPi9UIjzYgCY+lVQePibgHj9qKB49f9QePvaQHjwBHB49BZQiPjH8HD+tbCY/WAQaPe+gHj1SNB485VgiPqEYIjxBuCI9dCgmPk4AHjyLHCI9jgAmPDUgIj+1SCY/QOgiPBc4Hj7VYB48pegmPiaUJj6+gB496OgiPvfUHj7cPWb19Kvk7642dvHglwzwLdWW99S21vMKJzby8eQgPc3rMO5IAerwC7V+8",
                "GrCTuDAuQTvcAPA8sESbO0tmersaSuI80S3Bui3+pT3v0R+9llyAu8kmHLs/l588eGWKPH06Urx8U567bJpWO0aXITxUMoK7WP30vHsubbxkTk09PKWAvEV6HL0tVce8IvyzuVXpArycdpU9vNkpPP6H4DuzSt48pI2cPR8CGj0ntRS9c8QEPZDetbwNr2A8LRIOvVfbnjw9Tlc8V6l2PV6DhL3L6Nu8qh8RPTArez2tfaA80B+Bu5/YyTz+Z9c8sJ7+ugG0BD1o87Q7SjwMPZUvsTuOZTy8wlITvRjmSLw7qWo8VfLjvJC4dr16ClO8ZiD+vEPTozxakxa9a0xjuyzllzwDTi689zMZve5bTz2vne6841Ryvc4GkD01+xK9XORbPFIjML2BUJu6hyqbPF84hr0BkAM7gMMbvPg/ZLzqWLm63G+XvMun/LzZYlW9CF6EPMFJNj38UM4750S/uyR/vTum72k78f3UPNValby5DMI8j+LfvCh29zzT9Se81qBQvLllR72lSYY7EuglOvWSkbxEqEG8Da0CvCjuRLvbWPi612nrPKStGb1tgxy9WImGvAP5cLxBL6e8CcwfPGTcSby+6Kq8ExJqvB3HhDzHZVk8uI8Tu8LAVTsiQTi8diG1vdQp8zkzTNm8aJX4OzxnojxNUh090vNhPFriB4+zDja9US4kPXVB7bpOwqA7ox7hOxdAl7y6K9M8ZgqnvK7wFD1EazG8sPWLPJOASLzu5Pm8BaPivJmEVL2UQKI9yZDzPI8TRLzPUs+8wAWwuwr4xLvADRa9nllUvbHYIzyO40G9GqktPGTa2rzMxlG8vTcgvTn4tTy5kZy8UeRVvaLcJLyZKv28+oVIPUhWkT0rGpa9ULIIvT/dxLwsPNs8pEdFPVTcg7qFJFC9F+mNuz3wabydv4C8efNkveq0sT01pMc5/A9HOYRjwLv/79y8ej8+PBm+rLsOiW+8sEf5vPW2Ej3nH5s94DnVvOX5VbwboRa93itxvVkYLbwHbOS8",
                "0qKUPFKsxjxTs+a7g73mvHkYF73twha8CqfQvPMNSL0fTRQ8m9fbvIEEUr1PXUo6yHJZvQAW8TvVfnc9l39MvF2QLrwK7ho8G7SZvGoAeLwWMKo8tvYHvWdI0LypC4A8we7svImyT7y1cqk8NCASvTKWgL2K4+480k+pPAdzebwR0Im8IF2NPLct27yENmS857+CvaLkoTwvSdu6qG7TPLBTwrvZuzS9OP7vOyVsebzdmgy8vYb5PMGStztDFhY8fCbzPIILH73PD8q8TbEKPKRKw7yjZSa9SaedvPHh6rwcqYe8rRXqvIdJXjwmXLM90PuyvQId07tR9yO9lZsHvcDG+rxSIJs7zCsID0qEYb0jsFC8LMygvGhOajyRlCu9M+oWO+GoC73x96q84jXGPMZ6MD21eVo8UzmNPM+DnruVSOS7iQanPLRp8TwHNb+8TnV/OmfKkbuAvPU8skVgvJvpHLvc1hu7QupvvHsDAb3P8kc9HWuGPMhMpbyDXbu6Eu4RuiSOpbv7bge9W+DuurEBMr3aWWi6HnWwO2SPljzyZiS8QuBuva927zsHI5S8J9C8PO9MEr3QpHG8ZrZwPTcpnDyGdro8uQJyPMfBxzxjKQ09QW08vbEaiTrQQpm89LfoPFX9IzsMR9+9ML5bvMhx6DznbJW82xU2O3+0JTt8bcS8KUK8u2TtyLzFlz88wUEJPUfsF7qzyww9V3y9PFEMzrzRHpi8g5y3u05JJz1HU5S76asivIWowrtfYgW8k7Y1vbKGQrxynT89kJAHPbbD6Lu9aEE9ln+hvLITqrxb5XQ7DdxOuyKpXzxRWuO8eDvHvAzNj7smow27/duqu/nU6bwQxB09D68avVvQk7yey1k8mJcavBqQ67zeiDa9di8XPNmerrw74o+7bUQhPUsHITwWo+W7BiVQvT22hr0FA/C8u5FivP78YD1v42K8O56SuwHzMD2TENW4Vmw4uY3V/7skTye9l68GvZ7Qq7xkRpU8lZ1NvNDg3TyphbA9",
                "WlRRPYiVnTzS+CQ8kR54Pbu8qz1UfQgPe96IvD8B27vodIm823S/vL2Kyrz4Ni69HEFzPB7hZj1o3zc9oeJ0vGBoArsIsWC9HPxMPTKyHr1S+nq9ENHovJqiajtVJc23eZymPGl5urt+v689UCkVvGwD+rzGP6a8YpIzPIlZ5rxS2TE8b7bPu67NWrshitA8S+F/vRH0iDw0DTk8oxnEOi2FDr2GJ0S9QUgMO1m1jryHtqQ9fT18vRd/GjwIQqw80luLvc0lGLx8bxo9L6HCu+GQuruIONM8Nri5PGOIeTzQSuc8ZQtJPDyJrbyHnsY8fXYFPNZEmjwMB8y8nL2SPBZsW7zBYC69R9WOvSd+gz11Jw68sO5fOz6wnzvNi7u8WBjDPRb58Lye6JE9Z48wvb42yTq1tb27L5qpu3+uGr2KBwK9Gh3OPBHuEr3DHQS9SlUmPKyihL3QNTc9MaS2vGIvyzyC0AK9tGZnO4oa87xe91u5HzcuvJrsFT0MMB29cykZvVKptr3bgEW9zJtzPN2rNL2OKEg9ryeNPQTWBz2HYO28Y9rRO4F/Lj12XcE849sIvcgM1DzSVvi8+HrsvOsK5TyzG788+1LvvO8CUL0rvho9Do3lvE56YD0gpds8vT1WvJPE27y7Eec9nlv8PGwZ4Ly4mpU9RcRhvCvLAL1OKMQ8zKfTu4w4CA/CMAiPrJMIDwCaCQ8P1wiP1JEIjzoUCQ/LYQiP1jkIj/cICA/LhQePkdkID6EuCI9kogiPQKsIjxnoCA80aQiP4W0Hj2dYCI9xkQePDFQIj9IuCI9flQePpnwJD5kBB4+VvggPhJsIj5E8CA8VcwkPhYMID1B4B48CcgiPe/oHD/HIB49bmgeP6AQJj2gsCI+5xwkPMMsIj6U3CQ+eygePhWkIjyklCA92AgmPJUYID4BlCA/4igePDiwJj6h+B49qRwiPWq0Ij22QCA88bAmPuaoHj9X6Bw+FywcPnZEHj6iXCA+qTggPJqgIj+YsCI+IogkP",
                "KQgIj4SJCI/OBwiPmbIIjxnaBw/6PgkPc28ID9yrB4/sIAkPSSwKDz+/B4+omgcPx/kHD/u8Bw+44AgPriwIDztgB4/zyAcPZosJDziuCA8mEgkPk+QIj9SBB4+GEAmPg2IJD2XOB4+J6gePbeAIj4tUBw/hYwkP+PQIDwQ0CI/IywePjyMID3L3CI+jHgiPHS4IDyxeCQ84wwiPtjUIDyQsCY+JcgmPa+EIj1AHCY/1kAgPHyYJj1BlCY8b3wiPUUwIj2MECQ/qhwiPWfwHD336CI9sswiPLcQID9fpB496+QcPaWYIjyiyCI/JZgiP9eQHj91dCY8K8AiPlRYJj+kmCA/0tgcPPcgJj9xxCY+n2Fm9g9iXu4OKtj3KqgW9MpBmPZpjOj1H44i7iIYIj0mNq7xSpZc9BpInvSy0H7zQPo08KXGSvIIut7qK3KK8muszPVnnFj3tRYU8sMiZvBSXFL341oc8EfsSvS0M9DzBvOe8+B4WveBcjTym3im93MoGPWPm1rsx1r28GllCPd4PrrwjfDS9/KiiO6kyCrwiafw8Bdk6vd0bo72Y3Bk83t+2Pdjnubx2ZFc8EGoAPrUHuDxIkta8DiupvYXQqjvtVww9WeASPOkzuDzYbR+9TpWwPCdli7y+vCO9X0FoPN+o2zxTsze9/BuUO35RZzyFa3s8DvCwu94Tg7xIU5c8xlf4PEnQPz2EF3o7s49DvSD7a7xINlc8QXc7vRwiMjzSrNa8dIMtPfkJL72cT6k8+AmMPbXkqTsf/lE8v/E9vWR8ujwtSFu9suzivCXQ0LtVRGO9iF9TvOGs0jvGfhW9YRZfPISrDD0+XoU9iW6lu53FAz1/HNW8K7IpPOC71DxP8aK9h/80vbFHg7yQyrQ8k//3vOGc77yXOmG9E32XPDWzsL34EYW8kzUGvaC14TeQX5E9bxEfPMqIDb3TAzq9kpCDPHp3u7xQnAq93K44vHhSM72590O8qaXTuxeN4LoQnOg88y7UO/IblLuN0Nk6",
                "qub2u2/vZj2nLZ08FGadu9t+XjvuJAK8OibbO3nKXj0G1AgPogwID2xBCA8MNwiPuqMID+ufBw+WtgYPTVQIjw84CQ92lwiPTNwHjxFMCI+cdAeP9aIHj2ngB487/ggPvPoHjwLICI8H9QePQqEIj3g4CY+m8QeP/oYJj3spCQ9uUAmPoIQID1GqCA88KQiPVpAHj4jDBw+WUQiPyo8JD5hZCA+eYAkP0uIHj4l9CY/0iwiPto8ID3vLCI+tKgmPlSkIjw6UCI+b3giPGR0Ij5+DCA/0LAgPJ30Jj732B4+hiAgP830Ij2CrCI+gMQmPXBQIj+dxBw9C+gcP5PYIj1NbCI+rAgiPZgkID3jwCI+K1QePbKkHD6RaCI80gAiPnnMJDw6YCI+cAQiP8VgIj5h/CA/o+gePqtEJjzH7CI+B+wgP73YHjwk4CY+LzAiPttMHj+r1CI/HkwePyuQIDzgoCY8o/wiPbzcIj3wxCQ/8eAiPizYJjy6SCA+2UQiPmWwHDzWfBw9+gggPDbMHj4omCY8vAwmP4AgIj9qrBw9bMwiPX1wIj+HSBw8KpAiPh/8Ij6ziBw/uhgiPt2IIj73VBw9aUgmPUkkJj08hCI84QwiPuMsIj7qGCY/EaggP3mIJD97iCI+CKwmPJPUIjxRPCI8E1QcPOS8ID+zYB48TxQePs9AHD0JrCA/RrgiPKOMHj3YRCY9DTwmP/mwIjxs1CI+HrgePun42vVsHhrspwdG8V+VtPZ9V8bo1dbw8eaJUPLR/CI/jHpa7TVrju3Hd3zs/cnU7z26CvYXtHzzxYhE8S1Z0vfuNRLzrMBI9LvpdO27VxbzaPEa8/1VbvO+MtTzkYK+83q8hPcGQ2ryoVai8gdepvU2U27zm3sI7iemzPXXlRbv5CrS89ZITPUJHTDwpSoG7KMkavHVAPD12Q9E8fPB/PAtiAbxOWSy88xOCPXtOvjxOEBg9Ymd7vcqqSz1iZsc85JspvFgyTD1yiZC8AITAu58aKj1fftU8",
                "Y4a7OndVmzv3iq+7dIWeO+XxiD1OpyA8XC7DPHf7k73V7Zo7dkMAvCB8pbzfEVo9wYYMu0rAbD2CA5C8ofcDvWGQdrvfJ568jS4ovRq5ET2+ptm7ti8dPcZP3j0w8MM857WePNbzbT3tfBi9ibM4PMyXxzvPVqy838S8PJwHWj1cklO9otOAvQwRJz3dYfa83lKDOs3gir2/Qhq9HW4WvV2H5rxGqAa8YJn8vLbctLyfYZy9ySISPCEXGz1bRBU93c3WOx2jjLzS0cG8glKHu5SWvDzG3628skrfPTuR4Ly1C6g8M0kFvQTRN7yys4K8IUpPvbo/r7zOm129vlyju/RZ5Lx71jC9cLg6OuIJEj00eHU8vafdvCbaPTwmgK471LM0PPpgLb0XgeK8e/C2vAnIoDyDHd68JvAzvGLzfT3jzPi8AKoFPfKqQLuW+S+92REIj4hXrzyqsrc8xaoMPYrBzjvq1vq8HSDGOzoKDz1O5lS7wyM3PUoodjypDha9QPMAvTDOGTuNRj68SQpCOUvPFrsqv3C9N9nqPOBWT7zLWjs86Qk7PWp41jsU6yG996o4vMnlMD0J4O28XMuUPJQhnrzSm4q8n1dXPRxNwzt2ai09jFfeuq7gGL23DRW9WIpCPTDWL71muQO8hhnNvMt/g7w4hRu9B6mqPLF4ZrvEDYe8BTcqvR0c9TvqmyW9MfiavJ6g6LwCJeQ7Psqqu9U7aTweRRu9c2qVvez7jzxSyYK9SWzoPKC6rL0YXVc9MBFPPe7xtbori849w/2ZvS8xzLzNTEg9xB80vcD2krvkl7s8FJZ/OuIUWr25ZDO7j5cfPfOPRTwNolo9ukSXPc7C4Ly6KRa9VZM7PA8ok72KJ2Y9IumFPaVqozs/ElQ8v3EKPW7+gL3Ewxa9mU4FvZe6OT2LGAa9eM3pvMBEoTxxsd+8tNhEPKQPd7sYMJm85ME3vLRx27s/IO658QTLPCekkLsc74k9qiXLvPPLxLk8pHO9psEVvGaeFD2SNie8",
                "QMnzvMsO0DzI/L27p7qcuwPuc73i1lU4380JvcFWKzzSNsA8XfBmPHtCsjwXtBK86DQbvFYWjrz1/HM4mRavumBr4rw+YqE7idZiPLX/8TzcljK7o8i9PClNq7wP+gcP1BB0PHoCQLwHC1g8x8lrvKF3hDyCEqq85R6guiXP47xiS/m8CUuiuxmq7jsyh+q7td2MPVe15zwbnAw9JgYrvVFXVT3mv4c9LNBsO46L0bx18Im8yoGKvRj+SDyBIBA8E9FGPQl2JzydETM9JE+ZvF/2Qz2GfQu8xpkqvUnFuzzK4jU96WutPNGXrrujcVc8DJSXvfyFozx8jxs9gotWum7sujz0v128BpvTvHWLLr0dWtI8bTqCPAvZOT2gYKq8xVtyvPhRATwL5Ku8/lwEPcv+j7w7lvI7fqbJvMO3CD2Wpy89PD72PLXHxTw7QhG8ClCdvAd9lTsxJ7M8gBR0PJ7cIL3/OpQ7UuO3PIUJpLzxfjO7+Tw6vM+fdLz9SoM8gdlVu85O8rze4/W8M0tiPMt7gzzTJ7e84JskPKvvNb1/TTE91Pj9O9ZWtryvc9a8OTDJvLjEu7w2XsO7HXo0PNVi7LxMj2q9puKXOzr037yIejS8xkievM8aFjw8CzU6MVyyPDOtBj0WDRE9I6X4u9D98TwaINW7SSUfPSNQaT3cv5M5+PGhOvIj77yN8eu8s2C4PNNwSr02sGa83Qiguv/fUTyeMM28ug+Kuu7FFDoHzi+9NVnNPF0hVboxA627l7HgvH111ruPnVY6UNRyvG8VwDuQZ9s8eMmRvEQ+lzwr89+8q5/4Ov92Bw8t1Rm8Ak4uvP8NkLyNsgI8Y0ytPQWChDsXr5k8qf5AvCQSiL0akeU86XtMvfRvErzAsRA9rKEju1IXvz3flRy9JlIEvYrRR7zLsY49MDjvu1POfLvz+xW8FBBRvVhsnb2MvL88d4RpPAczK7s/ZcE8A2u+vCsXMTyUGm+8Fo4CvSx6VTzW7zW8gEMiO6hq1TznpGm9",
                "v8bwuyXS+jwIcmW7HekNPcjJq7wpIXs99QrhvC3WwzyoKVC9Jc2HPYK/krw0Jwu8Cgb5PPCjrrync0i8BisMvJzhG70+vQK9UV4gvSC9pbru10S9S3+EPEeYgbz+9Xi8Ty53vYbUCr0G7a48N1WvvKYuF73Rrrm7O37Cu9pezjwNDoI9iYyEvY2bvDsQVVS9s3ZiO0OPiT1mTLq8HoONPIi4lT13HCg9XjmdPMcj4zzUNH49iXpjvXosArtNLYu9q/+YvID01zuEpCa92fFIvZg0qjxhSO672bJRvRuKsr3g6Qm9CzLtvFgbmLzG1mK9w+4xPYnMIz0ZK/Y7/z+VPAfBRb07v5q6N4v7PI5hKjp9NTW7753MPECVhrxTJBW93xsGvc2OCrx+9mq7O/JMPaJivLyQVgi8vwTOu4u7+7yv2Ti9e9/VO/8Apby00yE9ZcshvVlKpLz8lFI8MNkIPAXhrT24GxE9gHsZO1nYyzwXVTO8Yn4JjwLYpLvxNPs7rHY7u9veTLuXlcQ83i+CvEylaDyG1hU8rJFCvId7ODtt2Qg7CkpGvOgqnzth0A86kwukPMLQAbxJ4HO8AyONvJfUL71ZGKK8j6+uPPwONr1Dcog8MIdbPJ6bBT2Q4B69zN5kvHwOqjvae5q7DSpaPLcdgb1lQGg83tu/vDQRQrpTTLe8QWt4PP55Fr0kL50750AkPWwWGTpUytK8DFODPAP+HD3+Ryw77qZivbbKqLvXh9O7uLrEOuP2pjze2Im8Q66NPIOdtjt+hgo91eJKvKHvbTzg5zu9wQmJPI6XH70BrQm9u0qqPAVE8zwryAo9utZCvfBtGry2Q5M89h1IvaVeXbteoh28uoigvUySpbxFAAq8OvHaPIsYJLuHf+a8ktp8vNID2Ly+Ulu8YeY2vJZY5LwohWM8S8EuPcUzq7waG2k85RMiPTeGJT04gxW8V/SLPHiXXjyAniy9FvoQvUfsO70Dwr48fpGIvKPds7ueL547k82VvCGpZL1Wba47",
                "BEJBN64Z9zzNH2U7fkd8vHCtz7yjpmG9YHI6vfk0Pzw8mr68tixHvFclkbz0PYy8tZ7dOiUhd70WJw89vg7YvJiRUzy86Vg8hLF0PKi/Hrwrbd288uMWvIpQG71PQAY9ts5qu9ayGD1gfV098bzivJ2JFTxKwIK8BBpHvIwCizyi7ggPub5hu0IZ8zv7OAK892BivCABELygYHi8gAE3PIafGT3zJ1o89qpkPTLxXbwGEww6lf3Gu2tO7Lx6Hnk8CZcDPVMuA7xNUUY83tkAvQIkPTo9t6s6GCGwvIZKuTvs5CO8bH9mO1WusT2JhiA9UQy9vFhEMrzF8+y89atbvF/U/jx3Jgo9yB+DvPB6Ozyhg4Q9q94ePaedCzxSUJI8fHODPfMRnTyARrA75qg6PClBljy5rY89BnkIPWtrs7yJRL284rXpvHhvz7z86A+9gy+fPFTKab177wG8OyS1vOua8bwn7Y28HQh0vQUkRDyxwou8vX+GO9mXWLoH3Qq8nwWZPJwxt7zg8KE8vN4nvNfRQT3w8sU9QZiQvF2HiDxPPH681QYrvCDgwLyL0ha9milHvMU1Nbyo/iA9OrnAvIjeYzxD8G0880o7u05I7zxtuDC9qP/uPFRim7wxspk9G0aKvNb5p7yEUHy8SxtvPINC4Ly7KwI9AD8WPBdodj3XlGw95Yc0PLWmQjsx+zO88qImvUcvsD3fLQ69/gNxuhDD37yVxNE8ZIitvKUVaT2E7788cYxTvFaNKDvX4o89K/bKO5oA37x9/LY7nX2QPLV+yrsMSXQ9+H9OPH3kCL1GzuS8tOxdvdaMmryRaGS86ff6vbBACY9i/wcP8RcJD5n/B4/dsAmP2q8Hjx7xB4+ZgQmPtxEIjyrWB4/82wiPst8Hj3xrCA9TsQiP1OMHj9JmCY+p+wcPsu8HD8wsCY/MxwmPE4YHD87NCI85TAiPbGwJj7prCQ/ydwiPPbMIj/QJCI/QvwiP3DcIjzPMCI9qUQmPpscHjzt4B4+kzgiP",
                "33oJDzz5B4+0RAmPzMgIj1BFCI+MiQmPpj8Ij7k+CA9CFgkPQ4cIj2BxCA+3lwiP2i8Jj6QDCI+TaAmPG9kIj7IeCY8gqQiPbmoIj71ZCA+1ngiPn1oHj2l/CY8fMQmPa3EIj64NCY+KsgiPGa8JD8SbB4//GAiPkIsJj3QSCQ89jQkPedcHj/sXCY+HDAmPTBcIjzDlCI/aAgiP5ocJj2oNCY9dCgiPkygHD6K9B48kCwePWHUJj3qMCI+22AiPrOsIjwFnCI8jOAmP0iYIj3YsCY/XkQiP7wgJj4DwCI/OXQmPyf4IDwtXCA8g3AiPKOQIj6DCB4/0DwmPVCgJj5OLCA92xgiPOpQIjyFPCQ+fVQiPencJj3Z3CY+kLwgPSgkID+TnCI/2uwgPXc0HD8kECI8afAiP1aAHj30jCI9+yQiPRaYHjzskCI/ynAmPOBUIj1GGB49MjAiPhLwIjwbsCI9OygiPJhEIj/O/CA+QhwePcCQJj99fCA8uoe+7B+r2Oy8gCbyg4IG9KwEZkGpJxjzHDUO9SbEIjwLdlrys2SO9/f0qPcKjZzrJzjq9DpmVPEcTvbrRVkM8SYzHPMtowr3ZhS29dyoIvdNHCL5tYfG8mCjuPEg9jbz6Zhg92gFTver6sTsjFIa7HyGWPMpIIDxKzhc8E24HvbFIYruJcUc83PDqPIWo5ryut6O86JEPPWDdCI8zBn28W5N1PBOqYbzgFH28VnKEPMZMhL2qQUG9ZpS+vVgoZz3TcAA8QkvnO/ZWBL0eN/s82xDvvHL+/7ymoM89g2XQOuRPAb3e2m68OT5MvGIlHj0jo7y9lTz9uEJec7vh4829AxSdPLuqML18K948cUZDvO4wfL0NIom76UmMvG8j0zq+eAs8S0fiO/rccb179ww8O8dsPfaGV7xKSUy9V56CPVKJfbu8kS48Q7sRPHng0LtmAbS89P88PWrvgz0nCiY9a6KIPXmiCD1wGai8PoogPOyUtbuJt6+3hXREvcWj7LwT/Fy8",
                "AyscPaGNhT1hRiK9icinu/tGyby9ypU8ApGHvQlm+bxuPGs898a1OLwBFjpxV9K8QkntvD0Hlb1GleC8VkLkvAQ3Jr1ngBq9MbLRvHtrS7x3Iig9WFFSvH5JSr1BqJy8TnqBPFfDQbyWnrO8voDNvMOTjTzmYdw82O+Lu5heer3Lu8C8HlS1vBgfrDuJ7zM8wkcovQXIILxlrCS9mdz7PMQpDTyEgAiPvgB2PQX1wjx+6YI8iw07usBmL7wIScU8rFYqPC5Aljx+EAU8ZZeSvRG/UDwnNjg8z8ILvYriVLzbsaQ8xPSVvKlvbjssw4696vbOOx/NtDxOMFI9MfHTvA+YbbxggkQ8XZZJPKU4LjxsP2A9N/jbPCaeZLyBGuY88Y1BvPYXlb36pgE9h98UPTZMCj1NcIW8Vbf/O2tdh7xhAr286N5iPTcsYTzpi9U88n33PHV/N7sdT1U762U3PVCMoD1yyKW7ywMNPMBnST1BwhC8nM3VPPKe0Lxgrzm9EPmUPIFOQjzp3Vc8j8JRvZbESz3VrdM8kdxpPYJddb0Cn7C8FYM4vZ5SoTvm+Rk9eItYu226F7ywa5w7mcxyPFsz7LywfY86D19YvO++Rry342m79pGAvMTaQ71vTFC8mx+FPSZ+R73g7Js8/64QPcN8tbyKo+A8GGjFPFv11rz4mYe9f7aevBrtnDtkaqA9h5fJPIBmqD08nt48dahQPStXF70MHg48BII4vT9jfD2TQ1q9OfICvSZbjztoFua8VC3dvPLhGz3IT0m9bp0PPX3ghjvc2r08084JPc71r7wOrjI8+VXvvK29ZbwzvLE7O7iwukZ3pjojPSs9V1ItPXEV9TwN0EA8z24bvSz4Ib0T5cw7gbPhvfikCD2tUbC8dAEpPfTod7ymCJE7CTBguzs0CY8wMd08mJZ/vCge0TsFY6289+VBPTDt6rxwDsi8tNvIvIZ/Kbxqrxo9HcqWPGSyzzxUL/a8VykIPAgPI72+zZc8ftHBu6j/yrunE3M7",
                "yAwJPPXSd73575Q4Og1ovLh3UrvtN8Q89hnJPEoMlT047708TJPHvIYdkz3S3Be91L7svC4IkLxbKgA87Du0vLZO9jt5yVk9TXIPPfqvrTh1GyC8siy3OwjAqjsq5eg7wuX/u3lPdD3Lxs08BXlWvcf/Uzw2ypC8+1f3u7LTmDzfeam8KhdjPWJsqzyOaB67HSDUO3csjDw3uai8Xhuku5Na7jypUlu9cxWKu1NGW7qua0u84CMhPROSVrywrfa8SHAavL6LwTz4Mv+8bgXIvA/TqrzbNpC7Bs9uPe7u+zuGzG+9ubVNvfzPqLuRoFc9hOoEugqDm7ryHqY8esTTvKh4L7zMiUe9WmrNOx8FI7weHg49ixryPMlBujn68AC9n4/xvZN4CT0YDwc9XVGrvNzLCz2s2xG9gx37vAOqMb1nFN28BPDlvO3+N7wqgp08pRCWOxpaOT0Bn548pxkZvWdqMjwUoLc8HNEQvMYhH71bd5e83ugovGBnZj0ANGG9hP6ZvJw1uLxtRZ+8/bJEvRLVGT1y5Uc8YaBKuwgv4rzkSrW8QVnfOqiFdbwVHxI8VZVGvK9Hz7si3Qi9JsYHD7r8wDzMFo685weFvF8ynLvMyAq40ysovJGq4bwSR0q8xssVvI/ZszvPcKi85h81veujSL28s6274otuPM57qrom9Oy8LprovPCNc7xkxZ67sCcDvbXGSDzFQdo7KX/nvDaoPT00TpK82d08OyteHrxjEqi7L3cbutHPY70YWTg8FaCnvEW7ajz7nf+7ecRHvbfeTzzuwi89ZMkZvZtWOb1nE3q6Ac4SPBGlH723LBI8EtVTO42xADsaYT27/nBEvFpWkTw7E0g91vMSPEhOLjwurKg8JseTPO89F7omCFo8z9m+vCr4YTyvy0c9erOevGxVOzpMRte8XqsTuzlVpLyrmxS8dY2vPDL5kLtfX868ZE4evaOtgL2zv0e8eGEYPFk2NL2lMKY84lClvBA0R7s3yF69fZIiPLk9k7v1cJa9",
                "xHwKvIWfe7srpr68x8auPFipz7xWhG09++Q6u/TqEjxES4g8wT2NvFrWErxM/FU8GQWfOwrxxLyJce47TOU8PTZ7Jb3zFc27Y9b4PIMbMLcMAlK94+mVPPbQwDuSuNw7r9IiuinlJjxlCZW7ykQXPSymB71SsnA8DQJdvWbu+zuPp6O89/ThO787AL2464O8XLWWuxZH17xsIcU7PkxFvLPQ/bxot8a8DmBovMLvYT2pZhk9+ypZvBrMTbxSQ/a8eW4cvW1lE7xdIwmPBilKvcy+Y7xWGho8yNOkO29fID26WUe9UKJxPNWblTydeZS8RojzvBX/Ej0cPUe8f3bzvDryXb11IUK9LmfuOjI2uDyQsGc8qVOIuuEH/Dx3yz87ZuVrOo8HF72ZTqu85pZ8PJ4cDj1wK/s7U1WAPQSoDb2wa5M9cDsCvdKp1bz6u3y8mppBPad6Sr1YZY+81DLVvBQu5LxtD0m9NSHfvK4rHj1bTCe9s9NdPM3bMz2HgLm8EPyUvFpOr7yVbw69VvONvW674jtJC6O9kECYuuE3YLwVkxQ+HbGEvFziLr0FBtE8IPwOveFbub1tEbW8OXChPIxy9zuhu9K5GI9kvdWmMj39h/m8Z29aPAM4VrzSKUq9+oW6vDwZ9bwr/qw919eNvE6Erb3oW7o9QW37u7C/R70GYF+9tvemvKX6CT0nunW8B2QNPIuMFT3B3lE9xvEsvFd5KL33tOg8Th4PvODfZ70zx/q9k6AWPl0FLLzAWhW9/Dq9unqQBr20fIu8Fn1dvXG2Cj0iO42921fWPFOvg71HvHy9C1R+vGuH67w1h0y9GpYPPc2gej3VOTK9W5o+u77DmLw/lLQ6eAt6vHDjOL2ckxC9G7FGvWqNlTtjA4Q9dN7hvO2xrbvJ2pk8ATNZu77eDbyJYkW8BF6XPWpHVrwI2x28ypBDOxhLAzxShf67515Qu1JZB48IXcO89qJMPZvKcLu2v9Q7eoYRvTe2ArwuXSg66pNCPK1opbtuQLA8",
                "MGCkPUJ3hrxRwsO7pWiSPCQ8+rwngnc9KkkVOy0aAzzmMcs8OJfuPNVEIb3rkAi9/TS+PEwsBT0PrX68xjkSPcrUWz0ShW+7I59hPOwxk7ypD7S8G0Jau9s5PrxDCZ49YRqWPahNg72hCI+6x10ZvfdeWr1Pbqc7PIXovG4PZDw5EAM9Q4pXvSIyCD1zHAW99gCsPOZanLuo2m08iVw/PKhCFL1E0CG96aLKvDE0bztsno88wZO+PPs74zwriOs8pvJfO+u2Bb3oDD28Qyk4vcR3hjuwzle94+Y4uyIZ0bxpr6K7PORCO6wW4btW3gc9UduGvDnXmbw33I48Q8jiuyAzB71wAtI8xZGVOnfvn7zX9qw8CCgnvdCG87zuQz+9iBIfPBEk8rzuqmu7MWm1vK9TAz0QJAC8FRBaPATy0rzvy6s744v6vMfVGj0MNYo86XftvJr1oLuTHo472rLrPGxxBDz9H0M7t0hDvbsUyrzTRH28B+aRPckr/Lx2BBc6E++zvFoJGL2f5sU8qdntO23x9zqMcoI86LnpPAFh6rvfk3Q7jf0YPC0JCbyVlCS7BY46vdG9BjycLnI90Hs9vV4xpzxvxpI8x9bwu7hKdbzsGvM7LXALvYvgQDxB3Su9ADkID7AnID2xXaO8cG52u+++irt5n5+8LdiRu450f7yUqjS8zTMavPJ1Br1ekqw8PvEPvassDD19VDM8gf9aPLvd2Lt5TQi95fUBvSHOKzw0JqU6b++5OzYK4LyuxiE99O29PFrxbDyzOJw7fPTfO8bCkjzyfiG9POCku+2sAb0IVOo7qXS6uxLNyjyU9ly81S55vSwQpzz6I2484+2QvPUHTj3Y4Ru9+RoFPc0IpDxY3Dk99zkDvXK2Ur0ViUC9eICpPLCMDb3DMom8RMLBusvKmroUZ8m7blEqvMb2nbyXOHU7x5BJve1dirxhMIE8w8Ahu1iKH72re5y8IG91vGSMTb0yvg695dWsPMlbMjwUlQS8inHKO7Y8TLzzGuQ6",
                "3MzzvKSGErxF4rk8iW+1vMXlPr3spOm8XC0RPadrR7vSh7S9Vs+EvC+3SzpTFHs8foG/Okiqvry6tGA8hdx3vGCHTboumqo7QduuPK0Yr73bsfs8bVz8O+1/ALyr+EU8oH8Au4G6zTt8eM27w8VJPTqwwDkrgXE8YL8OvXCIODzDW5I8GX0PPJq8GD32bE+8FEcaPIm2QL1ZX4+7ApFfvfpNlLxDgBk9+b7SvP9MH7trYz+9D4YQveqwTjs5YvY8Kn7QPITCKD1ixt28Lu75vFmOmjzNzeI8DvGLumyCw7lpZpS7auIdvbplRrzMnQcPGWkWO9vHTb3UoxS6Sv/bOnMoG73U5Fe8jrKeO2KPgbvEKKm8Yt+NO/9/Tbxkx9W8KjnFPJDAA72WiwK8wKQyPHvZhLzyWMO8oSAIvVvw6byMDfW8XdNPvPhAUTwYGze8SuqZvNFMvLuiU4i7st2aPZiZBTxld2s8dzSxO/U1gzw5NaI7Nc/Yu3pdpjwkwKi8dVRTuvbjQr1S36w9TR5IvEKfE70P1kw9nWmGvB76I7wjqQU9aHSiOyJRgTxElkG9rYmKOoBh1zyfZd66LDtLvM7MSrqw2k072w/RvK436byGJ8e8LfthPRoXHjtE4Z48ggqQu1XwWjueIMm7w1bfu1Lc/7tZ/eO8e9LgvATVqTsiB4Q8Q7GTPaK9nzx4Mog9Be+9vBSwDj1Hvr28j2SFvdMSc7yzO1Y9Eg7VvDDd5zyn7Uu60JEuPH8PM702Qsu8fYfRvCmwV7uKIzA8J2ZAPUM0qLtjgqc7Nz2TvV2Vn7vz9ea8HOyVPAGMBzxDGvM8VLEdvD6nt7skqKW8wPiBPDMD8LqIR5U89HxiPRsV9bz5jbm7dV28u7qo0TyplTK873f/OcO4+rvjKKW7oyx9u3Wk4byVXlE9x53sPM0tgrzlLDo85tzgvEwp1bvew0+9pEFNvbjCEL3wOpC8ZR+DvdTR8rw3NXs90iFMPCmNhjwiSRM95ZEBvAtDCY+zClQ8",
                "mkwMPFB6Zzz9sAC912asPcRa4byAWga6dC+oPLcswzwhBl686dULvFmuuLyfkgK9N4UgPDEaQrxUyoo8wERwPfPXpzwDTOA8UDhRvSkW+zwnDyS9emeiPHlCnrvGTAa8RPiKvKMwyLugBU69/3QmPcEfrbwc/hO9nnmMvJK/6DzHHQS9Uw2DPQh6Ij1wLR080GAdvdl0CTxbAqm8BOAVPcpu2LyX4Bu9GF0WvV68VrzKq7E8kTO2OiUk6zxj3Gw8frq0vCm72bwguBI96vK9O5/YAbz4WkM8W1KFvJcrVz2iSNI9kQ8BvB7wejyc9jC8wHT5O+ANvLy2fLG8ISH/PJcEND3hHKY9U0uMvEn/H73E0c68s0T9OndU3bxemQw9+H6HvHKIHjyAtFW7+NWXvD9QYbykFRM9//UZvViUQz30Gkq8xaZ6vPSlDzxmu/O8KifTvAVK8Dyc6Fg9odZ4vPpPkLxdre28TT6sPKAGOTwsbUC9r4F0u4W2oDp+Uqc8YXrvu232Ob3hNQq7Ys3QuERXDj3CjYE60xCtuqAtdTzl0EO7jIPBPO4rQrw5N327xpQgvG8CRz1tsU+8zLNJPRgLX7xVuke8s7I1vP/RAT2rICg9sj+Pumo5oTz03bC8Wrumu4juIrxg6Gk8gZMIjzdtCI+cTgkP+psHj3CkB4+XZgiPmRUIj5jDCI+iCAiPEaUIj8qkB48qFAkPMwQJj5H4B49apAiPebUHjxYBCQ+paQePwicIjw/9B48DoAePsdAJjwOTCI9ikQePChwIj/qHCA9begmPmeoIjx/UB49jVAePIxEJj31/CY9QeweP/fAIj5lvB4+4WQiPtVcHj/zrB4/4RwkPKnEIj3o1CY9PaAePVy0Ij+R6CQ9ADQmPxJ4Ij4kiCY+9FgmPtFAIj6BMCY8MMggPkK0Jj7V4CI/B+QiPgiMJj+HSCA/ObgiPIX0Hj7naCI8RNgiPfaYHj50sCI/8EwmPT6AHj2gHCY/MwweP064Ij1yzCA8g7AeP",
                "rToJj6PJB49E9QgPf6UIjz6mCI9vgAmPnAkHj74GCY/mFwiPeEUHj6aMB48yjQkPAYQHj5fEB49QRgmPYKYJD6ccCI+XIQkPuE4Jj2fLCI9Z1giPkWoJD9XlCA/cFwiPAxYJj7s4CI8TpgcPANMHj6q9CI8aeQgPPckHj4DmB4/2pQkPrqoHj9h9B49hMQmPlR0Ij+BPCI953wePRJoHj9ZyCY9QOQiP5AoIj/0BCY+KawiPvpsIjw8sCQ+3kQeP2hkHjyYQCY8tpQmPEOsIj/HbB488XQePfK0IjwF6Bo+pYQmP6YsIj+ZoCI/UWwmPixgJjywRUbv6ToQ5Gwq4u7RdULwqCJe9SCUuPN9GYDy9vAgPIsGevKNKVTsp2IS81MchvOozKT0fOeQ8vBGcOwHMibzoJh08mhuTvQkaL72UDl+8cHcUOpGoMz1LARM7L6rCOjgwprzfmwc9ucI+PT1kq7wH1Di8g+ZfvBhhwDj5VZm77hnjPLDK8btAIXG9OGfuOwfGVztOgee7dproPObRjTti5HE9oAGoO8YED70oKA696vAXPL/PwLoKjsS8rtgmvY983TsowJe8KGM0vVVro7v2FFK9Fh9QvQegkLtUpYU8olVauklmC7z8nZC8W92mvJdsGjyIU+683so8POBCAbxlUYM7b2trvN6VLTyeOae8kqWTPeYjQz1KFIc8AYMCPQKIOL1pQVK8bRklPZvxe7zoGF08HvhiPFEtlbzAS9M7T9gwPRuBkLzjLpS6XiKUPEMrGT1B2ZK8DqPivKVjtrzV+YA8fGbau3VplrwYkAU9zfGtPJ3lwbyMWRc9xa4dPAX3szxCBcG8FQ8KPC2N0zuC7ra5C4aVvDFuhr1qpny8qbY4PRDuCr2WSDs85x3gu2+RAb3beYu8TnZSPcFRG7wD0Z281mSPvFXL5jxu/4O8ahm+O2iboTwKT+68aAVVvI5kI7uoxky8W5ktvNzQerxY2mC8uUpRPNvkNrzJUZm8/RwAvQFiAz3z6KS8",
                "3eQ3PAkDgbwx7dW80YCfu1olibxIiLO822L0PEz1B49KsI88XBw4vVkw9jy1EvC5rmuru79CXzvpZlK8GZsSPKElOb2ylxs8GqYgvbm6r71TfxG9v3aXPAkS8Lx5FyA8wuM9va0fcbuANEW9+9LKvFb9iDtf1QO9XIRiO4S3cLylYM68vxCPOneCkzx8dEq6RvTLOwSnJL1nvsU8/PPwPOoDj7zzDSa9l/LaO0h5KLyN6348VlTLOwKUn7vMRgq9SlWCvLf/0rwpqsm8i4VKvKTdBrwnRci7/sOQvGZIJbsiWjy8x3E+PTprmrz5QQO9j6M4PeFBgDx4eOu83HNnPOaS67xevgG87tEFPe0nWLwdVPu7t3Vlu1caSb1AYC48JCkOvIb/rrt9qcK86KP5vFevorv63r68ffwEPSCO3jzQT4m8uJFDvRdLnbwrzra6q3EQvS7/lTyEGea8TVnXvAc5Jr0kWa08dfyAOUce2LzYKuW86WS8O8pPeTzRPUw6GrMLPOSB/LojpdC7IOH5u4KCWLzmwwe9UiHIvPEMozzFUH67uOhovJztjLyFhRM6YJ8CPA8qhzwjQbg8i2+IOo6vYLyV18U7q5SQu+koKjyKCZS7E21lvEM9o7wv5IO6Xv9cO1dxJ7xxq5g8G4vuPDTdMT26A7u7uxtLPPDUhrswgrG8AyJ3OmLVHjwCW4c9BNgcvbmcAD2n/oc8nT7MvJErvTybxgS9NAkID1K22jvGFCU9AMwAvcm6IDxGDT69kHhWvY2Gb7wzfjg8w4AAvQanLL2KIme7czfgvNm6Pz1faOg8jecCPTzEs7yO8329jkqVPMN+BD3E8Gy8/D41PUh5ib3hiDi9KqrbPC4DpbzsDR69ID5ePVcBNL02YZg8exbfvSSA37wIsiy8EAq8vHgNOLw8k5m8gjIQPZKkkbtrRu27KnXhudnEPzyiHf29/riiPJXn1r23I4i8NFp2vHDUqDwDsIO6FkmmuwK4XL0iMQ68jtbGvKIe8LzWfty8",
                "sOTnvBwINL2WsSg6FDU/vdyxLLvQNis9XbciPW+CRT2X8Oq8Q6uzvKd7Lrwxare9bfHtPDbkM73Do4s8wMcFvJC9bD0mYCu9gpNVvRG4P7oMPIa9l/cPvZ5rHL0igRg9QOrAPcueWb3ut7O8WjHmO6GcGj1agWe9dnaRvfjHoLs7Loy9yYpqveq0oL0wbGo9zzCiPPTBIL34CpQ7nLJcvbJsODuBAQ+8wHVMu9zdDjuvpjE9XpaqPQThGDwTWSg9coCBvWEVMLtUh/87XgeBPKBBqbswS6S9E7iMvOGsDrudtyc91wgCPYcEAzwgCKQ8mvvEvMI70Tyxn3a8cF22vQHszzxPt0S7J3VovUI8ID15i/68Dga8vLoQcz0WwrY7JXIrPZhmsDxj9Yu89vj2vEPoKj23WgmP+QqUvNzeLT2SMnu9gGCAvObogz1Ibtu7jxzsPNbL9br+Soq8/JEgPH2QVT0vcj26SBleu27LcDwVNsO8WBLoul/6LjzfmaC82tNrPT9GybzZlia8rdvPumyjN72FxHe9moeBPLh2A7p684a9DMWHO6NTn7xQ8hu7FAUKun1K8bwTX5c7tzSJvXNXZr34GdA8g20/uu8vALtbWoG9k4ILvbVevzzcpvS8R1KqPFV9kLxZYby8SmvmvAiWAb2+VME9JBSNPN+EM72g5Vq93r+DPIauizzbO80882EovPXLC72/Zru7/c5Yu7NCCzygZtS8+YE7vPs5ArymQga9jbv/vKkRmbyZduK89OBMPKbGjr1Bvyq96Z4eu5h0Brt80Lu8dIglPAxch7zph1o9k1GJPaEIsDzjvva8j7+9u+lTyjmsfZs8n38CPZclBj2NX6I8BJxXPBi7X72QeMG8pjosvEZPOr0tyUe94CXFO4NDzDuF2kI6I2nbvM4X3zvxj9a63aPzvCq5oDxYK3O9HEGRu7guo7yopkY9VqNXvOpdkzuCz808VLljvHc7EjzVHc28urUFvfUzLTxWUj69YkJBupE2w7xj30i9",
                "l00/vGl80jyGRbu71Bh7PLi9BL2n40W9mL4Dvavq/jzPIGW8BgqGPMjb2Tv5m1O9xsqXPK1k6jv4auY894E9PPhbCI8z6Y29lYDavPIxGLzgVZW8bKuhPfC9ob220p68NzX8vPebZb3IqVy9w3sRuUxqZLzYuEK8M5dIOmJHf7rlWyg7FaM7PKpYU7xcItA9nyAvPc4qNb2PCMa7eaMnvJv+bbzuBji9eHvnO7HfhDpqQa671nnWujtwQ7qXwyu8vzhDO29tDTyIBf86m/osvYGy0b33MyU8ZaKEvI1LFj0Ur468R0NdOweZYj0SffU71uaRPHMRQz3pjhG9v0AjPY0qNj0SsdA80pdVvJn/Sr2OjEO9SOYxPEgJND3yMEo8O8rpPTVXb7y8PrI8sVRYvXMYLzw0j907OuiGvWEMOzyhm+K8KuSWPZZnmTynEUG7kL+hO2+217z+Ttm7VL8YvQA9ir3oMPK7MGQqvQtKEzvpUIK9M2cyvAFl2jveJks9014suztSp7zN94g9k499PZoLMz3bkxo9Uk4TPMqJpTu/vlm91dCTPAoy3LzT99I8tfJ8vJBYS73kJzA9roAuvbGKgjwDlDO9OJtPvDu3pjsCbcA6tjn7vAY0v7yOx628e6O4Pd5tEj03ASO9PLSlOjEFEr2hHbE8otemvA4LEj3+pRA8zA08Pa2OLLxvlh69nL9dvTYgWr2Is9W8vqkbvRQj2DvMIzm9PNEaPeehEb3xnts8Bm0Jj0iACI9TQgkPKNoIj1EYCY/uvwiPRUsJj+OCB48jgAiPF1sIj0GhB4+DaAkPMS0Jj8G5CI+UzgePft8IjwfjB48SzQgPOLIID8A6CA/obgmPaq4Ij268CI+H6AePoMIHjxoRCI/0fAkPHYMHj3HtCI/48giPkOEID668B4/vHAmPHAQIjyzpBw+a6giPUvMHDzydCI9bwAiPZmcID9CYCA8dcAmPXTUIj1CKCI++2wiPXaEHjwV+CY+xgwmPOpIJj1vZB4+/KwiP",
                "tdgID8NhCA+QZgiP4U8IjxFIB48qBwmPAiMJD8y9B4973AePZvYHD8bfBw+r7giPAwgIj2EeCg+SUQiP0sEIj5SICA/v/wePKngIjypaCY+QVQmPwd4Ij4avCI8xfgiP1okID9AfCI9xkwgPyTMIj4S+CI9pHQkP1DEIjzAnCI+ejQiPaAMIj1XlCI/zXgiPyKYIj1rNB4/UYgmPo8YHj4HeCI9kDAmPCp8Ij5pDCY/6QwiPSXgIj8ccCI+BKgiPl1MID07nBw8qMwiPf2QIj8wbCI8MLQmPsNMIj5UWCY8IZwiPNEUJj0lyCA/6tAePlYEHj7jFB49WQAmPTeIIj1SbB48FjAgPOFYJjw1ECI9PfgmPXoUHD648CI+jLQmPvJEIj39aCI8uvgePsGEJj26eCY+8eAmPq+UID1pBjrzTDYG7e3mavLUP3LyTz+m8/Fc3vNX2iDwfoQcPvHA5vLhBzzuWE5A8jaQQPO4N5rvFBOC84lwXPMO7LDstu7O8kU0aPc0e7byKLYc9vJyZvepPlD2UldC8Db10vJ7ohrvVWfW70vcKvdGDCr2t26C9pXQUPFjWTj3w1CK8WSXEvPW7abzN4EG9COCzur+xobxJS209HJAiOzRJWbzsGfW9T7DyOzGlCj3Txzs8KQ9oPRKdt7x7Bk48V70bvS6QLz3dYnO9GtQNvdlv7TysY5A7Ekh3PJODL70JRbK7Rr+4vG4+2jxIWJC9iJ66vOIPSj05l389WcoZvXmtBb18zw69A8EBvWJXw7s7AGG9utmqu7wENzwK9TO9kqEyvd1F6Lwxn5i8vHQWPEiXwTyvrBC9mFFCvauWU7zDRY27NECxORvitDzYjyo9Dl5yveUt5jmz7ZG9Qa8RvUrtEj0yNno8kPLOPJysST0paNE8tsmEPCxK0Luy5SE9gHVcPShI7Lxsp9W9XdFsu1qhRbxQYXg8NplWPVi5KLxb8xm8fKk+vMpOFL2Tc4I8WI7vOlXt6rwNjhS819Hdu9uHAbyooBK8",
                "NNj1vKucKb08YJC8cbhWvSqvgTyhdXk9Kq4CvclKTr1nuuA7UtceO9wfQD1f5ZM7UNdjvUYVpzu9HVS8VmSOvOJrNTyJKtm70SO3PJ0sgzz5vCI9VqsUvGbfk7121M474h52vC7lBw/megG8sdyIO/ptJ7wYq2C7sAC1uxNS3LwOFwE9nEFXPJX5jzzK1gS8CuZvvH6cnzvNtk49hIEQvauLezxeS548WOXgvA+3vzyExBA8S6TbvE8n2DtJNPA8rKvCvGX287yMnRq98Y04vM5pRLz05zU9bVx8PJLqzTysqL684XPAu96wbbx4Eh29WaQ/PGqFyrzxwBs84+BbPHeFtz0BTcS8CaLOu1rySj29kQ696VoavWCczbzooW+8GXzXvB9QPL1La4s7ujCdvIDqLT11Epq8VED7vM9CMbyIxpM70Ufgu2kdzzuaYKE8LnQ/O4boqLvImIA7nZgdPcQ9mTtwndi88hTgPMqcHbyBvfW8SzlvvOj+mzsQWQM9ymQFuwqdsrx7HuC7nnKdPFd8vbxwEkW8wr0TvVp1BL2QpRa9f8ylPAa9qzuVdZM7pnGBvEdfVr0szbC5iRROvN8ydruPcDQ8WfVNvboGsLzZq4m9HIaxvNFVm7x0S7e6YbUlvGsgGrzMJWg892kBvYZ89zkofIa89de/vO0RKTyQrRO9UtP5vNGlVbvBhMK7ddVGvEKUnbsUV+A7VK+RPP0zK7xCNAs7G/nrvKIHgLvGxAM7m7LsPGlFLLzFtqm7SydkPEUiZDtbpk09eFLBvFWpXzxuy9E80b3COx8pYLzirWU9UbNuvbg98LydwF68/McIDwE9nbxg8pS7pGIyvSfwSbs0vrc8fxZOPQBmDLwvSdw8c5o7vQRJHz3Z7hs9T0q9PIe7MbxZGK+9UOIsPGUex7yvH5M8mnlnPFKWPzxBn8o8sW90vEsnm7yv7VU9NnszvYnST72khYw8hvvvu0j5hLuV3XC8QosiPcwjzrsnAOO7I6OKuif7HLycpII8",
                "u3bdOjUxGT0PkBu92ds6vBxzKDzF7Hk9hUkMvXe5pT2KcU+99ZRjPCCIDb02phA9NFC/u1jL3ryUh+E9at69O9LxmTzOxgW6o1HOPf4pnbwDiaW9Fjk4PI+PO7yUuQq9+jrLvMlrYrx/IRs9ZrgNPD92lbyn+fc7sFWSvJD1EDpC7wC9nD5gPH6hZrtsD1i9sRZXPYKo6zw0KIs9G3ScvAbGMrokv6C8iQZFPLUKFz3zyeq7vjTEPED9FT1+G2U8V1cJva/EvzuT5YG8h1v2OttrXD3HFdi8QAjTPAa8/TzispQ9kZydvYyqazyRKpc7fg/iuvaSBb2/pr87jJhFPBlDOLyhipW86CU5vP0Hu7z4SBE9rwUgvNAlMr2ASIU9NM/nO5CACT2Wr2m8v+kSveBRZTwyDt+6oTFyO/nYp7wmo8W75kn0vLBoRTxdWDE9GuJlvTfQvrx7b7a8pDEmveyMEL63Oe88A08IvX2Kqjt8rcw9Kxg1vIYblTydcQcP0dSIvCHNSr0nOhY83yfEvPgdMb1Z2+Q8uGGlPG7sSz0550u6ckjBu33+mbwjSDu8YxQFvc+VAD1O11a9xEPXPFPqq7xauMU8QjxUu8s/hT00GjE9eHEVuTbK/DtoSCa8eh2ouwE5trx+PBM8wWKrvHW7Vbuq5H88Yc9BuuWqiD36UwY9Nw0Xu8+0gTpPeVu9NFSCPGloNz02Etk8rbMQva5iMj26IAK8UraTPJbLe7wHNr28xJYRvZSpbr2AT907ne6LvMUqcruht9679pkXvavv2rsYH/M7K6mWur5ChLyb4Dc9T2ZLPTrI57zsESO90es4PZSClDs47G+9fHOdPS+CGT19c7u8QdnDPBv4hDwVgTC9IT3euUMK9jzUDt88J38QvUQ5B7sk7su8NH/GPd2OXjzMqam9kgomPVdp8rzkCYK9l65svWLdEbwo/4G9JPYfPKO5GL3PLDC9VyY+PYM6vTzRYMA8Yj6fPPx0/7wOM8y772MWOydFY7yJOe+8",
                "9MlZvf/MeDt8ae+8A4lXPMbcEr0V9e08SuRzOt1RN71vTKm8Pbl5vdWmPr3536S7SeIvPQjigrzm0lM88fInPYYJcj1ZTcG83JoCPIrr37zWMSI8YcqCuxyFHjuPQVk9OndGPFx6tjy6H/i6aRUCvBN16jxX34+8lprzvNqg7ryOksk7Ny6nPN0lCY8KOoO8VUMfPWbb8LwH+Cq9jdcgPfdaVT0ExGa9ojievIJcuzz8HP88eNLzO7LGQL2VQcG7IBjeO/X7DLx8Rzo9DFoKPZtahzyWNEM8WqBHPTB8ir3adfA7alCVvE6oNbxIC9y8xmhiPaajhTxFRzq93eQUvd5Fxzyg1nq9Hm+FPQaFkD0GNI+8Poi/O8ev9T0WZJ07kKmku6Gj37zEECQ9ECpqvScFeTorUTq9MDcsvCaaij1j3a08qyCUu7qjgL21cPk8Y3NIvai+NT3I55E6xyY3PaNB2ju1OE28nwrtvFkNHjyQh8u8mBAVvX89+zxTbWI8n3PCu2q0xbzbt2+72XhAPb0FZjyPtaO8zAu7PU/3pzrjRIG8AC2Wub8rir3lpvM8rykNPcLiObxWQLs8pdcyPIs8Jb2NWhe8GvztPfpTKTwCmbk8+pEOPWS4rzv06sY7o14FvdA+Cz1IQyu8lO99vf00j7wpmuA8VflxOhVsxbyVBRW8BRiKPf6HITyvB3Q9HBVkvW6LAr185Q69cue5PUI8w7y+Ii29FYuRvGz3DD1KNkM9QuQuPam/Rz1ZMZi8vjohu5JR8T3dwjO9du7evCa8EjzsbKu8nWPbvPiz0DvVI5A7igPsPD3a4b2bf1i8oSsgvWqiBT20GRM7vhuLPAW7n7z9S3K8UuInvP0zfDyoVCS9O9QHj7+CS7ounxu8X7G4vN6QaLvWUD+9gLiFO+fhDr3L0UM9wkCGvFxOjbynq4+89tHGvAHczbyoW8i91aVvvdkdor20dma6oxL4OsJDyTvhhhQ7aP+KuaA+kTtpNUo8FsvZPGQIHD31K/27",
                "MkpTvbpXTb00NWs8Ul2sPVx0oLwUXE29oIkzveg1tDxCfGi8m/SSPI7x8TvsN/K7KdwePPhHrjwWtN08djXrvNkGAj7zXZy9fKRtveuGYb37YDw9CvIFvdJNKr05LQQ9WsU8vKtJqLt3T6m7mNrfPPSQGLscB4G9f+1PPJ4jGby7PCu9vZMMvFzTVr3iazs8KqtpPBGuu7weze68h7mGvZH7pDzdXlk9mrhRvabW6ruJ9JQ8NDAGPfIEjzzb8Lo8MYUyPRw6WrsIL049kMi6PDRfELxgQTe9ZH1LO0MGgDtWwLs8kjALPdo4krx8nAQ967ImvAsqIjzFS3e9JkS2O+44lzxETCy9UWOvPHxPlTuoL9W7P8INuvJ7e7u6rC29fpiRPL8aSjtHlMi7vfldvQeSBr1H2x27zsRyvElmHT0L4NS8Lq9bPGqBf7w2m2S8dU27vPmVubwrnR69KpKcu2vhRr0Oo4W6BBlgPNTJK717ra89IglMuaPsDzxEUom8Cw6HvcqcFD2wRro8QW+LOyhYmby2wbK8DSMRPCzkvbxe4giP0NgzPK5mXD3U5r28d/4ivUuGSj3IUXm7kNFivFUryLuVfzo8mJfEPP43Xj3gkOK8PwxFPIwZxLzOCS29BqnXPOa3bjxvqCw7bewuPC5Sjr28sp27vNHAPKGmuTspKp87lxf9vBILgjzBA9O8ON6tuxRZyjzJePG8DOKOvM4deTtg/7Y8f8edO+tcm7vtou48wtBOvN/4GL3csKk8gNneuvIIy7ykw1g84lrDPKpFxDvdI8S80BlvPOzCirxb+OM8tmA5PGjSw7yBgC+9OtEwO3EVsLxiohy9WNFnPdN6FLtqhTe8BJVePIaUG7t9V9G8K6gxvFMPCzxgRGC7NYqmPEChZDwVaoY9s1MVvUNPGL2qM9S8ckmavKI7yrzbYgS9wz7zO/uogLnFxR49v0UVvWynFjxVuZo8zDv0u7QJrD2HUPO8F4bwPCkScT1mB2k9r06mPHLX3bwUFgC8",
                "zKKqvJvpAj3gBNO8IcBNu152rbtXRKS8TkdZvPIlOj1yWBY9J/CEPdzho7ywdxy9FoocPLysND1graO87Wc2vfsUmbzhaKI8i5PXO/dfDj0mKoQ8WoWjOojzizwd8Bu9tD+HvaPr47y13lS4T+tZvV5QEzziEMo8lMiMvPPavrwJZZo7ak3LO1MouTyGKVs8yj8LvR1PCI+15wePlNIIj5cYCY84TQiPnLsHj4S1CI/CiAePXHIID+Y4CY9zLAiPCqoIj/H0CI8BGgmPbp8Ij7jTB4/bSQePeU0Jj8IoCI93DgiPGlEIj/d1CI/ZKQkPllEJj9cMCY9SJwiPhkMJj8FiCQ9SuwiPtTQJjwLwCI/jZgiPo80Ij2pUBw831QiPegAJj1UICY910QiPDLMHj+8oB4/PmgiPgT0Ij+2uB49NNwmPzoEIj0+BCI80FQiP7OkIj09FCY+S9AgP9NoID8DqCI+5QQiP3CUIj+0RCY+x/gcPXZkIj8BJCI+9QgiPb7QIj6bmCI+7WgiPML8Hj6QpCA8VVgmPs+MHj8N5CI8WXwmP+BMJjztRCI/lmQiPMGcIj1sHCI9+eQiPOcQJDyhRCY+WggmPQPMHjwwWCI+QJgiPQPgHD8rJCI8E+giP55oHj6yDCY+MTQiP3G0Ij7QrCI8nRAiPKBwIjz/KCI+vvwiP9doIjyP3B4+b0AeP1scIjwcvCY9dwgePGJYHj96kCI9IZgmPxdUID4aJCI+chwiPo40Ij6PtB48xkAiPI7wIj1ctCI+lagmPJCYIj2k0CI/lTwmPaA4Jj8ZPCY+tTAmPsv8Hjza5CI/uswgPNPsIj4ALCY9lwwePHY8Ij3z8CI8vwwiPBVUJj0EoCY85ogeP57QIj1orCY8+k469EYWyOxO6nrzahB89rwHRug1Cfbuqkga9iUsID+v17rpmKtO8Ro2YOZ0rirvI8vk8LX1Vua42J7zuQBC8p+IAOyXyMrwy4aQ9JLl7PUSUVz2GZug8SxObvJawrDojZa28",
