{
    "input_shape": [
        18
    ],
    "hidden_layers": [
        {
            "shape": [
                130,
                19
            ],
            "weights": [
                "QkPCPRDOFr6netc92kSiva9M8L1VBv68rNbVPCNTz7wuixG9L0AKPYT4XD2jFP89tFmyvCid6L3v4As9Wr/BPZaUNjzin9q7JF6QvUo5S73xU0U9p5PbvVoHFT1gBb489qNNPX1v6DuyxIC9X/qEPT/agbyZb2c9VkoOPR9i6rwvOoq8H9bsPJ3WdDtCkAu974/vu0BWwLxeKN+8DzecvNSntLxOAgW9l6UovJ/Vgrx2oHY9QRX0vZiQ07wXsQO9/SXzPOxHaL0od6w7oXwxvZGZcjsGQ7682pIovUXVtjzqhAy+9mR2DvYpd46HIHmOTUx2jpvleY4Dd3kOySp5DpJBdw7AkHaOP1R2jph9eQ6RqHaOAn92jtKqd44u9nYOuC56jqqMeY7aB3cO2ToBvuK2YL2dPrw8G5qRPK+Gqry3RQM8vzqJvRF6t73qMyS5wB1nve/NYb1jHXe92IOSu5Z/mTyep9M8dQx6vEUCsLwtF4k8JjudvNonGb3OcI49dI26vWroNz6F5ZI9csm/vR6KlTxrcxo9o6OMvWmzXT3dhRE9vIK9vBq/Lzsa8mU9z1MkPY358Tz2J0Y8UpXwPJALnD0QJNq9AyUbPbE+9z29evW9CaEMPXKrpjxG1PU8IJUpOqzyM72rQTI9Wi8IvRYNOD20Mlq9NW4ivbw4mD3P61O9VhgmPIn2Sr0jm4y7h90+PQ6wxDxr7qs8HEGHvXGX5jzjcKq9I6RfvehoNLxCfkC+k4zXvDNB4bwQ5JC9ir6GPFex0LvkUYi9RGvwvLX0UDtBSfY8uiR2vZOMXDzJNPm9tcwAvWGZyz3l3Pi9WnqfPfl04r1v+kY97xkwPTbEBb00NAu9O5E2Ohqlkr2bB5S71QU9vQr5iz04/2Q9rjtDPck7rTwzS+G8rfgCPXXXsT1iqwc+JXzaPe6FjTs+kwm9fJ8JvfQxlb0s+U89afkCPUyfWr3sL707i1H+vITKGz1PZOI9AIYrPHzs3Lw2tbC6AsbyvF4ipb23Vl2+",
                "rxTyPUTqEL1Dazg9nNXrPY+Lhryxk6q7Fs4+vTUX77tTF5w8Ui1TvaHTFr2j0x09jd+TvMCu07uogpG958OXvWGqz734EFs9iMq6PvqGHz7yMsE7tEUtPAuZ2LuFAbu93gUrPfchqb0lm1o6YDk5vX89hLzUbje8AjuxPfak6rzsccW8m/UcO+rPlLsY70Q9aaQGOYj7YL3LD8+9xigMvqP5TTvo05A9pU+Cux1AQD3XEO88JvIhvckHJr2U7Zs8DFEovYwoLr16d4C9Ruf9vFOkUT1zrrE8bRVAPT7G1bxiGaI7uEQGvSDh+rxnOsc9L2yAPfVRJD15CS65wA6CPZyBbDzcMYi66bXgPD6PnTx/zjc8u6tDPUrwej2XKoQ8c4K1u68SYD2xk+Y8p+xwvRpwyb2ikge8O9pOvMUUL71bZm6963lKvRYx8zsXk0S9IaePOxXZo72h3fS8uBpjvHVNvTxWxtM8WHgXO0SZZD29xly91mBdPJ/erjxuvwK833NmvevpijvlHLs7NY0CvD4arbsmvlC9EpBDvd4jGTz3cUW9HkPkPPUUEjyR4ak8sCCGvT8Gkzw/bK09LoG8vbJnRzoRiFY+mUt/vm8rlDwf2dC8cCI+PosfjD1OF+o8ctGzPW6Kirs4ibK7iqqAPB40kLwoLDM9m+UDvYsEBz2U+Da6XZ7qO69nQb2t1Ic9HDySO3C1T73L7yU8n/MePRxJijyPl7y8lSD3Oyffgr3OJAu8BaR8PDL6Vjyyx8e8dWeVPdEwH7y/IN08+LWEvT4HlT2ZkIu9SFppvRFRDD2nOui9mxP/O9ps2Tut75e9aeeMvOH7pLvtYjW90yUGvdjVEDxenCw9y5uCvVQoB722ii49Dw4BvRZTAT0AmMM8t8D4u2d1c7y7YF09iQLHvNrfvDxpK4W7mf9nvRORkTx8R3K9ZLWNvZjOJT0UbSS8EZ+DvE++Ub3tmH48VVHfu1KKnb1ZWs65L5nSumXBHr3L+By9BVHZvYINa73qYJ49",
                "/SmaPTbsH726AkG8P2fHPRG9mb2aYTQ9ueU2PU/mTr0KdT49wPCovV7InjzF7xs9Er+fO+IyAz0oFtu8/xBOvSobRDyIhIk8RFxAvUI1cz3zqGC9R2q7PMQcBT2bGJE9Yl0mu/VOuzytFaS7f49sPfC+hLw0aH690tU9PVcQk7tHJpK84WC+vAbuJ7tUBkK+ZooFPWYVlD2sqy27BAkpPcfArb1fh8a8t/g1Pemoqz0cb0+7lVnkvP+6jjwRNZU99OWvvCHzYbz6Yog9spMQvYp0cr4RyPM9ODGUPoGv0j2+5hg+hfusvYlsf71KyXA9AWIMvsOwOb7xpi67Ot4APbNBRL06ZL481PvTupqRiTyJzAw9PZgvvBMPqzm3baG+Rmm8vTtux70MU7a92CGqvXMBET6TVh6+NLSmu/kmkr1yw7M9IsGgvHAHoD2koiq+dR5WvLt07Ds93R69l7ajPDZCojwwias8sj1dvdT45j2HrMC9gJ8jvfimnrylxfe7hA3FvM7RFL1Q+AS+KPHSvcxqaLoMNzA857k6vEqLJDxIdlu8RZ1xvMZ8irybnq+9A7FAPRjdXL2aoYC8gu4KvRp5yL2slcI8HDSIPDfmBj3NPqi8K/hOPUNwdb0cusu8TaUdPUyUjDyGKKa99+YePdE2MLwKw+M9yOEhO4a2n7wKai691KrovduIgj2ort29Wg5ePL9fuj0q6n49786lPOX02Lyq/dE9Jeh1PKzDCDw8L5+8ke2CPYnChj0FEwe73WQwu0p2Rb25BDM9syqjPJKakD1+4fC8jRvYvR1aOLzeMU09n8EHvZRPqD1hfKS8OR2xvF4AeD2GHyO7evF0vbjoxrxE2jo8AzoiPE1mQL1+yhO718W8vJHDrDo6coy9RWr7PMtU0T2VzKo7+99kPQITjL1MwF67b5GKvXizu7063dE8oulrPB4w7jxdo+q8ziODulo84jtMg7c81dEGPZn4OLzxbJC9K0xtPejmK72KpCq+SpHGvUr8k7xY0E6+",
                "Zy0zvYeVMD7K+2u9gj+zOwjR6r2gUN+9rBKKPDgco70J10Y8XHYGvPglp71bnTg9/w52PSDk7jyrAaE99wY1PVvBD7wFRbu8vKapvDRvHb0Sf+E9iYlxvWuGoDsjNIK8wzOHPc4Mj7z4gm89S/acu24NpLyAfUk9JrWSPWN2+DxPMS69mlaHvCUq4TzdMlA9r2pDvU0ZbDybRU69tzShvbLM7L0K9ie9YkXWuwC6Nr1P/tK8vbJ8PJWcRLzOaAM9e3eGu1xvAjvS0i6+xAuQvf/GQL0Rbsu9Ia6PvTcotzsSMRK+okVAvFPEjbt9wwk9H6kuvKqcy7xK1Oo9SOsVO6fgU7u+9QA9074HvUYn2Dwofla9yo/DvO35vL2uHrM99tURPRZb/D2zSYA9b5isvS49uT20y5q9cULxPFlnI7z6qau9P7ZEPdzKo7yaXFe8nXSLu2q6BzwvbiU9vYcNPM0waL6GZig9KRZUvnAjn7tOc2s8Bg/zPLmyuz1iY429FKY3PY+vFjyAwAE7Cpi0u7q0jDxDCwq83slWPb+auztwdnQ8hb3+PFfQIjzC8w2+GAWYPVjGbz3F2sS9SSMuPUVpIzzlr5A72a9OuqptTTxC3bY8gYm4PYXyVjyiDXo8gLXaPH1avLwOLT+9gxkBPB7LTTyBbje8v93xvBV2eI5iO3mOEJF5Ds43ew5ctnYOh+R6jjw9eY5Y/neOfgN2DjDRdw4AO3sOoKl5jg6eeI4eY3aO9lR4DvGzd450QXgOioV6jkbTJL4Iwb48hzpEvp8v7D0burS8mQPjOwv/7T0djKE9THijvWkz2D3dfSa8fvaGvT7iJb3IldW8tH35PRlPs7z2x0S70/QlPab/TL1g7l2+ywciPH6L0T1NhJA9Ajx9PRavSb3vKI29C2+7PGHOLb2J4ae8UcKOPaw0Lb134yS9uENbO+t3+jzwPiK8JlYsvNlJ+jzLFfI6NJwZvpYGWj3Bx/u86reDvXCOgT27Q5k9i8yJvNlD17vXenC9",
                "aQqgvHjTjTzGEQy9196HPFNES73C2KQ91LPiPRWjIL240gu8PWDaOwWvB73lo6i9+sElPW4emzxRUWS8+du/PKh5DL6JZzw8Z4BLPncBfDzY7vU80/IDvWxLLrsfewg9bwVhvd0tML1LaUu9HoILvYsrYj1SHlC8pgObvPbzv70ajo2926IivQGpyb05sXe6ptFOvDDDe71jEpC96FZevAu19juBSuK8EeHwPRCteT2DmKs80Kc/vcPPE71vKf88yElTvRTiCTxVyte8xnmWvHbjbDs/b6E9Wn4yvbz9vL1eqQ49A+aEuRDWSb3Yw2O9dtlkuyGhkD1mwNO8e3GePH8cLj2KXC48bko3PDQDe735Pl69DuZvvh/p9j0iaVg9O7QnvcPaiT10rFG8pClWPFE0iz3/Qx29mZqAvbNA2rw5ZQG80DPmPWlzLr1WQYi7KrD+vJij1ryWpKe+6thtvHXWcb0ejpg97psQPePolL2NYoC93seRvdpTN734Kgk9yIf0vAwzRT3S9IC8sXhju6euo73cSlq9lqIRvTwchbzHEsE8qcJrvTGpGD0FoEa8bsInO3eh472YZNI93tnOvKSqcTyETgS9YQRXvdmAhjzE7uo7Gx41vIE7j71ts7s9479ZvN9merzHTT28bpa0Ox2CuLw5EbM9JFUbPSna9rvBxxG9UqSavf8awz1sAFY9XobMvPZTlz24rJg8bj+tPRWa9jwHk7y7tC1TPRlUPT0jbbw8awg3PJYFTz1Epps9bguUvfYh8rw7tPs76DfNPZRjyD3gq2u9p9nBPB4lEL7rwQC9XxvyvAqIS72ovfc9/OoSvVVp7LzdMmw9WePuPEHoNr2LA289ke9Kvt6VBzyUQ8S97TMkviCZMLxT2nC966EqvuDTNz1kVnq+kNrhOqwqgT14mjq9UCsXvEVuT71XKm29zJ0+vM2xeLycrLI9qvVYvM7WDb3jQ7e9fOZwPsh2zr1oPNw9OGYvvY7McT0PoB48rcjCvI1JsTw85ik8",
                "mScNPWSgm7xB4ZY8YK+5u9Ij9zvNfl+9svklPQ2Jrbw/8MC9JZWvu7vpUj1KXJQ9Y60APkhh+Dz0U4a93d6NPT2BKz6nABy9EV+yPIZ3fb0/wow8BgxevYIUoLvIqxo9cLEYvUGDsrxuege95JgCvgaHB72yicI9vW8wvv3zo7y/Tri8vC4fPbvYKbvTafM7nmx6PW2a57sVc8o8LFSEPDHAP7wGGZ27vUQWPRAcLTx4spW89Ne4PG/RSz3PZT+9ZGn8PGuCCb4wIzM9C36BvfkMjLyqnv88jDwqvJgiNL1ykOc8WDjuvOKcCj0YXRY9edl6PXAjFD3M3SE9axTRu4xgpLzrqyo8pxvhPbb0Xb5JZWc+Wjk6PaZtZr2n3ce9PKIoPVdIb7znupm9FfldvVFb/zxo5qy7hdPZvIGLAr3/IrI8SfswPXumMLxekPe8NtEYvho44TuJsjw+rdW7veSlAD3asIg9R/lWvW/vYbqZVZg87cZ7OnphdL3JYkw9FEmPvIy9pTqY/gI7bq2KPIH8i7vaYW+7MyqmO8vaBb1mYd+9ngnOO3mKn72d3ei92LWJPLr0lr30QoO9ZkxivacZjr06Oi08BSvlu6lts70teeC8rcxIvRc5mDzg0hM7JdUDPZSx0r2ty3U7NC5dvVoJiz2Nphw9Ml8+vN/tM72hLLy9PzBSPW04s71QTQS9soxmvGo7Or1ppUG9l9D1PFMTNz1s08c8HXqvvdHMjrsa9xO9LAmsvEnf4T1cJtq9e7ZrPYkSP7xc5JW9+rD+POn9hz0OOwo9kIRXvXXWsDlPWCE8l4opuzCMFz1t3H09Uf6Mvao+WT16YIg7d6DFPS8tr7257WW9UI0XvuxuhT3i6A68RjBMPTOTaT2di1c9TR7MO/qxzT2L74K9Jvf8PDEMI71sQJ28LDUBvHA8Fz0eLH26RWDkvF5JuDvBlpC87zeSPWp0C7yx0pe7Zo2xPcFUWr1wQKc9PYKAO0mThj0CO4M9+04VPTEOBD2N9EC9",
                "eCg3vfheKb2QcXK8L7LMPOAMqTzzMtC954YovvZ+lj1U+yO9nDEOveA0xD3QRAe+ml2fPRFEzTxipJ89o0yPPcimoD0pKMC8BkCUvR/0zzx+0oq9Im4DPW4Ip70/0127HDhYveBt8736k3g94WMiPnyCGL5YTBE8ZA6DvZOIADoVvvm8zi3su0qCXz0xkU891gKqPQQgEDxS4Ko80WarvSRT6jyJJp08ZXb0PJU1Qrwv+xw+ieePOyKYOj79sMM8BP6Evd4AlLv5/Zo8z9MivBnsYTxKFZS9yR8pvVXwrT1S5zM8KI4ivCNeMbz86hs9CoGbvQTMZrxEcwS8g1VnvP4IYz2hxra9VfhEvl6Kw72u3Iu8Vu0NvgN7V73GRq671Jp7vH74pTu9Fze9KtfevSaoAb2sP6Y7RpwYPX03Wrt4jLW7CODMPO4AFzxDlJ692mspPHMKqTwQpEc9QqdvvSlfLD2Gd3s87qOHvPpuRL3gaXE9FlU7PeM52bueXhg9SbcKvLQyr7w5FUg96q+SPRoRUb1sfXO9dtSvvWRG97uy5Bm8Xle1vDFRSD3slHU6MhRhvMLgcTwOh/o8jcTzvKEQ7DxWdWy9h77VvB6vB7xj68M7GgJfPasyWDz6yaM9/eG8vK7LCz6cZJQ9PRMvvSY2oLvpdr09tPevvbIpcj1pnpg9czBMPDu7E72veo69SNYuvURU+zq6htY8lEc2vaLjKL1aLxA8LvMXvBidVz32zKo9L4wQvlUE4D2zUSO9KuqCPdNePTukF349N/SDvOFtRb0yb4Q9e5ZrvVxnO7qbGEg92wZHvd3QFT3vuIE9Vf07vdeiCjxfDwe+UjLCPCjNgrxv+1o9ImK1vcKpqzyrfNe8p1XhPMYT8z3JkxW97rRbvfLNc7zJoW899OEjPV1GvDwN9oU9AgcqPUzw9Tx7QKI9A3fUvaI7Sj0MkAO8rkbsO1Rux71+QUq9gw+0vce6Gb3rxvU8ThKkvHXmlzytG5y9R9omvXxF5rymnF89",
                "f8CVveXUKjshGXA7jBwyvQ3jWj10Sa68HilQPSmcv7zCHIO9CMtNPdJKETxw2oe9kTkCvIl6/ryPlgy7UOo+vV1elT1PDiI8A6wnPa4Imb1h44+8ht0FPf9wLzuKzyK6ps8uvaT6CT15pgE8VBcUveOOKDxKGQS+v5mbPR87hTuFRvC7haNFPZmmML1feag9kH9FvP9RYD2MOQI9T8+9uxZdd7z/vJM8kCGnvVASWT3A1GQ+BExEPhePKT0c2fu8aytIvY39azkQPOw8GeIfvdFkErtCcq+9gISkveMsBj0juc87DGr7vKdlzjwaf2A8qxxvvSnrAb4C4UE80A+1vQmZCL6t1Aa9beW5vV3sFb4Q8FW9xgxSvhhB3DxrWS49KaQxvfcnjD0qDfI77gYxPf43lDzsaKC8q6quO5vvJz3DM628rwKkvKwOaT40QDo+oom0PZC49DwdeYy9xuxjPcwAfT2di4k6pFxRPNITFb0Xi0I94Q8kvXGQRT3IpiC9tm9YPY/AMjxHSuM8T1RfvqSZZbyT8vM92KNBPtK27j2LIiA9X6kQPlNJVz3WGAq9y3GfvRhlFr2h5t88lZ8MPTbaJzyJeQM9ICivvF+Q07zh5dK72/nJO1YkM77fYtW9IIgTvev6q733Wo+9xQqBvWDG/L2Y9se86m8ovntg8zzkfw+85PxRvXl2AT4n6Jw9SmeyvFgvjTw78PM8Pkcdvef6wrzO9oO9gr6aPTfh1z0GXE+8AqLUPdX7BL1EhHY8SbAXPO6nRD5s6K+9KHvxvAnKgLxojHG6LuBPPJzIWzxKLM08jkCNPP9lgr12y1O9SHcuvQgFA7vkqXe9PjKwvWCVCj0vCyw9wNA9PZLck73kZWg8DmDHvfTAQz2z6868vp5NPJGMqLw6LlM9idssvWr2ij3SAQe9SqtUPBz+4b3ZQgO9q2RSPavTYTwsYZi9186APHLmtb3XQpC87sDKvIfo4Tx5lHG7Evm5vWC98LyAzMA7pZtfPen+C70Q62I7",
                "5EO3OgnOwLxoaCc9R4khPewCC74JG46+e/u5vYkO5TzZCs69VAYmveARAT4oRGG9HnzyvExN4bwMKge9XKG/PIM/qz3xya+7Ge12O52LUT1NAIe9DgJ3PZsygL2FrPw9lhYfvVBMlz3WpqI7SHPfvDWLUL1yJPQ9MdN1vWGXpjyctQO9E/cju0gnhj1DCKK9QuMqPXGQjzx+RCY90N80OyWqHL4kwN08sjn8vXseAj7xpJO9ze+oPQsYCj22rEo7RpauvYWvVz3jfpI9C1oTPdx1lb1HuHM8vTEcvT+Pc7x2yvY7yDMSPaoXSr0F1se9vpAsPfdbp72aHFm+srAuvhGGDb36zQa+000wvcrlRDyzRzg9MqG+PCdsZb21fb28f+MVPZ49I7ys8B88mOsVvfHKhLwgPfy8FHGfPZX6FDtIL/s8l8MTvWpGeT0NkGE9oKAIvTHZFb3OMXU9+2CqvLO/r71ZOZO9xYeyvfQ4BLuc4fo8i8lvPbbporuNSzs9GXH5vOAWCr1/v6C9quMNPpfblz2Yyew9MaGzvM00A75zl589uwDmvOjO/TtGnVY8cEeDvWrfej18n5i7XsejPW7kID0iPUQ8dzVku8a52Tzp/rm8ZMVzO3n4q73T0Fg9u2ScPbu3R7wKVyk9XfLnOy/BSb2ms1W9nJkfvXAWiD1YLbU82YrJvEHZVr1w4Ns8HuouPRqjETw7o4K9Jb5hvoXk2bzq68S9O317vQFHEr3gVa487Iq7vbXNeL1WmR4+FwJsvW2j1zuEiwW+ocaNPWTuzrvovJW8SgQFPHx2grzs2nu7oSwHvZ2B3zymXPY8DzskvLdJqb2hsXO9NAEPvWUnp733p1g93metPUHeYj2AvE49x3cUvXHARL0E+0e7JVopvAgmIb3Gopq8l90vvXviB73SHH+9oIDoPMzIH71QMPu6EZ+kveTc+rxQ4629q7OAPcd1nbyxNhQ7qONCPPljFD0l3208A8irPNwUDb3Yi6I9v/MhPF6QU7xezk+8",
                "Eg+1vMUAZb06MBC+SHu8PTVkXrySdRs9kWMhOzKc0bvN7/s8gCDnvVH6ljw6+o89Ft0tvNW+CTu1xky8XtaZuwHovDuVIzM96U7vvMuVEb5SY4a9r1GUvbeSDr1Uyms7Pt6FPfQsWj2ROWa8j9qCvGs12Dw51aW93r4wPT5Oij1CYqo8JQeVPEPai73WYVQ9Xh2xvcnC2D3psEi+RAx6jjmGeI453HmOabp4jsY3eY4eb3cOgxN9jrbQdw4J+nqOH+Z2jsBDeQ5cnHoOm2N2DsABeY78sXUO/gp4Dq6ieA5R43iO36a4vQpRgb0z6F694lIKvv5LhDtASNu79hMeveCX8DwJDGi9QfU7vddpLL0ys1C9xPFNPcxQPLzjNGc9MHmcPNVnir3JZVs9+QCyPX0sC71lUx89/yjAvGFhaL1o6pe8l0tWvXfiiD2t9fi83jnuvX91WL08FYU8bKw3vfmMTL36tFi9QnAqvXoeSj0ijiC8GbS6PHNdWb29W7I7HbZDPFvvX7s04489+eSKPSDZlzyXjBG9WMdYPD6dCz6/Gym9CEplPM24Cr0tfwq9yvaUPX9xYLzOqPE6BHjzPGfU8jyOcOe7sW4kvlmXJr1W5du9uOU3vgV/KL6TeXC9A55vvQPkXL3bglO9UWstOlTCjby/7Qi9v/xyPduKE71mAM+8WDmEvYBD8DwIoi89pnGuPe/Zw7wMJHkO1xd6jgm1eI65XHaOWA93joEmeI6Vc3iOglp6juKxd44agHUOtIV4Dkdnd45+YHgOB2V3DtF8eA5SLngOVNZ2jkMrdw4Tcb69Xj4hPbnEhTuSoJG9RbYIPZIABz1cvuM745MTPRwry730eM48oY0fvZwMJD0cRvI7aP65vRnfqL2HWBW9Ax6Au4l3HryKkLS8ONsuvo9lRT3dt/e7wFLGvfpxsz1mFaE66o4jO/RnBL0cgw4+xUikPTFn/jsB8LC7O0yePTyc4Dz/f5u85+chvKT9ab1kKA++ylQnPXPZR70Z+tU8",
                "fVe/vF9E3j2M7Hi8NKqjuofQuLxR/wW9jsfRvBYMlL3CoQa9r/FEvNbhJr1T3Kg7fFUhPbHsmbvhMKk9mN8xPU1FX7xB2gi+bunHPJ7BljwbiK297Zy4PBPTG71dc909ijoDvTONsj0lCRi8EIk+vNKi1TrAKb681wSZvIT2sj3ti5I7ld5zPPeHvz2JBzC+Ph8tvvgzij2xhZa9+pr8PCd/Kr12QvW9b2H2PDjn8Dx5o7g90K+qPQ+kKD3tCk+7L1Q/PWkOpbxMIJM9bdtzvfzGjLw31tQ8G2aePASghb1VV8O7D4POPWssMr3gQa+9fgXbuwRS2zye6FQ9dHaOvTyJijyBxX88mXK4PAAduTzHxt48PuiCPQqbF70f0hC93uyCPDMf7bz6SZq8N4pYvdtZh730rue9JTrHvWEj+Tw26T6+sCDGPAMgAD4BvOQ86GadvaQKZ71ALzA8sID8OihvarwzPAQ9F43gvG+SNT0tv7k7ZZISu+Av0r0xYLG8nXGMPIogsD26U0e7uRwmO9/lXT1d/pM94kSsu0TeNL2XuBo9fChEPdNw7TyooXE9+bioPdeg67xhMJU9Dvq8vOLnkb04qy69qkGEPYwqQr1q96M8toIMvNfuPD0xEdu8Z/XsvOQEVT25ke27sbJRPasBqb0hBpW88GpNPegWB73FuXo9tUmOPS8g2jzJBw494kpePb6+Cj3cKha9DStQvI5BFr2D97s9yGwyPQEsxj3gO4E8aYhbPI38Wry8q0o8P499u6ra5z3BboS9ow0RvOh9frxixti8oOSavDKLTD3lctw94UVAPLspfD3rjL69Rpeava+3WbtPi1Q9hx48vByqzjyz/v+8NfrGvRRN/DsgPrg8+V2/PXlTajwA2488jgqkvEoquL101KO9lliTPRLFir1rmTC9WXh1vIfwAD2PYny9hhhCvUeZ8bxpS7i7S8LavDBQHT2nz+o8Yg6jPSbTu731z2w9Pt52uzyLyz1Si1m9HIXyPGCg3TzX3tS8",
                "/e8evFppX70C+X49WLGxvO6b5b1Rfoe9PenRPWcZgj3y5cE79kpmPZuR2Lr5Fbk8u2kAvS/Our3uDXo9L5+CvdEPOL21/BM+HJbdPV1MY73y0LK98TibvdvVCbxMCwe+VaUmPVfuRz3m59O9XEk9PO21IT39K1k9o425u0WfWL2csgi9kWK1PNAJHj0V6as9YBGpvdpUFz6W1U+9YsvfvVSfEz2sv1+8yKVhPDCFnT31S5W6rYnYPfWgGT6D5K08gTwjPZ56Cz3dQo899/DTvEYUCL228zQ9dGqQvchljb1FUoG9DDxVPJVb8TxOzoS9TLfHvCwCBj1eE0s9j1OmvXPQZr2WPD889vSpvfOznr2Ns2Q9E7yKPJYEzz3PHl09DcjKvX8urj0Outu9ZR1CPELV/rlAlmC80WN2PC1C/bxn8xc9+wH6PMijp72y6Vo9bjZePUN+HLxMbk28yAzlvfA217h+NIm9UgfMu7UWo72OyTW9t5flvAUVb72U6d+9nLf+vEs0wb1cKAW9sHeIOxadobzls7e8A69bPFQ92j3nE0i9Zz6IvW7mKL2rpOO8CpOPPfux2DpJa6E8avZFPWYr6j3KT62965grvd2wDL3pogA+SSuxPNFIMrxTYxc++96mOo7KHL2fTeA74dJwPFIvszy1MmA8E2WYuvZ1GT1JaRK9FufcPL1idI5vTHaOd4l5jh+3dw5ZhXiOl9Z2jg7Edw5lVHgO1RV5jlZSd45OPnqOw6l5DlJReY5GZHuOGqV7Dq/beY5ugHaOLup4DtWIEb77mQw9jXKdvQMgy7sRUG29fj4kPVlBQLs0RnW8YBEGPaJzzb1Oiqg9ndV/PRa2rj2dE2w9Wbm7u7JBRj3hLxs97DcdPdMAsD3EZTK+67L2vE1bUr6pZCM+RnO0vZ8Glr00oKs97M2cPWVBKj3VbSy9B/ZCvdMP/bz8sY89HRvZvDDaHr1taBW8ar8iPEW36rmQe448fQcHvhsoqL3vW02+qYtnPuoIgD1WK6E9",
                "VnumPYfFg70tgEY9OnyPPfrLEb1dA4K8zQEnPNPSY73FuoE9UKgGvfI4EDxSPas8vAW0PHzyKr67s8O97TwwPNyVu71gSeK9HwmmvATQaL1a/B076bLPvWMrar2K3Gw9L7HAvCyhiT2cdWa6bXepPSTr5Dy1Ija9WYGBOzBM+DuRBog9b7lzvf01wLwv1EQ8KDGAvWguKL3MYOq8qyDlvMK/ZzrQinW9FmXAPEHoBb1iWmE9vQLPPEz5iT3gXoA8uVtdPQ5ZiT2j9Cq9Bv/pvDrpO7ystcQ8RDwcvS4BlDzTYjW9WUndvUohhD06Lkk9HithvcWTeryLUSi90dz3ve2gFL2Gcog9g8VXPXuQh7xXGCk9kaTMPAfmyTujEOy96iKpvTnC8j1fqqi9eLXjPb1Nuj2Vywg9iz2jPY0crzzgqFQ9vKjFPQg5A77ZIfe8C33BPXWWcDw5rBE9GC8SPS5KgL3Emym9hGDVPIOt4L1TecG9N/yxvfmC4zu8axG9fqSEPQFzVj2SWRW9C5iIPWv7vjyvkTw9r0+IPGhK9bwRAfG7w0KXOzOEH72y8Ay9zW6SvZms0TyHQOM99oYMPhsYOz3VHda8V2CivaqgTDwajZ+9Is8GvPxcHr37h8C9cp6mulvwer2hRaw8W1vNvCUKTDx2QDw8ZwX/vOn7B76mnjK978m/vdtMEb7cNz+761QevVonmzzssQK9CjNNOxJFCzwqHLQ9BWDqOxEEJT23YMI9+YI4PauWCT1qUyW9NHPBvSpwZr1C4M+9Bc1BPAT5Ob3/Sx4+zhY9PDX0trncHLI9hkgePbaiU7xNFqo9lzxfvTXki70QHd283p7SOnpFMD3lNFg9XCe9PBklxryivWs83xf3vA=="
            ]
        },
        {
            "shape": [
                130,
                131
            ],
            "weights": [
                "rWhgO8WXObwjA5U8De9dDqEhWbtot/u8ShRWPAocJjpEPQ47uWVsPd5OLbz4BDc9wXy7uwq/v7v8Wqe8SnZ7OyjoHz2QKES8FrMbvLQjKLxH0+e8xrsXvXhi5rwSHhM8+96zO2qygbwWJxK7nV+oPM0ieLzwb8q89t5LPZVDwDwqBg69ovYLvRLlczsyygW9HwDMPEJReg570vK5EpuQvL6GG70rOo68RYBMvACTDrx9hQq7wUiWvMehBDw1Ixa97SeCPAfDjbx87QE9SbGSvEcyKTwSPpc8CmK/PFpvI7wxnoY8KmFUPERz7rzyq268jvDCurVETTteje08M/EfvGZqj7sq4J2767y1PCloobyuO087ov1wvBgkVj3QMCU9OuETvEOFFT3mlYq8n8GEPLawH70RVQG9AFxFPV4RwDtSD+K7LddDO+f9GbwgOPI8/+VDuziqtryjqJ68r6LSvAwNpjxy4bS7IWDfOxcCVbxP24e8JlB8DgmBc7saAYA9LHhlutmPlrzopXMOdcsYu4pLkbyFIrs8bQBxPOdjFL2jw5C8WJkqvUwVgDqNRCQ7E9f2PANJrjwexou8AxPWvF+PH7zlh9E8ubcju/bQhrx5lTS9hAvHPGlLdA41GB28TTsfvF3jnbxqqwi8fx2KPPU8VLwXeZ27rPUTvZSLQjpSgWW50zikvDjUgbuCcniOuip5Dp6bdo56AXsOWxd2jsuGdw4b0niOn1N6jjHfeQ7qsniO7613juo/eo6bTnaO8uN1DrtffI6uG3WO+5l3jqu8dw6MNXYOTvN1jmCweI4H5HiOSg94jrENdQ57gHoOUVN5DlmWeo6tfnqOZMt1DobNeA53mHqOfpJ3jrmceg6heXeOHot8jogKdg7uJHUOBKV6jk5Ud45l63eOgiV+jo+WeA5dQXmOy9l5jsAAeo40nXiOCjl6jjupeI6jNneOpRp6DnoLeA4u9XYOBLZ2jlRjdg4t03UOXGN6Doa1do5SzXkOndF3DpgGfI763neO",
                "FN14DjMYdo7vDnmOrfl2jhlleY6HonWOoh14jozncw7C23iO3It4DlYrdo63eXQOk+95jlueeI57tHWO7a51ju8Ddw7g/HkOvqx4DsxGeg6fcHcOeOR8jpFweI6CunqO/nV2jrfGeY6KO3eOGex3DozVeI63ZHWOxO94jg7edI7UgneOoqN3jqpzd45vQneOoJJ5jpDJdI4zMXmOgUh6DoyXdw5WfHeO8mV1jhUzdI5QnXWOBs52jgaceY4k4XmOgIV5js5QeY5TiniOlMx8jkkVeo4ou3iOYmd5jrYYdo6ZwHYO+Lh2jhMAeg6ccXgOFQ13jnS7eA5DU3gOJex2Ds6ndY6uxHaOY0B3joRtdY7JSnYOmBnHvXP5Ib3/SKK8iy/BuxBbeY654LM7qfC8vCnAq7wScIw8vdi/vHI2Db2OoS28fRcNPWL4ZDvrLN68tPSpPJYyLLwhrR09lQLdvBh/WDzqzAs9VPkfPfjtYTwNzLS8gpLRPIK/LD1n5/g8jS/7vKA+rzw9Yp482Bbnu1a+NTyYVDo9PlHMu1S3Zbw0z4Q8rerEOpCZ6LxfcHoOJx1EvJQphLlcQSe9lOTyPF3Ce7to8hs8NzK5vEOTjD00j6q8LX3RvOovh73viwU9AnLwPE3WEj37kTo8mUSbukyO2jx12sM8D/eTvLDcojzYSUW8rFQkvYLIeb086/+83NiZvCzDOzqAF0k8cqR4vLQPH7s30Iy8AhgJvSSq2rpCoZm88n3mvOUNwDxZjEU8t5rRPEh9Ijw5GBY7P6s7vOOyNjw/oKQ826E2vFp5bTwQyMc8CBTnvOH6jjuhrIq8OBZPPA8A3LxWjA08szcRO0G0PztImDM7fYkFvTbWdg47jyG7RyxhvB9fpjmz9bI7g4h0jipMqzyd3iE8+kwavcVdfrt+aaI8mP1rvPhP2LwL+Ye8rEdmvNOBZ7zvUKM799xJunVJuDoQNei8a9svPE320bzy0II9Xy1KvFxknrxz03WO91TDuwGburzLmFO8",
                "EPi7O7eXI72VhRg8l7yfvEa+RTxps6c702QWvPFL4Lx7xhe8eAuVPJg5tDtUicI8k893juzUEbwubiq9HYCDu7y8gb1vM5c8+sgVvbv9ij3IkTW8XeyTvJqkBryfnh299K0Aur5kG7yYc4m8IcuJO4UwdjwSW189VY6rO9Vms7ubMOI83WWVPS0jgb2p6jG9PzQnvVU5Kry7MCw9kvmYPPlEEr37HRa83mFdvWrH7Lyr1C08g0KCvCJfdo7KlQ+9Zts3PUTPnrzPnCk9HecyvDwnNr2oqrA8yc4FvdhNbj2b8/W8lT+pvBn+97wqsN+8zZl2u6j2kDvCvZS7MKo8vA+AIztwlJE9b29MvEp5Fb2Pa708yCwcvI4SZrypXBs8PwZ8vDEnUrsrixk7UzFgPFyzo7y17yM8R3mlPFkQTr0n7IS8krqTu5gdE724Npe9Oe8MvMI1X7wDJRq8O2tcu72RjLxkaye9r2Q3PVYOxzvNRjE7lwfmvMiAp7pEtwa9ifa/vHhpszyicvy8r9mBPfc6qj0aj5W87kJ0jtud+zywYAI8Idxou8eJEb3x4niO99s5vI7hIjwEMvW872VWve2SYb2bCgU9sguKPYAl4bub+ds5oRiGvUx8izx/6i28cpARu/15rLxQ/3e9vr7pvItBX73B4oC9Deu+vE1Vdw5lzyk6GaODPXnNyDy2/aC8Cef8PB4i6LvQrk09OpufPI/KUblYpEy9i71hPIbOZTz1Hra8lS/FPHjXDT3/WXcOhozUPHrvSL0XHD08cUhSvCmjSD2ynC08vJQZvfc+ETuSrcc7yNcrvGN4hTzLBpE8e3moPJr/kzzeFRA8R+Jsu1/nkbzuujE7uUViPBNjSr2+Xzu9mEIFPXx+g7xmiWE80YqeOxD4vDwf7Vq70gnCPCUsTTxGA+W8n7U2PRSpI7uOumU86D13DlxKkzyq6FA8gCQHvZb7JT3NKXs8wfgQPSTEnjuz6Vk8eW4ZPMjJhruV72Q9hZWCvOli27x1+ZE8",
                "pOwxOnZEPzxuZFU6lAdevKdv7ztfBEW8EYWnvCZhzryBozi8wwM2vamyqDx3COq8CQOsvJTTSru/GZU8ctKqvObkojv5Iok8iGWEvDOFmDyQI5o8+vgmvcTbjLumUDU8pb1DvR37eLxs9Eq8GO0ovCFYAz3EaxO9eywqPZByCLwekWg6oU36u71YMz2rweE8xcV3vcvXIjw59zq9hyE1vW0BvDwginMOvB4HvLtqPLwyGjk6iKqfOwOPeg4PaFk8+ZsUu15rID2UCAM8bz6Uu12LIr2DOT48qi31vMOUN72VdkC8wiK8vPwDiT28jaa8gaxZParSnTuxHdY8Dsr0vKcLm7vA54y8owN2DpMnqTuv9wg9BzsXvQDu7Lzc5Ie7vI3Eu67ARb1QqIA8ygPbvKnhD7vaS008WWYlO2kZeA7K5nWOtSxzDhRjdY43yHWOCax3jtScdo4w+3WOQYR4jlkfdo6bHnWOZU55julNdY4IoniO0514DoFSbQ6JsXWO88F1jkL7cI69gHmOlnx2joaQdI68rXGOOvdzjsHGdQ63qHWOFVV0jmnMdg697neOsHByjmhLeA6ZM3aOkcd1jhfAdY6iZnSOOfV3jsyrdY7WDnSOmPZ3jhqPco6IJXqOe+J1jtUSc447tXeOOuF5jlwKd465FnaOY+F6Dm1GdI40+XiO1Zl1jmzYd47pXW0OT755Du1+eA4g3XeOThFwjgJvdI4BRXaOjmJ6jqwgdo40i3sOVbF4jh7LeI415nSOcbBwjpZfdY7oqXiORCt5jtQmdY72VHaOzFZujs3YeQ7Rn3GORv53jpdPeI6TL3WOJLlyDmOod44HAXmO2Ht0jmD2dA4py3SOY9J1DlFGeY7Jr3WO7SF5jqKUdo7cJHWOKHR5jqGadY77tnSOF4h3DkTdb44YeXOONRV1jrh3eI7KcXaOLnNyjp1TeI7hkncOEdZ8jlmGdo7acHyOF2xyju6aeA6NhXOOlq55jkMseI4K03KOYmN1DhN1bQ6giHiO",
                "AnB2jlfXc45GLngOQit2jp6zdI7qLnaO0apvjt+AdY6bOneOkOB4joQcc471mHSOUPN5jo5CeY7bPXSOxoJ0Dmaadw7BOfy8jUF2jhJreo67O3SOFRZdjtlMdY7I83oOFUZzjlE2dY5pQniOVV92js+vc47T3XiOT5J7jkYaeI60Z3iOVahyjuuneg5xEnGOznl4jsH6dI68tXeOhS15jhMfdQ6HqW6Oz7d2jqqRcY4janiOpx96Dm5XcQ743XaOSnF5jjTceI5x0XaOBkZ2Dj+hdo6B9nUOLZN4jpwieo4ApHWOVLVqDpaico5ts3YOb+R6DoDQdI7yUncO93h4jrMzco7+B3cOjjBxjrI6do7vUHaOgRp5jv7Kew4TMngOV45yjtKjeI4G0XeOr056jp3zdY7g03WO4F5pjuvhdw4w1HoOE99yjoZgdY63M3eOfe12jo+FdY4IDXmOx+F0jn4TdY4aj3eO/RZ6Dp4ld45RGHcOb693jqDCdY74n3cO+5ZxjpnWSI630HiOGqR6DrgkfI4iVmSOeUp4DjPJeA4sbXqOApZzjsYIeQ6kfnoOd5xxjodYbo7Wh3YOTNB6Dt+sdQ7AqHiORy54jjQCeQ5jkneO+1VrjgAkeA726UmO+793jixFew6nSXaOzZN5DklFdQ76+neOW0d3Duxkdg5miXmO+UV4jrhPdY6bN3eOpx92jrwoeI6a03mOBr52DuR6fQ7tL3QObIp5jqm3do4lnHQODMBujsPfeI5shXeOXrN3joLGc44bDngOoQJ2jgOLb70rfHaOyzl0juxJc44h/VAOKGN2jt8EfI6PXHmOWkV6jkjEdY7Ez3eOGHF2juZofA4A+3WOT5B3Dgb+cY6dqXeO/Bx4DjPydY5HQW6OVFJ2jqLvdo76UXuO8Ot4jnmVd45IAHWO7KR0jmljeo6INXqOXGp5jg1id467M3YOwPF6jja1do5mnXiOI91wDjwCd45pRneOygt7Dt0pdo7tRHmOOa10jmQFeo66v3iO",
                "quhoDpWvd455RHWOxpp2jnSSeQ46yXSO5Hd4jkwpd45NoHcOnhp6js2Wd44hfXYOA5hyjn5WdY4gk3eOWnh5jvzSeI6vJH2OHZp2DvF4eI720XmOZKJ5jkbcdg7qgXeO2cp0js93eo5RT3WOxgJ3jkywdw5ZRHMOCBt5jupzeY6VEXuO1Et7DvpneI7Gh3uOZRRzDoD8dY5bYHSOTvh1jg5WeI4RFXWOfUZ2DtFWd45ydXmOfq96Dl3Xdw7gVXaO6/Z3jijhc44DVHmOx4Bwjl3Ydo5Bo3mObiBzjutwdw45S3OOWAt5DsvacI4UtnqOKLx7DvTveg6mXnmOLil4jv6NdY65N3qO+sJ4jlqbdI5cTngOzi13Dv4zfQ5Yx3SOt8h5jqRXdI6hr3cOG9JRjjeAd45HHXsORO12juR7eQ6zeXgOlRx7DkCreg4Kf3WOanp5DvE+eo69sneOg9IuvValdA6rS3oOzFp3ji6SdY7qlXeO9tB1jlEVdo6EgXWOiod2DkppdY5LCXWO/Zp0jiG9eI5ICnWOuQN3DveBeI4VTHsOUsN3jkjadg4s23WO3Jh4jlwDd4553HWOTKx3jvPGeY7th3mOvwZ1joTfdI4k13MOHgt1joNweo4MZ3qOzdR5jpmpdw5pPHqO5TZ2jirKeY5BIHqOhJ10jl9Ido6ziXSOjFR7juptfI4iK3eO7Zd4jgSPdY6W5XgOuIJ5jvUAd45tCHeO4xV6jmOVd46KSXiO8TN4jjCBdg4PGnmOHn92jvHzc45D5XqO7VB8DsSEeY47R3mOvLl6jmZudY46KHqO8vt1jrAJeY5Mq3uOthd2juJffI6zGHkOxxp1ji7CeY6/sHmOEZh1jtIfd47P9XWOLiJ2jlfBeI7XOHmOmuV0jqB1eA7obXoOUKF5joAddo5Ad3eOWOd3jp3UdI6+Y3cOMPF2jpBFeo7FUnWOfTV2DlGFd45+cniOwKN4jqgpeo6p/ncONDN2jgy8dY5O0nmOuXR7jmqwdY5wxHeO",
                "I+x2juMPeA5Y3HmOZBN3jhrSdo7gunqOFjR3DrAqe473AniO6iB5Di53dw4G7nuOpN93jm9heA5jYnmOxvt2jlISdg65wXqOaIp5jsXPeY62rXaOvNJ2jtAwdo5LH3WORG55jkO2eo4y3/m8ieKLu4GIEjxmj347Oqh1jqhFFr2GQzi8ILYAvROI2zrO/Fe7umutvDyC5TzNqho9WpGNu0gUi7s8rRw8aheDvBZnmLvg7ba8ylkdPTRN2jxe9sQ7r7aBvJfP0TpDiRK98hvcvJOAdLu/T+Y8+O8BvR2MSLyz7se7q8Z9vIiTsjvz8hS7ZuRGOybpq7y+oig8mmX1vHfseY7PE6y8XiOpPCFLzTtZE3a8fvQuu+s+lbscdH880qvYPAXtzjtZKD4824qSvEjzNT2oZ+Y7iJqJudLIsjt3mxc8I4q9PLee17w1Zws82QIYPeDj3Ly0dpy8SiEAvfLNTbxUD428ra26PKIw67wr2YS8T40SvQNb5zvM1/k7n3Psuj6oE7yHqKi75egLPELfGzyl3ok8JV9NvQUB3TxKoP27aH73vI51V7s+yKQ8ok1yve0iLr2LpMK7d0yqvObtBb0rlpo8sDgVPUsmh7ulmgM9v3O4u+tQr7zVM328KCB3jnlEX7wraky8kZOYuxIBDryIpHgOpjE0u5AYpjucxLe60rnwPLcJULyFwkg9B7gZPP4YGD0PCBg8ypi7usk3eDwUHyq9qFpHvQSz+DsSxiK8mtXhOrTYzzvK2Ia8lEk6vLjndI74gS29Yj8cvfPm4TwV+do7QBsbu+y1ND2fZYu6G36GO+4ryjyjtZq7sPTVupa1pDwT3XWOxGV2jpcWew6L+3UOy6N6Doe9eI4U5XWO02N8DksFew4jm3WO1uJ3juO1d47Q03aOBBN5Do8XeY5K33eOKA52jjavdY7jBHeOOkN6jjpveo5guXmOplx6jjrZd472X3mOAGd3jliqbY7XXngOFTF7jggpew6mP3iO2C14jtl8fA7e2XOO",
                "iMR1jtsRdo5MOHSO3e95jtoieY4LAniOOlV1jiYYdo7nH3mON7d1jvhJeY6wdXeOKqR6jv68dQ7RinSO/Th4ju6Ld45c5XOOqKF2jq/+dI7P3HcO7EZ3jk1Qdg7f6HUOqLV5js64dY4NCXmO6T92jo89dw5m/XeO+tN6jh0odo5dA3aOoex6juT/dI4tAXiO3h14Dtb8eY665XoOZ1Z6jtq7eI5UpHWO5HF1joj7dY58i3aOmrNxjjIcdg4dkXIOm8N3jhineg44tHcOhkV5jqead44ennmOCvx3jsbkeY4fC3eOsmx4joALc44QIHiO22B3jiXjeI4N/naOX3R4jshFd46banWOAKR0jizjco4dknqObJF4jqnMdQ7DfHaOy6Zzjo3wdo7/bHiOTul1ju2Sd46hOHmOJRB3DjANdY75H3SOfgF0juBneo7K/3QOjs91jl6HdA7/AXaOLa54jq+rdg7LJHmOQ2B3jt8OdI4oF3UOpNl2jluXeY7PMnWOxwFpvLBR1buyb4c7K/bBPFHedw4wf7M8y9EavLI3TrzrBBw8SbQ/PF+fwzzdQ9w7GzkePTWhZ7wJ7aS84hj0u3hnOLqMXyU8Ve7lvOMnwjqhY4W7xMysvIBh1znsJd06cK/BO6vdSrz9xKG8wX3WvFJpobwROxo8EeRUvNjAojwg36q7cqgdPKS11TwsMGQ8n6V/vFQLgTxKi3qOisw3vQ5JybvP1Zy85w4Iu25FD7xCxzI7Us2yOmS6o7vjFKY6Jkc7vVyFsLx3zOg7AiUnvNZSHr1Twbo7YRk0PF5phrvToNq8liLdOv8mIbtlFNM8u7zyvOblBbtSiVA8uoK+O16xQr0i5YA81kRDu9xjP7yYKz48BnBNvGMzBLyZ64k919kNPW0QPbwnLJG8JzWxvJL+3bpq5Zu8MaSTvI0vtjjML8o8lmOFvOr0Dr2cXQK8EwkJvNCR6jya7yI98GuCOvJi6bq3VD+9+ZwNPeE8R7x0NxW8WEzzunGReI7j2Aq9",
                "AOpTPUtthLwNWNi8LnN6jsCMUr3NQ248wr99PDETXbx5bhG9b0AvvCQz97y02oO7K4QQvEVd67x8SQa84r3vOwOGI71vEM87cs+2vPdLpjla1MO7zFBZvVukmzgjgXiO00uwPO5GkLy9Mh68a7VBvfw/jDr16XM8+FEdvM22zjuSQww9EfhWOhaW6DzpAr08Pl4OvTosJz3t3xi8SlV0Dmj6Nry8QZa85JW5PCUZlLz2ZM+8QOizPBS7VTwhm228ZLPBOtFQjbzn8cA7kttCPEiRF720GbE8YA6LvII2F7xk0408BCcBvS5omDix2Ui9UMh4vYzG7bw7JAq86KqvPCSAkryZm6m8udsCvJ2hdLs62CM6NkSAuvLr0Luhy4w8uwzMuxDSdo5po9q8Ho4qPCvJHLw/KAg7GJdWOg0M+DtRGIs8uTH6u2YVnjohcVw9aJSrPJow7LzyjJ272c5MvaLiCT16ti08GOARvbBkhLw6WHk7breUO/86j7ss1648xOYCPKxxVTzo6rY9cKveOxAqwrx6EOq776wOvehuS7yaXUI8zdJjvIsftbrTk268D1skPDvzBr3WUho8/7V3u34JN7xhRqk7+5htvGO0FbwTJQ+84woivR2eMbvGgyo9dW1avGEHCzxD0+Q5ARkQvDuYQ7wPlLG8QCmmPA/nIjvcpiM9b+hxDhdAIb3iOhU8acKpulBY6rucqXqOxE4SvR/9Sz1IA427H50cPJidCbwgE5s8Xt1svCWfqLsVcpe8t1WruXTJIjzEW3+8Nuvtuxgtszzq8O68WoZuvAUyirwY/I07KmlWPTvac45Ji7c7NFCZvCH3MD1maqq8CtMcvS587rzLD8u8hRWWvMSIybvu3a67XJC4PMdDjzxHZhU8DQAUPQyHojqRDHaOovhavBYYOD0JlN28SJU1PaJKiTzOgS68+smvOkcQIT3yVoQ8YY4sO6xTZjvbFeK6tOlzO1rznLsDFT+84aRxvGbgYT2WE7i7UsHxuhZLiz2RJo67",
                "JPziO4q5yrwFcTY9tU34uoV6z7sDYT29lEqVO4ApHzzH3Kk8nzCAPRxXRjwFp5q8d/Z4Du7turxXfcE84L+mO9nU9jwgiio97aBEvJV2jLwRfeU8mryJOz+Rubzmj2Y9t8lLPXPMyj3Ac7e8/0sMO14VrDs9Xpm7TJOLPZHeGr16mzm8mWotO+m6rzyckw2986stPAiWWj3uck88cxl6vHummLxWLxg9Eg2DvEE4jTyQFxS9gJYhPHYJfDyD50q8bIZ9Pff4ST1tX0U9zmwvvYSp3DzvjRc97G3GuyeXXTw2iw085RyOPDmfrTziCKE8Pm5APCch3Tn0NJS8YyPbuixDUDsZiDY86J5juxWlortP7XiOpSlwPQMwNLyBoEw8gDqfvIdSew66WTk8Y5Q1vb2KU7rUV4+8rfO7PJJbCD03GDI6xfT1PJSRWL3ezIe7domyPIA+Y7yiugE93o60O60CpLzKeqY7gNlDvQSakjuLvCY90Lp1jjfcfzxBLCa8NDg+uzqTRD2DzAE7PY48vEnYkbwi1TC7tPzpPE9Kozznp029gQbVvbfe9Ls/Pae8AS3HvNwrdg4QrS08E0LVvLcV07whW5A8ddcWvbgsRbt6elg8TN8RvSbjlLwQDhm9ae8FPcFVEb3rDwu9M2SKOfIarjzQhNm721gCvbJw+DxLP/u8HfFnvdrOeDyOBec8sHfsvBlm7bwUP+M8ysoGvb0ptbuQWN6714CGvJhF9zvzxCA68TDTvCBhO7zaQXkOBHnsPGCHnrwS9I07YdVqvXhLED0RDG671scgOxj+dTwl5Ji7yzdTvcBLUr3GiK09aZ3IvDmPnrziD+e8qnRJvAODEzy1jGY7lK2GPRpMODzLFa4742a6PGOvm7wzH9q4ywCOPAeNQb1pqpo9LJD6vLmhYzl/PWm8RmeIuz51Y70gFiQ8KnslPE5V7DqpCeu7R7gsPeKspzvyYgG8bVlPPe8AZrzEIdu8NlOVO5Ee9TzF6LG7DOQ8Pcopuz2mOjw9",
                "x8XtubfHG71gOui7bAQEPb5FvjzJLwy9uFZRvPHSeo6pURG9+6CoPJPhlzvmece7zwF5DvJhDTzh54u7W9MXvf8pZLtthEG9RqgwPN8kDD0N3Ee9+mwivT0M3rxv5SY9JXHkvNkeJ70ndWy8RnT4vFfr+jvCmca7GoxhvLhCJr2SsneOraXgvFM2iTs1g/28XokBPSLudzwX/Ze8mrPavHhVkzuOrsy8yA9mO3ZiFTwiy1A8GW12jj/rdI5fC3OOsOpzjvQIdo6nQXoOixN4jmwIeY4lhXSOCA91jv0CeI4yAHWOIBd6jvPzeI5ZLnaO3YZzjpo1do5GvXGOxpVzjmuedo6XMXWOFKt4jiC2dA7eTneOYGR2jgg3d47gK3mOOTt5jl5lc44p6nKOSU11jhuWdY7KW3WOxbZ4jj2Sdo7KaXWOqUF2jt0wdY7h7nWOykJyDjCEd47EsnWOBVR3jnnoc47gGXiOhix4jvBedw4hPHWObGB1jt+feY6CdneOYtR3jmL4co4+d3eOOCB3ju5KeY5E5XaO0X51jnDsdA6J4XiOjtp3jgm4dY46mHWO8hN2jiAeeQ77j3eOE5l0jozGdY7Mn3eO8u54jpeDeA4Fn3iOAzx4jq4CeI6DWniO6Ad1jkegeI7aOHeOoXV3jrGXdI7hOHqOSs13DvhIdI4HOXeOZDp2jt1qdY6KTniO6zFyju+Mdo7zPXaOUpF3jqn2eI5VLniOIpl1jh0BcY7+AHqOZYZ2jnVTdI7ninSOUP9wjk4oeY6hr3cOgch5DprFeQ50AHiOMC94jrvAeI78uXOO3fV2jmqjd47/uniOjaJ3jj01d45US3WOep5xjkObd47Fp3eOIH55jq91c45LEnOOG9B4jgrIdY62C3iOV6d4jiq3dw51HHiOauxxDtZ4dY6y/XOOyud3juMasLugtBI9OdcgO1tc1TvXj3cO7F8gvK1fsrpekEa9tL6vuDwYMzytvJW7L/prvBV9Er3pW4q8x7UePeun8jwIGE48",
                "R1rRvGg6wLv4A7S8OswVvDHXOb3rhG88EqKAvI8WgL1ZaFO8lAj4PFytzbw0WzS8IjsuvCFNc7ypYqa86GnhO19JYry3XAu9EayYuj2ToTycBM07miV3ji5zNz2esaS7zLcFvAijsrsPZbS89HbMO6L0yDtgK887qgOZPA5scD11NyI7wL2dvJQDlLxSS8u7gY0xvegfRbwykaS9lzJOvB6AlTsbari8W67JOwspET3Kf++7Ao1TPK+sU7xVCRW9vJa7vP8KTLmJXB28MlL9vP6BpjxwRAk9InXxvE5jITtMd+u8sxgBPMb287xgDJI8ws6luxH6Ib37K5y8PeyQvGM/NbwPMGO8fUGYvA7PAj26xRe9FB00vOSFAb1sQSo7nHYdvQ6XqLykD1u8Aaf+vEuCxrtfE30OLgAnvXgqNbxTJ0a8QISzvN2Cdo7W9047GA4IvMNXIb0X32S7RhEkPMQitbrJSBu9SG5WO7m8ED1jXEU8bse9vPhNML1FcL288dHdO1ij/TwhXqg8zz4IPETUtrs/ekE9Sct0jtvX7ruHhgi9unubvNDTTjzq6Mm8xia/vA1wLT0ytRo7CY0JvRZcwrzfoBs9NJtPPdy8yLtaIyS8//aFvOOEZw4FWLq7bdMnPKUraTs6ugQ82JY0vKnRuju66m28nQ/AvOAqy7sLQdi7nQZmPHnKzLzdg2o7i1GZO7tAQ7xOCio8nl8qvHRCC7yc9uw8oB9lvODeRbxOMuS7Xn0NPMkwdryyVcS6IJZhuapXELxk1Hi82b16vM1EiLsyJTY89svAu2d8tTxfnnkOF6RhPeKKMDxOVjG7nLvHOoJOX7sa+VA83ADfOnixHbwMv9c6xB6Wuqw+DLxRyyK6JPl7O2SqfDyU8YS7Y0jJvMPQVztmk/e7KIvPO8NZm7spLlc7gThnvKOOaz2rAb89ww7XOxPCK7xsLRo7OdUXPZ++KLwy6v68nz0dPOQIirwEDUW7NzgAPP7KRzzS3pK8yb4vvOtVUjwH+KK7",
                "BLmCPMpg1TqvMJy8iR2YvCGdm7zwqQ88erYDPfmpgbq8R/o7L9PEOd6Q2Dwbcsu8hJPYPO8tW7yI9y28SzkxPGOVeY4Lkki8s5LVPD8qILy0uyG8rsh4DukHVrxAqKE6D6f6u4vtHz1klHk9e8MsvEyF7jnNvnu8ZKuxu6RQyzyPJww8MPWqO3bJojuShHy8KKzsPJSHVryhnb664kDkPD+5IT0bgGqO4h86u1FWHLsyB6K8bCAivJPNqbvE++o8diffOzuKz7tZg928LplTvGpQ4rsbZAe9LNIPPMSUKT1GhiW7Tdp2jh91ajx3vM28UIHSPFfQEb09mDi88kQhPLPRnby2VNO8f38QvbkhNr31/7O7rFhLPH4qJj6NJxk86WIoO+yCdjwgOPE8D2QpO6rcw7oXQ6i9QEqUvHi/hjyKcpy87DwDPN3ZLD1tlQe8rQUHPVrfAzwqGQK9beUGvLY8NTtYUyC6VAZtPWaqdg77pYu6UWQau4oSPzyDs1C9ytOqPHlrALy3jRA6XvNCPAYBxjy/Cmg8JrTWPCWgjrud6Xo9JoiUO41iSj0X8dY8qn1bPYNxljxXNR07InSZO1GZX7z/S1I8aPfnPNrOID2YWdU8zWRKvMc9VD3GVJ+8xwfSO2mSXz1wAEi7ytwHvNVx6jz1yrE8AiITvG8LXzv23KC8afgKPSvmArwUQ2Y8/LUBPfh6Ab1e5WK89ED4PHCtjLtjMLu7O3lsPC3+wbyaGB48Dc3mN6fBAL2y6ci8J7SyPKztzTqISa48xe90joXH8TwOxs085IaXvFOqqLyzAXmOoBROPF9aNj1+AcG5k9HKuOSkGL3aGQQ9eXDfvDYmwLvJfgg9KQ5XuiXGWbwXGu+67Z4KvUh1aTyM/Zm81oV5vASxD7xLTt+8l2gZPR3OeI6Jp4C7HR1CvHCjLLstBAO9LY+CPFpnpzsTZ/G8sTquPO9kuzyViFg8HsTKu8+MJb28VMC7jSrZPFDgwDuc4HkOI+uMO1jDuzxaYW67",
                "44V7PeOwsrwfOJo8m6sePXZ3lrxBu6I8NK6kvM1yOz3D2HG7g8/ZvPF8yzotapW6JR9fun5zk7yLZ3S80jTvPMLHgT1cs188Gh7SPAn4e7tpC5O7t/tqPNqPWTxyJym9GAsZvQ8K7zz+T3y8wCy8PG1FkDzNM4K8JOZ1jv2fXzvaziU7CmuUvOY3GL0L/8s8fxyFvNQxJj1ejDE9VuV4PNT657u27z89ji+oPZt/sLx9I0O9G+TXPCJ5ALxzEGc9HKumPELPejxIZCs7R/rjOnFhRjw9a+c8AT7dPPDDMj1M37i8r8AIPX7MlLuSjpA60JN9vAC/krwplgU8xb8sPF3VRTv9vKs7gQEBvIIdjTyAMO47s96EPJsKYTxeIPG8wOyDPPMtuDyyyOw88I2evBB8sTzaquQ80YyuvLnNHTxKCYo82h7fvPTklbodJ605PsYgvEV37zvS+HmOJE0WPGt1LT3W5/e8LKi1O72Bdo6RVdA8Le1fvGZdNjyBM188q8jkvJ/NJLyPLxy8EnAuvVDWV7ybohW8N11YPCzbU7zlACK9Zu9SPPoxL716RTg9hAzCu8+NFzw+l668fEFpjj1CCjz2mtg8A2x6PARHNrzcyze8RiVDvG27Bb0cgSe8gyo8PYj59rw1eZ48N3PEvVubeI7C/nUOzXJzDjMTdw5bGnaOSGJ5DhTsdw4G7nQO6Ex5jlUVew6/DnaOvZN5jmpPdA59Y3oOspJ3Du9NcQ5x1HYOxWp1Dj9NdQ42J3cOZ9NzDk3udo4Wm3MO+SB3DhSxdQ6kPXgOUN55DiTddY7cHHkOLj51jkhfdw4P33iOjt9zDowJdw4EcXaOdXZ3Dt7Tdg6t4XqOqEl5jul4eI56pHkOty51jhCkdw6hpXEObzR0jj/Kdw7jC3WOANt5DkSFdI4M1XQOziN2jl6Cdg5qJnkODbJzDmi7dw5OcniOk9d3Dtw3eI52q3cOWX93DvnqeA52xXYOodB5Doycdo5+LXcOd+F0jiV0dQ5u8XwO",
                "/V91Di9DeI4qh3aO/aV1jmPXdI4AC3aOoTZ3DrXseI4h33WOHJh2jgJYdo5ibXgOLCl3jgnOeA72KneOl512Do8kdg4IDXaOewl7DlOveI5bo3oOPHB1juRSdo5hc3QOLQJ3DgdXdo4k5nMOWo14Dl2ud47LfHkOx/V0jjigeA54ZnoOxGF1jpjheA4MV3qOEGd3jik8dg7SkHiOmRJ7DrFWdI4xWHiOg+d3jg1xdo7b2XoO12Z5jne8dw7LZncOebZ4DrMJeg4fvXSOeLF1Dnuyeg6oD3aONBt3juSTdo5u/neOw6h4jhxkdQ5s83YO+Lx4DmoJeo5Wmn+9mgJ2DmFceA6tAnoO+Rh4DuRAfY5mHnaOZwd5jhjWdo4QNHqOsVJ5Doqydo7oQHsOOfZ4joPedY5F/neOzTV1jtGYdQ4A5HSOSE56jniid47EgnmOUOZ1jgUBeY7H5XSOvwZ2jjq+d44oD3oOUq92Dplfd445q3iONR93jquVdo5AE3eOiCF7Dk0sdY4DjXWOEP55jhk7eI7oEnaOylx1jqpMeo76N3mOQi54jrwUeA6cjniObfR5jhhNeY5hxXoOGlR4DtxKdY7l+XgO7NV6jlFkeQ4gc3YOtu13jmTldg6X4nYO4RJ3DmuOdI7Ok3WOuaB4DrPGdo571HQOno55Dil/dQ68zXeOxg54jkjfdo7ETXcOCbF5jjtsdo4gFXqO1NR2jsgWdo4VhXmOXBR2jtqteI5G1ncOERN4jtVReg5pjnYOEx14jvcAew68S3uO4yF6DhiJeg7dCnyOZDl3DpZgdY5uXnoOhsd3jqGzdY7BuneOGAx6jvx4dg5Rt3WOiAd0jn6feY6iVHiOqud5jjk5do4NVHkOIUB7DiWveo7QOHgOl+d3jnhPe44kTHaOo+h1jk17eQ7b63kOLa93Dsrceo7GAHqO9c90junIdo7qBHWOqMl4DhjBdY5OB3eOF3l1jnQKeY5yEXUOJfh6DnaHeI4sfHmOLKB6ju+udo5YAncO",
                "zHZ6jm7Jkb3/zHOOVq1kjuWdY45bD1yOE653jhjAdY6iDHoO7B11jmdGdo7BF3qOBOd5js3Ud47nknWOEwl4jt8sdY7nB3aOOVR0jpvlb45eK2mO0w10jjjUeY50hHgOawx0jromdY5UJXiOn4Z2jnEfbY7ro3mOXE9zjt2/b45AynaOGmZ5jl/xb459SXKONU91jgSnd45UwXSOeBJ3DlxTeY7oJnKOeKN5jtAZdY5EjXWOn1FvDre0eY50/XWOYx13Dmp1c45CY3cOBHV3jp34eY5c0HSOQolejpT3c44/nHQOR8R3jkdFdQ7jUniOLLV2jiPXeY5IbXmOTBF6DlNKdY5Y3HmO5yt5jpgOfA7IrHWOVOV5jmYMco6Wv3OOi5F0jtMPeA4FtHcOOUV1jqQ3do5ydXOOBlB3DgTpdY6sh3mOs7tmjh7DdY5gqniOv4p3jpF+dY7WynOOgh93jvtldY40lG+OyOR0jneXdo7KKnGOJ6h5jqGpb44aCHkOHghujkH0do6OHneObiV4DkRUb44OQW6ObXl0jr5dco6VoHiOxsFyjoyWeo5ypHSOe2x6jivydo4fzHSOdXR6jlnidg4PlnSO8Td3jkSMeI4qPHeOLDl5jlKFdI65qXaOJOZJDrKNWY7aeHOO5lB3jpIve469iHSOabB3joi+dw61THcO6CV1jszAdw4d93eOlhIxu/p9lzyIsgo8CEoHPAcPdY4wbpC7pSM+vGXLKzw6uw69zpmmvN1/4zupwuq8puhqO2N+Wrwu4ui8P4NOu87fNbv1gH48UB7qvLCaG7uglUC8bcKZvGJe2jsr1JC7/wumO/+zRzxd8eu8nkQSvUQNnDvyBDg8kfDnOwXyRD2xkIg9KlfiPA2PXr3U6ke7vtqrOXqUNr0t4nmOu0qtvIqqnTw7x0e8TfZjvGwAM72X+PG7J1I+u+wUuztcVfS8azm0PF98/jrEZgM7noNcPP6IBL1EmpI7lHKOu1N7IzySRp47uPyZPKtYT71P+sa7",
                "ZuC6u8KxvzvBxIy8KglIvEL/d7x3yCY9EOcNvPkXsTuRpYs8ilq4vBk8trsSYAE9XttyvLs6IL1TkNe8uhlevVbChLweOZK8YxCzvD2TwjzmdOe8s2whvP83jDwf66S8cBqWu4SVWTwf1M48MhVTvUTVTL2R4pG8YAKOPObN6zzgjYk7Q0wpukQoeY7b+7W7MV0GPACvhryOZIe99V92DttH87o0lgW9rGuiO22DuTwBZBy8jh7QvEL8ujzJlM08fQ2hPM6mCL1s25o8Y1upvIc8iDxD+im8DttovWEm3bzdG4o7ZIUnvKjvK7qRIXcOEQdUukzRcbyDNR687gdqvUT0jru2hOQ8OV3IOnb6NbzHgta6QTkrvWBfgTy57LA8lA+7O5ctJzzgdYy8py12jub0Izz5YIO86dVyPT3VGDx/x4A8RvmdvIjMi7yCaIc93XNIvK80WryzHpA7gg2wuu9YAj4DTi46pcqevPGXszu6W5c8vMhLvBhZLTuxeTK80bWtOr+5gL04b6G8/JJAPSgF4Tx8kT08qyYNPJAwATu0ydq8jMvvu8+6PbnCphu9aEiEOwaidY49rAE7IZAZvL4w1zxctZy8nxaGvAgcnDwC0by8FZ8FvCWSjrsvrhU9eCkGOT3gLb0UXmU6dg+ZOyUjpTvjtSU8Esn7O9JFizxr8SG9kEauu4VgQLwmzW07VM2Bu76cxLyKog28THS9vK95vzt1jEe91/npPD5q1zu3wd87sOF5Pdoze7v8+gS8w5MevPIWKz0SI+0852JJPUovVDzCeR49ktlGvI5tsryK4M68kRd+va8ZfTwKq+q5W+7bPGMsQbzNjOm8c0yFPB3fDjz/Mhi8p69nvM1lVbx30N87rG52DkApUD00/S24tAYzvav4H70R73YORLUqvIQWWjyxTDi9Vo/KvLmxejyfnS48fnLWu1udsTqbs6c8ahKJPHw8YjwjGwk914NOPIzx/rzq/8S8LoPbPPDVAL0cr4o8dImwPSPudA65jYM7",
                "3YRzvJmHZTx0jNk8pQ0aPcOJND1+SB47AbkPPNSFwTsMciW9KFLxOzEUQLxS0HoOdDV3DklPdA4e8nOO6Y90jhyMdo5hQniOT7h1DsELdI5BSnsOMkp0jt5tdY73EXiOD1N2jh69c45BuHgO2y96DmZmdY47c3cO/yt5jufvd44nn3SO0Md1jjS4dw6c3nOOJht4jhxYdQ49qXeOkZh0jkLZdo4IjXmOwlJ6jouGdI4c8nWOK/5yjkgAeI6gr3aOVRFtjlrgdY6hUnOOSQd3Dhm3dY5ZtHeOnd5xjkFKd451inaOFyh1jmgFeA69+3aOFmR3jme4dg71mniOA1h0DvRjdQ4o5HWO1ot4DngTdo6ns3eOftR1jjVveY48cHaOpXN7DqyYeQ6jSXgO65B4jgPRd46leHaODT9yjmE9eY4XV3aOB2d0jp2PdI5W2nGOSml2jsyVd45sxXWOeI94Dm66d44qlnWO/wRzjpw4do6dx3iOu2V3Dm46do6vUXWOIcN1jsWkeI4eOXcOqS95jm4cdI4kG3aOK5RyjnS7eI65y2kOHQ93jvyKeY6vGnaOWq94DvqydY4ca3cOnZ97jgqoc44JEXaOBDR6jmrcdo5B1XWO2m53DjBEdo5IP3mO1nx3ji2Fdo5s2XYOjrN4jitgdo6geXiOCbh5jiyoeI4kQnsOsY5xjv0ac47YiXoOu7p0jieKeY6YLHmOTcB2jh78dY64r3aOSy90jp/PeI4vYXiO2ESyvLEf6jv3bbG8r/YkvaekeA78uqQ8OE8svAgJhLxOQAw9CWJVPRVQW7vU0Ce9p1zPvMt7QDyQmsg8gEXPu2VO5btv7sW8QFxMvCYoiDyHM9+7GP4yPYZtsbxDlOA8UXoYvdpGhr0SQrm8apjgu2rEyry1Kem7o02HPVpODL2zH6C8pWf7PLIkNzwU7kU9suOduTP8i7uR33sObDgdup0unTvgfJC74jfQPLFIAb1TzJE8DCqMvATcuLyvrqW8Wz0mvFtCozzTebU5",
                "RTcsPEUwmjxv1kg8kEhdPL3+FDxmZQI8YAXDOwm3LrupzZw5fxfcOwAuTrwTX7K8ImY4vHkSF7yb3Cq8G+WePBM21zi3RzO8RZyFPAwfwjxmlEC9N8IAO/smvjyMTRW933asvKtYI7vB/Im7TPOHPMadGbzRWOA7bqKmPNmo87wdaEA88UF+vH99Tb3lw948CJptPWcCGTxyVKI8MoFEvWfVW72pW+S8cGgyvCcjcQ7RD4c7ZBAbOylKRLxn0be43Bx5Dtbzhz0wlui6l5oxvNKBBb2lPdW7GboIPAQ1TT3a4au8HORWvNDZ0btBpji96fOovNa847ydoo88NUrNPIQsbTx1JZa8lNmINjKkwLwRYniOgE6HvA7wyjvnpAk6o7UJPJdB9Tzh77W97E6xvas2djqmLU09BHqDvLmPQDw4U8+7OD12jiQedo6HeXaOcvZ6jnTReA4PVXaOrth2DvuceI6HZHoO4E96jjlUd44jmXiOBH55DiYGd4498HGO+tp4jnoaeI7ktneONV13jtSjeA6VeHoOjJh5jgxadI5tU3YO/rZ5jsVHd47TXXeOw4dzju+YeQ753XSOTyF2ji9Ld46wV3iOIWt6js73c44Ty3eOTJ14jqNEdo73RXmOjc54ji9adY7OhHoOJup4jm58do7+H3iOB0Z5jptHdI7bpXsOR/p5DlZidY6Qf3WOSlx2jnC5dY53wHgOQrp4jl7zeA6VAXSOMNN3jspCeI7DeHqOCsl2DqjTdY5gY3oO43F0DoZjeI5IM3iOdoR4jkkeeI5uzHUOpV56js2ndI4hyXeOZQd7Dkb9eo4tjXcOqUl5jsu9d46ozHiOyHt0DnBXdA7tD3OOgaR6jlondo7FvHaO8iN4jsO6eI4c2XWOQVl6jurrdw6lnncOGdB6DnOveo6z13iOpoB3jju3eA5IaHgOEpp2jlKMaA6exneO78V5js31dw5yr3YOfGZ2jl1CeI7ZyXSO8XR5jnE0eA6eAXWO62R5DgayeY5d13OO",
                "diJ3DhQfeY784HSOVxN2jqw4d45jJ3iOwDl2jk08dY687HkOKDJ7jic+eY660HiOl2x3jh8Edw4VcXiOBId4DvcYeI7rUHiOkFt3DrtjvrzCfgG87IHlPNhNIjoLQ2IOy9/eugOMvzxhohU8MsDlvGrOEb08KqY737yYug/fCr1Vb+Q64X60O67PgTzuCW68ppI7usc/Hjxni1o8jH5FvMz96zzGKiS8sQZ7PPZ2Cr13Tgs93eoQPZtAgzwSSxU9NwNiOx6S3TkOBJq9KtuWPAyRIr3i6K08oZRUvB0WGz29aRI8ilR2Dh/3kLwf5Ag8+2QdPbFjzjwDyTU7dC6dPE311byR7Ic8I5/YO2KUGrua0qM5owVuu/xU17sRLoA91WKfPBZ8njy6I5o9Mi03vXZZs7wofne8Ec22PFRNBr23mOo8UuoSPLwdADyuxjY7sjc0PHASiDz4zPq8O+DmO3g0GLumUQm8dl+OvNM0gTvZy427mBsbPM0TKzzdrya8gIXPvHbwdLwDZE88x0cSu8Imjrwh9OQ8mGGMOwuIm7vla486zFzZO8mgYrxF7SW8agTGO0qnFTzmYSa7irqMPLPl3bu6QHcOsWU7PGdnYzzala48/a2LuxVQdI7+rPC7DVPsPMn6MjlPndK8IiOxPElgO7zADbQ8441OPBO/gbz1iY68CItuuoY8E7tiCNK6nbixvFHQCLxUOTS8VrUOPSWHdzxVsOw6wkB2DpjMIDyPZCo71dctvPBeCTxSH7i6QSHtunj8yzvmqo+7qgovu6BweTximda85glAvdSWorjcZDG99OiuPBvycg5et7e8jDZVvH6G4bwOSPQ6KaVFvLeJDL39QYO8Xa8qvUJLR7ykxlQ942KivNbXMryElpK9NF4wvHfAjbzCstG817c2vRrjQjwsQMG8jlwKvb3BFz1lXCe9kCEJPIiOW7ydBxC8WzsUvIh6trzR4pa8kHOAvMEnIjz28607de9OvZH2ETw0mXcOVgQYvGAZL7wKet07",
                "F9iOvQospLw01Ak8DVeevO4TOjxXsJI7TPdkOpC7Qry94sG8w5U6vYkSlTwnREm91kC2vKIPMb2ZyMu8ZC0bOgnWAr3DK/g7I12JuwL0fjw3Pqg80nznvDQfJL1sZq28mYa3PMtBiLy2Tsm8qthTvT57CDwukZ+7Y5HvvCIcWbw1Ori8RquFvJgFPDvYn5M8p24mvL8GKT2gcbK7FD35O/3Rqby3h168mB00Pa96B70ImqM7n13AvK+h8Tx1uzU7ebjYvO8sIzxJwjm9rr57u04od44yI4S7ACS3u/GFeTyZZvC7Vcp3Dt68vzsAWoO8ZLK3O65GzLz067I6I/M+PNXx9TvlT9C8DHTUPCOGOz0ZPaW8WkhsPE1mXjwm6MY8eXHhOp3107xoxhq8crO1vBSXQ72vXncOZHRRO7sA/Lw+irC8tfA3O1YHn7qQloO8ki4WPRhRz7yocpG8oei5PGIjnDzZjsQ9r+EPPZ8pgzvhsC49ejJ4DiHUFjw15XI83ELKO9hRZT1MZlc97/m8vDWiFT0C/748lCJnvSlBxLz7A/y8suu7O9CC9Ls6uU46vwmdO6heiDwZIJo9ujqfvLOTgzznFQg8WjUtPaickjxpugI9Pm4Du2LVNz1urks9SYqBPIqKuDzR4oE8Yy6EvOgSoTp2Sye8KmIgPF85dw5G4ci8sjX+uzOjPTzJcPM8Jok3vfv2oztyUNA72jNGPXhxlrvPdPC8JcvnvKihbD0Ba+w6Pw6Ut0vFTzw4+NM8rN2UPQ0qADzGKyU9VtejPF17XLyiYLI86RWMO+2Uljza2Gi73GlfvRnW87zQvfo8Xn/5vH25EjvSk4A9M+ViPaBnFL2NHgI9BjNfPNwMEr3tXgI9EIKYvNTZwLurGbO8jCgAPUlEgT0pixC8IOdcu4TMKz2ePAI9bOIpvPT2MTtvOdu83I/XOjDEqzx9rb88K8nPPDEd8TujnZE6u/V0Dp7/Rjt0WyM97wrcPLd0gb2lpXiOSz/8OpcxXT2NjjE9",
                "r30RvCb5ODucBNa8FQHDOhIHtDh3ygW8OPvPPJ6dM7xlyXI8tYn8vFQ7+7zqYVS8GfmovMZ8fTyJU1I8QFoUvMSBe467PYE9BViHPXC1ELxJ5iu9zEVOPONvnrweVNC8uQ0rPVXiM7sRfBK6lx4kPMP57r2bTF09M/q/POnyaDyA+HiOaKnvug+siT38+9s7m6TgO1Drdj0c7ss7OG5+Pf/wjr2mWnS8x9isvP53xbsaQKK89j2MvFCul7uWhmO8Z+iKvCll+Tw4Cvi6u6mZPNy7sb0Gshw9M5ANvXzVf7sC3tw7KanWvBGBOz1EoRw96MZ3PL/MBr0zTjO9IwgDvfWF2bxRo607guZ1DtKZrzz8TOI7HFbUO5AzuTz2tAi7KC5HvPmWyjxMJ/w8iGEEPf4Aajp8mpk852upvGjrOL1HsKI8ILVXvG25t7y6tdi8XT3ovJceOLtLsJw7ZoprvA21oDoQyPC8q0tdvLBUGL2Ysrm8SjKpvDqnJz3FuSm83VHQvExzKj1gHrI8UiMJvGAV4jz8A+q86rdlvNiTzrzbq8y8GhV7PIOGsLuUviS9NiIEvQQp7rps66K9ILweO4flhT2xG+a8Q2P4vG7hv7zK2Si6OrrsPHvVK73LEiE8/sRHPASiET1623WOG3GSvFJtLT3JS3w8P2yevNFMeQ5jhOO8J68VPJj9Dzu4TQ29NOLXOeTXgjykc9G8d7GMvJVF4TxmhCI6pQgTPEoVmLxhSgY9SrHIvLlNH70gURe8VuEtvSkn8TypkNu8XPx2DhabsDxtZ4w9a5njPExojboZ9+08OvOsOsDVfT1jB068NTDIOBHhQTx1BSY8Zj5AvPGzdY4rhXUOG7N1DrwvfI6K73eOsVF3jq21d44cmnWOsFB4jgn3eI4TuXcOwn58jsZQe46BVXeOOYp6jhXSd47ZfHYOdwp4jkHQeQ7EGnoOTT54jt2Yeo5kmHiOi3h1jpCDeQ7UFngOZAB3jikTdo78rXmOQg93DsXudg60DXeO",
                "qvp5jhE1aA5y3HUOpu15jurAeI64/nYOcmB7DiGdeI54C3mOoMt1jmLAbQ7bYHeOdFN3jj5OdQ5sTHiOa0R3jlrScw5epnQOPPh5jlLHeQ7Bx3kOLdprDv15ew7PY3iOXlV3jt44dw74HneOj2Z3jtZoeg6/nXqOrXN4DpdAd457oW6OE9d0jlSwd46/AnkOwCZ7DhYQd45CkmwO4VJ1Dj+idY6oAXiOVt54jkWjdg7ZoneOg4R2Di32eA7tMnkOE7dvjhjpTA6HxniOCGZ4jh2fC45VQXmOvq53DiY9dw5aPn2OA9BaDg5Ceg5UHXmOF4Z6jlPFdo6W8nUOshR2jimoeI7q4HQO2It5jtw4eg6LnHmOOg12DpeOeA7UgnoOhSZ7jgKUeI6Gg3KOmd15jmEGeQ7K8HeOQxd3Dm3Qdo4AeHiOPol2jvNBdQ79wHgOxUJ2jvCEeI4MCnuOf3x3jgZEeQ7p5XmOObF3jmgPeA4lzF4Oqc93DigIYQ5MU3mOSzlwDgWfeY55Txu+t440PYCyibybwaq74y53jvxpIj2UYkK9SJcQu3CuoTzbupe8UQDGPGf4Db2FPQa9XMvXOwLXPLwGBkQ8ZicCu4MT/btCg568k9HTun05WD1z6vi8Bm9lPHz2Xzzwo9k8+sXtPKvKJD2AlXs9u/FOvTfJMj16pKw8BZprPd3rAj2pUIc8AIb6PJ/etTwNX/g87L3Cu1wEeo7unKe7A8FeOiAqRTxmUsi7YBcwPWbbnbvoev+8idZnvbuKpTxwW9W8ffWUvNbphD1CPu27cEJDPKRUcr0hCCa9J+4svcDuAL2uxDI9YS/IPMJbdLzfOYO9YtQkO8+j0bwp+lK9e2aoPA9uhD1bzie9JmoIvVftrjs9NSi9G42+u2eRBD3iqK476FyJPOIj+jp946E9Uab4PCexBT03sTs8OCibPKDdyruXJlE8nF0JPfXxuTveDtu8dD3VPMLz/7uC2CU87Xj4vIdIoj26HZE5BvQdu/5hPzzAtxK9",
                "28F4DtM7oz1wQ+88oeq+vJugUj0AYneOCoo2Pc8G5zsX33y8m/GBvGqxZLxuLk+9v6uBPPnwHTxIKgu9p9GlvFSc47sc3W47JMltOySUgz2ybQG9JBsHO+60nLyIc6U8r4MqvWMCeo5uDYi8ersvvOk35DtyhKo9MwioO09y6TxuqCm9btCEu997e7sw7l+9GYTRvALzsDwg3WS97sSFPEytAT3jwnqOLEW9PMZIpLyfEC+93fjbO7vzMD1Nc5m9Y/UVPbAyk7xuSMO8Rw3HPPbXJLxXErC6be93O3+tzbtGMym9EgUOvK/igT29wK08fvoDvEFdozwRMLc97phVPXDWI7wW/Mc7iSwgPGAR+zqJISY9vnnSvBP4hLzd2P+78K8UvYRNoj0QJ1u8b/t7jl6YprssIOO7WFtkvRZ2hrpr5km9Q1AhPaFnVbvlI0Q9OH7rODnH4rtJKve86VKevF4cgDzr4SW9olA1PM31nrj7x7085AE2O2156Tx9oeE8GGelvSjzOLzSVlq9YxHIvHUeQb3/2UC826VTvJ+gcbzbBhm7iXILvZln6jv+u+K8PflDPGCFrDy+gTS8xgIPPOxy2bw0hWW9/8qmvJEdhDy7Wf68gVu7PNgUnDqvH1q77Qe/u9WsGj16qQi8kNkQvQZ79bvGvrm74DMuPcF3/ztqzlY8sL4OPQJe0ztEwnUOpb4avcezx7xbZec8TapgvLIAeo59nYQ72gC/PHok4TwRgoS98jI0veqxCj27LpS8ACjJu3vFlr1aL/S8gvt2PFMid7uXAHK7EB0Yva8sEb1aZa+8fVt4PZyqhL0gduw6/d12jl58ubrj2j+9yTPRPSVUE719PIC8rpgbu3rqrD1R0ny9Sutfu+uOz7oGtqS7a3MMPPIEODp+Khi8xABQPEYReI4C39y8uGjgPHODwTwvrqM8Ph2sun+Igz1SGZs8UmKzvNMzLLyiBsc6kzAIPB8NjLz1SWi9Gdq/PEAEh7wqBVq8p7aNPFizBrzZwyC8",
                "KVsRPmX/pLwo0pk8wPYAvFF8KrkLq5A6TIxoPBqLezxG4Sc7t1bzuw8d3jt0qvA8oiCCvDxrybxKonWOkVoOvHGa7Dxipf88s5eYPPJRoryopdi7Y379vFeDIz12zyW7HcrdO98aJD3mVUE72YI0PSFrILw2DL28T97nvIBJWTxo/6Y6wm1JvWgFZrw8mHy8EYgbPCmeBb0Lrg69Xl2dvJY0nzylbu28UlnSvLgZJrwkQYk7vENHPK09VL0Aq/48p0EsvFjY57qcNHE7s9pBPNmknTxH7Lw8lCFKO8liHLwobjk8jYYTvLWNEL0BCve8StNiPNU0s7voKoO7FI2jPOCrEzyA6Dc9Gz3tuwpY5juFrjs9Qv0FPQ8zeI4Y/WW85nyFO1QArrr7WYQ6pjl6Dk70GD3babe8xeFIvEfWiLzAZA29NyJ4vCRKvzsmDXU7sRcAvF3ptLy7h9k6gCyHu3Lnmzwg9TI9DYc8vKLRgry71628bRAOvQz9A7yc9HWOcre7PLyiFzymaNA8h80lOut1g7pQFbW81xdhO94H/jxL4kA9No5fPDhTP7xxF469kCh2jmyceo5v1XKOZPp0jkZkdo5Y43sOkyV2DqCWd45WIXaON0F6jmcQeY44S3iOqOx1joAveI5g93SOVLx3Dkb1do4O0nkOCth0DoL8dY40EHoOrU16jpSSeo6FMnqOauB3jkAveI5az3WOZP55jstfeY5Jn3qOTQZ2jg2vd44DfXaOwuh0jnKTc46aI3eOD7p8Dtu9dw5otXiO1fNxjkZLdw7GLXqO+1Z3Dr+td45U2HWOQZ12Dtp1d46bonqOuxh1jqDDeY4hu3aOaHR7jit5eA7wZHkO4ql5DnaOd47FtXiOF313jlt+eY7ho3cOAP56jtEndQ7Ii3sOunl2jlGWdw4s3neO4UV2jowWdw60BniOBIh1Du5Sdo6+9XSOwN93jif1do41hXeOPOp4jpd+eY46GnqODoR7DoVFeI7tRnOOhGh6jiUzd45RjHgO",
                "r6J3jtkUd46bEXaOjux4junueY6kh3uOSe55jvC9e440ynaO3xJbDk85eI57H3qOJa92jm8/eg4uW3YOr194Dt+HdQ4c/naO5yR6jqwaeo6GA3iOcU11jiHCd44h4HeODZV3jrrRd47kc3aOaDp5jmq/d46bJneOiGh6jgWUe46Fj3aOxzB2jpJZc47j7XgOW8V0jpnLeI6NJ3qOM913jmeJdI7Xx3qOmvN1Du3Pd45u0XoOoV55jvYnmLwCjqK8qNuVuQvqt7o1/XmOZtWqO67t0Tz4NHa8+EEVu1I7NTsu2KE76PPGPDJ8uLv9/w89t1uBO56fxbwB6hU7UE8MvS22rTwsh6i8xObovKEwI73hbou83C3+PH+cNb0gfs686emIPBUvKbwCdhi8rXjhvEGMAbsj5oO98/KMvH45zDzb58Q8bxFIPCe58bwez5073Zl2DsI0c7ppTaC80QR7vG7YPbwPJcU8icsoPCDTjjxI4Zk8IUomPeHo+bvskaS8e88HvWl/4jxB6tg8piaaPB2Wojx9a6k9BNxWvDaaBj0lN268cHMFPeDGzbypZU66lqRVvE6Be7x5ITm9LL45vRA5yjsuSXW8wf0EvZZnQL3juSA8vjiHPd0EsbsoxPy7Ys4duy3bgbsXIco8D1sPve2FH7x/8Gs8UtrHvIu4nTysA6a7hyxJPLxizTtDJ2s8/HaDPK2YZLs7Sa88vWKKPJNOnzy8TaK8zWFgPfsi6by59XWOgpxjO/B4lbyIqiA8DliyOpvkeo79XCI8QW0cO5T8hjzCIZg8IcN5PXiVpLyIm4Y9QRuNPOpikDw8D767DQAEvFS9pruaZHW8WaJZvGckcD3oKyG7eB0qPYtqh7xdagi9MmB2DncC5Lvpm2M9t/I9PamOhzz1wbw7JBFiPIMi9Dyb8pa88q6MPO2r87uLBVG84reHvHDldw52K3cOdqF3jiBlZY5CY3sOldZ8DpVEdo5qpHsOqKN4jqnIdo6EvHiOxdR1joIrdI5ju3SO",
                "mgl0jsozeI5kdHmOpHl1jtHTd45+gnkOFep5DtzHeo67CHUOoz92jiLHeo7qXnWOYDh4Dm4YeY4oOHmOBzB4DopEeI7ZnXWO+6l6jlFFeI7oJ3eOrNR1jhr4d45bonoO5Yh1jkHPeI47s3aOKUx2juQ8do6NG3mOKch2jq9hd44W9niOxmF4juWPeg5/m3mOzmR3jvBNdo7/i3cOt4N3jtWnd46hK3OObc11joPveY7RsnSOvd12jmNSco6JPXiOP4N5jq4Peo4zzXSO88Z2jgYUdo4zH3WOGcx1jhNIdY4OXnoORQ13DkqSdI5vbHmOrfR4jivyeo4iAHmO0sp7jvaydI774XaObWx4jpz/dQ4nX3sO6d51ji4wc44cMXqOUV94Ds5Vdg6+XHiOD2Z2jklReo5ns3iOtst6jg/TcI59Z3mOEvx0jk2yeo4vFnaO4lZ2jipedA6Av3mOw4V4Dtejdg47VHkOsxt4jjZ2eY7XoniOTNN2jhDvcY64cXWOfFl8DjrCd46VUniOc/h1jlHvd45uWnoOU1t2DjN0dI68FHaOPq13Din6eo4QeXYOpXR2juOkdg4T+HWO4op5jnyqd46kc3qORYl4jizbdI7umVm8yyF6jir9a46WT22OSRNiDvfibo4dxHaOLTBzjq5hdY4iFHaOS2x4jgP7dI6V4XaOTihzjrEZc45PF3COpnphDpNico65wWgO1b5yjjGHdA60GHmO5et1jlCudo6CX3sOO3V3jjSjcA6/SnGOGwB1jqVfcg6Ij3WOfHV2jjzwdI77KHCOGN9zjolMc46J1HSOXmJqjhH6c44OfXeORRp6Di5FdY5XSHOOuNF0jqDPc46ItHYOc/51DuURdY7GgXaOgEh2jjrNdI61CnWOab90jhttbo6+n3COyih6DnOIc45yVHWOxLJ3Dn5eeg6dhnOOsKZ0jhuoeI7TZniOTi51jggSeI5OKHiOfUxzju9Edo68O3cO7NB0jmiAdo7K13GOU1x0DgxueY6TnXeO",
                "Cod4jlaydA47jHaOufhyjoLzdo5Hy3eOC1J2joQicI7TPXSO6Dh0joOxcY7x7XYOpKVjjimYdY67InKOTKBzjmLgd47cCHMOH4dzjm/xcY7wcHOOQLh2jg8Fc46JlHQOctxpjsBQdY7OBXKO859zjm/+dY6m1HMO81l1jmGLc44MMHaO80h2jsGTdI6cu3SOVQt1juyud45Cf3WOA6Vujl7cbg4MHHOOxO93jp7DYY4cXm8Oa6F2jjmodI49nXeOXbJ1jm+Xc44+3HiORvFyjqAjdg4sQ3SONVB0jlA2m7rbCHeOHuR1jgXxc47ClneOQvByjoNOeg5EYHWOfkF3jv+SeI7GInaOAXF6jmI0do5MkHkOVW5zjmbkeI5SCnWOvyN5jgMMeY5VrGmOSjl5jhv7do7vYXmOhZV3jn+jdI4r0m+OM7B5jvLLc47/N3SOWTB1jkFJeY49J3qO7YN5jluieI5w/XCO5+FyjljHeo5Z13aOYvZ4jglDdo4Y93SOLbl7jnqqdI70h3qOmgx2jqz1eo53s3eOIwZzjkZLdw7CVneOBFd0jkMcdY6nFniOD+x2jhqveg4IjHeOwkx0jqc7do7mdnmOcDt5DlPadI4Ea3iO4dV5juQEeI5P5HWOAMN1jmwdeY7lJHaOtWp4jtesdY4ipXiOqxp6juOido7nGnSO9qN6jhLwdo47Q3eOHiB3jp2Ac44PlXWOQux1DnCHeI5gzXqOg6J6jpzddY5Le3MOKNl7jvyYd46+x3WOPUl3jiCQeo7P3niOMCV0jkdtco4MQ3eO3ZRyjkLjeQ5iMHaOTx10jiYCd458gnaO2P9wjmXodo7WFXkOshB3jpmreI5DrHkOst91jv7Ed46dKXeOpcR5jkjNe44cTnsOzst4jlNid46LOXiOTGhzjkJcco5QcXWOwPJ4DvR1d46gKnmO/9h0jjqidw6Hp3aOMMB4DtjTdA4C7XOOcod2jodLeY5qaXcOjxU4vdlZeI788XoO/bh6DmE/d44lhXmO",
                "U6Z8jsa5dI6RjniOg111DkYFeI4maneOhfl3Dq0PeI5Cd3eOOhl5DvKbdY4RmXSOPQN4jsA2d47WQniOA1t4jkJDdY4sa3WOSEF2jheEeQ6HyneOaUB1jsASdo6kC3aO+w16DqgteY4+a3qOL1V1jjOtdY4FM3sOmHN1jphceY7jfHmOwfx2jqI4do7zt3iO+2p1judedo4i5XaO6WJ1jlTceY6GXHmOGaF5DrTLdw68SXmOKYJ3jrumdY6oSnUO9hZ4juyZew7bv3UOJX12jsksdo6PZnuOhyx7DpHOdY5FSHSOBvB5jiuEdo64m3WOuGp2joPDfI7nbnaOiAx4jvdreQ4twHaOEF93jgsEfI5ck3iOezp5jk0Pew46gnqOoK15jkIrdo71GXaOyUl6jnlueY4053mOi854jhgheY7yFnqO8tB3DqnDdQ511XOOamt0jjUodw49eXeODUp4jjfeeY5N5nOO9bF3jo/udo7OBHaOTKZ2jny0eA7bx3eOyQ97DsPTc45ddHaOXQh4juBFdo5/vHSO6Cx6jiKadY4p43aOjTF4DnAweY4CcXqO3rt3jlElew7wZXsOJhR6jvj7d471V3WO9090DjNDeQ6RYHaOvfF5jo9/eQ5NWHOO1/pzjq/DdY5Qn3oOfNx5jsLCeQ5TYKG8P4vfOwFW4DxKyts8WPd4jrxXLT3dXw69uZjYvFGjDr2FPVo95EvvvDmIXL0whqw9QUU3vSVCwbv7iiE8raBOPIaVCr2GR6U8mJYwvSHTsLyzbSA8i77sPM5NsLxsMq29vx9yvIj2o7woL0a8NsAivNx8vDwfEI+76Tb5vBhiTT2Q/eA7qJP5u/dCg7u4S4q8toIaOyuMd46MvIw6q7IsvWjYAr0kiac9UbZ3vOgmsDwrtye98N59vAEL/jxlQx+8ncLfu6gJMjwU9rq8NQLhPW4YML1MoxS9/OdiO0ExMzx0CJm8gvLzvLO27jvJ7TW8F+AeO6z1Tj1zGce78F+OuzanPLyrlzk7",
                "BXAQPZwaRTydoYO8st4yPR9ImrwY0r08gbMAvGceuj39pqC8SmdOPRY9LD02gHW8mK0APpGALL2CIyY8QHKbO+Tinz2hj/e8z3kVvXZ4+LzJvcC8UcQgvBmlUrxAoGY8P6gavHrv3Lz/HrS7yZx4DvTK4rxtXDO9pi2kPTfPo7zWB3oOIUTOO4MKCTyX1/U8eLhgPJFuYzxXHhQ8YAzvvLqS+TxVtmu8nYr9uw0gmjyQEJA70Tafu1jAAT3Uv/a5tHhquseapTsyW8u8k7WXu6nkeQ6inv08OV9kOyeIS725jOs6boDVPAMfkDwaQK28y+mZvN1dVbs45Ki8gDuVvBvvl70n83WOWiV2jgLHbo676XaOD0l3jmPldQ7jFnaO5k91jsHDdY4MlHkOZXR4joVseg6VMnKOGgZ5jiEyao5TiF6OaDJ2juVOa44NhHmOq8N3jv2MdY7n1nyOtTp5jlMrdo6gSXmOQPZzjgdFdI7tkHqOPqJwjsmEdI6tO3OOO7h3DkFkco6/GnqOaZt3DgIRcg5GxHoOfnR0DgurdY5kInYOqNB3Duj/eI5yGG2OaMp8DkqWco54fniObN1zjjKmdY4rPXOOgb9yjudteQ4cuHUOHNRyjncIeY6kyXeOx3F1jopvdo6IzXeOTJpzjqtYdo7ou3kOBr90DrP4eI6cwnWOqtJvjnRFdA7pEnWOr9J3jjVpdA7tvXOOPUB2joYUeY7j2nUOq0h2jgYLdY6rYnkOVLJ6jhLrcY4Za3mOGOVzjsTFdI5+4XKOTKN4DlVJeY5Kd26O8ft2DsJEdw7QdmyOZMR0js+rdY5/E3aOQtVzjpaxc46P1XSODtZ3jj67dg5UynSO6DBrjsZxSo54bWyOOGB1jpelcI4fzXQOfdN0jqlUc45x6XmOPsh1Dl89eA57VnWOuy93DtHsdo6OqHeOn+h1jnBgdI6CyHeOQdVyjoHIdY57w3qOSoNnjrxNag5d83WOnSh3jjeueY4k3XiOF392jlh6eo5oTGiO",
                "HCd2jqFKdY6jMXYO/fomvLHucLzemzM9iFL6OPXodQ72TH87R2w9vNCqZLtXCiu9pXG5vF4kM7zkGA+9GyBIvDX06TzfWvo8JyIvvJmSpzv8ipk9BqG+vEv/qTs5v/o7o7pUPNtKFrzoaig8RnCEvJfPlrz7F+28Hf+ZvDZrqD3YZa28bbxGPNAFVTvi8Z88nYKzvOypBjwInHQ8ylRnu7dm8TykOngOYjs1O4ye7zxOlO682ZHvvEmLmLwvBsm8uyL4ugLFKLx1sog7+PHKvFrOuDxql429aCQ6PU3vybwckms9XUWbPDs1nzwQS/E8BB4QPbqPA7toE5U6c017u069ebzBi/W7R2xnPSzbBj3ttRY8GRzlO8hOsTsKpiC9kPdZu1JdLrwVDyw8Q9XsPM/xXLxvUaU7FIXivIjRNjtqrAC9s6Fuu1INDL1r+4q88LObvAzEHr1MmHo8p5bKu/krYzxCZB89keBQPO0pAL2M6SW97q50PByTQ7yVLem8NnP9OyIveQ7MYru8BhJxOxdMADsYhP88hQd3jod+TDy/2Vi7ZXpbua5BJ7ynr4+8wb1HPRQMO7s9JDI7mJUxPQrJczwxhBo9HAkoPIseZ7wSlQS9rX5UvDn1Tjzi69K7xdEbPPF9dD26AHoOw3FgPGL/Ozz58Xy76LrCPIqgPjxKIoW8FIueO9WA+DzWioY7eT6EuywrDjvJHd+7GADovCb9RL3XyP875qZmjofcsTzBfXi9qJzBvF8Ikjw4W3Y92cZ7vK1OkTwC7D+8K9VSvd6lCL2vbsY8O/E/OmKeLjtc0tG8BxxfPBiw6TsVbzE9vAuAukd4FL2DEno7bNT9PEU80LwAmgs9jE4CvprhgL3p7yw96XvdPBIjgTzHnEw8SZwPvaQ6rDvpvy69kJYaPC+zdo6+Phy9joyEPShTU72ILc88IUrcvKUl07zjsYM5Dl8FvNB06DqDEg89er0Cvd7xUz1dE/u8iKh/vAvdKb2meae8jZC4vFXdiryDOqo9",
                "wd4fPOysOr1WzK+84mqNOuUqNr1+Y8Q7b0W/Ou0ejzy7MCg8GZPZPE845LyVG6m9uBelPK9XQr2NN5G8uBNBPTYMdrxcQbi8BOz8vEb20zt2/RW7hxvSvHjJ8bwylB28T3l5PLp1eLz2sRm9mxzuvHpHc7yqxn84vfIcPFuMIDweRWa8Q9SAPU26Sz31DGO97Fx1DqZc7Tq3HAy82S8fvStHuDwQZHeODVx/vPV75zwIaVO8uU5Uup84mrxY/mQ890PJPPCBd71XAJu8UeIrvKjUJrs90UG9f5XevGzT0Dxn0Ye8Ib3FPFW9/jvalRS9ox7Vu2WgdY6HF9m86QxZPZJAsLvEt5Y8E+6WvDbBEDy8LEs6VmacPMvwgbs4Mu+8ReAovcLZGT2RjHgOKZV2jimXd44UpXWOEPl1jo7oew5SfHWO6t51DjoAeI5FsXqO0+R3DnOwdY6GPXcOosl2jmKReI5x6HcOBS54DsjXdI5eB3YOoNV1jqJndo4RW3mOsc13jgNKdw4cmXeO0k52DgDAdo6xpHaOLPZ7jthkd46NXniOxbF3juLJeQ5+GHiOBH97DocBdY7HnXsONvx5jlRxdw4VNniOkaV0jiMmdY4/mXoOXJ92joRFdo58sHoOk9R2jshse44y8nkON+l1juWYdw739HiOEMZ2jsj7dY6x43iOytR3Dogyeo4Gh3aOzoR7ji+FdQ6tV3iOgOB4jhD1eg4bvnUO+514jij1do7Y2naO9D90jtrie4751naOOC12jrvHeI65vHcOBkB5jqdkeo5Ze3SO+552jt7seQ6HPniO0bB1joM8eY6U/HWOGeV2jqIDeY7A+3WO0gh3jqJNeI7uw3iOwfN7jqJFeY4Bx3YOQbV4jkN3eI7wHHgOfYd1jvHhdw4F9naONMh3DilqeI4bbnWOSCR1ju2WdY4eWHoOUeB2jl/8dY4mdnaOCGF4DtAzeY4ZXnWO20Z5jlR/dI6La3oOb8R3DiUtd46AlHWOf495DtdHd44uL3WO",
                "qll3jvqMdo4JyHSOLxF6DlemdY7M73kOAl51jus5eQ5GenaOlU51jkiAeI6JMXcOO8AYvfKofrsIiIo74b52vAM5eo6x49A8dHA/PaVoNb3T5Zk8/nPjOxKJHb1sP6c8MKaSO1Bn5bwgXAC8gkPZvBsCqTzZwKk72RewOwWexjwnygw9bkQyOyozoLx/E9K9IMnDvF9vkLzeA748JnD4vOiP27v/GQa8R+T+u+JPvDzPnTe86a5KvOkQjjyRuQE8m7xMvbcYIzz15XeOcr9yvXdFxzvdzRa8YnlFvbw6Tzx3yrU8qsd4vQeNi7ypK5E8C2WWu4OErLyV7hE96cfcuu4c7Ly1GZU8XspiunfHDj0DWKy8PTkLO9BiyjvJGWY95jomPDFGK71vAea8P3DWu+8hk73dHRy82zaGu1B/AjwBaiU88Ak8PSyvmzsUptw8V5CZOUHbC7yKBMW99HPbvFXwxrsjdwq8sW9KvcTg1rzpXR68mGOkusPnT7w0FCU8Gfz2Oxry/zxAcre7hNNEvW9Ljbw1zB49abGHvTLwM7zim5c7WppiPZnmdo5S3Zi88QUIPW6PYLwcgFa9PNt5jkTHoTyG3dk7LzfFO55Ggb3gW4m7rC/ovLn/0DwJE0K8q/mCPATw1rwr4wu7UYHsvA79Wb1hbqa8LyGQPPkkzLuMfWI8Qm7au1XxMrwSK3gO7ZRzPd663zzjoky95NWsvPvEu7sCAvQ8JeaRO97DqDxfWIC8DJWTvL0N1jzGtAq71XqxPEYNMzxI/oW8VQt3jnQXH7pHOTc84es4PZ9rsLxH+287eKXsPNLI0Lp5XoQ8WoHOPM99G7zt8Xs8p/tVPEC1Cj3GrAw8Z3YCvEFVyzxZhlw9R/e2u10yOz0b6N67RkxePW5DuTpD7xg8uL0JPInXAD0tZnU8tDhgOyKdTjzWUQE7DudIun7wGzx5+Iw8mWN8O3o5eo49BpK8HyY1POuGMT2NOVq7pOBDPSPVYDxuWQu8PGKOu8NBFD1S7sy8",
                "cB7iOwMd+bpK4FS8ha+sPENUAT2XBlO7c/uPPRspSTymww69YOcFPeb9NbyBSwu8ufOnPAOxYTzq7/G7SkGEPBPgy7uZZsi893rku1Xy5bq4Nx09cxYHPbPWr7xPSVo8LC0BPNzuyTukogq7do+ROracBr2ORpS8TJRvPKDnRLwgSG86dRXQPLAMtrwMsDm5mGGjvEBnlbng8wc9hoVePCKPWzwFGBI8udjlOy6oUj1oTsy7eDx5DuZmIj2JsCU9CpGou6rxoDz0VnYOms2fuRGdoLwahtI7SF+su9EeNbwU2F88+Ff6vEc6hjyOjh48GPXwvJ3gJrs38u88/gAlvCq2rLsMg308AgqjOrtepbvHzJK898LLPCoDeA4WExo8EROjPFaTl7yNtqg6cmwJvM13H7wdjrG8x06mPMXyQzx0tTc9XuGMvEByoL2Rv3eOeyZ5jia+dY6nKHYOSB96DiPEd455PneOS/p5Dijidg4KeneOX5p3DjxdeQ6a/3aO6Vx4juZkew7DO3YOWx92jpRkeg6a7HgO0bt2Dlwvdw6QBXeOmt93jgWmdg6iN3aOI9p6juXRdg5Ce3eOjlZ6jtwwdQ5SN3uO8251jpFKdA7/xHWOuZ17DpxGeI7/QnmOxEF4jshOd473nncONlt4jgRveY6r9nWO2r92Dmhyeo7VQHiOR4N3jhMsdo65qHcO2th5Di/cdo7MuXiOtNJ4jvYieg5HiHUObZV5jjKhdQ5AsHYOa3h6jhwveA7U0HWOsQJ2jjtdeI6WZXqO7cp4jqu0eA4jZnqOhPZ5jtefeY77V3kOPEx2jsk8do4l93gO9Tl7DoZkeA6+wnqOL256DmmSdY4KkXsOUTt6Dt3idY532nmOdKh4DkgKeY7LQ3WOlmV3DjGHdo5zDngOAy57jt4heY6uknaOZQh5DldTeo4PnHKO1fV9jrsmfA6QnXaOoWZ2DjY9d44T7XaOv5l2jmJweg4ElXeORuh3jsXTd47LYXmOO7Z2DleoeY6LBHaO",
                "qxB4jsRkdQ4A0XaO8t95jgZQdo6JqnoOAAZ3DpQseo58I3mO3Ix4jtrFeA7wPnaOohd7jnZMeA6gUngOSmB3jlCOeQ5943cOyWd7jp7Ud47xvHgO8Huhva09tTtN//+64GERPXqJeo4LzuA8SluPvD/IDTzUuhk8kqzfPDoCPj2HAGQ8mooqPNYoarst13C8EJ05PNRMy7uKEee7iRKPup6rPzxz8CQ82PuZPFnNprzjX9i73f9HPYiduDvaOYs8Y4oXPdv+pjrZSpm7+PRVPXixQDxF4YS87GxOPfDi8bz+rB49n73xvO+perszDnEOWOyLu1TUVLy24im8ueklPJCZgrpCRgE8H8Q2vAawMD3DH528zX7UvORoSz0+ytM8Oy7MvAR99rznh7K7A13FOX3bnrsIebq81ERyPWwimLzI4Sa8i0oTvc84AT2xN7y7VFbwPLrKNLzbbCs7wevKPFkoTLoVyty7GJm5vOn4Erw3xHk6NG4FvXW1FDxLKgq9ljgKvSCkWzwiL6A8l8WVvFYQtjz7PRE9G7uWOZnl3LrHh6S8gaUGPRP6BbjFeWQ8IaV3vN+tczw4ee274uCIO8p+hLvCouG7Yc/Nu1hbe45iqiG94QAEPa3NdzoOG/86fpN8DgeXyDzpCHk8v/k8O1cDI7t5Xte8L7a4vD+HzTuqQYs62itePM8irbv+UEy8Vbc0OyDGCD0QzQ28922muzJzOTx3sUA7o0wcPIS+rzwmnnmOkPjdPH3KsbyKDAq92R43OorWw7w/Hn87SZuJvMXkNTpV56E8uHkQPIfN3LuvCr29YFeBPEhSOj0tA7Y8+1l0DkXyjLyFFRm93Y66PNr9Ojv9xRE9LbU4PFfh2bwf/gQ9Kjy1uJOqxToaKOU7yZXuuq9k/7vtKoM82K+nvBtj1buEWVO9VomsPB9/A7shBGG8nk2sPHEbPTzos+Y7NqKSO3Nx9jzEgyy8dfUZvE5Corzz9V886OivvKDxJTzAcQ49zIY0vBXBeA5zwKQ8",
                "IVTQvGIwGj0SwJ87E9iNvDtOEL1oIlM7+GdFu+9hEbv3mP06+pZIuCa+bDxiaW886MoUvCjc1jyvY7e82dgEvfzXCT2HZ4k8evibPKuo9Lxhipi8wJ1LPWqZET3saIw9gUyfPXoJ97trKZa870FZPHmQpDzRld68sh6nPBd8Zb3tX5C8GYohPKMaqTtsWd67ANaluuvaJzzXJBA9Oa7WuywkRrlOci+6bYlLOQEixbtJBoe8i5UPvFSChjyuDoe8gcOqu6EwJLr4FLa8Y0XNPCI+Q71ia647vAB4jgtrfLzLKQk7ZPpevNafGb3L+naOBQy1PLekQD1Vnqg63PoSPaM5abslShY7UUiku6AJ/rx+rOS7MTSBu6c9jjujVIu61AtZvH+GlLtF0i68/DTWOt0EvTz+8JU8WFi4O31qcw67nLc7scaSveE8/LyFCEy94P4+vIcuhjzeAG+8PW8GPKGLUjxTFKm68zkSvOwRg7zDAfW8wfgSvaHTIbudSHmOyGl4vAM5zjynAAa8OjZOvMowBTkWTuK76GqCPGYcXDweTka8pVhLO0RbQryQ1Qa7TPD3vHj1SD1PLCk8PewVuocoMD3XeSe8fKh0PDkrrDtbiUW8jiOmO+VhQTzcOl48gU07u94puzqQyAC8phstu+xtUz2up1Y9TP4bvMexAD0uCBG81+53Dm3ztDsaFrg6WxG9OljzOb2XJxm9SJIEPamamjyLjP47+jgGvMaVprxWvYY7dIl2OzMFtLsUpey8uqGavD1frDxwG7m740W3PKa5Wj3xEq086xgUve1r9jxyBSC9M3S7OehVAb27LNE8bIk9vY1qyjw/ttc6IrW9u6UUgrxtE0U83PNxvFmqiDs8Ol29ZW+jOnTumzxod8y7RE1OvEZIpDwOeQS9vp51PUchR7yxfrA9B8zKPJLRbLyoJEc9mlvKPJjCxjuY01U86LgKPaneoTz54R48xuisvFITpzzJT3cOh7VqPDONR71wC8w8Dv2kvOZ+fI5pCCm8",
                "vgW+PfnX2DwhzNq8DZE2vagxVjpqLx89XuJ0uyOEpDwBMWQ8X2gJPWIb0TzuQFa9b/5PvXvPHTzCqyQ9PKCuulfhETu7zkm7+ON5js/y+7tzYaO8xuJ7vJxrazyVhuY8o+FvPEut4zqjHpA8Dx6DvBVs9zyOYOm81mkcvSIbdg7BKnaO/qtojjkfZI7d2nCOu9t3DjZPeo5ls3cOm8JcjgUBd44l23iOr1d5DrpoeY4+X3WOELFzjhfWdw5dGXUOATh2DgP+cw7czXUO+O9zDjkIdY7HGXCOfnR3DkPDdY6lZXIOJmF5DodqeA5NqnUOpkRvjtPtdQ4CqXiO5TJyjniXcY41y3UORPpzjh4cdg5ImVaOMBN4jlEpdQ72u3YOtAp3jg2EdA7EX3UOmDZ1DiwPdY7VkXgOGfN5ju1AdA4+gHYOXON6jj1bdA5Ed3aOUqJ5DrCJcQ5YpHUOakV0jqyleg6kB3eOlGh1DvEDd44nwnOOz5B2Duuwdw5PUXcONet2jiasdI4mtHQOJzJ2DkGfeI7TLnkOvfFxDoI4eA6W8nYOrNN2jqKSeA7snXWOY+90jrC5dw6af3UO/Ah2jtT9cg7KZ3YOmwh0jie2eA4BincOa9l2DpMRcI59F3aOB3d5DhK/cI5qinOOoHdrjrtJa44SBngOBX5xjpYfeI56DmyOkChyjhkPcA6winWOo7ptjskedI4PqHeOJaJ0DtrrdY7dWnaO5sd2jpiPdg7iMHeOKbJ1DsLwdw78J3iO+xB5jj50co7c5XOOtPl0jlz0eI6Gcl+OTg12DqgVc46y13WOX8p4jsTTdo5cBncOmEh1jvKxcw6pUnYOvNR1jjmKdI5aEV29SRmHveQp1DzJips82eNqjr5v17wKAs+7w426vF2IjrrT5Xq8SKmZOg4hErzwsSE7O81bvGUyujxZDbI5LT0fPCNs+Lt+y4A8nxljvPXYsbsLXay5WRyFPON7dLwrWsa840gzvDiJFbyddNM8mIwyPIjuM7xWfwa9",
                "pkeJvAtHRbw8G3485xG0us315bwAp5Q7clgUvEPGdw60IwU9FaDAu1VQ4byCCy08h7uuPPelMr25IgO9+Jy2vBlPBD2wTky9GYA9O9/wv7x6aR27PygGvaCPTTtistS7rP0OO90smjsD3R89J8ciOkHso7zdyDA78L6Vu/JsHb3Qqp28d4L3POhDd7zADQu8MBqkvIHyiLqKJ6Y8DmIJvHN6Wzte4k47GStWuo1DATw5+hK9iZjkvLLAVDxnY7W8IUY1vZfNVLv0E/u8/SgDO6KOsrzSLJE8gzTUO96ao7xIpWI8jhKfvCEW2zmjjzw8GOyAvJnKEzw8oQW8bBx3jqejzTz/Pck81MkMvGWzqLs1x3UO/h0evPQ6pjzjBfO8lgk8PA0ZgbymCXc7Jbo3O2zkhbyoUi28P0auulKS67vdwom7pWlhvTy7A712zae7fjLHO8tUGb3J3ug6Zf/iu0j5c45jtWc679ORvPSXyrzMSqO8u8IMvXyERL0V25I9ei6jvI3jFLu7ccM8PEIEvfY53jye6aG8MznsO2AM7bvHAm+OCZ5HvcEq0Tvvfxo9xXaTPAN7Yj3UY0y8ECdHvXFNFTy1Z/s8JR59vP6JFbth54a8FgZePbiL1jz5qB+87HWyPBAXxbzGItG7dv0gvIkzAD0yHUk8I1xsuwOxRjxa/506av/yPHSr/rxVfgU9Pbp8u8DCGrzihlg8kxbbOmE1HDxZHmU8xvpujhkwPLzdWiK8cBM5O48geDsrHtG8XcpsvLd5ibnmoiW96Ln0vBhwPL1N2+K8aQZoPF6rprx5MFM76ylpPc/kyTzAhko7MqQIPf/4dz3Aoyc8vwAUvaSEsryQlRO8n+dovA/XJj0ZEm09G2MivAqADzwQLEw8dP/OPBQW3rylhn68QMHPvFDvnrxL2rS8+xPavEoho7yt3Qi9+sddPHQA6DwBbR+7iG+JvKom2zugE8y8ZlHvPI3sQzsC0QE8LL7CPEKEGLroYJm8rH7aPLI3lrtk/mk8",
                "1hRBvMhQZTsug3MOn70gvZSvRDw29eG8Wie5u1eSew4LcQS9dWxyPNXvBz3ck6c7WLeEPDvb1jrpwuo8xEUOOZ8nQLq9sFY8zmW0u2qvnLy+dDW8arKTvLzkArySmDc8VIm/PK+mBj2EnR+8yK5WDr2VWzzInOK8Z/LlvJJHOr3KvlG7ZSIGOjgZ2LuNav+8hrlHPI7ohTzc6x88VnAcvbZaELz0H/U8aGJuuxNTdA6HvX08MgBSPDc+QjsIcMg8cOkcuw+L+rt8ZSa934OSvOV7/TwDiQY8TNGgPLvU+7tsWmw9VnKVvAZM/TvgsOA81N7+vH2vIbyiT5q6OY+HPHDgBDsOQtc8SO7VOwqud7zU3RM9bR7quzxK6LxWmhG9d3BWPI5lnzykMsM7xmY0u0dLm7vGJniOZXSRPBoqqjrJaMi7yEQYvNP7xbxVNim9INmDvNewpryD8Ak7m7Udu2Q057mqyWo9PKoeOyS70LyVqi68xCcMvScyET2546S8ofgUPR0IMz2wUgO7h1pAvDSrozvJQR098AE/PNw2YLwMR2G8ml9JvExSKr3Q5aG8Neqcuv64ETxpyF+7qzTEPGkpkrxKRaO8fEiVvGjslzyKGOo8/YC7vJQ2Jr2Yd8i86PhZu8VrIbt1d3W7SQOJPLVlmzzUHs47cJOxvG6alDw/Rdm8wi59OudRHjw5lpE8tGRju+8Peg5Ukp+851NjPb3gZ7zjgsW8Wch3jrvipDyFtNu8GSXhvMYM1zm9n1S8gGDWu5Sbkrq0gs86FIP7OxIJwzoA7fO81McDvM7SKr12Ojq74bXivBsyBT2ZjkC8K0LqPIo6tD3pcHQOgXE9O293ITzTfgS9BTn4vB5e7jydYYk81ymVvI2Owru4IMG8fZQjvPGasDuOykE8rHq3vIowSr1N0iu9vxNyjricZjzg6WO99+m9vOwV0Lsxm288KAC3ux4C3TvpuSu9EuuZvOAQsDwZND28oOwsvG4Clzu/Yco759rpPCEJOjyHZEM8",
                "Bg48PBWiE7x0Eh27NNXfvNLL07xHbP88b9f2vPAZF7zjhHY8D8JmvSup1byBaC+8S6NbPYSQrjuIKP08k7uDOzvOeg7aDQY8B+TvPFjzFLy7rNA7xCXIPJBgdzwdhYy82H4MvWkmRr2YkFu8LdOWvC0cFrwOyTS9KIKpO1GudDz0uow8rJ4FPWmWMbwtLX49gOfZPIIUv7yK7hU9cItuvCm0zrzeiiq9DiWzPDauyLy9P7q7U1uUvENUfL32wpU7XpO3vIPNbL0cfUi9/kSWPFycFL3Li6a5teC4vPqMprwDgoA9CajyPAF6t7ho/m88NbMfPf6yGz1voB29IUBZvcWwB7sDpTo8eg/ivDKbJz1TtRu9m1a6vEzvCbyk1UW9AVN1jm7UA7sXdDa8yVMGO8THLby1OHmOg8gcvfbKnDwkmqm54ostPZs7CzyPW0U8RV6EPANRnrvAOOe8XNIAuyepLbyaecG8jebNvCkhQD32NfM8BNvBuzgePTwidIE8a+NnPMpWdY4+3z29vsSTuo2EHb3V/D89MODDPKpkV72csse9WWP7OgVyKjv8y/k7TQpHvKEatjxdvnmOpFl5jujXeI6cFXYOhdh1Dvi4dI5HsHSOrg92jvfBdo4YtnaO3gJ3DkPJd44+HnsOh9x3jkJKeI7C2noOAVx2DqXcdg7MLnUOJHt1Dvuudo5mu3aOPRp5jgHDeI4Gn3aOuKB5DqxgeI61xXSOFt94jjwBdo7HPniOviF4DhrWeY7kh3aOqJV1joyCeY6dsneOMRJ4jv3tdw4l2niOCH98juceeI6eRXWOo5B4jvCteA4vnnkOan93DmvOeY52lHiOCvJ5jiKFeg6zpHmOathzjtxXdY5XqXiOsiZ4jt1fd47Oa3eODTt5jnHndY4P7XoOcO53jqRDd442+nmOPS52jnCOd47ofnWOwy96jldWdo7agXeOVlR2jn93eQ6+cHmObGJ3jorfe46jpXmOnNx5DmxVeI46wXqOdB94DlkDeo47KHaO",
                "PPB0jgyJd47DLneOLZ13jsJveo4c4HgOXvR5jkggeI6AnHeO0pB6DqS2dw4NrniOOCJ3DpJmeI7xWXqO/Kh1jmErd47tH3aOs053jnR9eI7AnXaO3wZ4Dsb8dw7nuHWOvsJ4DlCTd45Rn3qOSaB3jpp1eA5BBHmOEWB1jipGdY5g5XWOyyJ4jvTAd47lsHeOLvx6Dux8do4ToXmOTyV6Djr2eY5HaHqOr/N1jnwdeY4dHXiOnYB2jhFqdI7X+3eO3MLpu/q7eI7pxnSOYONrjiN2eA6oQnaOO31+DoRFeg4053iO+8V0jhKsdI4RHniOzId2ji2bcI4Ts3EOu2Z3jtWRd446HXWO/GB2jqmPe45C3HWO4j16jk9Eco6CRm+Odch5jm5ieI6KjHqO0wR0jqsQdo6x3XKOoqB4jgl/d46roXSOrKF5juZ+d47xOnWOUMZ2jnF7dI6Ur3eO7bB4jnwodY7J03aOtgx1jokkd44X6XSOQid5jibyeQ5WP3eOVKF2jvJNcI7GhXUOQZtxjnoMfI6v13MOk0x0jhTwew7hRnyOfz15jsb2eo4O1neOdIV5jpEtdY68WXSOash4jmgEdY7hIXmOF1NtjssXdY7pHXoORPZ1jhyFd47eLniOXGx0jub3bI5UhXeOxDl6jqWhco6cOHOO45x4jrRgeo7rRnGO8C96jrXUeA4ii3OOC2F0jtCceY6XV3mOEet3jrKGdo4oVnaO8sxvjmdqdI70HHGOf51zjmOUcY6yGnSOoN94jnMzeI4p3XaOwVB4jtg6dg7HS3SOVSJ7DlJLeY5UR3iOVTN1ji63dg6TEnWOUlR2jvRhcY61BXqOQgNujrQFdI4/hnSOpPR0jkFJdo5wu3kOW1R7jrPFdI74FHGOK610juSKeI7IrHWOGnh1jmSTbo7H6XiO7iV1jgodc451p3WO/l91jiVieo7+/ym84sJ4jgN2dY7sMHkO86V4jhGSeo469HSOfKR0jqQ4dY7WDnYOV1F1jowodw5Ez3iO",
                "T2p5jo7reY5d9nKORzB2jsh6dI6d1nqOupp8DjPkeQ6ipnaOf/V7DhqwdY596XQOVCp5DluMd47Q0HWOcYN2jpBHeY7Z4HUOQTF1DjGddo4lenmOXsx2DtJtdY7Ta3mOJ4J4jkn6dY4kLnmOQHF6jgVHdo5XnXYOdYJ3Dtg3eA4zN3UO0Wh6DsfNeo6etHYO1mx2Dh+Keo7Re3kO+7F5jkXwd46QwHeOPv15jhWseY5loXmOuXZ6Dna6dY6vAnqO6OJ3jrSodo77V3gO4fN2DgV0dw4qTnWOHU55jgYseY7CUnqObhZ2jsw3eI6M0XmOR0R4jn/xeY4kcneOmsF0Dtu8eo6P73SOcIx2jtlSdo5rQnYO7iV4jlkVeI7HAHaOINx5DqLmeI5AKXwOGxh7jiqrdg7LJHgOYBx5jhyId45/0HaOqwd6jmv5d46avHWONWp5jvRMeY5zMXiOjm15jq1seY6Z3HeO7Mt2jhTReI45gHoOHOR2DudGeY7llnSOL1h0jv9/d46Mx3aODjt5ji2sdw7i03mOz3l5DvX4dQ4V4HaOuH12jsjVeY4KzHSOIN50jnSqeY7KF3YOe6d6jva1do6H23YOjVN2jhHCdY4/unsO06V1jofNm70t0m28V6Y5vRfVYb3mpHKOGVEAPQi79ryBxVS9PwMMvU96X733R6M7ifnGPEmQdrwhuLQ7SH6Tu198NDzgMfG4dHL5vCz5MrxHsmK8j+mXvDYHOjtRQG48HJMmPPX5EL2XRoy82X60uwdlzzubvZC9CD03vBXzFjtHhWS9/F0BPJLk6DyUK4g8IrFCvBNydDvhUL28/s54jghVPbwfbBY83+kOvL3lA7yH+kS7du7muWVNgjyEfeO6r2yjOyglbLv4Xs28WO7hPP9mgjtqSnK8GTiZO6r9nTwlzMq8plLyuq6vAT0Jb7+8d5VcO703VTxvimu8eDXPvClNyzw19jw73LmSuzj0jDzbPaQ7iR+JvPqV2LsIph69s/NrPeYPhzxoN4W8",
                "/YmpOxe2JD1UPJo8G41UvXelgLxdbBa7egP0O9j49Tw32EA9FsbjPMW3g7yeDh29aTtHPfaIBrsYnN05MVYNvfLf5zz0XbW8dW42PScGYDxTZXUOkwWjPNkPHLtrvwU927RNPZmGdg6MybE519ksvU1M0ru4Vwk90PV0vMbFLzxdPiG9teEDPUilWzoMyRo9JZ9JPRErwzvEKl69nFlQvK400TymtPY7MEreO800xzws8As9Ho5yDi9/nry6gmY84Z5uPOaJhjy+aws95k3ju102jzvui2a8Fw5fveagXL1A/+28+ulZu6s6d47qAnsOLvp4jqzzdY5mOXUOtt52jgrjdo5JYnoOub97jiYaeQ79IHmOyR13jiv5do6yIXgO8gl2jmm5eA7lZXeOmCJ2DqKHd44jAHcOdnh3DsY2fQ6L/XeOkkN4Dj55eI5t8noOP4F5DjYNeQ5MJ3qOu913jlIveI6X9XYOjXN3jgRgeQ7zcXsOcld7Dg5peg57GXyOAAV5jlHXeY71p3kOm1J5Dmi8eo7FM3oOuY54jrcmeA4P8HYO/LF3jnkWdg6xQHuOjDR3DtoEeg7WH3UONyB2jtd/dQ60M3cOO554Dt6rdg7lmXgO3Fd8jlDkfA6rn3gOgmd2DutWeA4MenkOmd56Dn1Oew7yYniOzNN3jjXXdg59wHcOfG14DnVod46GgHiO5il5jlQseo7Aj3gOmh92jrJSeI5m/XUOzP93jgHJd44iM3oOKfl5DoOWeQ75wHkOVah6Dtxgdg4ScHiOoCZ4DmGneo6K6HiOB4F2DjqedY5nhHYOrfp2joG6dw4j8noOacp6jqineg4PCnmOiKN5jrkjeI6xKneOVcx1Du0/eg4KpnwOVEh7DhGUeo5GcnqOAnh1ju3jdo6roXgO6m15jl9pd462PHYOsN13DtzKd45HQ3eOqU93Doosdo6qH3mOXfF4DtFSew4TfnaOgJV6jnu+dI6bXXcOu6h4jvAzeY67BJy9gNcIj6BGCA9aGgeP",
                "g4t0ju+FCY+HtweP6Y4Jj5c2CY9IxwmP/xgIjzNgCI8jBQgPFCEJj4TWB49f/QaPhtMHj3l/CA+XJgmP/o8ID5kLCI+Y2gcP36EJD+8KCI+q/wiPrdQHjwXZB488gwiPEs4Ij6+uCI+xigiPR2YID0RKCA+FRQiPE9EIjzuVCY/unAePO4cHj+Ikeg6MLwiP/XAHj2rtB4+m4AcPE+YHj1EYCY+mlAePhNcHD6c/CI81eQgPl84IDwByCI9ydwmPv9QIDzp2CQ+UogmP+7QIj2ZQCQ/fuwePnFAJj3NmCY9JPAmPhRYID3F5CY+0dAgPdWQJD/J5CY+8IQiPcp4Hj95LCI98ygiPO2kIj2eMCQ8RvAkPyv4HD13rCI8MwQiPePAHD6B+CY/LRgmP3FMID/9yB4+hYwiP6dsIjwgNCI8m5AaPO0AID6tECY/zhAiPgUEHj2cDCQ9eVQkP/68ID1a6B496TAiPnGB6jnkkCY9zwQiP84AIjyJ6CY/7+XKObKsID6gnCI/0hAiPTIsHj6LkCI/d9QgPCm4ID89aCY/mMAiPGf4Hj1XFBw+F8QiP13cIj1GVCA9/MwmPcwIJj2gZCY9mtwkPSLYJD01sdI662gePOgwIj4oKCI8mkQmPbt0Hj8FPCY/BjQiPVgMJj6OxB4+a9wcPZaMHj6ia4bxFqb+77pW5O8gxITxuVHmOu2w5PdgT/7wvdJK864iqvO3EJzyHGUq8e4Y/vCRwcT0mfp+8JvOovMVvEDw8myc98pVlvKuV97wjX728LKjAu0KqLrya4Li7F0vtvE8DVr3E+Lg7f+g2PP/BHrtrVdu7MlfYvAncJD3okgY8gBUxPY+K/TqggfE77QSqvPG0prs6yiW9sqZ2jkGAJL1arSa8nX3VO/Z5LTz76EU9ZzIluxoEVrvCVji6WXgQPYL+u7w6fR48RhOXveadmDwYaE49MFQ+vXXtjTsXT+27oCj6vAA56Dz93Ds8cbQKvNRr8LxHdSm8WnQbPExkWbyDa/47",
                "jheCPENM97x5BA48mcaQPUduMr1Hsym8sWwlPcdFMDt9JhE9jWGiux+1oTwyppE8g7a0PObsrTyZkUc80Zg9vL63tzxIaRI9Y9tDvdCw+rxkgZg8HB4kPDkfDDzMlGK8d6eUPUg9pTzRL1w8eT7nvBG2eDmCangOWSw1PdyXLD2bKgi7GGhXPPC6dw4vYZ28mC8bPVEd2TxLipY72QDRPHEvsjp4QT49Kk1TvMg2I73EBc86hNr8u7hbQb3diqY8w38PPKIsxbx4gMs8Baj3O/+azjyob9y8tMp0Dj6Y0LwAzw68/xeivOeSqDw18Mw79Z1FPWyF/7zEH628csc9PcHHkjwvcSq8kpy4u0n5eA6K43QOO8Z3Dp9EeA4RPXiOmdV4jhRFeY43EXwOBIp2ju/fdI4aHHsOGNJ1ju7ceQ7VT3wOOwh4DsrRe46imXsOx8h5jiMweQ7M1HWODxR1Dk1odY5ALXwOCZp4jmE+dQ7MmHUOkb92DlCgeA4mj3gObcF1jtu/dA4A7XmOVgh7jrPidA6o3nWO0bl4Dswudg7qj3gO98h3ji56d44Y3HgOknh3jmaNdQ4aA3YOftJ6DvmJeY7BwXiOtv51jtDCeI5/W3gOrvd4jr0vd4547ngO4PhyDi8KdQ5hBXmO55x5jh6leI7zfXuOT2h6Dt5ndw6POnYOMs15jpckdY6Wo3kOB814jjlqew4p+HaOyG55jjqdeo6ZdXaO4VR2joS2dI6H+3iOBvR0jsBIdY4IZHeOMtl4jrJCeI4NEngO9ut5jh+neQ7VE3aONF12Dposeg6oU3qOoi93jmofdg6SxHqO1D1zDuL9dY4clncOoux5Dkl/dw6Q1XQOLq51DlbNeo4xnXUO8yd5jqNhew71XnQONXt5Dhk2dw4zAXgOy6F1jriedg6uv3YO1+N5jtQoeo6VcXmO1I12jp3oew5NdHaOxFZ5jkiBdg63GncOPOx2DqfVeI4fKHaOaxp5jiU3dg5nJnWO5b54jizZeY511XWO",
                "pqR4jpfidA6WJ3qOx9F2DhJQdY6fzK29MUd8jsALeA7EY3SONbB1jvImdI66NXmOysh3jo0ldw5o6HYOHvd0jpkIeo4CcHaOlf16DhVzeg7UQnYOBDV4jkKleo7fd3WObhFwjpg3dY6tjXYOSWB7Dj2MeY4kjHmOFJ93Dm8Cdg7lR3kOpAx8jtu9eQ7fVnYOhod2Ds73dI6pxnkOVj50js/adA4AJXuOf1x2DkCFdI5uznWOXRd0DiH+eQ7jOHSOwFh3Dl3AdQ7D03WOFtR3jt9xd44wuXiOG2F3jsNPdg4Cg3eOENl5DonJe47Q8XiOn5J4DhNYdY6YNHmOaXFxjhicdg7LhnuOrnh3DvUUdg5oTnYOnaF6jpw+eY4mKXuOW4V8jsfld47Ja3kOMvd1jsV5bw6WtHGOQ7trjiA0d46OzHiOo795jr/zdY4BcXgOufV3jpRjdQ49xXaOmjd4DjQxfQ6m2nsOHx15DrrAd45Lc3OOXVd6jpTMeY4rM3AOTJF2DhrYeQ4vb3WOY/xzjpi4eA5DHnwOTcd2jnWFeQ7iXHWOAD50DrGfeA4ST3YO1rh3jlEEdo50sXeOkUR7DkHMd44qtHgO7Hh4jk+weI4hP3kO3aJ1jj2TeI5NtXmOfft4Djz4dg6O/XsOrwR5joSVdI4tbXqOLJJzjmn9dI7oXXWOb110jlOmdI7veHWOwq53Dhmqeo6Q+neOgGZ4Dj78Mr3gcLe8P+/zvCiKAjwqZXaOqQbgvFMppzy+/BG7a/C2vH+H9Lwgx4I7bJcOPP2Sh7yxAzw9oe47PGeVLjwWn3s7gZDgvAdeBjztqG278du9vGqgHT16aj08z26du087EzyipWU8qsCKO8X93DyTnO47PMSkvNwBirzAa6I9GGwZOzyQibyNAiK9qzKWuk0r+TtrWtu7+bJ3DjnDbbyx3U68ojVfvNaGJL1wV+Q8xLYhO8PGMbuAI7Y8C0hpPJozUjzQCxS8JcOLO/WiAr0mHVO9AZkJvLLTCj1LcnC9",
                "ClAyO7EgkLyfb5y7rxytOyX8Rzxy5Vq88dqYvFXJDr3OM5a8Q7GcPJ9V1DxIXe68sT/SvL7u4byluz+9czJkvCPtB7wUzeO71OAVvG0O+jzmxBK8/aWOvB7TCzzIgTS994PDPL+ePr2wRfM9N56nO9tuhTynDhU92egtPWDGLjzuMxm90MASO+Ogv7sVNam8jYrgPJezTD2S43kO3xeyO/Y267w1d668m+9FPTDvdY6616+8rK6lPEgoTbxTzf48Qrl6PDuoPrxFVY+8EQRhPGYqlrlQDcy7S8jMvBOzCj3l6da8O1djvfiVK725nXo8XW3gPF5nBz2Cd7O70Gt7DrS+Arzxrbg8XQhfvQtRI7zFo/S8X6SfO5aThTxKW4g9buE9u3fHjD3L/tC8zvSQOWqxNLxa+9C7s6yCPDxsdg429Dq8iymBPNM41ryPjb28+ru7PBALCbywAYE9PP69vREzILwwuMU7RB4nvAJY0LxH5BS88hgQPdheNrtwS5a8SgefvHypVjtol0Y80kWgvU9b/LzpfAy9yplLPNQvZzwTxFG8LrsIvXK7nLxLHP686pS4O7t9O7tWrzO6clIlPQiPD7vIi3qO0jLNPY5ceDzF0FU69gpsvUPTGbnFFhy82buUPT4tGr3+BwY9IoqQPNiN4TycsUe9wCsIvX5AzjuGfI27+n+EvOKWmDw8cJq8d5tWvOkYbLwI2DA92DmXPI4dcDxhtyk9zLOyvE/cZL1s3wY9U/44u6Mck7vXNCC8mb6hPMfWUj0ePyE9R7pvPKT/IT2S0TO8Cjr4vCuN+LyryYs7yUYQPRZFnrxZ5M07SwTvPJyZ3TyY+Ee700gOvBY1ebtMGxE92aiXOlKkw7um5Ia8AVM2PIxzRzu9r6m87RCQPUaEdw7NBwM9YxcVO2SRnTy+TI47sYp5jtkbrryNpoe7y1oSPUlKpzxAfww9Ky5ZOsI3TL0OR7G7AwgmvfL4PD32AvM8DzALPTip57xh5Iu8pvhcPN0thry1B/47",
                "kGhZve8mNzyNxXoOD9ChPN3PmT1p0R4918kGPAfhVj1HrtU82VwJPdy6Azz8kHy6ERn6u0Q/Zj2Di6W9utqevEo/crs53bs8zEJ4DqJdFDwJzKM7klAYPJaWID1NmS48By0XPZr0lLwKJSU+RDcIvXbNzLzX59Q8PtHzOBmnnL2SKU08CUGAuqKE2rsNrOW8zXgZPHpJG71ma8A9xm7PvNP/LLxpwLg81tn/vKi/0jtu/0g9t6U0veqSSrsSh9k8S8Tcu1FMAD2FMjm9wkyTu0ppfI4JRau9GtBkPJIJX7mCQxa8+ELFvGuguTyvvIC9bWItPDwWejxjGeO7DN5BPY7vpzyBHm49FO3Ku+hMI70RyoK8nLAeO7Z1cb2juvy8f/2ZPaWTDjr0lD29rSKZO/wqQLyY7mi94jbQPL6SRLzaKZI7q9IAvPeRszwmTqS8tvDeO9tnMTs7DUC8ige9O4uZzD0mXno84niiPchegj2Up3C8Dmabuy+jiD1/pw080YaUO7k6LDogcti8VQKbvJmx2DuUIUc9rXyTO+u1Gr3iBma8DNIrPKcRGjsr2Xo8Ppp5jnPl7Tx9mT08To0TPZA4njswW3gOVuG8O9IXDzz0RJA8Ea8KPff7Ur1H+gg9KrUiPIZjFj3DTcM8ulbhvEql7DvWNNW86OGcu1vQZD0SlME87WwEPDzyR71d0rk7YyQCvbbbdY6UdoU8uWGJvC8LuLzpV/q8r0W6u26vkLzocoM8yH2CvJMIyz0nTx48/OdGvT3Dcb1X4vY81I4bvN51RTu3p3QOT9bUukvFpjxwjH680Ai6vEM+6zxBaDm8Q6g7O+rrfDzAajq806sMvQVxrTzvexu8Q2+GO9xj8DxkUIA86flKuyhToTywI+W7n2OvulrWAb3GFCA8T/MuvLppr7wtpqg8cpLGvEN3ST0zlqW9ZjYNPJXNZbxq0Ym7Gl61Oz/RHbwZftq8wv50Dk6HFDsAB588TwsePJM0YbxJD5S8gu4zPHaVlLowuqi7",
                "+UNEPJKBvrzOdMU8yjevvAblE73TGRu80O+lOx8mBL3BJbo8WTzhu58slDuuM2m8L5z2PL3/obybFC88LQKyPB1JV7zSPiU8R3jhvKmRuTxP6G88rFHZuyLoLzyo5QK8+wwoPHOyZz1qsAw9u/riOrpxHbvMCNS8EvmJPCvDdDoL51+4sr2LvNoWxDwoMb48DVdtvP766TrqmLG8UPe7PF1xRjxl1u07KRSavNBUbrvLQMO86s/2uSXNpTx7bHqO3NYxvBwTWbvj3/e8M7CPO1vPeg5vNhq9UpbWPIjcGzskfhy7G8BdPAZ2MDztlS69ZS8TvLAKIb0k4ko9aKrHu8zojTx1WN07rDg5PfNif7zs9qA8QcE3PL3s6jq5WRI71MxzDrnj4DzCdw08RlwGPQt/xDyRDpQ8cgAhvGyaObyqTpa8Wewnuyt0F72sKt+8CD2qOwbGCb3HwtI81p2qPDZFeY5bliW8CDvdvHKPiTzezy69osaUPZDSpbyGxj09abGOvdBdczytBcs8xQCOvCF4BT0ykhk6ptOrvBneaLwPafe8a10EvONzZD1Q4M68jxJZO84p1zkdfK282GbtvECFAz34RKm8TmtkPAYDcrzATOK8BJNkPN+RA7z+i/s6z5ECPf0emryEZnoOUXTtvLV9kjuesx48WosIvPMzd73X5yK7iGGHvEziVL0/bKc8mLhPvS0SpjuGFqe83UWHO9QjAr2NUWy8tAaRumkEozzyKUo8XOz+u9JJ5zxBP6S8Z4ifPeDs4rxlb+S8LRfJvFvO0bxmqT68oZiAvIdKwTwg9Mg7jCOhPODWRzzMpt68tZpDPB6EDbwU0IO8BE24vBF3rLx61QO8tWcAvfdaUrw7zfu8BSkXvW+hJTyTNii9WxkYPBctIb0m0lC8ziSOvGzNJr3yDjG8GYOiu6Sq+zupk688HzkBPeH7eg7tkpy8JHPkuxrICLw4SXM8Psx2jnDO4LlhYMQ8BkKqvKBPrzoEuI28XjihO932ULx6QgO7",
                "D4DOvGRwAr0zEry7LZ0dvR/NA70jTdq8RSE0vVx/1Tu0RxO9VTAIvGi8SrwTO3sOqey6O7LDGjy0wdU9yuHxu1WbIb0uZD495gxpPY0he73VC8O88mILvCJRQD2iI2U8yMCmvBe8Crw/qb28X353DgCbcbwUB3y8WM6Bu2q0ezwmBOG8OSchO6zLxLzWbsk9hFeMPO8YqLwIEgc77rGNvC14XLyAZwk8qDflvJhDEjxhkOE7RzuxPHLpArzIJFA6MlwQOfFaAD20Ecu8kSE9vAgQXTw1l3o8oYyxPad0Xj39a3c7y+RCPH/wKjz05qg7R/QUvZ4Udw7nvRw7QpB1PKvrFzzqmV68z39nvKKMCTu88vu8gUaZvDsdPz2kfKy8Q3wYPKGJKzwouQi928vCuZFVPb3Sfte8ObW8vd1nUbxEtcG8x+hrPdrfKr18a2O96lRuvR7zML1k4Jm9nFzzPH4YTT0u4ee7NXfTvN6CwTzzk8s6mU0cPWn6Jj1c2FM9T0AXOqjSRDqHvVM9NIhiPTayaz0+ez49OftVPMN1DDyI2/g853mXvPXSsrwsLAa7Gg1iPfq9Drt1quc716yZvHR4cT23mjo8YvkTPE1wCrxc41q6P5J6DsxODb3EwMo84YlbO3ND77t81noO4DcSu16Le7yzgJa8Mwf/vN/unLxCn/I8WLC0PPZ5/rxqtzM8Dj4QPXJzZjvfRsQ8joUxu/M9uDxi5Eu9GB1XOzK/EL0B7mE8UqQEvaPndY52mJa7MQcBvfLuIL0z+/C6NbWMOlBZmTz6Jhg9evEHPMPrEzyKSwy9wJnlvBPbZz3hYNi7QwS7u//e8DzEoHcOUE9evH3otruI2ey4lx22vMub2jvNeza7fhpBvfFVRby8cTM8keF+vLYHyDyJ1Zo8+Hd7vAkUmTx3Xyu9X9Y6PK6nvDsfw/C8myXqvBsOQj37q0+6jgrJO/7Y8zvWVkK80IuPPBTR4jrMU2s97wn+PEapUjxrugu926sPu393kzwz4Kq8",
                "yPN2jpyjI73LTgc8+kbbvJ+cnbw+AvO8/79UPG5/Tr20Zw68n/imOo+dDDy91zm7PaIOvC/DmrzrmDO7I5M5vPA0+jp4yEY75fKxvBM7PbzDqRG95T9cugmvBzwJhtU8moz7utXahryunRo97QSqPA5Dlz2DeIM8ey+cO8p2DrygtiI9u7Kfu+bvmrwXxE+970GnvOhikzxEsRG9+PY6PTX0Qr1HxG487u8IPfAioTwUfgo9x0QhPa/dajxgaVg8/JxDPGPujbw1BbE8Xt/pPKVoDL3/TZU7udSLPGM7Abxlu3cOBu+4POtplbwsly67Vgxlu2MZeo5MYUC8ouNtPIVqsLsJZie7i25jPIWYdrzxJuU8rFnrPFAX3juGvgS9qMjPPBPtyztwx6k8CeMcPVgBjLzdvKm8Ifwju4aIlrsrxG88Hax4DrzOjDyqnwI8syQYPIoPF72Pu5S8uMU6vPDTUDzolHO815S4O5eM97xOBYG8S660vFqvdo7LmXaOYF56Div7eg5DtHaOb1J4ju8PeY7xPHcODZx3Dl1Rd44E9XWO5Cd6juD7dA6ZkXmOgg52jpnbc44BUncOam91jhJ2dQ5PYnoO9Th4jmeJeA4r03OOQ9B5Dvtfdg43KXeOMyV4DpdNeo4GYXcOrD14DoRPdw7WLnaO5S14jvsLfI7WEXgOfgJ4jv08eQ6banmOd0B4jq18eQ7JanYOMld6DrkKc46Ua3qOtxR0jqe+eI6Z3HSOkS12jpqKdg4SeXQOPnp2jjdzeg6+w3SOEHJ0DsfqdA5c1HkOwlV2jsuleY76o3mOBBF3jvIbdA7p+HQOSRF5DmAUd47fiHkOdzp1jmGReI5n9XQOEMZ2Drjld44WQnaOi5V2jlaXdA5MsXYORuN2jrtUeA67qXaOi6J1ji2Beo4OjHgO2g12jnZMeQ4QbHcOZxJ7jt2sdQ7nOHaOVWF4DjtVeI5603UOXrZ4jmyHdo5SVXWO4Gt7DsxjaY5Vx3gOh3N1Drk1dw6L7XmO",
                "2491DiLKeA5OunmOuM52DjTEdg6wxnaO/3Z4Dgw3eY4TuHiOSxJ2jnTJdg4uxm6OHx16jk1cdI4nSXSOzIZ4jpVddY7BPHqOznN1juuic47L0HeOk+V3DmkodY6/c3WOJKl4jjGtdo5HW3QODZ10jq6ecw5jvHmOrwd2jpZzdY5BXAS9komtvMVnRbxtAQm9F254jmXNsrwrUwi9i4SuvNuSS7xY3Uk8pceOPI3gwrx598W7Ty8nPbdWrTv0iaA8IxdOPPuBobqlOCm9lYQuPVCblTp69727/GUNvHM7aTz+K4M7ehBGvDDOzry5I/U70XwNvHh1PLwWvta6gF8OvCsHfLpFyO68DEvWPBVXgryJtqG8K2DEO6YMd45Dpou8/A0QvZa1JDz0on075SSZvGqW9DyiCCQ9NG8AvSQLG7xIXpe7BJw7O3iTFDycnpe7rEYwvdbAVzssrAc9ShVgu49+4Ds5DGC8/TLCuyyW4DyCOYW8UlOpvDBFaTwK6ks4w943PM1hNb0rYMk7v3XfvJAf77y6MTS8YyObPIA/IjwAmV+7HDMHPXTCH70YTeC7WjuPO8ry+byR0Zw9I+YDvRpAlbqK6xA9idztPDzOujusHOg80ADtPK1kM72SeuC68arju3Lx+Tzc5Rc9YwoDvWdBz7uGTye9wZ96DpLubTtr6yC97sleO7pePj2vU3oOrm43vPVTUbx7Riy98fsDvbeK0jwS2BC8blmJPcvDUrzLMrs7yS+UPK5mFzw+IwE9GK/RvM7H5jwVR7K8MlwnvNG2aTwPa609vT3QvDbddw4TiLa8N8XFvD1RAD33y7I8t9NivCoLJ70sXTa9HxFOPQUNJb0tbP08puIkvI34tTuc6HUOtzN6jgG2dg7a/3WODgR4jvDUeY7RjnaOOoN3jq5Heo5KJ3aONR51DiTweo5RHnoOuDd5DgOMdQ7A63eOoMN4DiR1eQ67pXcOYE97DiI3dY5bvHWO18Z0jmoQd46saHmOfMN2DvUoeQ6i4XmO",
                "kRh5jnRAeo66UXkOG7J4jl0vc44qq3eO1VZxjs1LdQ7Mm3qOBPV2jsmKeI7Y1XaOwgN2jjUsd46vd3mOS9p4jo14do58SXmOxhF2jv9Xdw4QnHSOCfB4jgzod46SaXSOZsV6jliido5t8XeO0ulzjkvueI4NoHSOMIt3Dh4reQ6NMneOeL90jtGXeY68MXiORhp3jkGEdo7MYHmObeZ1jh7NdQ55vHiOJoV2jocAdo4sjXaOw3p6juiHe47X1XeOqGB2jkAkdY7UR3iOKUV5DiZFe44azXcOK85vDuQDdw7S13gOWoR5Dj+Wdg5CAnsOYZt3Dk82eo7XNHiOcJ52jlK/eQ7uFnkOEDl1jgfqdo7SOnaO9bd3jnsGdI5f53qO1IF2js4EdI4tWnWOx496jrfsdo6/m3qO31R1jt+Dd45iPXqOrMB3jgv7eo4xSHmOvJp5jmxqd45WHHiOYaV1Dl32eo7tsXkO6Kpxjn/Hdo789XcOP0t1jlOqeY4kYHeOyS52jtTMeQ4bangOnwV4DiLXdw5JZHYOw+XKvApoG72w8qY8I30JPaiudw7VvNM7f6/yO6h7q73RPRa9dPA1ul+ATj1MMAQ8SwtXPaUNwTw8+EG83D6pu3Oe3Dp3SWG8SQkRPBLuOrzW1lC8IXPouslW8ry9SAs9+sxxvCzGT72VW1m7PZ6CPPZMzrwcKRM9pQsFPZ+KMD07XRC7LeEWPQ8iubxfmBw90Kg2vPRKk7nGhHUO4IUcvEcZfTvZRI47XdObPLiPwrwwlbM8KhRIPWuDubvDM0w8MKnLvEitYjxvnfu8gs+Bu5S9Fr2wWK68RcZuPTmLx7yUlUC9Jd9ivGt6MDxPhX48koOwvOdtND3JCfM8p+EtPEMs4bwU4um7uHYWPTf6vLzV0NG7K/DIvGouFz0SzHQ8sJlePAOGLDtqMrA840uDvSjqTbsP/cE9n5GwvBp7Lbw8J4g899Dau6HVLj0qcmM8Bc4bPKYnrLpeSGW5wBtGvOT6izyOHZq7",
                "/utFvHzyEzyMmYC7IHolPRq2d44xeT28fp9XPHCvmDxH/QG7nqd2jopNB7z69yk8us6PPP7dpDyD7ws9Vc0FvdIzTrqGEPk7nm0ZvPwawDsyOom8i0xiOwdwk7yCiKm8XpxCvEGYILy6MUE8YvyqvIvc6rq2Q3kO6WTZPCeTszzoBg487XJ9vUBERTvfFuc70BdtvPcfc7zcP2U8gsVyPacRP7zhKq88LZtnugKs2Twzk0o82TRzjkhWEL29ife8Hx9avGOgF709T3q8j7tqPHOeKzzs6Me8psGsO6kcSDvlOqo4kDcVPT2o9zsqGUG7wUvfPHqQ8Tsa84i6cEARu9OAFDxdbmm8UzBHPLhEJr1BX/c7Sa4lPRVNRjxCAXI7la7QPHGoGD0jqVE7S3OJvMOqtLx8bwA5LalAul43bw4YYJi8duopvcKbkbs2xYg7xSIRu3kVTLwjkss6oEfDOX48UbxIRve7wVnuO4GVkzzkObC8xfarPHCYKD3bEhI9yD/PvPp3c7yQE+s8whtzugl45Lxct+u8BQ0xvCRVF73dW8k9z/qfPSVfP7xplOA77uHkPKBYNDzCiL48Ma2lO6ozb7tbuq07jKvbugAJlry9D9I8AHsnvAKe9rokdBK9NkrPPGhKFzwU7ae85o9cvYQdsbypSHA7yO0jvPpdqbwWjTs81UTnuk7gEr11Ooq80jBHPW/8KDtjo787qTF4DnFD6DkEVHO7rp6lO8LF+jxIFHOOMnqcvM671rywmP47LdYTvUl/Zjuq6LW8gaBmPD1pkzzS9Sc946otPMeDBLsvRAm80CUjPHKYID3MhOu7pdcuvAoiQr2KPAI9IddXPNdGdg4Sq0G8lcg0vO4KZTxj1Ym8cOaTvAWcpbwZ/gO9qt6DOz8ob7py5M46ix/ZO2SVEb0OPlG9QBb6O96bEz0YsXWO+QCZPBzlMbztVz48RCpyvPaWkz2DjYG8EQCiPP9FcDyPDVW9/dlbu6WfkjyAdo87G0ScPGKTArxwINi8",
                "YFSLuux4jLwj34a8OZ1KvSFJGLzyKOI9X5cXPdTtKzyRZva80dJTvHqq8Ty56Zg86wQ1vIeIuDzLNT66cJvfvD8YMjwttmw70D92jtIIV7wo3MC8SiA5O+SCNb29XD+9RKOfPESBzbsn8XG8ad0QPSvczLzrOV49OK8VvfzESDyjtWW90DAUvOmevzzQwrk8GAXnO0V+a72K0d+85jZuvWsKcTuktUA8fD4rPKyIWrvStDK8Jz8QPUfoCTwt/u08pzGwPPfCBj3WXoM6rOkdPHa2ijyjM2a8wKWNvDVPT7xONvi7ZJVaPD5vwDu3Pqc8HFLPPM97RjtdVeo8XR8cvEIQjjvkOY66MmPBPL8yJjtyjyQ9iiNKO1J1cjuZzfW7d6LQvODdrTuNdmyOTMJGvF+507zmnrS8iSNbvZ73eY5t8gI8H0EMvWz+EDxBjNK5f9U/vck23DzpeeO7wug5vFjcAL0PyCS9U6glPDFnRjpHls+7sFRlvKjPJr0q7m69SXwQPNr1Jr2gvMy8JWJ2DldeuDw/KYO9LnqKvA5qvjyfmmy7RN2wOhArGT3pmvq8bfm8u/QhJrxezwi9I4CmPOUgobsrrJS86Gviu7Ped47YBhw9C60ju0hU6DuY4Ak88+QAPPixUDz0Rcq8b+2yu0bprjz7cp+835ADPKE5Rbzy66+70PABPbNQ6bwfc5Q8UcE4vIBvIb0Vm7U8tPcEPIfbTrzu0we7EfTkOhFkEzxVaKM8GfinvHsnCb3Z3J67SG1hPGjSWzzO2588i5jaPCPAAL3dNnWOv2oEvIxSxbyhWHI6Q1z+PDcNST19xbU7MBQVvdAddry4LQI9p//uvCLyizwrMjW9Fu0MPLleIz0VJMy7xRk0PfXFpTsa/H29D2xrPFDPezwOPy26d8JKPMzVxrzmjRC8cKjEvA+7njqxFYC8VztRvdNmcjxYgu88oHxGvLqAnby365C82+ktvIiJ3jtMliE8LllIPTJi17yqCNS8cksSPa28Pjx9REI8",
                "+vnWO29ypb2Sar67hCSTPNgSHjraGCw9zqo5vTxOOLzoaqG8awokPeAOhbzlFpe80LRHPXIDbw6iXpa66QjAO6+hCzsNPJI8EJp2Dh5xtrxdmpM7Sopqu+ezF70Abuw7egnGvMCECL0C75g8xfrtux4jSTzYjRa81HhmPOAyyzygScO8FDxBPFxaIL1EbgE8ZhqbPGIQsDuL4nQOAwPUO+6+lLywi7W8wVtUPUIChDtpxtM7CHTBvLlZsDuSSqq8qMt2u55eQjx8k7g7vVtXPSzayDtBjlC8S/x4DinJAb1FbY08D9UVPNrOA7x9KQy92N+CvM1d6DyEd1i8hq5+PMRWCrwifJU8f8e/OxkpQT1nhiA96qW5PGCDBT0LXsg8DdEtPeIr6zsgj+27HexyPbeSDLxRRto6kHRguwlwwDyWB1+8/FwQO06OsLx6U5m8RUgGvclQCL2Y6SC8zz63OtBYd47s8HA8ZDi9OwyX6zyqcWc8PSFLu9bTuDwd3LS7dS0LvJfALD3E1nq7GOSYPJI7VDxW73E87/d9vLB8Hzw3POY7we+cPLllmbtVmdC8QcWQvP9KuTxOaCY9zpXaPMglGj1j18O6q8ehvOeIIDz5FfM8G/EJPZRjtjxGrNo8g63dvPu5I7zLXfY5/pWkPMUsJzyK3da8JNxLO7lzLb1ysw+8GLm0PApbkTe9A9c7E7UQPQJ6wbzYkC+86FTuvBfv8jyFpKS8GrfLvLgC1LxvEd+8xdxqvAR3ejsqdaI9FJJ3DqPmfj0XIoo8o1pfuxsZST1RL3YOyTzyO0I6Cj3FOgM8a9gkPFO2+DuwjTU78ijsvKkNirkvxBw8xKAXu8tXyDvZeCk9hi10PBD85bygF6w7oAlCPUZQID1w53E8sbqOPJSQeY6awWU8MkW1PEUq87wzv407DbGqPEkUjzsV1jS8HQ0DPFF8zrzd+E08zpf9vGoDZr2FVW6ORVR1joHHY45z3XKOSAdxjowuco7vRXOOLKFqjvHIdo7Oe3cO",
                "6m9wjmFScY72IXGOue15jqI9Zo57WkuOmPB0jkgJY47JTXSOlgRpjheZeI6m33OOxr51jmmwao4lVHeOfs1ljiqjdI73AHkO6lJfjp/AdI6kLWmOqN1zjj0PQo6lW3mOLNFyjiSNbo482WOOFLl2jmGubo7uynCOH81yjqkAdo5f62+OoVB4joJJbY5sMm+OqP1YjmRkc45PSnWOcRVujpT4dI5jjXWOOg1zjlykcI6OoXWO7tlrjor+co5fwHCOeJ9LjnHgdY6viXCOKHhsji0/dY7vu2+OJo5tjhitdI5U2HWOwglsjqVfXo40B2qOh35tjoOeco6ee3WOgr9mjrOldI60dnWO6G1wjh92d44+o22OErN0jvmrdY6j8GOOtZB2jqf+a474tHOOmJJyjoTReI5xlmSOEbdzjkE8a46jJGGOhkhmjg4ub44UO3mOLSJ4jjshUo5S/HCO5d9vjkydZo4uKU+OEn93jmG4TI7pQ2mOR8xpjoHOZ472cXmO45p3jnUHeY6SVHGOizxnjsv/co6LcG+On7d1jm1vdo5PaW+OJdBhjhZBZ46a7XSO4AR1DhnVXY5sUWmOooJ4jt+Bdo5ZknSOTvFlji0GeI5U5lSO4FdvjmTsb47x6XaOtptguuNOdQ7MW3WOwmF5DtbeeI5N7XaOj5Z1jmGSdY6c8HYO0oN4Do5BdY5OvHUOHfp2jpTadg5aCnWOurF5jm6qeI7G2XWOTBl1jhtjeY6y+nqOlOZ3jjVWeo6KzXeOz5R5jp4jeA7+23qOe0F3jiuBeo7ESHWOa6V5jocRdI6NkXWOyi11joabdY47O3mOe892jrimdY6lJXaOq8t2jgVQew6RA3WOZKp3jtYId44fNXmODDp1jgIDeI5/T3oOyfh7jnoZfI5tVncOX1R3jo2teY7A2XaO7i53jsYSeo7DeXmO6EV5jsxaeQ7T93SOobd2jmlUeI7Yj3iO3M98jgimeo47OXaOB6p3jsHad475aXeOWDV4jkeydI41OnSO",
                "ect1ju1Pdo554XmOlvl2jtr/d47KlXaOC7N5Dgq+do4eG3aO6Wl4Dnq4do6ApnWOafB0Dp36eY5exXeOQWt3DilFgI5+BneOxgB0jjEYeA5l7HQOm8R5juyTdY6i73mOogd6jo6ieI5mkHeOXy14jkwjdw4bAXWOcoZ6jna1d471vXSOfCd7Dh9xeI7tr3aObyp2jmepdY7E+niOw+Z4jmVid463SXaOdlN1DjGpdQ4ywneO4G92jqvwe46O23iOc1p3jsGFdQ4fSHiOZNR2DuZFeY7zCXqONCl5Dtm0dg6/O3mOb6x2jl3JeY4gSAG9590xOtFlqTwoqnK6/bZwDtTI3jwOx+888bCdPBTkkzoaCyW8xnmRPCCRCT0NE889tr4ivIsSzLzkRei7Z6oSvKhS/LyRPcO8ZYVCvLd6ET3Ifoc8ZKfyOze+AL1R6Zo9TVnnvMulVjx8iTE7R4JdvLX7nzyxWaW5M61NPYoMsjz83kw8G5aLvKFs+TyTqCm7o1cRvQNQeo5lmoW9hKI8PJKkuDykKT09QN6wPK0+ZTwNnrG8OFoTPPCA4bzm6Yi8fC2xOsUy5Tx4PYs9/LKTPM/qrLwgEs07RVkMO7TK4Txh1zc8mAJrPbzCZjtK6y88NOIcvLoO/7pB1hi9g/1sPSVH2LzJdQ88KXyru8d8sTzdfq28quUava9EKr24n6a8R34muy4ukT0LO+08fOKBPXTGgz3l51U8QcyKO49T7Ltzlv27YONuvBBbMLyuhCi9vhLSO/bQbbwkZPM8pfA8PLsFOLwCM7q789Oruh9/IT1+Bj+7FsN2juNynDzsT0u8Y8uxPKlOLr0ioHcO4jnDO0/ww7p1Z9k5Y6K3vG06MLx07IY84Xn8PNqSQzwD1y082K4LvSizdjwDa8K8gi10PSoIgDwYqM67m4kUvbNrGr0Mej68tqQ2vQfhdo65Sx28HrN8us9s+jxWbjE8CnwjvBnW3btny9Q71Zytu0srsLyM0Yk80OJHvKSH5L1AgXsO",
                "aAB5jru2d44gIW+Ov2p2jrgyeY5O1XeOVUV4jvYWeI44I3mOj012jppdeY5x53iOia93jnuAdY737W6Os5J6Dnpyco52DHeOvux5DqKLcY7tG2+O1ld4joz2eI6if3qOXyp4jrJ/eI6FonOOk0d1jqAYeI6yL3qOgmh4jv8seo4fhnaOlqR0jkaCdY7anXmO8+5YjiFCeo4LsXmOQ7N5juN+eY61rHOO4m15jsV7cY4e5HWOr3Z2joNKfQ7gPXmOnC92jshteQ4LfneOBx94jlL/do40GHeOq+BtjiqTdo78EHmOg9h1jpXgdI7G+XWOcqd5DrqweY4g43WOn5x4jtHneY6/snSO/z53jrmWd44m5XaOqSx6jjuPdg5wzXSOSfF4jryweo7+x3iO1Bd4Dqd6d440N3WOq6R3jtnNeI4jOnWOCIBqjoiZeI7enHaOcAtzjls+eI5YsHkOH093jm0Teo5hBHqO65l1jq/8d44CDHAON795jhHaeY4hTXCOjPN2jvqVdY7a5XaOW/p5jiygeI70JHSO63x8Djv5dw67mXeOGd14jjyZd45ZkHYOPmtrjoHueY6XG3wOdZx6jsAleY6iF3eOrQl7jk3/eI5ciHiOWlk0jlgvd47Yg3aOwt91jhzkeY6GR3qOQXh4jl0Pdo6AuXiOwWF1jrdSeY4f0nWOBpnPui5Usj0Ji5w8eoIcvdALco62y0M8mzYevaqjlLye1B49Qd/AvXHgVDtODD+9wHTbPLheSr2J22w6cJ7rPAPDLLzrDJE8uLAMPL/R3jxmIdu8HIIFPMILbbyuQju9voqfuyXgPb2LH349B0IgvXn3zDthAQG9RQgCvYct1rxc+qU91GmvvLE6bj1LhQ288Ka9vCXo+bvru3YOzsPFO9gKOb1TBSu8XzTevFg5ZzwscOI8ekYOvXtOoLvHx0Q8SRSuuxV3nLwX6kW874mpu+X/B7qfrwq9zCIAvdNlZDyklXs81LpRvYiXHby8B1Y9ec0GvRe9W703Orm9",
                "18/pu+nKDD3gA2S8eJYavWHm57zstKC8LphhPHZ1hLmUjwI8ICwbvdv9oTxTXZS8hWNHPV/DrDxOaRO96EgJPUFrfjw8g/M7QQLKvOjkMDwNE6q81tyFvetKDLs2v++8kl8EPBCYSr1IDso7ko6rOmAbBrvG4368Ym8CvSlceA4ibba8KpidvM46PTz/5pq6b/R4Djce2rwWzb+8rLuMvBh8q72mXyg8qrcMvaleprygaZK9gIRYvM1jOzyc9mu9xEUGvW/jpbrLBIm8nZY1PSO8wryP+6i8piKMPRzQ3rxlYHaOGy9wPMLaKrz/wFO9ig20Og6wTbvRSoG91LJTvIDrkD3fRXY7yNcFPSEbxby8UJg8bXLMO072nbz0rVQ8oOV5jp82PTwWIZy7/3w7PRkZ+jvzWLW77h2NvKr7BL1u0qW8eiSEvOBziTx/8Kw8aaJRvJD5JLxsp8U8vV7Luxj0Gj2U3Lm8XAXBPPomNTw9p867YKeSPIRQnjxMM6m8l68JPACXkzwPn927AiRuvGJC1rvf6rm5sBSFu+24iLyxqUS64fnbu/DNdY4/WxW7bWHsvFSd9DzPjfU79rbFvN4HfLzlE+e6zfgCvDgGT7xDthe9eYcvvfIekbwCISG9e3Oqu/bv8Dw+etc6hJkDvKybL72kuPY8s4JiPKr6tbvzLoK9a1HvvAbrNTwROfq7wclPu1ek3DwaKHu7SCkYvdEBWzwUzok84vMQvQrAjDy8pXw8CU5CPFSVQb3BfsS8rqjJva8ySb27Dcu7i6GtPJiEhjxn8So9WBHSPNfSUTypeDc83fjiu/+epzxdncM8Ph3+vM6HMb1gCIk9r/C7vOErprx61R49aI91jo9f87oluwg8LPeZvPPxtbxjr3UOa9KkvFnHSzzkIKU72/DIN0ZrtLvKkOu7SOrxvM6xC7zgP608QJf2PF2SOb3SATI9GpoSPIoN9zy0gSG9tcKavBHy1jwhaNK8zMIAPF4oeA5bnsy7LchRu7f1pryKDiC9",
                "RsNlu5KmyzzJMCu80AclPWZpoLyPWJu66vjiPFChED30jgG8wUGBPKULvDuAyHiOKn7mPJJ02LxgpKW7XdEUvQHZab03FYa8GhUSPRsFEb23Rsq8/kx+Ojpzdjxvti+79sM3O+X+1zyuo1481ExcuynlUz0vPtU89hh8vFN3XjxzR4I7NlOBPfmp2zzRMtK7jo8FPVGkiDzCETk9fgNNPNxGLLyfYi+65qNMu65MSbzftzO9kIZ7DtSgOjy8Vr68Ift3PFuCNb3dzQ69IeNnPG0InrwdTmw8xZYwPKLHDr3AWrE7REsrPE+Bqjqcfl08dN//vJgSIbysyd08DMmZPAEChDwhCwA9ooOqPOGhrDzhgWa96Uw9vXMo6by1by481S2FPW0+0Tto1+O8U7COvG5FfzwtvEi91M4SuytOkTtUu2i6mgFivNElVjvmWge948M6vN1gNDvUDuI8Nvx+vGCi4TogPlE9jFUmvWzgzTwYA5Q9CvHIOwL/wzs32+K8rSikPGFfhLtELru6njKfOp3Kgry3vHkOdU8fvITexrsWr706cbhhvco8d46Esh68TfeCvBkwGjwyPdG8DydQvUjsYznsIWE8gCVOvUCJJr3CFEM8rfkou08/kTzZ6Ca9lI4LPOy+FL3T69o8pIg7POaQb7tO/tg56g14jvcz5ry02Vm8M0nivMxkML0ONz29TlXIvKw7HzwqNwM99Vc8vXb1sDtGPBa89MDAu5/B2D0+T/C8GwspPD2gd44emQc8wakxvF4rgzy+2gc8o596PRQFybwNn6e9A0KUPICfjb3f0V+98v6FPIybHT38YhW8A8K0u76Jk7xMsaK8/y7bvLtbjTyNpdm7edQCvUSMvTxaF1O8QyfmvGyQYbuY/5C82OHkPDVXwLw9YbY81c7aPKr3v7zn7gy9XDW7PLHhvjvVgXaOJe0vPR7Ww7xi22W9b29WPSszw7yYWIq83BVqPMpq2TzGywY7UEcnPQZjmbwiTza8bRh/vKUyGbwdEf68",
                "p+KCvD0Mez1o4/46CUjKOoqXIDwZDe26Skc/vX9B4DwKC3m8FdxbvGsy+jyCxY28AlsovWrXOLzInPe84R6qvBSStDvbYd+46QuXvJvb4TuXfB+8A9xHOuILFb1SCtC8wzw/vT8UC70GoZc7JZalvAdwtLymRLo81fKGPK4pl7xjJ4s7D2VIvWT1+zylFlu9ju5bvGfPeD3hX5y8P1V1vHzIeY6o5Jy7FKVAvOvOibzdeye8mYB4Dk/V3LvpTXE74fsiPQv5x7wtz7A8D7a7vIFNmrywQ4m8hTLAvIY0aL14/iy9ltabPCWJGz0sSsS82AeJPbRHojuA/UQ8tJIdPdALjzoZb3mO0clmPLch1rz/Lxy93TdDvet6K72Sk2685qmJuj+kuDva3M28Jf4RPQajZbwFAmw9t3EDPc6VYb3xkjk8Y711judQ8Ly3xha9d4QmPUNKJz03GeI7Tc1DvMj+tDyiDny8zuKiO3ehmzrb5G05WmEVPcflljvldWo7aF6+OsvY6zztmTc9BMkuvYrjbDz6WZ67A2RWPevRAD29SZ88RjiiO0jSFjs/HD+9SlCSPEDP+rwfjrQ8MykiPfpxn7zGTuW89iQGvdAKdo5iSvy74ZpzPHKnNb0wwcQ8yfctvOr4dDx0txq8EqBsPCHGrb0Lryy8ci2Huqu0XD2miwy9uNk/PGX6H7xbdQU9tD5Ju78/iD2fsYs8AolTPJDDNL3e/x87iz5UvFN4Db2eZdQ8gNzzurTQDL2Oi4m8X6A/O/7inbzvW7S8zDgfu4lKzrzZzuS8oW6gvHOGUr1SZTc7K6T0vLygxr0Byhm9s8L4PGlGOT3TOkC96dJQvdktFrzuxo087ocSPDYoJbw2isa60WxRPPe6Bj2LTJE8iieLPfRDZjtIUlC8v3F2Dlpaw7yHVQw8PuhzvBuPyLwAPnOOcDHuvM5gijtxHjE8+1ugPLwuBz1/hNo85jQ3PUGxAr1DYJM8zH4qPa+oI72lCR48wU9pvQ20NzsPnVq9",
                "9CvNvAnJLj3Z/CU92d7Cu8Zteo61aAg8kJWiPK697rx5QkC9l/jKvJN+obxaETy9KWzxPNpVULzWgmm9ZvmuvDrzh7v4+yo8rn8+PCRL2bvKZ24O4YQDPHvAh7yYsk09FEUQvFSBe7k3Fr08muEZvATc+Tuj/p48my2OvJ2cy7t0AoI7wW58PfRSET3Bhyw7PMZTOzpzwjvDoYO72uwmvL6LYTzxh5y8MsxJvAXLOrzyPlW8drpEujgHRTzt3787ygo8vOmhDTyZNwe77Mh/O5Qxkrw99ZA8SAV0DrZturvpNYs8LNyaPNjAIb2rgY671uFSvJtbtTtxYHy8ClXfueIjZDyV9q27sjcBvJQlJDxOOUK71nNWPW7QGz2BE7C7G6GAPYwFrjsaidA6qmWsvNQcqrxGloA7gLjRuzJdcT0Ea5I8P3llPCUFTzw0ZI+8FxzyPA6XFToXqEK8/6MEvLPypbvqPlY8EnOcusPdTrx58De9QNA2vDHsHzzz48w8JL6FvHKOnLynyFo8XwCHOxn1AbtygRE9tWb4PA7qDz2MHAk8WiwQPIJJKjyiTqs8fZWEO0nzkzz0qXYOOXyrPC/3iDsl7li7jHDUPC5fdo4Iq6O6cecPPRmSHTwjwAM9J0I0POlIirwsA9C7EzjDO6h5hry/PMU8JWqRPJ6D6rwEANU7Uyz6PHR6qLwFra08KgSbPAQr3rw0nsY8pFF4DqD4ubxXnm28CClbvHuBJLyMnmI7/OAUvJociLx7pR87mu6APG7J4Dxybxe8MeXmvYBjeY5Ha3mO5ex3jnSlb47K4XaOalJ1jkhRdY5YRXWOrbh1DlgqdI5mDnmOicV5jmkhd44cHniOBdRpjvx1dI7w63mOkxt5jhFQeA63XHYOcKd1DtJsdQ6AyniOUdR4DvZ1eY7sZniOCIR3jhMgeo55OHkOdVp5joc+eg6jUHyOeQJ2jnIJeY5qBXkOMB53juFcdw5NtHaO7iB4jkwYdo4uaXgOUK92Do9XcQ6BYnuO",
                "L9pyjnaFeI7gHXkOtCd4jg9Fdg7QpXYOoBN5jhooeg529HKOCal0jmP2eY4+QnYOkDB4jvYQd44xXXaOHUJ2jiW6co7XZHWO06B3js1Ddw6NGXSOAc13jmUfdI7oxHoOD0tzjrtKeQ4EQ3aOilV2jl4sew4ZiniO5QJ3jtU+eA5LMneOFPx0jtY/eQ6gonmOvAB5DnGXdo59xHaOxYN2jv4YdI6hyXWOzVZ6Dpl8eI5RrngOfip1juDFeY71J3mO+LF2jmDgdI5UznYOnpByjvv0eY7TM3aONJR0jmojdA5iv3cOZ491jvJIdI4Wv3eOvBB5Dryldo7mNXiOA810jvO9eI71hnCOW095jn6Ld45+cnUOVsF1jgqAcY5bXHSO4Jh4jmFpdI7VVXeOb/J2ji5sew5GZnmOkoN5Dj23eY6oGHaOPu1zjhCZdQ4ENXaOs+Z2jpLsco6HfVG8BxEdPOlUKjuudOa71CF2DtSP/jpngxO9QrbauwaTCLySTpA85MOVPFpASjxrXbY6lP2IuwyXGD3xaMW8OHVzvAIKhrt8mCa9irnNPHswBrxhtYq8uIikuf+p2DrLGh08i0TpPJ6BGzyM5AM9/OJEvQ9KGLwkn2g9I5D/vEy45TuF4XE7svNjO5jnQ7vpVWY8wO3TvPi7ew5lXnq7t6v4OzuTxrvOlpc8BmuAvC8jkbxM85a7qtPCOugACzwgqa48Q3lqvE/CBr041gc7VqGaOzdm0ru21b27BgllvQxGx7o929o8enjmPI2lN72QRre6b2u8vK5cPLyFo0U8P1MHvUm2g7uvTBG8mivLOzDkrLtij4Y8wvQxu8IgGryjv1q8aiY8vfcs6rwp3A29AsPGPPX5FDtewBG9iBEHveNXIL2U0pe7DO1ZvDzwujy3dJm8gHzPvKGNJbyoZ4W7BhHZvAGLCT137xu8dJK/uuy8ILwVz/i8rUt3DlcdgTs/ON+7v2+0O88l4rtbe3mOdZL+vC3DxLw0DuG5f4lCvLxAI72MH6o8",
                "FUgEPb4sIT13noQ7WzAOvXtYtDyZVgK94WzsvHRmebwy1gu9u2MvPTgoJ71Wg5E6GITxOu84dQ7r36k8EiQCvej8Iz1Bj3e8dyGBvJ6TSrxKwCU9qV+gOpPyZDsMgkC91pyKuwrUPz23AXqOaiF5jpUXeg43DHaOKLd1jgl6ew6DtXiO2N14jm4weI4VPHeOlpt1jmWCdw5L53mO9XV1jn8Ddo6Vk3iO2114jiqrd46jJXmOTmZ5jjVcd45T4HeOVwRxjmlMeo6L23aOhNd4jshRc47Ui3YO+/B3jtuAdo6ONnWODG92Di9Jd46Q73eO1o11jtKUeI7F3XOOAPF4jqy6dY6AFnaOclF2jsrDdo4SM3WOZzZ4jmnncY5gu3SOY9V3jgnVdQ7JMniO6Lx4jkB1d46GwnWON1t6Dgvtdw6oYnWOBgB2jsPHeY7HbHSOCRl6jqsveI7rKXAOd5F3jic4ew4T9HUODrF3jtRaeI5p83iODCx4jmPMdI4vJXkOSj96joFsdY7cMHkO/554jqTido4jCHaOH0F1jkIQd47sD3aO71p4jtfeeY70fHqOXz92jpgBd45FSnaOTml5jms/eA4gWXuOQ+V3DmuXeo5WHXkOE150jtWZd46mdneOPhh5joTTdY6PUHWO8MJ5jpR4eo5fN3eOaxJ1jkBkdY52NHWOubp5jvg9eo6qnnaO/BR5jkGJdo6Vk3eOJHF4jruRdA7F5HUO9wh2jjtOeg4dAXuOETd2jueueA5R1HWOz4t2jp/pdI7p4XmOr6d4jsvUd46XvnSOxTx4joMVeI7oD3KOp754jrUjb44czHmOBRywu3RqjDw2xJY8WLnCuA2ddI4m2nm8AkwhvcoTaT2pHCA9+T+hvAxGKz1jIZE8eCmpO6vtPrzvtZ+8w5rSu2gm+7x4I+o8yxn9O8CAMD3hwrA8zBCnPNS2HDxzDF+8odszPVIBLryYRca8FTIBvFGDBD0DyOG8ZMNVO74gmrz+3xo8zPqPPC5wwbxeYAc9",
                "4YrKO7Z3hjye7ncOrUHovCGrDz2R8ns7aBT3uypA97pucMY75/WXvMbI8Tp5mZQ64Rc/vcJSjjyFPRA91YbbO4ojeTxLRLw7KdUdPc8JKL1cS848CxEgu/Xtojyp7x68bxTaO+pKIL3ByPW8sdXju18o6DvTU5G8mts9PWVaRzwPIgw7xttaO8RHe72VpN+7woN7vIZ4+Duwixe9StfaPE3K7ryQSm+73xEfPIoLqrxBqn+8SeoYvP+61zzGb4E8rhFAvW+PPL1kqNk8tqbqPJ+QBDwl2Tg8SiH9Op6oCr2WTUo7soAzO3M8eI5yH8m71vUAu5vUmTuaIjI8AQF3DmKxgLzCq6W8vLbLurrwdjqkqJi8WQYeOpnWibzcr788heMyPasVUzv5g66869VLPE9PVzyF7yy9phhVvZKAMT3sJ4q81ZJJPHoKTDrCX2wOCcuCvGDMTTx1dK272JCwvE2i7juQcjs8ervuvAuwTjsNe4c8HvHdu0uZmryeS9U8OClfPVaiz7yAHso8GnZ4ji1jRzy9i9s8Sw9oO0EzFT3PSWA8W/4GvTkgEr1FHWm77ngRvCdaJrzJM4S8H4bgPMEEK7wy82u8aBnTu/vML71IFDU9NLRBvPj31zxrVha8GxatPF85KLw/Xa687arfO9/JC7p83QA7ZbnhvEiagruFJa67c1HlvN2tm7ywm6m8Pz6EuioHdQ4xleK8iO0bvbuEtDx37Qs9h0CQPO2I5joyWVw9RUl2PN8ipTxIhNy8FIBSO4oytTwpSZS8VpVnuy87ljtr62K8yv4ZPvJoNbt3riu9Ano4vXngcjsMv0c642KKvBJKVrtjLSO9T1bMPK7ur7z3lww8hYZHPJmi77yDxYA878e4vBebwDxsAoE79qysPP1ofb2Z37U7xmcrvN+j8rykCo69BfKju/fCursCOd88nH0QvftwxbyFlxW8AgAWuy2RkDgB10W8+zEZPb/MOLzWJlO6fFyIPH9Z8bsWDhe9bO54jh2nFT0Ira48",
                "/SokvIXUtbxA/HSOwF9tugkzSD2eeoM81f+lvTh5IbwZOqe8ncNuvZgvyDymwYC8yfDturAOEL2TJNi8W4bGupYNLLwvymc9vnniPKGUOT0+cBa8xaWbvK64eI77DVA8U2gMvFfbZD0GdFi82B6KPNwlyrxvSqe8xAPEu1czNbuzEnC8yCtpO9jDYbxHQ1E9oGtSvO3UxbuMIHeOI0neO/k717s3Av47noL1vG1FlD2BN7m8jE0uPVK58Tu99xS9HYiAvMNEkDu1rIo8N62iOnLw+Lw6DPW7DIzcu9dmi7zQq0C9rk/0vA1f1LuWmwU9XOXRPN87GL0ixhC9qeuGOyQxmDx5abK7H3h5PNU+pzokcIC7avDivMHtab1wzxG8c2p0jkQ2xbyM5ae8f4cTvcFC5bynPGs7cen7uyPBOL0/sAY9rvaevG5/B73GKGC9Fp8VPVMo1LzGqha96KuevIafJrtA3vw8tMT/vLAGIzyONnA8fNS/OZQj2rurgyo6LI52vCjZ5rwmOow863kevTaymbvoIW47DmIJvayO7Dz1+CY8hBvCO13xP7xtZqc8J6ozu2btWD0NGxy90GUCvVRSgjsa+xw7dRThvPod2LzvLyO9j1+cuzy9W7pZ77m89aAfvQN9Kr1S6eG8yeV6PFtBpDzvO+U8QawOPbBIGL156XgOS1GaPDLYsbwKr5e8To8bufk6d46FjxO930odPUnXMTwkHLO8Ou0kPNkqU70TUa+7AkjVvD9Bpby3Mbk8OvgcvVafN7xh2s28XxfgOgXk5DyRA7I7YgBEPPKPBj3xUzy8URt7DiY+k7tsHi89lalTvZ1XAjw5ylY8MF9Aui1cxzxR3La8E4fuuwW1CL3LqgM9u7DFO7nRd463p3YO4+d2DhOed44yCXoOgrV5DjxDdY5nRnUOtzF2jkAzeo7kbXmOER13Dsl9eY4MXHeOQot5joTceQ4HAHmO0kN7jmgTeA4fOHcOB1F4jiNGeY4wv3eOL5J3jsSYeI51OnWO",
                "csB3jqGreI6PdXqOU2h2jtvrdQ4kSXkOFBx5jj4ifA4tTngOA2F4jrqheQ6AWHcOqxR2jmKle47YuHaOHWV2Dqpydo65bXuOHwh4jm9ndw4BV3sO+sh4jrX+do5lwXqODcJ3DpXDeY48u3SO1a15jg/+eI4FwXiONbp5DowLeY7PcXcO+P95jvVfd44PvHgOhaN2joyweo5PNHWOb251jk6ueQ6uFHoOlk53jtf2dI5zkHUOy0d5jlfqd474+3aOmCZ2DuzReY4ScXoOx8h2DtNWeI7I8HSOX3J2jrT3eg6+nHyOqIp2jtpxdw4jxXYOOg54jkERdg7xrHWOILh0jiWGdY4s9XmOtPR5DqW3dI6823YOY4V4jgrHeA4OsHoOPu14ju3GeY64MnUOSUp4jnaLdI4zeHYOCWd2jifEeA610niO3el6jnkId47AWHiOHWV5DuTddg6NR3uOoJt3ju7bd445B3mOiw9+DlcceI5/2XoOqa11jmN/eI6jnXaONbJ7DusBeY7lfnmOgt90jlrPd47PDHkOKhh3DgJqeI52/Dq9Oa5kvbbyWTxc0h67eBN1jiRvqzsuiS08+d/2vOTWUr3/HFw9RRf4OlweSL3CT6q86ItWPL+6MjzC4ls8zsM3PGsb0bpbBMy7UluJPIHT8bvFdh096ldbPeyDZb1ioBG9k5RxvXnhkDxCFTc6on+yvAkORTw3R6m8k9SCPbc0ODyvajw8QhdUu1K3Az1H/C+9Vq/jPI4seI5lo467EeS1vGyn2zsqd8s9pBqDvIh8FT2pSXK8Ob+avN1aJr3Imt66aAoHvQJ81LqdCP48f+izPcw2mLyDtTw9hrC6PKFtNT0RjBe8rAKGvHf/vTuOrDI9wt3nOqJX0Lxt3Oq7WSygvDMGKjvEm2Y8dJl/vCd7Hz2tdiQ8VkL3PJ95pjorAyG8tl89O3FWYLwoEss8qcM1PQ/yMbzUuu28XK73PIYMwzw+5sC8g4DEPLGBUD39P3S8O0iaPZ2+Q73UdK28",
                "fkGEvOqtrz2VNdA8lD+/OyQbgry/piG8/7F5jugImDx7qqS8xkkbPV7NVjroO3iO2V3ZvEGPlj258Gg8ibNFvVWjzTsULyi77kiAPchyijy7sq67iw8WvD3HerxujVi8LNgyvY6/Jb2/eOC7ZcrxvBpIwzxioy08GKwtvRSGew4vTas85gOjvNUv87t1mDC8FxmUPDR/pDsSx5G8T2+dPPqN/LuN1cA88rAQPfht4LwSLlY93HKtu6ZdxrwXg3oOXPQVuqznFL2KHz68aqmHvEHaWT3oo0i9EtUhvEu33bzPDmi80jdZO9YIh7ygctY8KkvouzoDs7tRswS9G3qivFbNCL1n1R67/MZxvLUhqrw68bs8rsUSvOd2zrz0A468aOR1O/iRtDzn7+U8oy36uTxW6bunWge96XK2uzqRojsBTPG8xet4jirEN73Oide8iaI+vfPWBT3thyw8AQX/u91V9btFZTc8TwzZPFbVcrwi69U6Nt6hvK4+AD37ZB67HmMLvIBkj7xg6488XLZPPIUE3LuZKxG7ikYcPEXLNLw62Yw82s6GvGdHADz29hG8f1+qvG1+ZLy/YtQ8V26lughrhLyO/hy7HxJqPYNUqLtT34c8ciatvKfqEr3i1hw9f/hPvQK7RrxS2EG9GZG5vDkWCz3HhDm9D0ekvDokMrxUTCy9mzfavLEwxzzArg27kPa1PD12uLy55LO7ZerkPOp2wbyFOHmOvEyFvHPt4LxIPCi8DhTXPF2BeI4Lt8m8OQOVu/sxLjx5rwG9kYjvusK9Xb09EN+8sQv9vPDy6Lx8bAi9txMXvbK7Nb0C2yW981PDPDr3uTyrIIm83tTRvGM1ET0TCZ08MT1zDr9f2Lw/w/c7EaSwPG7qvLuXkZk74fn/OhuWML1VJ2y8jVXCvMHCNLylMA29GKoMPaLdmbwQt++6XJQluxJneY4n3Be8hJQAPYuoP7v8GXQ8Dz64vdjvk7wKj+28IgE+vUgolTxHRWy9HM/nPFqaDbtHKFK9",
                "99yzvOV4lrwoK+G8e5KJPVd8kLuwlMQ97v+bvIW8+TwU2vW8uGU/vdVjmjy9yj28UofKtRLLbb2fcZ88eX+GPJARNL00y+M8/hZ7PRz7CrwxmnUOaVgpvPJh4LzYIYU7DYtGPMim9Dwm4xU7Qd7gu1/WWzxsRvK8cNv8O1wD7zy6bvM6D2J6O6gMmjv4cQ+9HYD+vAcwML3S5iW8RTFpvUEWd70VKdI7IkX4vPO7kruz7TA78bkXvd41aryiblY6rm2qO3ID6jv3CdS86ZWNu6oxYjx2Wry79x+Cu7PGqrxFoA+9OvaeO+3nWLyYqOe8l0lhvTYBW7uneqo8/XB0vHqh87xoJA+8e1AvPCeXYTw9fSw7YOcfPT8LDbueLaK88klOPCVNgruT1wC8KaaHuhh9eI613F88Zp6hO2+H1Dsnu0e7FEN2juKP+DuJ8di7LsSDvA9czryJ9wU9tUaSvKltaL13lFW8AAB5PJ+8Izyx5Pe7kUj9ujQQTDyC7g29v9UiPCwZgbyVgHO86gffulrNNr1QtXWOMNHhPDToYLxdesU9aADlu9fTwrzXzAC9Fed1O98CRrzhYVi8smCTPJFTSL2E8149aSN4DqWBe4787nmO6Dx6jjgyeo5jS3aO3P54jpGQeI6SpHaOPBR6jgh3eI7gmXiObDd6DsageI5MaXmOBF15jjxeeY4KiHeO5P1yjo11dY7JZXiO3Fx2jrQneo4/AXqOP712joIreg7T8XiOTNd0DtawdY6Q0HmOAyR6DuY7eo5nh3eOsDp6DudOdo5BqnmOlwh6jl+peI70unaOwGt3jjGqeg7W/nUOtIB3DtGmeI5iQnoOKH95jn6WeA7q5ngOtF13DsY8eI7x3nWOXjl4jlnQeo7y3XmOPxp3jmLkd46YonqOoT91jpbUdw4kZHUOtwd3jnUCdo51NneOGDZ7jh0UeI4c83eODYB5jt1eeA6+PXYOvI95Dk0+eI5DYneOuXN2jpgkeI4aLHeOHHR2jjFKeo7wq3gO",
                "JUZ3jk2seI76f3mOM052DsfhdI6cKXmO2qV7DvhsdI6v4XaOWEl4DlFudg6eGHUOYiZ3jnm5eI46THcOifd5jkOBe44tnHeOTjt3jn/zeI4DLXaOWnt3ji4xdg6ENHeOhB90jkKieA4eL3eOYgx5DgVido6GbHqOoQR7Drmrdo7vhXoOSdR4jqDQd47i8HaOCEF4jkfbdg6hUHaOpQd3jnNKeg4yHnWOQs94Dl/Wdw5qAXiOcVl3jh5Qd44ZTniOA956Dsosd46DW3oOEex5DjxW6L29FKs97ckivCRo4zoO63WO4zZDvAm4qTzr42I8phlCPKSOBD3Gb287hzjIvKxovrmqoRW9HLYTPF7pVjwB6Xo8TM9SvMP4gryxyQ29pku6O3CV77w+jCO9RNt8vACHkbyUflW7A+ynPc+kyrydC8i8HbsqvdjUlbzPJRG9qu8TO0o4Gr27Nme8LR4ZPA17E70Js5q8Evd6Drwqdbz/wQK9xrycPADf1r3Z01M9Q+Hmu25pILw28Re9pCufvOdRljxj9bQ8v5qqPCNWIb0bes28M5nRu03Kf7yZEIw8RN8cvLs+DrtVXau8nIWMPZWE/bzVFze8WLKEve2QkrqAAdS8NcGxPLCp2ryEPak7OpFtPPe2iD2LKTm6VxKJuwtBib1NfpY7nqeEPDZS+Tw5TEo95bUrvQemobzfFSC8r5hBvYZnhbxLoqQ8KV8WvQwMuTveb7Y8ZhuKvNtY/ryB0Z87vK2QO8etd7yk2hE9zJVZPGTrpbx54HUOFVEiPTo0Ab2bwJW8u3WBO5Z6eQ7pikG8VrXPuZkEtjwOWqK9EsKYvDMWFr3VgCM8jdp+vRSFE72SoGa9Ox8evZ31kb3pqPy8QB8gveQ4PT20vk69St4svV3rhzzrZqS814Z3joaC2TyYKUu7XIeuvcK/Sz3FQGc91dsgvSwdbLyDEBc8g7UAvWg2ZLwV/pY8+Nv5um2RDbw5JmC73CCeO163do7mDyI7hsUSOlUjX7yxHdi8",
                "7B+Zuz7GmTzwLzO8g5s3vS9emjx98W+8Q4X2vK2TbLssziu9hRcsvA4eSDzgdLE6WKhUPVh0gTznugs8Fo8HvLxnUrpUi6m8NpaPOvjCnLrCQVW8KtOcvJUBHj1OY4Y8FzwSvS4RljywyC27a6BxvJaIWjyPVH+Oa9+xvFu2HDzvJaI7qZPOPDmpy7y7EaI8ptpOunkRfDoIrSG8U2gRvXdWVjy8CGO9NhUwPLrTxTzJb4e8mMK4PO6+Erk1MDo8e26pO8OGvLzOx288cie+OzzAgDwgGBk8s8rRu1UlUbvrc2C8NjqPPJulkLtEABw9cMMFPdlf3buvxS48xl8RPOsR27xhXoE7xEzLvAsMGTy0Vxm7k0y5OxJJmTz4WfQ7tliYPK6Dvj2tqEo9rGPpvPk7ZD23wRq712L6uiRcD7p+sKQ9xxTbO6Gxc7sD7dy8IxaLvHdWeY4YEQG9C1kWu0wCUjypjvW87kZ3DqAyI70rYzg9iBOnvGqHbDwauS48mqiaO8IEyjxfYQy9muuqO4iGUrxNvO268fFLvLYWFL0a4ci84ZAEPdDudrvq7dm7Rc92PKi6Djt2jXgOPmoDPcRx1Tp98PG6d476u067djziuJU808q7vP9HWD1hVV28Cb8fPR0y4bwUxzy9a49QvD/edbsFllY7R654DseeQbxJIkA91w16vOkInD2mTxy9RzF+PewalTwWnIW9DVY7PWr/s7tqVss89kHku7BLf71Fy0S85M3HPP6x4jwrDAS9ZmtevO6UOD16vA895pVsvEi+ujzZqSg8uT0YO4F+hDv0LE487V2kvadfPr3d43I84eKaPPquZDw3tzs9oTmmvFXEdg4grrY9olivPAkLTLwvcTk8NMS7O8lbe7z2Cwg9WQM3vOMzCT1Lvh08LJNDPdd2BT4Sd/46jVgwvZSyj7zSGB693WEBPJ3d9TwdAlo9DqQYPSeGr7zTho88qgVQvL8IebreVgc9y6McvNvNFTyKwcQ8rXtOPDxmtTusNIi8",
                "sA4fPLPCRzw60ie8IbDKPJQSDL2cUoM8+Oy1PApm2Txf/aK7PkVivTEPpzzQFAE9UZErO4+wQLxuX3Y9TkHuPIH9SDscEW48Zf/Hu1IoVr12yxu8RvEIOwuZ2DvYo188dht3DmY4p7ze+Eg9K/rtO+Hikjwlk3qOsgQbPdWAJT0zres3OuylOxC59brJA3m8a7iYvKPUpjvZBKm8lupHulU/PTwQTaK8vUvZuxboGD3nT627ISfrPE2gBLxiLDg7j2SouyPcdQ6TdKe8/LYCPeCxWT1E6Sq8BXz2O55zbzwEOKM8t6D1vHV3AD04K1O82FOCPaoegL24dbS8CSwsPKD7Qby9fneOAeq+O7o8obu2PdY8UWcuvZua4rwVzS296c5eu+n967yzVr48z1PAugKnzLt3wEa8VOviu/dYFLz4CKu87TLWvAkEn7vFMeG7n6IOPEZICrzyXqM8sz0tOzLZ0ruxPzG7yfugOm+MNDyT6WO9qT7gvLmJJjyEy8w8wKjnvEtVEzzfAN67NcJ4DlPHirwTX1U8p/UXvdzxkbygCN+7h6fpOoF+xTzQHnI7Cy7Xu/g5rzzwHMS8Gb7WOkEShzrvMBu8FETfOkLQCLv2CZ48OOhGPAH0vbx7+d08vWGDvKQzD73lgkg9VYicPGFUBzvQovU7J1ylvFKpKzzPrCu6M7SaPDwgejzZrAA9M+bWuvnHwjz6EoE9nKYtvICem71mz8c8qg75u2UwazwuGdc8wu9VvEffGz0o5dq8Lh0ivYK+ODwWzcC7BTCUPARhiDw2PIo8XIHLvNhPozxDNE68XOtmO7dx7TzJn3oOmyiJuxhOorynn007JnehO5H1dY4MU7w7A+sHvUXcjLxj8RI9VB3NPGzn4jwCwPM8+7wsPWX0xzwdBSo9WKktvTOn1zvKkTa7fTzpPJKuBzx9eos7FxOkPMUQnDyauyo8QFd1Dnq0p7xaWSI704DoPA2oHbvklFy7Y+swvNMkQb3D7cO8DCefu61R57whUGi7",
                "Dc6ZPCC9Tj36M9i8oW9Tuq6udI51KLI8EmbqPFlyETsyreQ8tZdtPTqNALwZ0PA8RTQ8vHbFh7z6Voq55vAZvT9nrDt5LQ+7SNM7vDm017yIiLo8ItfCPKJua7yTST097hd5PBntdj2tX5W85GYhvdAGcTvqFY67o1j0O4CKALnneHW8ezZfPMcUpbvHgLq7eOMHvQqaBL07YngOKN4AvAeLobzkUIW6U7EQPUW3wzyv3hU9XR3wPMFLbD0vv5280R8PvZhyWb3TDI88zVhivWiSerxY5r28qOHZvJEDiD3DI8u8J90dvXo4Hbzew9S86eG1uy/mO7tfrGA8Tg/yvDfuiDtah8O8uXZ+vP26AT1Ljhy9xdeUOmQLq7vZlZQ8+9sPPIqO9rtK43S9tOYQPWmBKL122Re9UfkhvfHAAz3K5mw7hy2dOlQDzbxG8oG89jF7OrhWcbxn04E8V6tvvUv1Qjy4VD89n0EhPO2Q/7sXb4Y89yhwvegKeo7S7q8876YTPE0rAbwIhie9Fzd1jgDYyDzcmva87czgPHG49bxWkzc8JfB8vOKEPTt4NIy8ntpAvCITWDxj6jO9Jx4EvafqRryvI8m8PCiNPcSEGrzVxIk8zGWgPPg3ezy1yXsOujE2PR8BTT0oB9M8T7IBPcPTBrysDka9+9uSPObQorxSSvW8xJBxvYEy2DwxQHu9Y7N3jjitd44FH3aOoy9xDhRxdY7yyHqOjeF0jmYado6d0XaOUH96jgGjco5F+nQO0jF5DjJBeo6JtnmOTt10jnIKfA6QKXeOfXl4jq/FdI4uwHaO3s53jqpvd46/jHmOXmB0jtc9do7c6HSOgr53Dlg4do6IGneOBHJ5jvtGew4awHaOaRt4DthUeY5OAXeOYCZ2jmxycY78W3WOZGl2jmwVeo7cWXcOKep1jmAwew5x13WOAQp9DgvBd44cc3gOrtRzDsb4d47Qw3eOWhZ3jredeQ45ZniO43l3jjIheA7uQHoO1qp5jjObdI6eoHmO",
                "MWdyjnk6dY4KDHgOkM51DhRXdY7Pp3eOecR1jk/Jdw548HOOT3V2DnJDeo5qWncOayN7jmiodo4y13SOa1V5joxPe45Ba3mOwbx3juEpdY4ZMHkO9jV6jlesdo46jHaOrvN3DpxKdY7IJXiOWvxuDugoeY4XQHcOs894jn6ra47+aneOAMR3DsbDd47rfnaODlV1jqHQdo7J3HiO/ulyji+wd46uuXKOdCN2joI+do7/FHoOF/54Dg2fdg4xH3WODtR3DlHjfI4GJHiOi1V4js73eQ4ddXWOy2F1juRueY4OAnYO5IN4Drt6d467mXaOA8x1joIZdY4vnHcOLUB1jiXyd44h3XaOIEt2jis/do6i2XeOxzd4jrf0Cb1s6m+8Nnx0uhQ5qbyGp3WOHw7ZPPIlorzEKRy96j7avEoQV720Iw29KZ6nPI5YurkjsAI8vWtcvZy/eD3rJEa8tfo8PR+i07wnyZI80+/JPNKLPD3yzYU8KF8lPZvx6rxgdD49U6qdPGRo2DrSMM+5IkQCPK5V4rtJ/S08QlM0vW8RoTzcfyq8/FyYPAjbkTxVYyO8MEZ8DlSoEr3kgbo8yslwPN3MZDubxBM7YejYOzf297ofB5U7yQ5xvR5Erzwleak8TA4/PbMNR7w8qZO6HVLOOw7kDD31AoI83NL3vCotnrwM/DW9XVHzvC6zNjzO+oC8QB2su0bERr2Q/rY8Ij6KPQBNaDwk7Xu8rAGVvNl+gDs7DAq8zpkrvcs/Cz1eMIc8ffi8u4N3oj3ddaQ7reWQvKVqcTxkDZC8WW6UO/A9CL29dgs9anDPvGR1ujwfcUM8YbiqPCxGMzxNbq28dPplvM0fszxmZpk8b1zAPPSKWLt5tXeOCSLBPH4yrTsG2xO9nV7oPLwjeo6X96Q8hJOPvI7NRTwimJO8n0wjuo8nvDzSfcW8yLm6O7mOhjzWZM86I91UvCxLUz1sfwU71QTuvORuwbvk5ni8C7Q/vcpQBr0no5y3xLFzjpL9ubzXg1q8",
                "RbcvO0uS6ztnapK8qPKEO29Klzv7tVs8pnYOvSDEzjyp9dO80KK9vMNJyTzArQO9CFYuPSTkdo5Hb+e8Z8SQu5DawLrUdz68oYesuyktOj3jlpo8DqUJPDP8CT2AQxy85/IUPauAKTyyRuK6+9SdPAJitLxyqNi86iWtPPXLujmCoEg7xLzlO02BCT3RLi09G3QKvebvfD1Z6KS7JJJAvDI8FD0D01M9jOGFPFltE7wshhA8u+aVuwbi0rwDdXUO9klEPMQD4jxBbQ09khQrvfbXZDvSnw+8QlP2uwZExDukFvU8gjMPvVFdGz031bu8u8uRO5qR97x+njI8VywYvBTZ3rx7HFq8tkWVvYdkNbxcnG+8g0k5PYGtpLy0qkS9uiUmvRh47zx0ijs89BHFOxtw0Tx+Hvc81HQRPRi237ybZ+E8/39OO61EzrzVXt072BEJPOpGE7y0Ni295S6wPCY2Gz0kSls7K+/cvGgCPLz451W8wofKOVH32DxW+AO62VElPAz2F7xEeQ09SGfAvIYvujscLdy78CVsPYzXdI73Yze9tXanOzcdh7zca8a7ToF5Dl8BSD0K5Lw7+PKuO/IlV7xCDX08B/k7vYOffL3X6cS8Gw/jO2nV8ruFdRw8DqRkPd5BHz3Jqdy8n/rQvOaAAb2e8TO89FaePE72gzz8FnkOGelhPRxmFr3OsgC96KiUvPAPkjxfOOS7lOm6OwWl/DxG6yy5Tb94PfQ9Lb1nGOC8Jk0hvETPLDywJ4U5dyd2Duec/7yyCdM8vtoEPLz1VjtPxK+8J6wTPY41zLxMQIa8yQIlvKiWILsgSt07b+kjuy/MUr3xqF094Zv1uy2U9Lw3uAy9OVIWPUzaoDyFdfY6zD86vQWxlDyMN9C8irs2PTxO2Ltx1Fi9+xhQPZeSkLz5FKK8Zs1wPA0ZjLs7qPg8v+SmvEFpeY74ruq78VRdO7WUAzwKfNw9sJlJPI7P6bk5TeE8VQfUPIuLFz0CSfS88EOXu7ClKjxCM0+8",
                "igeGPI0ZnLxdYUo8l1n0OzDEoDvjQro7wLODvFYknrwaVyo9J1L4uz9MdDzzsC4923/duzTkoDzpOQ698/envIormz3RlI+8RH63PCqaEzznFGW8kUE6POrjTryN6Ne7k9p+vHsN3LxKyZY8on6yvKlFkbvTv6q8NkxkPZSOC71gBHG8ULP1PEF66rxvL7Y82+qwO3nYCj0q9wQ9fwoQvFEGT7w/Vg09CBR3jnr56bs4vzQ78CBjPCpD0zujvXQOYLHjOp/+oD0dPLW8gASQvafiSrtACMO8xAOdPVNzWj1eOTc7Sh3PvDdIibtuDFi8IAKFuzNqlDxuPOm8aglLPEwEyzyQlm28iGJWvaHreA5k0iI5F6BfvDnZ0TxaFPm8eyyDvEvikbxttyk8Y73ou8Y+h7yDHsY8hlu6POnSD70ToHaOvZx3jhi+dY6CI3mOhkJ3jjtxew5+/nWOmfp2jmVLdw5GWXYOwWN4jgZfeI6l6HqOSMR5DvAhdI5QtHOOGpl3juR1do4jpHiOLDV1js1+dg7R+3SOMdV3Dhi5do6mZXmOoRt8jjzSWw7ii3oOcSVzjj4hfA6J6HSOCKF6jk5Edw53LXsOxh10jpN9dQ5RDXOOfwt3Dpv3c47sHnOOJmN6DoNOeI4+jXiOQ/t2DhAbdw5QTXaOiOV2jvWodY6l3nqOww50jndweY62tHWOYxZ4DuUNeY7xiHkOo/B3jt8ceY5WqXmOHTx0jksDd45edHOOWUpzjpZHd474M3WOVfF1jl3Udo4zyHoO06F0jtSze44NqHaOIAl6jnkIeo7kPXiO5Ch4jl/Xd45J8HeO89x2jsgDeo6zK3aOEnN6DpdnfQ5EjXOOJGB6jsWTeI5M53mO7H14Dlr5eY6fyWyO16h2jm3CdI6kE3WOcCt5DgffeY41nXiOrdx6jqCadY7OC3YO/5N5jg9DcA67jG+OyK94jnbVc44lbXeOJhp1jmbldY6Kv3YO+5d1jn55do5JlXSOg513jpN0eY6EPnqO",
                "wX95DuWGdo63SXeOwpF1joMEd45L9niOYHB0DiZldA7bC3qOKnR4jrz3eQ6b53iOfPZ1jqQoeY5HT3SOd/V3jv9WeY6klniOb+AlvPmMhDztZCu8M6qZPEW0d46f8r274CcvvDHbPL3NFaO8KbLlPAYSnbw3ZAc5HP/zO4FpTr3LlbO8qTUVPI3sEzzf1Rm8foPgvGHJdbtO+AE8avZQPIMWETysfV298yK/PHcaBjzUF+c7qwcevcXZd7wPXRQ80zAPPch/87y9kto8+/MlvJWldLwaUZG8e3X+vOf4bbzfy3eOzs7mvDK5Kz2oOQc9w064u1Hx1TwXf6c6irOsvNeN1DuOntg8r26lPOfnKzyNMuQ8oe3NvJQhzbxDNXc84CB+vEqwIj1ieDO8Y1BmvZUOpbryxeY849uyPO2R7jtg30e8trcSvTj5NDzqCj48SlfBuihNeDzqF8k8CZWNPF7vAb0lMrU8AZ/gu5cvVDxBsL8847JMPEbBAz2GtSc9H7A+vOH+lbztRb68+NsHvJjc9rzDCwC9ufEVvWNHnbySxSw8znGmO2Vj8joGZQe8fFvTu6YBBb3LHIA8Y7OrvFUvdY4sHSw7ubS4vKAgJLxX/z+9itp2Ds3sYju2W2+901yHPerVKLwbd5q83CTkPPjZILxICNu8+fjdvBnHp7sgvOS7graCvPh3hTy+G0o92ZeUvE9ppzpGHFm7vz7+vIg7g7xjJHcOr0aCPKzhvjohI/W8jjg6PXEzPjz7jfs7wTKiPCWpOzpLsAo9U8uGvCsK8rvY5mo8uu15jv91eQ5rEXiOajp0DhSLeY57F3aOey14jgXndo6YjXmO8sZ6jmq4eo46IHaOIDZ9DnCcdo40xXoOaId8DgzIeo6l73iOCzR3jtjCe47gLnoOCAZ6jtLReA5LunWOr4V4jkU9dw7HHXkOYCN1jh0teQ6TUXiOmih6Dg5CeI4IDXiOCrN5DrQNdY6/wniOAI96Ds6+bw6JiHyOBHt2jjLedw7GbHiO",
                "ACh6jtMyeI7IQHeOpoB4jscFfY6G/3qOr3p3Dgo+eQ7QMHwONL15jtrBdw6Fa3aO6NR1Dlb/d45kM3mO9P13jmbsdQ70vHoORrl1DhBdeQ4OIXaOr+J5jv00e470NHeOft14DgBkdw76hnoOAWN4joU3eY6AV3aOsfdxjhxFeo6dsnmO2Vx4jluHd45YfHeOYkd7jhlIeY7zzHWOENJ1DgnIeY58k3kOiyd6jt2mdo7penWOZ+d1DkkWeo5eBnaOnlN1jneMd46/QXYOdi5zjukKdw5oTnaOr1x3jl+3eA6JjnSOZgl3DgnPeQ4YcniOlHl4jtbTd45pQXiOyJJ5jrPkeI7h0HiOFoF5jo5Kd454jnaOK4l7jk75d46crHmOagx6jgnWdA7G33kOmzd1jqCZPI7M9XSO2kx5joK5eo6sB3mOKBJ1jse/d447snoO/Gt1DjIweI6jdHeOUst1jvbvbb1nyTo9YJdjvDb2ubzGVXiOpevcPN3kAz07IhS8WWWHvP4FMT1ScV28ob7SO6USj7rTY0G7vroWPSWqhLv0FpI8EsQ9vXr3L7yrC2q8H9gqPDzbJTxBo/08j+ehPNO1ebsH+L88eW2wPNG/+bxjaqu8jILROm5p5TzIT3C8AnlKPF4v7bpXwAq92ajDvBZKNz2BQIE89qN2Dhr4mjvcbgM8IX64u4C4lzpnXFm8phj3PGDqgzwC2As9Z7GvuntmSLwaiau65XwNvMFcM7tFu4S7WYqLO9tiYryNBXg9/xcWuz+hEL2yDAq9tUDvvAq/CTwIBTs7oxMUPehhgb2NIRu8wBEOvW3WGbzNImw6FQ+RvGgeuDyQVUC7frvDvIepsDlqJh695Ev+uz5VEDzCM228M68wvWIsl7ydnQC8HiwdvP/oBrzWQRK959jYuxN9Kz1m1+G7JH2BvDUA+rzv9iE9ZR5PPEEYoTyn/FW8S85MPa72Hr0xZHqOaZnlu41i8zyL+5u7BgL6u/tUdo7hgaM7WhpjPO3rXrujKDm9",
                "QOeZPGxBmThvHxS8ibxevFSYTbxKeOs7RDmTvJ7jFr0jOQs8mptTvIJK2jxJghk7c6MDPDqZZDpYbRg9QTx6DtNp7Txd9DW8cI9wPAfR7rxDr1a8aIwPve23FD22lhS8hOuCvDoJ17yNbua8F7T8uyzyITyk7TI8xXDEvBLeeY7z2sc8qEovvEKrhzwRrKe8KH8tPJlI/7wmQ467XUAmPPG0NTyIBnE7X1qoPD3/yTxO+y68fCFlvDOu8jlQl8o74ZIGuQ/2Zby02qy8YeUUvHP53TzGr7i8o5/sO4Jt/ry3n6O74+IKPGS6vz3dxIe8t2spOyxmPDzFUx48BRmzPPpd8ruXancOWL0avOtHm7zMlf07ChlKvEARCD2sNjk9GZ3iur02hTyq2Aw9cLmfPFvMbrxf5K88MPuPPD1IHr0jmBG7eEW6PMALDbzTi9q6XUHNvNPaDb2peke9x66OPCc0Hryqk9W8rXucuz/RiDt3C0k9Kn2Uu9xRYby5ogw8WnYVvcWBSTyvb+K8HSVdu8KeBz03okc8mFISPXagCDxxpc+8JTqCPX2qir2fjjq8S9gqvX3Gcj1ATES8S2DWPAgBpT1GypY88DtrvPZo57ywWeI87m4bPfzQGTzNPog7ZJp7OwqYeI49nTE9FH8nvU/kD71CZYs9g5p2jurG1Tx7ors7E8I7vK1wTL1izHc7O6LGu/VHOjsep/O5JiWWvKVd2byD4A289KoevQfUNzw1wUK9bNxwO7WgEz0xRJM8+G7QPNNniDzmmnoOBMlKvMQ45DxeUgg83EfiPKZJir2CaBW9OZUkvDwazjvzM6g89wRnvAIc1rw2nPa8fis5Pd+kOLrIicc8npd3DmjbMLtt/2U9i8wyvHhiQrznxmU8buqaOxHRez2R63y9sh0JvEOUKLz3ahe98KpCvCtPN72IlHw6WdS0vL8DWbyB2wA9DsvzvAMcOD1EZbu9yQqbvdxySTvNIm67B2RCvBamS7yQW8u8/oEIvLb4Zzzorp68",
                "ROpzvSAykbt5TdQ871OevH9ceQ7/RIw9bWDoO1qSUzq1EqU8ERF3PB7yFT0YrsE9G7pbPdL3yTt+PIo8o9I+O98jQr3r33u93p1ouxD6H7wyeqW89MyTPQKG+bwqfqs8V+UAvDJISz2Xee48Dy+rPOoEvDxIHDU8Ih/xO5ydF70yuG68kephu1zyUrzmLg89JVAhPRUfYbwhTM05DZTFPA7UAL0vKrm8GurvvG91ab3c1v07vcKcvFwgzDxg7oW8I62AvV6qJb3FdGQ9hB6Nvdi0q7xsGS69S7vpOUnO7jrAmII7/XPfPK0sMz3Eid07ztJ2jp9fEb3F1n68RxAqO2pmSL1sy3kO+pI2vGsxtDtC/ly8C+Kyu0GHJD239EY8wMlDvTnZ3rsM/yA8gOnPPLfQ7LuQsCG9VRxlPB/lKTwLjTg9bEKFumZujzwSh7G8kQyuOc6wdw4oBsI7b+OZPWAfzD0c3FC8QWwEPcvtUTubY0y8XsPRugZiNrwsDrq8Lo0JPVdKRL3CWlq9MFe8PNVMNLxWY28O55KRvM6UDD1e/hY9xySPvNW627rs1LE79esXve+sKLwXcqu85x4qvNUYZruXTrM7QaQTvA48HbpX+t67u8E/O1PScby5AcW8O0j3O5LyLLpEw6i8PRSEvLa+pDvKhQe9ZqVBPBhkEzypyUi937iWO5zJE7snoLm8viNGvEmqPbz2nCW7Lolrjj0IubwitgG9yyHlO064brx8cIu7V40mPL4ACjztWps8vjfPvBB27TxeHxU8Q+aYvBWqNL3Xr128vO4UPTrElbymYlk8gYvEu7hU4Dy/eGK8oZsAPEQ5NLteVKI8CJ+UPOiYr7uLupO8N/oXvZ8s/rsdlfm8VdGKO4cmwbzwUfk866zSvJfvobt4veU7WmcGvdDwy7yIWUY8apo5u+r9njzAFiw8wJ3svGoJ6rt3SbS8qDjquqrS8Tt07xm82kPbu25LNbwA5p48Gey3vIbj2zmkRa+8XfxmPEVCtrwgyWwO",
                "goNivA6qobuLu1A81TWGuQgNao7WOGO8+bg7PYJm9buZfmk8XDznuRepYzySpey7OY4YPAghwrzHgDC7NS1XPI2987zbLB28ZEk2vTh1zrx/5S684WpwPZCVazwAbTg8Cu1sDtbvLruWQNe8HpTtOqaWCLumG4q8wozhO+gXCL3n+YM5AJ7TvHCIBD1Pur47u8hOPWUzxjwx6Zu7zQduvTZMdQ6OI1o8Qsi+PHn29Ty2j4a8vIztvBghr7w46A69fQMFO147kLtNgMa8KPahPHCHBD3sDGG8U+ZFvFyi5LxG35C8XJmIvA4T7ryad5Y82tSDvKAVmr2VjAI8GoZIvCeUA73WKk67CGxXvb+gRr2WOsI8SzAIu4L8mbwCbqm7q+LjOxeFZ73uZXsOiP35uwmo7Lz+Ggm8newAPRbTCj3+07m74OL1up+IE7suD8W8ZathPK8uPLvmDM475if0vHqTETwt/N+7pfkuvf66JjyeyBO8lm5OOn6NwbzaNFk9hI66PGIbLbyC8Eu7dgmdvPlFnD1D09C7Jo+ivN5unTzeqBS8TMmgvMA6crpwE/g77U1vvHoiez2gjDu8cKVIPRjjAzlv2Aa91kDVOuuQqDyLM2m8nB7QvLOvC72Pi0C91iTjvGspBj1G+9S8EVlHvU+/5LwQMzW8Ui2bvIbwSrx6sYm6iBMCPQdEdY6giKC8k/gJPUbFEDzp68y7cpB2jjUUNrx2LES9xCIavZl/T73lUoA9C0S5Opyjjr3ny4e8JiVxvJ/21bxEQ0q9JqnivAt1WzuA8Zk8zDDMPWvXnL2m5K+8my8du+ZvaTtBjnmOo9TwOlHJJT2no6y8oT+xPOZj8juJ9BG9GzKWvWtJoTy9QL28PNO5OkroyLsOeYo8opJyjtITY47Q5m6OqU1ujn3ZcY4HSXGOUOJvjvOMc46VSHGOXh5yjjBcdo7biXaOa9NqDu1LbY5YfmAOYnBkDgwVZ46EUHWOpXpqjgqsbI77wnKOLy9zjoITa44qnG6O",
