{
    "input_shape": [
        20
    ],
    "hidden_layers": [
        {
            "shape": [
                130,
                21
            ],
            "weights": [
                "JdHMvTV+D77Jyhi+QRKPvYlhgD0mVJI8Rw+mPRebvL1B9HC8Vy/6vJ8cADyHkGA9z0pqPSFmjDue12S9C01DvXReOb2hYem8Lh0BvM3bmbvm+pW9PZCyu8CIwT3bqfQ7ggl5vcpZMz3dm7u93P8au7x1Gr7l9xm9L4UPvWdf8zyd6U+9/vQaPdIevjxt4Tq89X4pvbELh7xKPUW9GUn7POrgkrsXBdy9bQKtPLUOxD1FfLs8BdLivTCJm71lm4K8jjkuPSjslT30XOy9uTAGPHE1vDyOcNK81weDvfcAB73MtWo92QuYPU/TXT2VN6I9RdGEPLaqbryGjKq9iu/GvLGCbz1Ss2w9T/KlvOb/Cb7LQaS9AP1TvPKmhz27uVo9hRnAPVFf6bubWgI+XsCLvVVpwjwQDtS87TYIvEMsOr1I0pY92awfvYy3DT31kqK9/GjKvAn8RD5tV/a8i94HPX8rB73WOAS9jWdAPYfo9Dxquuu9bISWvB42ND353r48MBNBPIjRcTpRvdQ89jbWvQNxyDtag6I8vy4APRjNTDzliGu9QXadu32ByrxtoS2+BbowPXFfMj28SyA+m8Piu5he17v6Hb89+ow6PF4WA71zbT29g1L5vIHOOT7JPaO92uuRvBLvXD0Nde27Cn90vUomHzx8WHm9f+c/PP7SCz6Cv8S9g6Yive1mwLospjg9YYkvvcQ+4zxZGPA8HIS/vJLRuTvviv67euCBvMPwmjzWJdU85UxRPSrZFr2pN2A9vMJsvXMdIr0kC5O9PZFkvYN3M71GNn+8Vqy1vSFqvTxmqj+64oHOPFT2WD3Y/ou9zXSYO9CF7r1CURY+fBeovX1Yk73UmHM9Oss6veUsDDy70Re9pUGpvCpWbz3efgu+cbD6PdeQcr5+UTM+E3g1vajOEj6Dahc+IFADPqIFHjzENiU9/NyTPToywLy48E091dKKvA1Ky7xhlci8yoEAPU81Zzz+PC67cGtoPENQprw6eO69yrnzvZSRKrwj84Y9",
                "TvvtvMBX6L3E26E99T5pPesSKTx6ZxQ9Y4Rvu/zk6DuMP2C87b2rvV0u0z21+A09EHXpPPLuFj3kVzK9BPAQvbB9Xz0Wr7G93DgjvstqIT7VlKm9rz6NPZbsgj3NTVM98syLvQswVL4Ews69jQCdPcn4CD3OdZ28U7AFPcwpIL2Z5Ai9sozWPNbtgTu769k90fervRzFTj0iQhO+XdBgvfdkC76nHCI+nMgZPYknP72QYeI941L4vCQfqj25OSa9WTZcvZhLxLwmuGA9DAiKvAmGJr0iavC8U2OIPR3qH7uTsba7SwMIvTGWFT3HUVa+cm9gvIYskb1rWSe8h6PrvDdoFz1Nnr69nD2PPaWXmD0hxQE9tJl+vR+RCbz6EQo+56A2vPdvfLz7W/u8QTFGPYEnu7zj0Ve8EgcYPSGPnLz0jfK9qDjOvUve4DxLVmW9A4USO5Lmq7sLGJq96lZ5PX6Ger2cUko964ZPPdYPUzvE97m9jp6YPIEnQb1GbIO9kOxmvYIViLuhBsU9XnDNPe9OI7zwth2+kBjMPW3VVD6xOYw9H94rPlh8VT38SiU7cXX6vfqM+z0Vo9q8LQXQvCNyUDtNOoQ8l+/QPN84Nr2wnk29grxsvVkkKL1gT/K8a4sLvhd55T0eJ3O+UznwvIOZ4TxspbM9j65BvccliTz1y6q9odWKvcEzFj2MzM68rdI0PF785rwkhkK7j0cpPUE8hT2dCx29x3eSPci+X71nVbg9WH1nvdVeiD1dqN+7emUxPSKEAL6pZAy+4sNqvTTvTb3KRgM9vqGBvXHo3z2RYPO9GsS9PfxYqbvYoJW9QhchvVzwiD3dPU68Z2yEPZGQZD1EwIK9tADTPL6t0jte+Qq9s0qpPSu5fj2ptFW9wJBvPQy9wDvBTww8qMhEvcqBsr3G/n+9VpFTvSXmpr0ZrgC9IwEAvaAlpr2aAMQ981MPvHoXub1lgQq8vhIJPVHrTz2/EGg8QkcXvWDUCb4vd+A9deN4PbtgCL0E1ia+",
                "/y6JPaTBTb1NgQi9HSuOPXzLYTzctY+934OfvEGaN75fY6s9FFu+PX0jLT3LqRW9lJJJPWEfAL7oqUG9gliKPKT7Jb60bCe+2LItvY1YFLwr7427RFURvfQKEz4h4769prECPVnyUb3xlUY9ZplDPBhZnjrEk8O8Zl+PvTOMpr1mtYq846HAOwvtGT2Hlqq9l3NOPMkKGz5kqeC93tpLvfWwyj3qvrK9nRxpvNgakbzpG5o8CJnKvGuGqzzJ26i9xfXVvHbVtDzzQPE7myOVvc6nWD000JO9E9Zku1xlFD3rAQg9oEQ/PWt3DL19gXa9ZSSmu9wfzz1EPse7bPuuPJIa3DxcXUg9vQzjPPdvkj1GASI9AMi/PcDdFD0tabU9CmiQvTYCu7w4lCe9ZOewvKsvqz0pdIa9dYeEPZdtMT3vPDY9G1cPO6F4ij3JMwK+nNCTvCXoQ76s68O9usEcvZjSo71XxXA9ODwIvcWJUL2u5wg9E25guxwN0Lxk8ho9JVQ3vfxIVT1Z15i9la8evQ6WuL30hDC+JB8uveZ+4r3UCQW+rqvPvLc2aj5314u8d5qOvVfaBr3VhpC8+nyGOj4Su7k86cQ829rUvHVYM73UTFM9O9vgPdDST71/yRC7aA2OvJ9kJD5SoTW9cWUmvYs+rzyu5Xu9G2pdvaMiML0o42y9EVsIPNc8DLzdQLQ9IfrpPCj8lj0gkQM9PxwsvRB2DrzSQB29CUd5OzSSrD3Kbig7ia4BPo/1kL2mtRa8k9DXvGOFtz3XWuY71Mj7PP5PvD0isA4+YVLYvezxkD06mBY+QLEBPW5JcjyH2TK8sF9QO5+eAryoBwE9QDalPTPk17uzAGc7BkFEvDMt2b31zt+9gn7FPPRAej3L0l09am+uPFHXEzyqUWe9jSMFPR2SqrwnDe05CO+LPXQsNzzEwCq92ntqPQGyID6v9Y08X7atvT1tSz0J1DO+yEU8O1DEoTtqf7+8gyUXvatfSb0dYba9ggZBPdVnz71zvc89",
                "7pkSveLCxzzT1qI9yImfvP3WZTv4sbQ8cjTVvSvS97yZQ7A8qqDnvboJsj2hrS6+hXQ8vaKSdr4Dvok+470bPbqTlD26fJe8qBDtvYEdXL14p5Q9B88wPZxqizww2Z+8srOnup+S6TwmCTo9kxrmPAJ+aL3CKhs86BaCvYPQJz33kCq+vVy1vKLy6TxJmhS+rXsvvK9IGL3o2PQ8l/UYPeCo2D0oROc8E0xMvQtspbupE928PMpNPY5Fi7tY2SY8Q2C9vEGF1L1Udpa9w9mivRvZkz2X0qm94ce0PAyKRb4gaas9p1e+PROPeb229i49Rm+fPK4lxzx5DNQ8inQgvVH6mL1thoY9OLQWOsx34D03Wv48CMrjPB87qDz83pQ9s7eQvX0O873MDW++TlFkvNvoxb0mEMo9pFEbvlkhWL3FEp+9JXP4PLSQDb6ct+66V02dvSGlBr0fObm9x7qNPZMGrL0J8Y08k7Yvu8Z4pb39aQ+7X4X4vDwVUT0Q7B29OMwHPFCIhz3figU9A9jmvD2rNDwdEc29uwsuPGKRJr02DNo87FemvT4AfT23vqu7UDG5PPyx87y4lqu98ITJPNKyrL0Pt189sivUvJlcCbsQkQK9hVDtvBalw70m98E9KTp0PdgUur2glGw9k6hzvMcYk70LnhU+wBacPYdzkL0CIgC9gVPSvMYvFDxi0gI9yG8ovadt1Ly5gky7OMfkPJJM3bz142K9CE/qPeoM8T01Yo+9xB0bPd/3GD0Dh8m9TP7XvJFaxD2HMtO8jyQtPdN9p72dtqK90WOnPd1zCb2S3j88hvCavFs3j70qRDm9c+XAvTIqubzgD+q96t9uvfGvc70aG8K997ZzPaNG/LzUh9E8v98NPWE2Fb3dJ0K9mtUbPD+p5bzi/wA9Wm+ZOg6/wTzQYbM53tuJPRoRpL1k7P68w2ekvaWJgj3wWrK99ycePp13pz6KMtk9nEgKPk4//71rC1c9pngevS+Ldzz3ifq9bS+0vKXOHr0196E7",
                "7DXHvIemnj3Z0bW8oxETPJ6XRj2qNC29+B4RPOLBXD0Xle+97DwSvo9qez6ETNc93z3kPA+2DTxxu6m9DJqPvRzZkT0udf69l7UMPdW+jzwl1kw7FbQEveoP9D3WLwU8sz21Ozs0Dz2y6YA9PFydvFgXrTwx/Zi9fMVcPN8Ijb0uehs9S3rFvNFwK71EHeg7V686PQ9KnDsFeM49kEAUPD4Y8Ty8NU47BJ8xvFDXVL2IAKk7WTX9PEwGjLzObhy91ykiPUbvkr1Duo48ACAyPd+7KL4EpCk9Ey+CPFIUpT1Pbi6+yBBFPahjjj04YLo8yndWvYeoiz3NABQ+u84CPcsFrb0yM/88NpwYPZbTELxmJog7fNmhPVZi8bz7Fcq93KeuvTyfjjx6b949kfiqvYPaQr0uJLW87AmQPfCdrrx4XIu9LA3aPGOJUr3PnGg9R7Z1u+B5+D2Cz3m8dUzKvc7/v7wPub+43G9NvQUDlrxCjRy9JduhvaJ1Ej2er3Y8HlcuPVUU371oidM8nGDcPNCq8b1Ycvk99jwYvU0Fpz3pgHI9aqW1PJ+KDjyC47m9OqSVvavY2D2dU7U8oDkbPTfj1Txovc87nupnPU8RFz7nSC++W+tKPSRhaD05mAA+7xfFO81VPT1Nbb89KnCJPVCsgj2oCHc9PSmCvWUEhr3Gyzw9N+KMu6cIZTyRiiQ6VD09venOh71inh69E7jVvcsTz73/FM29vBL1veReDj2C6Aw99A1nvHJ4krxRBU+95wJfvR20lDyPnwO82XnIu+vxVzzlsf68cdvPu8j+hLwzTky9jKFyPch9wj2FoAS9PfK0PWsbbb1z6MG9joL6vMAiMj0o74W9LP1xPJbXCL1FBLu8S7hOvZIVxz1tIfi7ih9APYVRij0vvgq9xOsjvVAzkL29bbk9dLSIPUQiibyngP287R31vQTmcj6zajM+DssBvguHObwyC4O7Ouy3vYVFxz1h5vW8FBfMPPucHDy0E2U8/KudPLUA+z0zAuk8",
                "CzkrvqpFADyyO4a8SNoBPakOdz0WQaI96EthvUF3DD5pOhO+jjKTvZYS5jxG8x0+j1uLPdQhJj2oscA99Qr1PJvxOjycDRk9xuSvO2wveTwBUjM7Oyd4PT4skL32+gG8EV37PPkFbLzX7me8SbsnPIsyNj2AVfu92RmkPBohfD370ZW9WKehPBxl3L3Gqd+8VJtDPTu2H71fKRu87CypvESqdr1nLZq8RttMPU+iOT1xbSg9K9qavceSE73u05q9nd/HPQIUhL3UsxG+2uoSvpF8fb0IGWq+/jCaO5a5Zz4V0LU9mciXPeVD5r08HsK9b94rPe55BD1l9Ze8FTJdvYXDFL3dg+m8QlV4vfFysj2z6Ko9L7o+PMb3WL3rW729ZAiwvIKrEr4ksIq6rHyUvZgghb0qM8w9AbpNPAV2tDyrkwI9rnp8vWSPlr1eJH89twD3vKxVVjwNtXQ9+l++PBGUrjx64bK9wooFvkPFN72kGgK+18ifPa3c2DyZG/689r1SPKAYFD7vMsE8nTq5PIkjVrxHT7G8dqoAPoN4Zb1gMD49xDNwPBp1NbyH+zA7y99NvMrdpTzMijC9tru9vZJlFT62PAC+CLjHPEiFVr0A+aU9p6c6PW/SYTzbPJU9cm4aPTfBYD0RfBm9oFnSPOCohb13zDo7CPprPNBS27bTGqo8nBqFPXdCW73vh9I9GCamPQAUjT4aKte9CRGoPV1RgjuZXZQ9YzwbvTSEzry+Onc8Tc5NvZiBej2FIWy9aQh6vaPncTyg/EW7b0l4u87HKD1kroS948u2vYYXOz1YPCK+8c+3vdensj0s9gG+KWmAvW6pT737ty48wt2ZvbpTTr3cszi8MztrvbwOgL1psNg9V1EKvI3LXj2D9b68DeNeOz7alzxsq9Y9MpmUPEQdab1ql9k8jQGhPevlir1uU4u856LkvPbV/D2gWYg9EwLJO1Z4yD3ScZ09CcqrvBUAiDmSvue9eYOrPcqAgr3aiOK72X23vbtAUL35YnW9",
                "AxYvPewQrDwpadK9tm/CvZP2Sb6VnFm90ToEPDo8cbxwoiE9d4d8vfHE9rxAXfc8q62Rvdfwabxj7Qq9qUqKvGBGYr2nm2A8ePDLu8lGrDzsM866UNTTPRjU2jvgpwK+tE8/vXSZIb6dtMi8YWrVvc0wJ71krh++E7gvvWkDvj1NXmI8JgTlu8C7rb0w/Ew9YNyGvUwzbby38Z48jjlVveoaDzzTQia80X0+PZ1FCbwPSoS9ggPFvJjYpb0Eao893hKCvV6UlLxzfeU941WuPMdk9zyCI/w9z9rSOotArrwPghW8+l1mvDg4MD277j28gXlZPRJz8j1A38C9m5e9PF7slby8xm299u8FPCxVrr3hwiq8pdKyvc2ZlbykszY8zGEtvbVDF7wKXNK97RcNva89Vb0KEiE9Y3s4vAn3iDyG4PC9RfAAPc/vtLy4h7A8aSXEPc2xBr14zTy9lEEkPX5b9rvwmSi+oOGGPIWgw7ssYRO8oWIEvb2RI75Hrty9H7LZu8sgX7sIjik9CBkovXV8Lr2NL5E97zXiPLcVKb2p41Q98X4VvYPl37xox5G77IcZPR2rxDuMsxq+c8davasr9byptrC9OPGyOB7AEz4Zhke9hVOhPRobgLsivFU9Jjx8vBWv8zs2csg9l2GrvU/TU7x086w9YbClPQfrGjz23n09mVq6vUXNejyuKeK98isJveTwFj15nv67U9A4vWHzE72ew2e8QnIfvS9ThL2SX+e8LgwevNj2fj3NayA6TFvyPUMeEzy1s7075JaKPbK1XD3ZJIm7DOQfPb2gnL3WsOk9G48GvjATtDtyE1e8t46CPaK5w723vIq9x7N8vUhnB737hYg9s+SCvYWOJz2VUjM9ZatRPffE5bzVvh89r+sxvWBAITvU9fW9VkcUPfwX/D2FgaQ9byA4Pb52br07V+S8K3ujPJ7SuD21t6s7Is24vFNNULkV9pG8QKZlPagM7bw5ZXC95hJAPJ9X4LzIGWi96l4Kvmv8vT1QGGa+",
                "ufiZvRTn2z0YbSA+nvBsPK7Vo70P0gQ8D30tPZZhVrznRyW9RzoBvRHK9rwFyZM9EHHtvA4uszyhAmy9VX56vQ1kXz2X2ka9tFmSvVT7Lr2zGTy+PNMIvkUSpb5o51Y+AAVnPGFRfL16kIe7Xd2bPZByCT1eNZK9YwPpu6/Bcj1o14U8s0R3vMLmXr1VzIO7MWIePUjiIj2ZJhC8L10gPZQm2TugpRW+GNnru7546rx1BBI+2dmYPCe2KT36/rU9y1ANPq7RDb3/7DK8BXeEO0k4S7wJYKq8iITjOz2J171os/48JPb7PK8UrrsbLG48kGiEPSJ2Zb2XhYc9lGqZPciljD0SqX696aFjvXkgAr1vUYe93umCvP+qQjn1ZOE83rSoPa3AdT04jFQ9w5OIvU45xTyaAdG7IcwFPMFle709Rwo9VqRQu4gFfL0iicg7oUwqPaDFOz6ymQ2+wecNPWN0/Tzsc6c9v/LzPblrWb3P4n49/7k2vU8HQD2hla48+tEEPasexzyuSoc8XFL2PE5G0buXrgc9qzEJPFgPFb1T6gQ9bkPTvTDeiL28BTu+2cb2vVtWoLvRo/O9l1lnveCzob1H3Xe9b3lRvCkryb0jkZq8LD4pvY+OV7t18mI9NpKJvbBAUj0hrVE8JOSXPB28wLwD44q86EUFvD20Db2lzdK9vdSwvITcUb3vE5W93GFsPATSGryBoVa9y+upve++pD0Efwq9mfKLPXZO3b0fabW9Gfh7O8N9ez1CVq88pWeXPSztAz2iSAK+aMX7PMmWJb3grWs9ud7IvQBu1r2YhzS9OAcEvMHa4z13y/G8QEcWvWPNeL2D8h+9YKFjPXZWrLwLWRa9GldEPRvFgD346Za9ctHtvH2KqT213qe71pSBvVZ6JD7eL4k9ROVDvWb/Jzy4t329bumuvFQFKj1gCsc77HMFvd/UQD3hdq49vRNAPdK/AD0phxc9M/k9PYNqAD0gonc9o0KPPRn4P7to4FW9b0mtvYkfizz6DaM9",
                "dLvBvNkwtr09ZIu9pKQvO0+nwDyGMqW8ivHDvSK8pTyw7z275/3VPHyWtr3XtUw9ef63PKyyRD3fnna8IhCIu3hD1b3DmTE9kZLEvdjihT0AV5s7OFqkPQIjyDvsdjG+UWMOPbMMBr6+8Kc9Q93ZvGo8kr1LHqY9EOCIPOSJbL32A28843XivBpS5T2q2ca9esVTNYsxTryhE0u+NIaTvK9NIzw24Ua+NY8wPfnZMryDqVW8zzW5vNtrIr5zhry8k4tmPCcrvr0UI+e8mQd4vcOe2Lx/XTw73nWpvXz46T2nR3Q9t65FPTe1Vr1L8W69ZCRJPWHWKr4KgrQ9UYTJPZQHQLxugYk9eJP9PGpD3rtUpam9dvUkvYIj/bxOX5e76DqvO2P3tz0xBTm8NsCCPTy6OL3WSIC9OeJWPMSGGDzjv4i+33fvPU+rhL2ulWy+7aYdviWkqjtXnrW9aXRYvfpiEL5YIvu7vko1uwJ+P7243469fBISPWjOlD30BKS8NS5Hu/utur3USNC8jyOxPHHMdTxlgJU9/5NzPUFSFD46ZXm9q3nTvZ8EeD2eoSs9QnttvRqm0j1YxYO8vO8TPSLVDrwhMF49WrEAuyRlVD3cmoq9OJQ7Pda08z0dJHi9LvrUvVeW/jdNQ9q8E3zVvbIEL77uNI48BQuMvfSokz1ZXLU95FeHPQ8djjuPSbg9I8bRvEzujr2jSUK7WaA+PVMhij1psle95NbQvEcYjTwR+II8U3zKOVEA1j1w0A695LafPcOrHb5rGde9Gz2juz9a7T0WML+9fEtRuw8q273fJAE9fHqIPS9dVTzi5MC80zjLOyvKGL2Hmsy9dUwcus2VZ7sesUk9h9yFPb0qVrvyMeq9Fz2LO2m9Tb1d5qy9bNx8vAs1hD2jTyI9gSX5PF2ic77w9++8lbDKO68E5bwtz6G96yCRvKACfDwFwLG9NUCXvUABxD0azlM9iixgvR1IzT0puu69KHkVvTpQzT0nr4W9QA30vIs1I70pVYU9",
                "A+J9PfzKrL3YR5O9wpdSvAFaEL3UQIi9IdtxvfoL9zzumz+9Df1iPMKs4b04Nka8LzoDvhXK/zxX/0m8SXTCupwwHr6K7qI9S7wBvBiznT3XUii+gH+LPPB3Gz4NqB+8+cjpO1TRgbt8yuU9jaZZvVZg8L2+Jhm9ZXzMO/oANryKaGu8A7aHvWtJCL67QjG+m3hpunvTo708R+G8hXbhvctH7T319N28+d9evNqI/DtpyjC8HWjxPcmmlDx5/DO956d6PWyl9bymw5U93GwOvSkhBb1aVhE+ADMMvY7NeT2Dgbu95F/yvUXWYD7HbaU94scnPiqR3T0NUGe8kwfvO965MT6c/gG9BhvqPKA2uL1pWXi8KL8rPdFGMr3Gsya91s2pvanOW72TvKU8n73ZvXOjuzy1fgy+gIlzPVYMbz0JRCq9cpV1PUnuYDz9Jr49D3B4PEbcdj1aBuq9rTOsvXw5IT0cGjO9nM3vvKF1VbtVSZy8UprWPU5rLryHWGm8U1yOPS0p7rwTfQ6+2qmJPWYr4Tzleds9/l+UvWOvMT0iIVS97PU6PWd0Cz4nN+69xH+WPIBqO71f/sK9tgAvPZpNBT4OHaO8q5kPvfjOGjzjY+g6dbKxvGuyFL1/Hlq99a6qPZWlFj6ovsG9UaAsvUDAoj2uQI89FeYJPb54jbwdzFo9WtuRve7ADb2OZq+8aXIvPLmzVjzVDDs96iCMPT1zmT2zI9K6LjK9PUj3LL3EPSk9137/PPkrnDxR/ti9L6fNvZxTU7ygsqu95M5/PdW1z71WC948qJiavaE6Dzw3PYe85tGmvawi/j0hFAA6FpyavT0UdbwRubU69HAKOybemD0JC+07pZ0mvbqRML3sb1Q8p07xvdmDSL2wSme9akltPWHgQj0ab2Q95PcRvdjM4LxNuA2+sHFevS2Xhz0Vbqo9HgsLvUe8lzwGQK29oGJwvPHKVD2jh2O9ADUVvnFxEbuO6mM8zS3CvWnn671mv8G9DDWaPYXNFzyGtrQ9",
                "95+8PM4MAD6a6Dm+WkZ2vWhSez1cBF08o8I+PX3BPTx8Bxg8ruSbPcjujr09oBu8yMpgvZt2A73I2ei93EnoPNFBAzxFvH69FLuDPaX5DL4ktGq8EKhOvQLW8bwcOq09cGtzPT00zT1CaqU9QKNIvT9R0rx96Ju92Q08PQ/qLT0PzH48yW3vvFBrEz4mxjG9Es6EveFnOD2HFgU9opp+PQofC71h4H89IjrdPNo4mj3+84u7yCIhvQGoC752Y+s7+b4FvekSEr1n74y9XBMKPTfbC70lPZs9TMN8uO4u773Y2QK+k7jvvfHMoz2+m/i9MFbjPDdQM77AY2q7l1XRPNX89Dtambo8xJ6dPZU7qT2ztxQ94yqIvem9rD2832+9JuKzPZu9szyHD+Q8gMOHvPxwFb7Ue+W9ftNovbZbLb1UTYu858kSPeNqvT2DfYM8sTyuPI9jBb0c4ZU8au8rvWxAgz3Bx+w8V6/CvRbvLz0yQlW8zHMJO+cBpL1IN+69NPHRvdLN8D3dQPe9TvgNPFo2aL3gV/g9ZwCGvK+nxL25BJ89Stq+PKfPGD3RagE9cRTWvL0TM71qjiC80Ad3vTdIED1oy3o8LAstOw+CgTxloCC9EB+Lu4ES9r2ddak8a3MCveZRCT6Khq69hXdQvWaNqr3jF9i8LlpSvVZqsTxnhaS88UwUPRuEbL10qmw9b3jjvLZyNz0hfsS9X7/nPEc3yL19zYe9QvVYvbvCGrxagNQ9JeDwPYO/FD3+fSa9WibEPA793b3R9Cs9RAOfPMFQUz3vuLC8vicyPYAFLD2nh528TJVvvB0mRL3p90e9NG6DPY7goLw4TKy9jLvjPYcfgb6+Y4A9/oAiO6mehL1p01W93RaUPebXVL3j+t693hedPa0iw7wfbPK9fRKAPNXqmb0sgxK8LWFLPWJotb0k9Wy9kIHhu3UICL1wGhC+89O7O5gD8j00P5C9RUOSvKfFAb2Snxc9BYepPCOSlDwrLsY9sgmcvCRKVzojZ9o7",
                "rWPqPF30DD0MxGW8/G+sPHMN0D1XQV8830kPvXAtfj354om96vOGPAgB+bwn5em9ulXBvRC21LylC6y9fG+bvWAhrzz+l6y9OZEkPd/v5Lw4D3G8sgYUPby1dD1SAMo8wH77PLUbozydAx89tB4MPexvYbu9V1+8A9YaPrJ+GL4HHWk+GD7qPEQjjD0Wl9s9OnOZPe5gF73ol4o9KLBrPYOAbT00UTI9fZp9vJAit70eBVI9BLb3PI8vML0/6T09rnC6vALcl7sC4gi9LTSNPZoKLT6EHK885OblPbNhDL0bihq+FR8bPMSScL2pVYi9To4RPG4gFr58Dxg9ps2xPKVOMDytiLk9HhZXPehmRb2fKaO8+xZ/PCjxmr2fz7S92mcKPaGVoD0Hk1E9qt2rvRRWorxpbre9OcSMvSdPEL7HXUs9a6YWvapq7b3Iesg9b1GguzwU57zPADm9v5QsPQJVf7z3j2e7Ld46Pff6wLwTt8a9WcRiPTlwLr70Sf+9d1c1PakAy7345oA8jV1uvCcus73RyfA9FhCTvCmMELzAI5M80Vuevb109b0koga97VWtvQLklD2A4Mk8t5xSvTasjz1h4Ia9jp+1u1wFxb26m2e96d9SvWaNkj0tKr08bG+CPTDupr2zTre9r3MmPZTHAz0EtRe9JSCGPOgZvb06lu+81J3QPA6fHzzuoBW9EkLAPYU8lLzicqu9OT3cPKHaRT60xIe+HuXuvHM9rr2Q2Rk+pq/oPBk1wbvligw+AC05vaaB6Tt8aKq81HXHPC7aTT1BbBK8w/KSPAt6bLqUEYi88q5sPSWwMb14ljk8EE+nPcte3r1LwJw9X/2dvYxw7Tzoyoo9arLZPE5AiLxBSr89IJ8pPVr/FD1PtiO77VO6O0od/zz5vLY8LSyoPfm2+7vUbiS8ziulvSM5Kb0K4ly98AilO5Z06b09z0W+Ag/lPQMyrTphoG292AyFvNgnjDxi5i69GiyFvI4Vq7xSw1W8HzxTPC76vr11GmM9",
                "lNXjO2KPkL1nSzy8AsgQvV2O6701xlS9pa2oPGf9Ib6aEt89zqTtPS9lGj6EKbG8R5FtvESkpjyy3Xy9FgAtPWNxaz0ejqI9FH1BvUNVR71tfWi9gp4+PbG4er164de6qdKkvKBtqbyLwA++VcaOvPRPiryJR6C9DvDYvB6MYb1GBaI8crhtvOfhFD2A+u+8SdCkPLgcNj1+fc45+yrHvW4DkDtEewi9xlu3vKDNET1JHky9C+/avaf0qz2FFuK9m/CTPXxcHr7akBm+goLJvReo1b1BpXS9Dd9CPO7qsD0KRUy7GxxkPZWqpb0EaBi9xv3RPM7N1b2QZwU9ta1GPGe4Vj1z+9A81SiuPPgZED6K8UW98mldPXxKkD7/N/m8zX5BPZHiyz0wC/y8ZbKRPP9oxr0Xtd08MLolvUkkaL2etAc8KlZyPPDIvz2df2m9jIWOvTeScT1LBrM9oCPyvRpTlD0i3b69YY8JvRCWaL5EFYA99eQ5PZufkb3o+yu9yXXkvSSNfL2MNgw9urhIvZnyD71Ttaq8mF88vFcYrz2PchW9edp8Ox90QDuim7G8QAB0vdT3er3Bh4q+qoGxPRbX3DouGqu9Yw66PHpdujwAdYS9rpfIPFO8Hb0e4UG9hpA4vcZ/2zwXeMC9Vd/4PKrzVb1iHcQ9yYJivXGxGz0gjIW9G8v5PGlxpLxXcP29sLe2vcElPL1RG0u+BQ4PvKo7Cz3M5ra9FXVPvNtovT2afQo98cXxPCvGSr0aGB490TMdvca+TTwhKvw9s7X2vRgboT1kYVs9LQK/PaSO8r1Oww09P8OPPRHwC77n8l+++wufvcD/5jscg4S9B7ymve8IJj3gxh+8Q6WHvWNJwbwjeFa9U2HoPL9hnLyjFLM8uL5TPWdBzrxNNV29QhX4OlulVj2zOpE8/CDavUg8NL0A+ce93CeZu/HChT1l//29g2m+vXQJiL55O/m83/tQvYjQs73jpIY92/bTvZqbyrxG7GI90sXku3bVqjy31kE9",
                "ExMmPAAOTD06sca898nWvKIRZr4w5C8+jhp+PU+Mk728+V49Am/evDsJR71L9qC9Zox1vRb+Pz2/IJG9oNMPO12V77xGYa+9qdY3PeNzyz3AQK88SM0XPfgy4r38fQm+zaiCvYHYlL5CZRA+cUGbuudOY70Sr/89BMYYPVtKlbs0yAQ+orEPvaB0hD2ewEi9/lVUPRp577z+PQ46uby9PFBSpryUqKk87yz8PCqueb2Kfjc8gF1OvefdFj13bQK+sBApvFIXnT0Pgzq8Tw5WPYMJzb1fW6W98y6cvTWkDz3u7yY9tdkdPeWfsz2IXOC8Lx9xPdnW0Tzd6rQ8rOPwPF2aZr2L5KY8jdy0vATVtr1XwuS8TavnvS/pyr1iLCC8fusfvVw+Zj1Uo7W9zKNyvQOT6Dy9nzI+2ny3O9Oxt7ycO4U97DVZO1cYPD02xvI8Ds0YPepg5zv8XNe93EM3u3shZb01pwS+DdvsPLPZlr3Pr9w8ARb/vLYNaj3TMMi6XG45vXADkL0zHx47oltNO8VK4z33mFi9U8r0PD5gCb4TBwm9JVE6vVj3cb2Pbdu9ZxSXPQyotz0qLRk9R8GivQVx7LzER/q9KvVTOrzQgD3gVoa8KoOSvXZqxbyK2xM+XgAkvaQKvru30Ma8glYQPZUl17qQsUO8Se2xPMErmb2aa6S8u1FhPJPaF71HCgu9LIHIvK0qnbzzjte8t/4ovb+DRz5oKzo8+KqJPZxO77wEn5g9mEAWPebGBb0jsa+9oCMEvbSCfr3g3OM84VPJuzC/uz1hKUu+S2/YPP96az2jxFU+mbOJPZEnCT1Y64y9iRRtva1nhL3QgXk9s8mBvQ/S0r39yz07TsfPvVKbSz1PcZ68Nx2uPAwcbz3ropi9I+OyO3SuEj28dhy80Hi3PX/rjj5lmgM+alRaPBhSKz0zc9m9GERTvXCxB70P5Fs8pJ4mvLleAb63no69DxyHvMEXgbhAzSS98xPJPeIsXb1uxvk64lWxPewkRLzMcBq+",
                "M4iXvQzaCb0jOjG+QsOaPLV9Qb2MoJ695LiOPR/e6z37Rc699T0Uvc7cKrkXBpw9hkr1veJ+j736ksI7ZsykOaJDCz0GuLs8J960vRqliT1807g8cWbmvJJPt73/iLO9/rEAvb40mb3nfeq8igzGvNhXkD0PnEm9RZG6OkjgXr2mH8s78Xb2vDLZnj1ErVa9uYWYvQw/brxWURO+n48sPQ4qcb2Fg9u8"
            ]
        },
        {
            "shape": [
                130,
                131
            ],
            "weights": [
                "bcsIjwoHCY/DMAiPG+gHj8HFCQ/9NAiPTuAHj/vXCA+MhAgP5xEIj9niCI/IYQkPBRgJj6jnCQ+oWAmPizQJj2pZB4+LDgkPUAUJj8wbCQ+IlQiPX5wHjx9ZCY88kQePa/oHj9+yB48oCgmPHu0Hj72ICI9eYAmPda8ID4GiCI8/FAiPQLQIj1/HCI9iOAmPZkUIjwpLCY88AAmPPIcIj4yrCA9GHwmPGGAIj/TtB4+WkAmPls8Ij5y+CI/gSgmPBTUJj8jJB4//awiPK98IjylXCA/CrAcPi/oIDyKECA8rVwiPtB8Jj+sPCQ+E4AcPDN4Ij4unCI9NtwiPYzcIjy+pCA9HxwePg1IJj9soCY/zogkPBxYHj9D1CI8JdAmP/3sJjwYQCI8a6AePLzUJD1HuB49yZwiPHv0Ij2HIBw/xgAiPp7gJD+/VB48KHgiPktIJjz74Bw/cggmP70AIjyzyBw/5PwiPfzEJj7hCCQ8kpQiPOpAIj5nCCI8jDwiPR/kIDwxSCY9EcwiPwBIJj0KHCI/NTgiPyMsID9fMB484gAgPiJ0ID1QKCQ88JwgPuewIjzmTCI+GZQmPOlIHj9DwBo8ATAkP0pIHjxm1CI9vJAmPgkwHj8iLCI9A8QiPYhsJj5E2CY/y3gcP8jUJjxy8CI9CQQiPYlIIj9bLCI8JQAmPuOMID+6hkLx7TAiP1QMJD7jRB49puAeP2FEJj3OMB48VfQcPzBgJD2EJCI+ZqAmPd+oIj9ifB4+2+gePgMYIj4hNCI+xQQgPXuQHj5/iCI8kOAiP32MIj9ZzCQ8mGAkPCp0IjwnfCI+PxQiPpSUJj3kVB498ZgmPql8ID2SCCA9hEgiPiEAIDwoRCA9o9AePuAIID5mXBw8CLAiPOFAIj7XpB4/FFwiP6uAIj8CzCI8rjgmPZFoIjxWNB49nBAgPK7kIjwCYBw/7jgeP5csHjwrrCA/WEwmPHSsJj+SRCI/8UQiPpRAIj3B7CY847giP9ukHj4pDCQ+ncAgP",
                "kr4Hj6kmCI/p+wgPCJ4Hj2maCI+DlQcPXlIIjyPFB49hogiPRFMIjwzHBw+gjAgPsRYJj25mCY80gAmPj8AJj+wsCY+84AgPXsEIj6pJCY9bZQiPMkoJjzwfCI9sugiPe+EHj1kZCI9PxAiP6mEIjx+kCI+3dQiPFi4Jj1MhCA936wgPs/kHD/1MBg/eQQiPXe4ID3agCI99/AiPW08Jj/7pCI9gQwiP6r0ID8xwCY/kZwiP54IIj2PvB48VjAgPJm0Hj+2mB4+KXAkP6fgIj4JPCI/IhAgPDkIJDzuJCQ9qsAgPrqwHj/bJB4/2MwiPvrkHjwBcCY+F5QiPF/8Ij59XCI9qCgmPLKcHjz9gCY9kgwiPeYXPvCfQCI/N2giPwScID9OnB4/TCwiPGMEHj4edCQ/4rwcPPM8Ij9xqB4+8WAiPc0MIDwe5CI8ZpAiPcm8ID6QFCY/0+gePhFwIj3+CCI81zggPxRsIj4IECY9VkgeP6oIJjy2JB48agQmPJSIIj/k3CA8TPwiP2woIj7ovCY8LAggPN3oJj74cCY8+fQgPoKQHj1hpCI+KuggPc4kHj9zJCA8WKQiPMJkID2i2B49wQAiPdTwJjyq6B4+6RAmPVWsHj1WSCI/fNAiPdMoIj0QrCA/wjQiPiDYJj7cXCI9kfQePodQIj5MSCI/iXgmPxuIHj+ZuCA8q4wiPtr4Hj//jCI/eJAgPeWcIjxo0CQ+/qgePcH0Jj8LkB48cTAmPi/0Hj0ElCY8JrQiP5mMIj3D8B4/sZQgPat0Hj69ECI/evAeP/rgHj5qJB4/SuQiPDfgHjyLIB48gogePQlQJD52XCI8j6wgP8ucHD8SRCI+8UAmPW3UIjwWpCI9JbQiPavYHj8AyB49wiweP2qsHj2aPB499UQgPvOEHj8LpCI+qpgePDTkJj4VHB4/p/QcPyhUJj/K3B493CAmPczIIj5CBB49saQgPv+EIj0CXCI/2PwmPPZMIj7+eCI8qqgiPjvgIjy5PCY/lAAmP",
                "B4MIj9nmCI99oAmPpLwID7i5B48FnwePfdUHj0VgCI+ywAy9w14UvAxj6ToUxfY79p7Vur4wjzs1BB49gwQtPa6xUDzqFR26wnfyvPxyozwHwyo88+WYvDfyg7vXio88zH16vGOsBb1fUb48rBMFvaKv6DyosSo9U0inPK9xzrmptS283fbZPCtCQryd7wg9bMmHvEq2/LxDils8Rj0dvYXy9Dtv/7i8IoxxvQidPjwkvBI9mB6RPBd1YzwJ1li86z1APPmwzDv9sVG8mt2DPRL1ZDwoRI28AsZ0vO4NIz1Q+Bg9T0LruykSfrz6r2e78/Y4PZDDYD2YdRc7bvQOPAXqartVvAY8/LQTvaXnAbxa9Do8zl/rPP8BiTx0Mla9GaLRvAB4mTs3oEI6udoDvVgQCj1IJmA97/LivDvwNbzxoa+8I12HvAE6YjzSk8w6+W5/PG0/RLt5Tbo8UfehO7VphDxPquG8ONuFPB3lcDz7pyu8TZ4CPXmQtDzAElS9zOG7vNls7zw2iLW7tg8CvGV/8rxOeJs87pgCPb6tm7vaP7k8uPkEPVRhzjx4myW9TzzzOlF74brh/o+7Bg8vveZ11zqiBK27DS5evHVdRTxN/wU+f10CvN40MDwuCAy9RAwJPBaXrDqmouo8Pn7/O+ANAjwjZrM8D5YgPFsXW7071Z+7IXUovfBefjqSy7O7NYSAPAgTz7wIfHU9lDIJvadR77sfQFU8IVeNOpvdtb2WexS7JmeFvB+6aTxeUIg7iSwyu4Q8rTwMI9K8Fp+GvesdjT2tSLc8nVUKPafMPLxSuU28qpn1u67777umGME5ckHYPDFOh70WAM46lIhTvDDwJDwSFhY8mU2jvLsqErzuGBc7Hq8gPY29uLxpf6u8DsoQvdeoBj0W8rS8L2SrvERJWLs1OXC82kSjvFF087s7L4A7MKb8PAyD3TyNe5o9fGdgPbZ38rz7gW28BhayvLw49LuYYFI9gsvEvNpvOLwQSNi75cPYvIvxAj0trFK9",
                "EjyauU8+Zb1tAm+8zC5ZOwaFE7jCMlK9qRSiO3sEH71e6Qg9925TvD07FjyJlEa8y85nvZKexDqbpqC9SbWpPHphz7xbo7S8StwMvWv9Kr3nBYa8YulvvbLh+DxbbzO871s8OzAnBr3u5YC9a/fHvA6ifD3lyYo82CwhPOS2Zz3zPQQ9CzoNve5mjDrbm1Y933n1uTofG7oVQkG8RU/OvIlvqDwWLDY8+x8aPfO1nryZMhO96LovPZjCrTz+kdi8MqhSvMfqQjxbt5c8+OnOuRP+hLybvhy8tl9vvF3Nzjy/Aie8qLHrumi2XD0Z25I7JFsNvQRhlTzJj1e9OCidvN5Xqjz9Pfs7v8nrux5NN70tAgS9GIVkOp7J2byW62S9UnALPUzqPDwtAIK8K9efvBg7W7xTywu8DICGPDoBCY95mwiPlkkID5B0CI9xzQgPiaEIj9vfCA+z2AiP4gIIj0HACI/TPAiPbzwJj8EgCI8NfQePSQEJD3gKCI+k7gePf5AIj6pmCI8XyQiPvAYIj0gJCQ9NEAiPEBoJj1KeCI81swiPa/UHj9CNB4/INwmPl28Ij1xPB48R/weP4oIIj3guCI9jYwiPBNQGj7TUB4/KTAiPT40IjzbVB48k6AePT78Hj6WdCA8sCgiPBpAHj5JTCI+CiAePKecHj9dzCI/IKwiPnFUJjxevCI/DngePrk4Hj5dkCI8ZmQePV1wHj8EjCY8sWQcPICAJj4IfCI/bPAePqXkHj0RxCI/feQiP3vQHj3qKB4/n0gePb+wHj0p0CI+XNQgPAyMIj73UBw+r8AeProcJjwLyB4/UuQiPcb4Gj773B48EtwiPm6MIj6kxCI+OIgiPDgkIj224CI8+iAkP6w8IjzJWCI95cQmPv6sHD5ZcB4+3uQiPXvYID5QKCY9tdwiPpqEHjxZzCI/AjgiPAXQHj0STCI9qeQePxpwHjzBeCY8r+AiPHgkHjw42CI+70wePxI4Ij0AHB4+UZweP3jYJj5ypCI+HbgiP",
                "2lMIj8PxCI+uiQgPss4Hj/8eCY9tNQiPhjcJj6gHB4+VLwiPWFoGD4mtCI8MnQgPzgQIjxuZB4+YXQmPrNIHj0CNBo9FHNS7Zi5iuswKHD2XuW28flUhvBUTIbx3nRy8HJQ8vZkwdrs1ZvO6a2YuvTbNE73ggBW7rmr5PAg8SL3L2kc83UTvPFtxljwH3/m80Ndkvaut/LyX7x09suWDvCTZJr2sYB27mEZSvI1QA70YcJ07IIGfO3VQXr3Pqh29WyzwvKfKFD0B2U08KiWSPNoTWTyBsBO9+wyLun4Imzw05ua8bJWcu2QNUz1IKnq8D6YBPWlBDby/1787AdIGO1xJT71HdiQ99KtPveHJ2TyyPpU8ovqUvBwHybyXus66cfhuvEYxOj1+EBQ9F/94urjA/TyJBUO8NmRqvWsKsjxEdls8Iu5IPJKTAL3viz+9f/89vOJjvrufhdA5eHoEPNdmvDpLUgO97BntO8JvIb0FUoW9t43CPJC7rLxpQMw8gEJHPZ7Ak7wvFY89DAnLOrHwX7tmvhA8GtDXu7M/hbz7ai28hPmou5PYUD3RUIE8bZKhPN+yg7zMMyK8m5myu5X61z2DyKO8QTwavZU6Oz34PcA8V8/FvFGLoDwK0Ec9EXbIvE3t4ryCHsk8W2TGPGnnFz04rSe9KteivFEXuLy0i1i7+nQLPODBhjyiz6C8PqGhPLjbLjw1Y428Z54MvXBkfju2V7y8cET1POeJvTyw0eE8cYYfvYdnPDypEqQ8EhqXvNqaUz11ls+8NPVjvEdUxzzgAXK8bawFu5QwWTwcsuY8LxI0uzZbzrxwsha9ZanAvKxfP7w+wz28HMjfuz+PBTyk/Ri9bZaLvHOo+rxa6i49pCWTu4WdartZSrI7wn/Pu/zFWrxdY8E8aA2MPMI6PL2xvje8KYcFvVDwuzu5KpI9bEKAup+vNjzHvs+8c/G4vAD8Lz25NZi8ScgOPKcP9zxn+G486ngnPUANfbxfELI77fPBPHw0Cj0hTzm8",
                "3wG0usk4mjq9iuY8cHqsvGLQOr06G2W9gq/AvELHXzy6N7a8ilHjvG4rHb0y4TM8+tOCvNsx2bxrFqs7s4WdOm/yu7xLZEO9WqFpPBuYsLxWYTw9HiSUPP6Ey7znjda8fDfYPN0X/LzTAMK6siz+u21l67u5b7i7bWpBvJu6gbyyKq0611APPCCacbv0Z1K8fV3pu8a9azx7TWM6+G6TPCenTTsh4BU7BKuHPXcrwzyhA+K7vj+Au9X64jysGjO8I9MmPKVs57s4Lfw89gFFvXsdqbtlcUa8vIH/uyAeDLwM53+8qEiSPF51crwbF2m8nbJqPNTxvDzS96S8FwPBvGBZDLwyGyW8Fm4wvJFeBryEkfe8y3y+vCOgHTx+xwm8px0xvCNPo7yJuM+869bkOxITnzw+bgy9cCMCvC1rmbv4Fay7ap6pOxVrRLxB/hc8Nhc6PUO33DwWu2K8ln2cvByWCA8lLwmPJNgHD71oCI9mPQkPhv4IDytDCA+N4wgPm+UHD45RCI+4/gcPHsgIj7ZQCA/WdgiPE3AIj8FwCY9DQAgPTfMHDyT7Bw/eNwkPeOsIj39WCQ9sFwmPwFkIj/ecB4+nMwiPJPMHDzD4CA95XAiPfBwJD//TBw+lMggPyqUID0gRCI8f7QiPoIcJjxvDB4+UawmPBDwID4YECQ9DSwiP0+AIjwbUCA/olwcPfsgIj2lRCY8FCwgP3akIDyHOCA/eDAgP4X4JDwWXCA/PIwqPSpcID9h0CQ90DQkPrLYIj2UHCI81fAkPsA8JD7yTCA/HEwgPaoEID6gbCQ8ZpwiPJqcIj9GjCY/PIgiPPV8Jj4TGCA+FhwcPTGcJj8BLCY8wFAkPy68Hj04UCY/O1wgPPmoID31LCQ9XUwiPb7EIj8DmBw+/EggP8XIJDygPCQ/ubAgPMmoID2EWCQ972QmP3AEJj8RcCQ/nfAkPonkHj2htCQ/NegiP+g4ID7YhCQ86CgkPdc8Ij46PB48zzgePefsIj/mzB49fewmP",
                "vTEIj6vuCA/UAwgPbfMIj11JCI96XgkP+Z4Ij21GCA/Y8wePdOIIj11fCI9wJgmPqd4HD8BUCA+GuQgPvCUIj46sB48vhgmPv88HDx/fCA/TvAeP87sHD0f5CQ+KrgiPiNwID3iMCI+sGL+9mnCuu5nwpbxSkjI9zdMGvWqAcjyaPiC8mJvOvE6ZSj3iDhA9I8WcPA5QcrqwKDA93F/wOkjH5Dycr/A7tMI7PbaiIL1cIis9OfUxPcbfHTrpFb+8Iq4rO0cTCDxYeYm8RJP1vMR5YDzn8to85ANhO8TtPj06kCi9mEPFPBazzDzJmou7eXsTvYKZBr1V19M73XDfu6iuk7x/PQi8GjZ4PICf0jp1aY07I4VDvblhyTuHb8i8RkOdPBGsuLzFU9Q7v1q3ueKFxzxBpCY51Z7ivJWMIr3txWK8eEMaPZnV6bzjCV+8jJkLvNFEPbylDts717v5OjMDKzyy+lM9AjRSu/QtNDrsrAU+Q9eIvIgVDrxXJ/W8guAcvR/fLT3fydM8FvwRvfauFj08bRa7NBhnPKI9/jx+vp+8gKdbvd8r2zwnOoM5tBmLOwcZP729Iew7M6aAPL8M0bwrX0a9gm2tO8Emxbwa8PK8mkwevfRWprxPN4O8WmZsvAJ1mrw1DLW83BJDvZRCorztqqw7JP0wPayq3jt87QK5wnY0vLi/Jrw9Jua6BpwPPRPA7TrF17e8bzPqPIJ54Dy/rlA9SbgivSZmOj0SwII8EIYyPZGJrLyYpXO9FI2+PPkvhTsWJwg9Tl53PPZhzTvpGH889OXUvLWs5zwyRVe84QJlvOz5vzvAfKA7oFvmvG4osb3/S0Y8klsKvWvW07xfFhS9dUc+vAz5Szwx9qy8rlezPB/d5LvPmkk8VkOdPIyZizw+ZMO7savCvI3Mbjy6ges8SrouvFwXET3KN3688KoKvWfmery5YsI8sbOqvGvntLzx52u8EtkvPbsIMrsdkr68LiVNvUJ4uDsmpU28HauEu3bCgz1CPoc8",
                "DAtzvEHCMD04cVE9xdKJvEw9uLvdUdo8Ej8TPO9YnbyfFdI8cFWhvOdcZztd5vG7sNMfPR7Xkbw9YCe6V8l9uvBT0byovI+8NeN7PXfRNbvp0mi6zhqEPBClQLydLT69RaLIukNc27zaGnm8W/vjvLG48Dx4V6s89naJuo+ys7y+pYM9uK+VPO/mWDzd1Y08UtJBPTbmTbx4kl+8n94QvUYsYzsrmTw7VmEuvQxzNzzPzJO8hp0vO8+u7byFM2g77YPnPL4vKb1ycka6K0jSPFh4uzypWvI63eeCPIhdj7xn+ZI8FQxnvDflVrxK+oy80V5bvaKaGzxuqQk9oJyJvE/2QTx6jxy9A+A4PAXtLztSetA8gl18OzMJBz3s5ao6x7DyPPMgjjvjyfy8g28aOC/LDryeiUK5j59lu/RWgzxE31M839bAvJg1J7ytieO8RajbvNnYAT05TYk9/unPvLlPZDk2MCw8lG/YvKX0jDs1JLG8v0oGPa4L/jYZsPU7ESXiu7lMkw/Hw5KP30yTDwFNkw+PX5OPtf2Sj/2Fkw8+UZOP7R6Tj1FJkw8auJIP9s2Sjxt0k48A9pKPWsSSj5Zhkw9FgZOPlnGTj41Fkw88MZOPvdeSj88rkw/9yJIPuHGSjyqfko9DApOP4G+SD7lxkw+LHJOP1b2SD3gzk4+BQZOPywqTj5nDko+RE5OP8SuTD7ILk4/Fz5IPwmeSjz+yko9vRpOP16OSj31tko8mVJOPW2yTj/7ako8lkZKPf/aSD9cdk487e5IPM72SD/tzko+lcpIPv6KSjzSOkw/7bZOP3oKTj8fxko9bfpKPJLaSj77Gko/bZ5KP3EqTjz5qkg8sh5KPEEuTDwqJk4/AapOPR12TjwFtko/ispKPgF+Tj1l8kg8EfJKPN++Sj0DDko/FfpOPxC2Tj/wJk48ocJMPn7iSj791kw9LK5MPnx6TjyF3ko/YXJMPQ9ySjyt0k4+3MpOPTrKSj00Ckw/7gJMPWmmTj6X9ko/ckpKP",
                "HoqSj0mVko/Y0pKPQjuTj/zyko9QeJMP0sqSj8wsk48jH5OPanmSj0stkw/xLpOPJnmSj/H8kg9VPJMPt4uTj+6Hkw8NU5OPKDeTjwCako+2T5MPqtqSj9oZk49YJJOPijiTjwVgkw/xbJOPRe+SD9/+ko+xcJKPX+eSj3joko816pKPl4STD8Fiko8nAd28XCV9vEwFGLsVEEQ7874pPE59CruTFpO71hjWuPu5VbyQJBw91/yUvPd1D700QFq8hE2VPEWW87y6SyO8wDwhu25SprxZfIu8pifFu+s5Lr14lBq9sgoQPXh5uLtrPmA7z6dfvNBCXT3wjQC8zeAZPM6xE7pBg/A8GlxYu8yWWrxZeCW8RaITuzZRJLx3BFW73V5+vLKY3rvvXcI6snBtu4sGjbzUhUC9RdeJvEPQYztdwjM9o5BDvNbymDt+iDK87gEUvFX35jvZwgU96EGDPNDG3TymjRE9O+mPPI1yNLxdOwY8HOSQvJp1VzxwS4k8ZYXPu5waP7vyFVM7qEfqOKQwarlfiwu8rIB1PMwFGrqgoIO9TSX8uhKVQ7ybMIY8fqrBO9Kwubxt7rc8jxEhPJYuyzzot6c7w7dAPfewSbyNIow83Go2PBIrATx8u5q8S3LVvDE8Jr3K/mG8AktmPdOLDj1/fgQ8hOncvBxNnr1WfBe7WeMqPbejCLyEclK97hjXOzSbBz1vH0O8GJmpPBjEiLy9oi68S4EmPWgONDsG4s07qliSvH1hzTv1LUK9NgzePIxuhby90gG9mwozO0a/RzycbY68Zp3MPIg+gTvgWYC5Xu22uuyVAzxSAw69dvZyvSI2TLtSJ2S8WJvuvJ4CDT09xBG8d5mmO6gk47zFxCG8trIAvbV4yzxyrPO7OjowvaPB6DyiwIS8JFrcPJrZVL1hu8C8WghYvNUu0Lwgfe27xXIdPDfHBrwrv2E8YaAiPBRZabyRvg89KlZOu6YmCD0w1aa7xcG9vMuz9zxB7rO76BhIvRj+qLxGnmU8",
                "ntvDPFlXDr21eVC9aQZ1Owrnvbxfyq+8aDktvG4rEj11aNy7JMcIPGPp3btlWge83ZxVOeyPBb2zJse8kZghvDM8RrxIf848cB3rO/+i17twDEY7rLmqu8klV7w6bBO9wAzluz9u8bzBgIC8Z48xvc0dzDvyHxu9y4tAPTxYrryqJhW7Ly6TvAX/NbvW0Go8KfQ6uwUc9DuIunC8PA7cO9NXQrvUwBA9cJjvOwurObxNnTi7ZqARPeTeurtiUgs8NK7yuzNJarstQCO88ww5PCKrwTxWjoG8tJo/PRRNLTzP9EC8oH0lO6GtIL3lfY67hKhLvMljCrxAqt46hRVFPdyMU7zfAUu9vvlHvf8clrwumcs9wHUUPGhqmDyTrr87KogMPTDMgrtCdS68f54IvYbMdLsM0Yi86LixPDTi8DuHxj69Z6ASPDQtxzybrZA86MwiPel4CL1wE8u8n8gnPbcyILzZKms6mQ/6ugeFkTxEVh89KuBzOx4pRr3XVnO7MEjUvCTwvTyVpua8VCl5PQl8o7xlmCs8W6d6vPAPrLzpKlU82cScvIxigzwMuLe89ZEEvRiglT3Yf9C8OWWCvB+tHT1UrpK8EZrjvEDiQb1vLtC8GK83PNoUxLueCdi8bBk5PYErujtSwiY85PQSvQOEvzwWNqk85jGCPWVNFb3NM1q9GiJfvOfWbbyM/4K8eUQgvNdnWTs4rRc9rLqRPHOs8Dyysj69rTmVPH7oJz0VgMA8ysdLPUeOd7x3y6C8qHdqPEFOjzx6TaW5wCjUvEcUJzzAwlQ8KlE/vGrWxbv8JYw9lQ60uwgaCj0XbYK7W0jjPCpQ9TzY+Ik86UQ3PQqm4TzldZ48clmYvESlaDu4C9Y7Ud9ovZuJjLy8J9a7VAL3O5mAKzy6EVI72wLLPF55K72/b+K6qEF9PZCe6DoZdEK8Lf07vTvwkLwlhaQ8INfxvLVt6TzQ8QC9RMoXPTRr2rwUU3+7ruEoPdPRFD2vt847/U2nPPuJmTvSHc08",
                "953nvOh0R7yCdwI9OC0BPOvBGr0u44o8CY3YO9wds7xhkBc90h1OPCuJqzxhzu87KMyVvOJtjT0CKRs8LTGcvKapaLwARwg9NAnCPAnprz1ObQI8APLuPdTm3Lxqs8U8hU2YPePsVTu3EtE8aA3WPAkycjxAkzw807GrO6OmlroDr6W8CqgYvQxgGz0qYLg8hSGZO2UoLzyxy9Y85a6rPKE7ab2p9no7l2eAPAqCdrssUHi9rC7YOy0NOTxKTjg9Yuo7vXySJzzWHpe8KUJWvBXim7yfE4O6pA31O+91AD2nf6o8+BM2PSMEsTu/Fro6eMG4PIQf4rzItxW9oVB7PN50QDy1kNc7Tj6fvEX86zwri2K8wkipPD7xjDrXsBm9cR8HvTnIqLvoJR68MXnKusik9Tz8LJe8oaK2vM1qkjp+6AI9XtHhPMZzgT0e42U8bN5oO1bjpDujoLw7C2WWvGaUhjxdrga8SVN8O4KDmrydSp88LAurvEEFWLyEVEW83sjNvIqq7bwIbHe7se8wvGGEi7y8v3s8ze8bvNjKhrziLS28PbhFvWFI4zwu+2U8C2QTvbXyo7sDIhM8xMcZPElzQLxk/Bu9Vg8UPFKRlLwZckU9Fw85vNwI+TpLqoM88bnxu8AvrrzU7QI9Jy0avPmIU72asEe95TJdvDQq/7zPFpU8fbVevbVIPb32UkS8Qk8QPAdZxLw8V2a8ZXIAvDQr/jy+LZy74L6aO4OuAD2BUUU8qjS9vIJxLzuTiZ67h0lrPH3ivryE4PW89YJgvHV/pLzuGzq8iPogPJMsZT0QXqC8LaYavOH3Ar37bhI8TwwCvIGgEr0Wp4+8mBGqvFpNeLpbb1m9cqTMvBLPEzqjvJK9Bi/svNW98jw8jAi8fYC/POckLj2R59e8EGfyPDwCYLy+KSM8dysuPWQ+oDxJCWw7Mg6dvItZ4bz6rzg9LhGDvMHDNTwpk7k7t098u3Raoj2JGYK8ph2WvPa+gLzjsB28BYnWu4O5EbpcTXo8",
                "/zNnvFl/brxyATM8olhHPFgmGT3pESo8leUXvUOCID0VRso7Ug3nPE4ZnrxQGyQ6qlxEPTTsE70C1nK8wzZxPJY1szrioNA8IgoAPdhU/Tt+E8e8NvajPA9qFT1jNR69WtT8OmNDB7xeXuo8S14+vGVC2Dz4NEi9YCy9vJokjLqEUJs9Z6KYvAWKnDxoih69pH8QPfOXmrybbKI9gCQ3vSFbRzw7yRQ8crF4vKtfDDszMDM8wDdevAIMkjyCP8c8Mok4PfGUQzwbneG8y2N/vK4iprxHzRq9EDjpO9HeOTw2BGS91zdxPG0moTzxuAi8EIh+uz+D9TwhqmK8n3XvPIC8/bwHD6C8SgA5u+XNVDyvXKw7X6bBPKl/L733a3U8hivxPJvrYjzJpwc9sAR0vNMof7y2fog7BsWIPFuYujukgMG8i2JrPZGJQb0Pn/Q76+PBuyJMGrx6pXc92ay/PKMCUrkO2+C7/ThdPKZ4HL1nEFA9YUblusn+prxeb3w8pMxkvPkDvruHGN68hGlSPWPz0bslvM08zsAwvM0Yc72zRX095AMzvYF1Zr2iHFc8iPrNu76crDz6MeI8fduiOzyHF716O6O7YhRmvQ3TlDzAQoG8M9ncvI38Tjwq20O9tRPAudIHMTzEgkk88KWTPKkMWLvte/a8bIa+PLv3P71Hb1W9Nu3pvAbQ4DvrsYa93qr1OqulzLw8cd68d+0rPeNbJb0avLS7w+gouzDDl7x8Ojk8REO2OkFMXryvHxA9sIddPE4i2jxVvZo9kwBRO5AEnrxXb9m8B+nwO8OZ27vesqm9nC3ouxiR0jw3vVc7gTE3vU6z3LmA56o8kGwFvRwV4DxtXOU7CDE6O1SH9zqWydE7Jco6vFA9SLzhtzQ9g0ICPWMeNj2VDF49tmNHPHob7Dzr4hW8f1w1PNY0FjxWyQM9gmu7u2x/xbyEORG962oOPFsfb7zO6hy7De4LPHCJsLxCToK8TfysvIUeR7so8fy8bXUUvF6lSr1qkWG8",
                "VfnZPCD8zjwm6cA8cQSWPNLrt7zEHGY9aZuOvYUdPj3xEZ+8JPbPvOUhGT1p21E8uBimPAce2zxqgWS9Gl+DPYLuGbo6DqU9+YMJPJ82irqP3tg8NMGPPJ6TJr25I8c8/+8VPREZETyr2oy9a80OPEzsOr0nnwS9OPG0PO77Gb1bupi8fG4VvWMkqLwXRMO85US0u6cykTxy0kU9RdFtPIBHib10Ry48o+yZvXtQorwjLAg92gPKPIXzI7yIT5m8d327vEFP1Lx3/LG8esaLu5W0Yryb2m49/KioOTqVNz3WE+i8K4KEvI351bspIQ28X1invKqCmryKxQo8jdewvISjhT1i2zK7t8etvCG48zv7cik8tbb/vO5Z+jwxDDQ9W0p6uzyMgrzdli+9mY2buzDuWj0H8768UwWBvLph3DzveC09K+8LPbqd2LyQdIS7dvCHPF8NJDzH8fY7hOOcvL+RnLwXGP086PNCPWntHD3OeL07Ddf0PFKLVjohhPs5KdoVvFu6WzwnlKy8Zf5EvUIgIb3C5s87xZqxu36mrLziBQE8zud/vJbIRbwKSwK9ecFeu/GXdTz3AZW8ABl2ujh9qzy8Mvg8nLOovCYshD0ZI4O7lCGvvJ64ATyhHW88TtI6u3zsHbv8FPi8rn2yvJcqobmkVoM7IuZkvDts4Lz0iPM7f01/PBjR9jxOvzK8NnFnvJBNUjvGRy29wW+5OxKPLj3SSim8fyb4vHNptzt+vW89lYX4vEjetLxSlv+8CJfivI6NFbwEXNC6nmnHPMdmIb3fwC88GJGKupsagrqVqo68TkwRPGtHgbzm5lI86x7PvPf8Eb3vRwK8VxmEuYVp1zx1RJq8W1ZavMJgrLw3iVQ8ESfhu4mxRzwleBM8DBzjPHI/i7zu0E28ZRcePL+Qxz1ltDY9Z3cXvXNxozzOhKo7nrqiO7MPgbsBh3y7qE/bu/t/FD3TQ9A8eCcAPcczPb092Tw64ZKPvBHVQ7zMp1q83QTquwjKCzxWI+y7",
                "w/VNvEUMLr0upoo7AvqAvLTpYrzw1HC8ZYnUvL3xY7x27Sm8/SBgvEjjU7zJqCM9YBYLvaH0sryEoRY99CeavGFYiry+XHm71Rk7PUD0gbzid4Y8b2lkOpseFby3a4U8zzh1vBXFv7twTKk8jdbgO8IEurvfIoi8FSTAvFTJszxcTLA8gFUAvbSYBr1VALQ9w3wCvbLIOL00Tea870rOOoecQ7zlfja9XNaiPH7YXrygrOY7vYXqObC6Jb3YHIk8f4vFOZJp3jv1mKO88lcxPQB5GTxWCJm8JBdUvElNcroApj+6SgrhvI9py7wcKJo8wtqWPA3P3DvCyCK9q8YKvad9Ur0EHQm90XLlPMGRrLxYKw69AOl8u04zfbvdXEU92Kofu2tAGruT7fC8qP7tPDfTET1sFPm8w2MWvQdHyruCFDi88hA0PSbPlDsZ4Cq9W/cTPFdmCr3Tja46yvUIvabf0jnjyam8WDGUOwIl2LtqSow8SSgQPZJNvbw/rt68nzxkO/2kCz1lr3s82x3cuqbbxbzOK7I7xs1pvAtmhLy1Z7a8gm0YvfIUWLy/yTQ9mjYzu6wzG7rR0Hq80y5AOntsDz0kSWY8kFv+u8YxjLzldxK8nk0wPduCADgpqrW8bSEMvV9PML3JWxM9x0yaPZtwko8CEJOPgaWSj7fBkg9nEJMPtoOTD3Vnkw+RIZOPuyOTj1sYkw8lcZOPy4qTjxjuko/VL5MPiCeTjzpLk4990ZKPblKTj4Ouko9HOpOPmH+Tj/yOkw8aKJOP9NuSj1lck48J0ZKPF7iSj16Jk4/NmpOP00STj6DGkg/efpOPi42Tj9uBk4/IG5OPvSqTj4lhk4/atJIPEW6Tj0J2k49Wm5KPrrmSj0Mtkw8E2pMPhwSTD1t5ko/gK5OPxYyTD5mVko9x5JKPTASTj2xLk48NNZMPBY6Tj0qok4/7BJMPSlOTD+YNkw/shZKPqqaSj8cIk4+h7JIPAwmTj3+Vk48vOpMPXB2Tj/yOk4+oKZMP",
                "anaTj8XOko/pOpMPJS+Tj8Tvko/uf5KPM2yTj62Bkg+2DZOPqiaTj4/Xko+eppOPj/uSjyRYk4+ReZOP+H6Tj44+k48cw5KPCT+TjySck4+Mj5KPRYGSD2Tyko8swpKPhRKTj9QVk4/nDpOPhHKTD5rfko+LMZOPt86Sj+Dnkg/8w5KPgaCTj5G5ko8TjZOP9CyTj0Yok4+DOJOP9TCTj47ikg8sHpOPCUOTj2PJko9uDpMPecqSj1LOko/Hu5MPhgCTDxU6k4/sZJMPhMaSDzSpko/mqZIP3veSD8cpk4/b05KPy/GSj9r3ko+lQJOPlriSD+tZk4+46Tu8+ahYPLWD8DsdIQc95m6oPKZ1YTxIaxy9vuD3OobiuTz6n768iYyMvANdG7yluJ68DKCNuiSB7zx3Ewa7fwYJPdiyRr2YzxG9+1WQvMs4tzzYj4c89sNKveb1WDucR+o7CZEfPGuvJbwqXAS93DRhPPxv17ok2g28aHAJvST5Y70rAr677jnTvCkNTLwgJdC8kyEEPb8bQTx1Lxk7nisVulRxH7vp8vC8bWgPvB8HQrwqsHK95zC3PJrk0bxXr3y7Xs5wvRg3Cr1I5bG7z52oO6vVgbsu0yW84HwQvV/4g7oG8Ei8tgSZvNnSGz0atwm8gspXPRGqoTxSCxi94v+fOw6wITvQdo07hsj1vBTTBDyyDie6PQycvLH6fTx3C7k6Qs19PAIGmbzIvwC9KCTDuvP/ET1atmm7a5fSvJwjP7zuk8+8bDddPH5fNzwUuxS8kYpEvALOIr175IM86QwiPQ5D5bp8R1s8eznlPFMDRD3Eff28nKvfvCiQpTxaLzW8DoMGvDcktTfFDcS6S9cbvS9Ig7q3KVI9EyXUPLGWPz3PGRM9JigXvBqfYbokOZS8n3gLPXYu57uOvCG7aBgTvC9oVD0tzyy7OhWiOutLEzy+ibu8EkoTvYSCUL1UkAS8Bqn8PK3HZzz8Obs8qynWvCWcQTzThJa8U2S4u3KuKT3JKd+8",
                "D+hrvK0zkjzkQNw8pcLaPEz+jjyFL7Q8QcKXPFgNOTzG+gI9+F+APBSWt7z0ily9l2pIPTwM37vAsym8z4dSPNJVU7xYtfe8JpkEvA4L/rsVE567Qbi5PMJjvj3nGd88Qj2ZvG8BxTzVKwo9mqIOvAR2vDvV+7C7gsQ3vWryvLqTF9W8yrIDuwqSnLyXfH68aFvCPDiuWjzx1xk9eFsMPXOo8Dogngg8t19YvNq2Ar11IC494EENPaB/Jb3+eZ88UMVmPRKnIz1rAkK8Wy2tPD1HAjyRVa48JbhAPRJZGT1O3/c7kVIdPQxxdzzoKI67SbWFvLVPoDzl27g8mSeVPE8fDb39ndG7P3bHvN3yLLye3m68Lu+PPJg1PT142eE8dCeGu5ywVLzXKMS8measO1vBhjpDC/c8+W8DvOVhrTp/Cgw9/8zsO4l6jTxPOLy7I508O3jFEbwhH6S7uCdYPPjBh7yDQx88brYLPeJn3zx2Fhs8gfzivE5ZcTxY/SE9wapnPTwL5jqI0XE9FJkUPHi6BL3QeCS7p+eYu9SGCjxM/qK8RZ0cPUJ0vryYVs88+iLEPIaA0T3s51y9IphdPGZCw7sN+My79dkDPXsrAj0HSoS7nDkdvAShqjybRZQ9JVTYvM8PJL0EEB27/IyROiU7SjjOtJc7McGiPFXWZjz4XsG8nSXrO8LOhjzVwZm8sJNuvtO3obzIQhK8XRcpPDLlYLnUV9u672bguujPM72jody8QzUDvJj+qjxiNyM7NAWruwPLkzxFzYm7ntujvBLh8LuvRq88YJksPWhBJj02PO48F75UPHsNCLx0Hrw8q3GYPPmxozydsVo86jttvTJ4Az1BGsA8GpqsO24eFj24ITE8hjbrPH/ss7yVOGk8zhSdvGfP8jz5ceU8fCIHvcw6pDxfaQq9rD8PPR9rz7uZap08uwCGPIQ8Dr0oWem6vFz/u7g0GLwBQ508GQvBPKsSrzu+Ij08vbGYOxJnAD0GZ1u8chmMOq8qlzoCnWw8",
                "cwXbPFNqb7pmyh+8w7C2vKn0arxvUwg93m1wO3zRG73QPj09ttSyu7rkKTvPlWS8c14rO0HAgLyuNkY9w/E2vKnSWLsBVUe8A9dCPIESe73oTg28As4KPVxmwDzfaqy6JP1uvIuUmL3T8qK8IMgmvTLmtTyefzg8voZTvFJAcLwqdzC9tUqlPKHb0jvJDS29uoSAOR/1cjz+fxo9wJ2OvCS5Xz0hyok8g82KPMuMqbzD5eQ8pBc7vTlKpjxGZmQ9n/zIvGIznrqSIYw9txUZvdpxEz2rOIS8DZUxPbfnPz0oVjc8Dcg1PGrjQD2TkCm6l/q6PIRo3bxspma8fLoEvdkXj7xa6Ag8/JjMu19JhTzV9Fu8EXVRPGF29rvzISe9uKj2uaMvWzwk+Fu8DiOuPEOWkjyRDLg7tI2vPO7PTzx2d+68yoglvQGtlLrm7wu8OomTvApAHLuGuq28ln/pO+KvA7whWQm9vu5LPBWXNDy7rAG9LldFPOT6u7ytCho9UwzlvJLBirwxVn+8joIFO5x2UL2WGRG6bAkHPe+cCb09o8G8dDMPPCPlDj1q+pa8sBARvQC7bzx8lPe8UaBjPMCUbDy4EaW8YdGGPBtnk7uT7s043qJdvJohKL1tAG07hhSQPLQSsDtP5js7ym0evX1mebvZ0V66owkAPGTswTwZ4Cw9SEEwva+nFDwEnwi8CQN5OjLFfzyTA2W8gbeKvDI/njxsSYi71GY+vAV7irnJqTO8G2etPfpmUby2FUS8CdUYOdmb+TtgpSE8PsErPcFDoLws0zo9LmqBPI7QzbuwqAg9/9OQPK+gMrsCvU08/QH7u3T+YrqzmBW88Em8PK5/7ru3iM88QzymvFAfubzTGRM9VC50vQZpzz0W8aq8gb8RvY03jT2pYSU8oq3HvJ5LErzo2f88vDmPuqAioLy8h3E8z8HRO/ReST2BOPG886v9vM0gb7zdOSG9MiwHPKPRFz1ay6y7kUE2vF3Rs7yeZXA8H3QdPUGz8Tw1Keu5",
                "ZgASvX2qALtCn8g8xb7avB6y4zv5CVw9g+LHO22bFr0gunO8ipBQPJ5JHLwo0io854yJvPqZwjt8MXU7G2VFPEkvS7zlqMW78Wv0PCBT+7xvsEk68lCoPY2vPD1QCKs86sKBPKA5Sz3rro892LFnvGBaAD0Yrpa8XOMQvXqv+LyRC4k8RzBCvLxQaL1UKEA94oDPvF+VmzylavA7+sutvLn4rjy5PAQ8UiyoPHJtbzxZZOu8f6/iO1wgET3TBIo9Q1/wPPaRYLy6ToA8wdAcPcbwtzy3+6Y9pOZHPVwF77unpDE9lp5bPZtYozvvtBq9ya+2PIHKkzzuHmg9vzqSPJinFz1mgbw8imWyvC1Xj7tZWjO8bfpYPSA0gzzX0Q28oaMOPKKGCj08gD67+ruQvOaetLwgE0q9JCCjPNGUXrx42wu8UOXcuz1E3zsPQS49QLTivDmyBz3PbqK8bxIEvP+0KT0kOva7oHIsuwh3Sj1kmXy8zLqKPVZcwrwuwy49MM/IPFQdg7zWlnq8PcJRu+G3DDz6b8S5ZgJWvPSNjjxyTtg8rpwEvNWrJLx+Lsw7p7sEvXilybxcpVU9V5kMPEJEYzzSMSO9EVZ8vCNfsLytE0Y8WJvQvE09Qj016mS9ikDGuUhKjDwtiZu8AuvDu+uehDvbbpW8niEQvHQiEb1xmRk9Bk9EPZi5Ib3J2ga9rH8QvU3chTxPja88QFDMvFSf+Lt/YGO9TMuiO1YQSjzg48a7iVLbvI6qyr17cS09M+tiPQKiHL0SUpi532cpOR16YLsAGh49qnoxvKn/Rb0LVIo4eSZovWT0BToj4qi8ONDmvHhoTryR6G+9cPk5vf2/oz206bg8mkO6PD2a87yiu948E2EIPfvQXbqcLHe8t66NPG/6tzuKk1u91v2JPEKnu7wt2+48/8Pmu0S5uDs+yeo7E5OkOyVc4Tv2LZu81hNLPS7EkT2OQIS9qToHusQma71c3nq9LwAIPcJ5sDtnK3E9fkdUvECzSD1qEyk9",
                "XD4HvTIo2rxcwhi8slhWvRz4Fr0aFxY85oFqvNOW8zv/nQO9gnVDvetzij17Nzq9WfGEvW33i7wWeF+91Z8IvW+0NbyjVh293g3EvArupz2pk/G7RGR6veJyaL0A5YQ7A4ELvWmtELxaGOi8vSPoPJRrtTzsvAC+c0MXPcWlyD3gimK9Z9J5PQWvSL16fr084zsCPc3oCbw4zSa9B2vVO16Ohr2pYVW930VQO1IKLD20JcQ84vaNu0vnIb0L3BY9ej+ZvXGDrjzfiaU86XscvXAjsDvHomS8VbxOPeZV0bw2WMI8JeSDPHJb4byp8/O8ybQ5vOxYlL3qavq7K3JbvTSEM71aIJC99i2fPYxpF70MEqo8vj1yPbAbjjxphXo8qm66vIOVSDzQ3gY9276gPaB3U73lYVe91LaWPcfEdT1Quou9vguOPBIPa7z6gjy7TTiUvLYUqzxWslk9UEh6PB3eybycOKu8hBscvPD6kbxOAFi7fxNrvNcLmrzCX4G8UhU2vCDOd7mNFhQ9MsKVPCScVT3/sWC7smZGuwllTDvoAsA9sTNCPVVmJzxm08q8VzbmO20+kLw0PpM92RIzPX59Qrw/eFW83nKpvLs3vrvBjaW7ww+BO3g9/jx5fE68fGdNPMyL5Dvg/xW9Z4SuuyxCBD1mq6e7IikuPVwRnLsAlZS8nGCKPSEt97xum0w9GyD2vBfos7wHBws7yGnTvBGTx7x8FNC8qIXLO/svFrujI6s73i+MO8aMzTwRU0U7i6qMvNf3Jbz6jmE7OFaHu9o4uDvUcwu9NrTOvG73kLwpqoa79+7+O8vYlDw2dKo8xdcHvBBo9ruE1a48JMuevM0VBD1bSYQ7b1CJvTOqDzz8dWm8bMk1vVz0hrxobwG97S0OvWZ+uLwl5ta7tMoUOWnm1rqaFC49z0esPFviUbwjgNq7H/wHPM58s7xwoFy8ON/DPFAYIL3z9t07efAovT2Dhzx/XcW83v6NvCFDt7xwaZQ7ctvzu0TpDT3kYAW8",
                "un0nvSyECjwXHv68JBkbPL0XGTxK94W8Tw50PU7yEbropea8L/6nPD0LBr34iDG8EOS8PRsoP7yFT8+8apvdvFNy+7yofxg91vbsPFAtrL1uGrE79IGAPV+f6bz+7Mk7DcYPvYChOD2TxoI8QSdoPO0EyzsjOkA8eOxAPc9IQ7z8lm08K0IFPMr8x7yH3JK8rhdLvOocurykaC68YOomvJ1eHz3qCB89dZddPOiF0rzTrTO9XltEvCo0FrzLZJA8QyhyvTsgBr2z2O284roGPU+wr7yFSMM8JttCvFeLHjz5ui29wVTJOwyn4TzDLVk7KUtxPY0QZD1c0bk7TMK6PH7yyrvqacQ7W44AvYZ6UD0nBQq9ZyrbOn6XnrxVqy09jNTPvKvelruMyrK6w2pJPM83q7y2yho9aV2ZugLIzbvfwzW8tpk+PIGDrjwlDd+8FJL1t2tL/bxRIAc8D7jcO7FErDyyhM+8OapXvACaCL13oaS7TyPau0MBCz0Iqmi8woGqu7lsvTsf2Ya7ud1dO6p0Bb3/n9O8DE2qvIYaOzyfzEW76cP6vFkjDLy2XaK8Jod1PC9FxDyxChS6qvCAvDpz8Dt71Xs8gBgDPQHxzjzIvks9HJxIOxmbXTzpQiw9jWYxPdsWirwIAiG5n1yQu0a0mTvx7ga8X5aUPFiGdDxMgqg9U9m5vEd0Njy0q608jvb+vIrkGzySsCY7QqmCvNLggry8u9u53QqYOwEdzbwqDn28ke+BPawkNb27ODi9vSMZvQEYwbzPspi7beUcvEZUBTubA8g7Uw2jvCoObL24wfu8CX/+PL4PZjwah5M94OdsubCEw7xYHlU8XjT/PQkuALzCzJC9ZtIAvS9DXj2kipG8NU1hvXTo4TtmIt270eL2vN+fXL0zHLC8XxjaO9xeQLx6K+G8A0grvZkfOT2+gwU9d8nFvJkZJj2CE289U/sBPbobBL0PenS9pibYO+2NQTuu3Be9nREXvRqLV7zwLLg8DjSPvBdsEz5XtrO8",
                "bImgvA9SKjt/QQI8L8FsPXYDMjy3Cci8b2IMvZ06jb1kgcS8m7MkPGQkLL15rIK7+xtbvcOLfDy0cNo6G6icvE31Zz0JOlA9dfAqu5vuDTuoJ548rmu4O6MmDD13hie9R/W5vRjvizmfKIM8wZXnvD5g1zw192e7MeK4OwaVsLyR7lS7tlhNvFmKHT3gkKy8/VuXvGTIVb1ORgs9z/fAPTmiFjy/Wss89zEHPu/BWTzcMZy797HlvPQcn7zPjb88zcSEOxz717y256+9APOovN18njxfY249e+OuvCqvZr2ADNM8d1e8vffKkb0xFUQ8F4McvbbnFT0KCEK86XSEPNzLtbzKAyU8nPRGvb/WrLz9LM+80paoPa2tsjz+clu9KowYvUoD/ryhWdu8Kik5vX1aYb3cmIe82ikDvS9wrrzb8IG85+MkvLVaQTx63RU9idcKPHIzsTxxfFK9tgysvHpDi7wZI+Q7StXQPFBw4bqoNIU8YSxlvfE0qLi+l1q8oGxuvFCtmrwGiyI8tHWaOmOGm7vUoK+76Y18vBC6RzxCPmI9XGAevJgZkTyeroI8ta3JPM+khT08ehe9CYolPRUbwrwQTaC75OYpPcNR9jsPNyg86jB5PNUJHT3XM6M8spA9vKs0vjw6TEk8tl0OvWFpa70vlx08aHOpPQnO9zyWFVq6N7ePu/6E5Lrh93K83z+APL7lZrvwCUW9TDCIPT6vuryKvxK9XspXPOygpLsTF7Y83W63O8r7Sr2lPee7uW4NPJbLXLztDAs90+c+vXFKA7xpw5K8aex/vRI5lrs/gDI9BNI5PNlHhTxQxQE82eMpvVJFL722owg7caq7uzZhbDzzfpQ9n/2DPAHLKLx1wSG9FsFzPPnWZ70cKoo88w7ku8uzhrtunSI9CDDavMe8p7uxG1C9WiJYvFY4gT3/Uoy8m6nvvG1Tq7vgfLC8BvBAPUBTcTx1VfC8amDeu5O0Cz02GC49kr3ZO1nCWjxATbG7HvcfPTq/sjzquRU9",
                "6ysfPEPheTosnS68bXzEPB2rs7w3WOC8i6k7PdLr9jsaWvQ8Iqlku6ZKMzzevya9/eC8vDScFbzoB9S89NEgPfuQpLzHCNa8lccgvdWc+botEJo8EVWtPD/fMrzVDog9hwkQO4hyOj0fjza8daVyOzME4bwEHCU9yyeCPQvfFrwtGgu9+hN1PIvN/7zsUc67K1fwu6N3D72ONZG8ZMUVvQ622bvYzOq67/zFu1fc17xEWr286exlvQUNl7vvmAK8wmclPdXcLz2KYRM8cm9WPfil37wGEvq84ntmvJ5Nu7taLea8DOcPvR5C17zryIM8G5j8PK31UTxVPpw8GJ2xu4LOFry+OXW710J1vNJ+rrycmy07MskpPCB6A70PHT08sR5RvYraEjzdQSe9xCMxvVEgbLvap006pI50vYIAi7yC2YS8f5njvE8TGj3CLHc8t+pePI5I17tvR2k5xTYnu+ZHDL07xx69fUMcvd+5KDx4Pa4878dUupdJrrwq0x096EcEvdV/QLsDvAE5P/DeO6y1xrwlHzi84qXMPHp7JDrITAe8xEMjPLajFD0WfX884LwfvDz48Tw2Jpc7Y8w9uzeRmLqsGfy820MgvGgtvLxexAa9kkcuvIYAKjtelnu71V1GvR1Raj1nH6W6re+cvLZ6PT2aVKs7sLr+PMmMubw/zsw8syvjO7xVYLzNLGm8XrnBPIKu6DzvQss6DKXHuza3ibw1Kfg5cuDQvIbjWbxA+6i8RIGUPFXxLz3gAlM87yiFPMnoIzyZ+kE99p22PMzDorwy+ps7pcQruyN1B72bzeg7DAtBO+CcZbtjD3I9UmEFvMeUXb34AUw8itiFPMxfqrxKvfk7+okBPZ0UUTuxcx+9gBmsPAbvCz1NxhE9W4PfPJwuTjyi7OY8K5eYPAIIoLlneAK6I7HPvLSz8zyfkxG6qBGeub1h9bx0l+W8eF+HvAAzsjwcuJO8Bb39u5nfMbzggto8Xl/wu8wgkDx40oi9G3oavbqrjryph1Q8",
                "MzcNPRg6Oj2leVi8Y0NePGqFoLviEnA7sc9Guw7wWrz8R4M6dlRFvT61Gz00r708YfjpuzS1Fb1v9B89H8Cgu6NgmLvWlCO97UiVvLCY+DxH1Ac9hhLMvSlazjw33VE7+7A/PSOYwzzQlsK71q93vI78G7rTr7c8Q8ovvKMqHzyc1nk8woXJu/LD2jw3fSE8O2WCPastszwtXza90KSVPCFEBjwL1Ko7xh4vvN1HqbzWEve8CiGAPCE+A71h4Qq7LljUu8avMb2r2DQ9sfUTPbFp6ryYKYU8sSGFPLQzbbwgkze8iPkEvMP3zLs6bVa8mT2Pu3IwrzylggQ79QuIPGywOLylJre7339mPNhEA717gYg7+B8GO9LdJzyI/Jg8tVQaPMH5Yr15bL67pQw2vMmlfzwrkO68fdQpvTtRibzckK47sVT0u4p5y7zicpu6n86JPato0zznNjy89/09veJiBL2kBXu8glusOu2fLTyxExk8jsf2OztjK733/2M8fSw+vEXsyTyUjNk80dsvPRv1hDzOxAO8yELnvBCIyrzmHXe894SZumob2zo1LBS9FkXKvCUGK7xCiHQ7XENZvfVjkDyHkyE9cIh1O9a+LLt7CGO8jjKUPA4rS7xSIYS8gdAJPPUOtLiuuQc80niQu0b2h7uowP6728W5vOA2WrxGRFC8r2AGPDeUtz2ZB/Q6sD7PvFDvcTsBAnC7ME81vFGwADxKHm483GQFu6nHbTuxCaU8KjfiO9HrmDyg4o2740MEPZb9YrykcZk8IA8tOslNILzOeJ27KVCyvNtpxzrJCeC8ixhCPY5corxmWtU7Jp7ovD43oLxjZMQ8nTBCPCX1yrx2DOe7w7pXvAsvy7y8EFo75aANPLmGtrqAylo6yMkpPaCV7zzfJrK8yXbhPNhIgzu6HZ081/gAveP97LzLKYG8navgvBR9ozrmIqa8NIBeOf4vLr0regG9ni8mPNQ+m7y0IbG8aHCTO6oMXLxHLLE6hZMkPZOGPrzF7LU9",
                "rJ1DPOmssD1Hlxa94KdEvMaRRD33OIw8Usl+PLshiLzqliu9FWpqu0pmKbxXA388MiIMO6GSXT3OjFU6v5stPP3ktzzo6vM858MQvMiwTjwBfJ+8L2CJPEKgpDyxy6q7B2Oyu92uKj14XBQ8QmiLO32az7wr60K86QpPvPzAnbyhhL88YonhvCH1dL1wTx08jRARvWVzW737djK9aXjIusVxwj1UWjS9Z7JBPTAbN7wSDza8cMCqPHxe5rxE7Lo8118evWrglDiMigE9RByDPY8PEjosd/s8wVqIvVDCKb3lHwk+gEkbPfXoyLsLzO07T1ArPHiKAz0FqWk8x18WPX/jNr1mm/a7zD4wPY2L/7sPSpi8EvR5PZ4SdLt3sUu9wqVNPIgCf7yRAI47LGzdOwLwBz3iTow9Ht/zvIW/YDwrqoa8FTROvVSuizxpvxm9rTneuebeE72Wpxu9Mtz8vLYj8btUeh290AVevGRVEbsY9tG80j1fvUFCpj38Yya9+692POdl8bzsKkq9Cwq2vMYFnbynN0u9jSAjvfZH9z31Z2I9FaEUvWGokbs72ug8D40WPQs/mDpanT69x0uvvP8aq7uREQw8Bah8vEXCCr2RUlm9vRafvTSXtLzlwjm9jCdWve900z2Qej88sgRLvTo7j72fkJ48NVXUvGAtO72uPpo8KU1WPSYFurtcFIW9lq+QvMxKqLsBRA69+dgOPbeBVjzu0N89TaoTPKpJKzw6lia8eSMgvfqsC71K5L68hBtMO9xarbwP2hE8ESLnvNondj3HBMa8Pxi+vC+RVLyAYKG8WSQRuetx67wt7p86e8BQPI7Mdj3aVDS9RhPpvFOY27tosuu8Q2D0PJElGDwWN4y8za2ZvOthwLyJAw+8VzVqvS28E70Np688Ick/uXKz47s75jC8EE1/vG08qTzkImy8nI6RPd7a2TvWBnK8VQMGPTdFrDzjgj28ebrCvH9oLLovlnw8MLaDvB0SGj2nOoM9WDjpOSA0MTzil+C8",
                "OEONPIvq37wRC4w9cEJvvf2kar1JZxs8f+ZHPDtODz2PwvY88FqdvPmCvjzHt3Q6BMsevQMtAjzhrxY8f530OsDo4Tz+dyI9IZ8uvYw32bzmuoI6YHDTvPVrFr2t1Am8Z3YGvJMqejwUBwO9fhOjPIh5YLxNewK8WxvVvKYrrDw5G928B6wOPWeFkrxWJng8F0cCvUpm1jheHOS7/fO6PKIxKb2a31C89Kx9PJo7Tr1b5hG8ujXtvHR++jzYCMa8UqZAvaY9Ub2m9fu7VKOiu2wpyDy0/AK9aeA3vZ5eP71oCiu9uIC+PDnxNDyrDgW7NRTfOr5Ui7z8wF+7cIA/vVQwGj2ugzK9r+kJvCjxejuXzD28JQkKvDjtET3C3ow8ZwOlO/P7Jzyrft2844ECPGaB1z2VZjK6+jMgPcKTLz01nDW9HGrSO2tRJz0oCpi8sqUyvBB0/7uGXiS5JxYEPXhdpjzLkzq9dsN/vHoPtbz6NwK9Ie9QvcLnXry45h09qH/CvKmTLr25cCU8YEztPBvaA7xKKLo7jfoePZokpztTCq07gMEHvfBVpDrKtk+9yv1LvG29BTyXzge9PPkfPAzmHzxK6KM7qMckvP+xvDnOAD08kXjlvHQWMD26Iio9dJUPPXCmQzw9zVW5Gi+2vG6Agz198Nu8vYM1PVlkK7yTUoY8FfRAvN0ghrzClBY8luNOPTjH7jyMRlU99JQqOw9rzbwjVqY81Ci6PA+gMb2j9SO9iqFNvMa73DnUNAI9AkkRPY0cXLyo4VM8SRoDu1PvLTsWAAo9dbs0vQDzA71h1mC8kzYdO/GYATyOyMc7HnkUPSN0+LzXIxc9uYcOvN4Ue7zabT48euIoPNEKY7yu1im91UXzOxOfaj3YtQg9N3tUvYQp+LsQO9e858b3Oz8KSb2K8Zw8kq7qvOz7hrt8r+O7bDo5PXZkCzzxCJ47ipzoutC2R72oGQa7aU0+PZPUyLz4zOg86JtFPQXcUb0x/2q8TLkSvRhkCDzaVg08",
                "ekbfPBWdNTqeHWq8FxK8vBwEvDsFQui8PiBavYUSe7y3tZg7WfnEOZEDWjsG8EI9T7o0vTnsnTzBsGE6z9HfvOJkBbtP2Ck9cFusvPGYsLpqTMW8f8v5u8sg0rtgS6c8mVeCvCxDi7ytcRq9Awg6u0desTyW1zo84A9qvIInI7vnIok8fmfru3fhJD1aLpm882yWOxWFQj0jRLG8dPz+PJQh2by9Sam8sin0vDJNXzwuwWs9dHfZPDmPWbx2Psa5xBtBPILroDx+F868M98FPLAC9Dz0NQu8lQrjvHtUPr0X8IO916s4vRBu8bscwNY8bkB2vSqguLyxuBW8t56NPJrx5DtwQ8Y8HehCPZIRAbyF/9G8n0iWvHVbFDwwqi89DxOVPNASmDusfba8181zu1xIb7wu98E8wpCnvV9+mbynTdw8pWguPEm8UL1/IZk713IuPSPhFr1uGAs9kODpvKHZWby37Tq8UFYGvdNOpDwcSNU7VBgyPII8DDwSehQ9I3oXvLyp1DwdA6a8904KvDZeET1UKiO9ufovPOPKh7wKV4a7vjIavWSZKj2/zIs7O2ciPQdUebzVGLe8FuH4PLbpJ72azLe8xzErvQhI/LzECpU9xaVdPDv4I72AU5G8VOZaPC41Wb3k24Q9GfSrvAhmRD1XRnI8nh7mPCjaVDxOCKg55YcUvd+g2Tz3WcC8XjiRvIv20LwFE6y7chmHOlwU6Tvuc0C8pob+vD8wKD0SJ467sh4EPdc3cT2+GF29hlwePEH69rzH2047SmXvuxphojy7IDY78jsjPLl5bL1VkSc8rGNKvd0Pv7yawag8VO6APXYPErz/S4O8rtcnvTq5wbxsw0g9bwfsvPwebD3btVU95+wWPQpKErzOnHM8/b4FvGPY5LzqBx09N39lvVyHhzyqTL28R1nkvIBUyrzLSZI8RoLQvFJ/1rs7EC88uNo/vS6Ug7zQK+w8lAw6PCXSb7263iQ9vecrvat3drsKwba7JGaJuqzNqry1buI8",
                "Yt6LPcW9kjxZrzs8yGl6POau9jt75s485AAmPBg44LwtAZA8RmyPvD8boTtKucY6PyVrvFXqpTs0Lvo7dQ/GPGkOo7wHN+A8IcgKvG/1W7wkkia9oeDfvJWeMT3bZYA91bMfvMclJjwb5iy8k3PyuyUwozyQqau7E/snPWe1vjyrKjg86A63PCh/5DwfmJW8PUuSO2Vu7rtwVeS75At4O8LLprvHx9k85rRNPNhfxLwH8tG8bj4ZvE6G4jra1Iw89FqcPBf7kryjw4g8P4lGPCz+X7tBb+Q8egGCPOoTmTxdZ3m8SWVtvCueEbzCuZ077x5bOUeGhzwWxCw62DSiPOyV4TtpxQo7swTluSQ2Ory1KRO9AgryOwmKJjzOQew8Zcx8vJ5karzJlYI7erQGPcf9NDzTUvs8UwucPNQGcbxEKm086T3vvCirKjuLXs68oq7jPLl1nrzR7WM6ROjPvO/HnrmqMDg9b/4sO6aopTv2Ppq85zDOOwRCBrx+Nv48qo21PMgqQjx9X6U7gKmbPcWO9jx7Y5+8rqApPS/51zygnc487apXuyFu67x3hoQ8FW0jPANo3jtjuZe8VIIoPPEkWT2YXUo9ZOiOPKNy1rrFMfK9vdF5vNzDDzy3YYY8UTUlPY4bs7uU9X67B5NFvNMV8rvEGY88770zvVLGn7vizpC8SJCAOZL4uTvsTWQ98jszPcx2rbwcbXc6UtEzvQ3Fk7qKXbY8uD14PKR6lbz9mZ68TvVbveskBr2zvnI91RwrvXe5nD2z01w9zdCZPJDUp7wjBk687exXvKeSUDxVIoQ8I6lMvWEUJ70R6Jy8nkFzvFc5jbqZ2ya9VRweO6tytzuHPOG8MrkDvQe3Zb0Q/8s7G77LvKOOqzzf/Hk8rIXlu1/bQ7wunUu8xXkWurnfzLtDDQc8CLyTu2pZjTy9fNa8ca7xO7uPQbzt8H+8Pw6EuyXJLbxjXkK77L3Au6QmeDzHeNU7bDyNvdp2vTxR50S85SSTvE0idb2mEgO9",
                "ItOgvDviuzziMwS9GBWpvGKZPj3uy8a7SHWkvIILITsox8G7BDM6PWcbej3QzaS8KBiqvfWLNzzBEne9DGiAvFKGDL30I9E7VuYAvJHDVjtMrvW8SToCOz7NlLxqvjY8H9I1vR0oobsmFPa8deRxPUcAbzzgwi29LNwcPXeQAz3HbAo8gvC9vBhdOb1zfxc9fF1rPPK8xjzE1BE9ZVjsOw8Ic7stv/S7KCbrun46TL0RqSU8tXKVu1U7lbzcgPY6VrGvPDjXIL1k9wg8EpKrPLA4FT0Irqw8BnFKu8885ztnRkG96R4ePWcfUz3uUyY88OX6vCJx3LvVV7m8uTUKPX9iUT1FUG89xZiFvaijjz3SXaU889CUPHHQF72fz7c8PCcgOvrVxrva0Is9SLwePQfg6Tpji3O7l6dTvI1S6zx8dSC8B8dnvb2IErwoCpS8I+OdvEJiBjwedhY9XAjxPbusoDz7h1Y9984WvfwXFL1Apm69eB5uvQfghrwOX5M7ZcKHPEN2/TxnFa28jIwuvVkuirtYf228G4V2PboirroK4zi9MZNoO76YDL2HLmG8v9WWvfdd7Lx+/wW9PiH3vA2un7yQIk89GNg8PZAH1LuL/rG7IqbFvNp9Mj2Nugu9UbmJPHZGAD52BKA8w5TUvGeRe70XJee6RBxpPchBIT3qzTM8gxOCPOwsoDzaiia99QjNPJv/07xZO/Y8Ie+bvEfEUL2QuSq71aouvZIBW7tHJ4U8ecBrvVJ/hzs25+E8R6yIvL8KP72Z6RC8rUmRPBsELb3Ar927vDe9vJP077qlrhE8IQxsvF1Mzbv6OSW9sOGEvL7Rers9HiA9pmomvfUvybwgMgK9/OuFvFlF8Tw/mBI9yDvgvB1hHD3B2IW9EingPAE5CL1YiyI9YgtkPFI9Ib1qU5S8mBkevJVwhD08nzk9huIxvLOqWbzCd5I6atPtu8LOWru4mcy7ty11vAoVKr2zpQg9hX4PvXMNo7vHu1C8tZyrPIno5LtKRx09",
                "rl2GvMNaxDtYQr+7a6O3O2ScAzw2VQE9dByjO+jI/Lu4pNm7sYQMvS6GvzzW6qO8TOY+PXeOE70+/us8IBkqvJbG3rxLgAI9pccCPXTXoTxrA7+7QXxvvODRjj2HvRE7b6njujyoa7xY+6s8B+ryPFI0bby1hWK8KRZdPX2irjyJXo+8qAzYuzEWjbz37Ju7doGMvGjrU7vs3HQ8yfIzO7x4yrwiGYs82E7gPGd+kDwHFjE9Z71avQsC3Lz9SFI9UhZrvFmw6rzjwXU8YPWOvLmumTxiHr683TIXPPeBNbwMIyy7V+AmvJ1+Sb3t8bc8664BvYBItbwfi8u8UJfhu4HkAbz4hi87SZn6u3Db+jzAPhC9aK8KPdwKDby7Gts7/5wevZP+fLucHHS7K56pu5PVYb0wyDs8jvczvQsj4TwsbVi9c2LnPI+XyLtOSSq9iR8yvaFihrvsbTi8wsJnuuVSvTwIYlm9QsnoO0Jog7vI4sQ6Wl+4PGuiE70PSOu8ohDPO30edbyKtKi8hCuCvaXyrzzkum4695oAvW8S5bvnJqg6c5yPO7xB1ztgoyQ91Vk5u1q3nzxEbLi8fRoQvPpeXbrw6qC87rOVvDnfVTpGqZE6gVLQOzwk8zy1wvk5WquGvKenJryBZKG7ImS5PAHPwzoa3+k8/mO6vKDt0DxbjsS8RR/DPFENljq08Ro7ey2yO2QW1rzC8Sk8vMpIvcoTkj3Uubc7W0/bvFNlGzxSTU68j87mvIiiyjxd7n88SzUDPQhNVrxj/m+5BMLfO7aVOD0sphG8sH4WupjMQ70jwK26wIO8PHzPKT2FxeO7eRUwvVU7wLz1umY8TIahPLqvzTxdB8g6/PYePfIwSLw9+ag89Y64u84iJb1KeoY8ejygvJ84ET3+1qq78wptPLGEir12Q4Q9PtxLPEWcNj1x9Ma8X1yzOxhrurz6Z7U7+qUxvZWCCj0whmE8heoGPJN0GjxQ0YU9QegNPZ8EALzCT04697wkvfdIhzwLKuy7",
                "p4U6PEuF0jwv2jS8vjWlPJD0M7ynocM6gcdyva2phLwJqUE95SgwPXky+TxZHb49l+wVveeaqzsVe009qEY3PMpyQ7yywSS8x6RxvAyQAr2eG269qNcovYYierxMUAE9K/8OvUjTBL2gIIm8fGBMPWKXrD32ZzE91xcuPKPLMD3c50S8JjzbO/IjSrwm/mA8PKt5PcteKryVEOw8bc7XPQd/zDx9k7O6P3+lO0HIAD1Qhu48xEkmPEWTmDvskvG7x3YsPW4bILtbPTw9TdBsu0tSZD3Lr4q7uxILvfro47wvhJ28XnKDt0dbHrzrAJA8pRpePKtK9rz4vd071V8IvKlUvL3Q14G8CC+1PDglaDqa/xU8TpyuvIwJujoinDA8nJ3EO6nJojz8I2+9JwkvuxDq4jw7Zwk9jb/CvN6d37w0PWS9UlhVPRAetjyj2507l0UCPc4Eozvek0O95kt4vEdikryJZJ88HV+FvaFttTxDrak89gZYvYoldDvPeNO8aC6IvQ26Uj2mKIo9Aitmvc1WpLxhUuG7nBlNvef5JDw/pDk9IfUqPZ9O3DxV09U84NATvQXgfbzlqtw8yQn+O1PwBD3dOOS7mPdCPB2BxLz0dKC7LRiyvD6gqzwDBZC8NU64PDR3Rj08yxi59ncPPL54Hz0fkxy8YMQqvA2Ifr1cEpc8pol/Oy0vILyvGea88cV8vNORsztjImk9jf0hPSYKjDtSAgo9Kd96O2/AR71i65E9/SvcPJ95Ezy2yjs9VpcFPJSSqDwAUJ08akY6PG3OfzwIRT+87wNFtw4Z4jvnyvC8wUYpvbkPKDxQwHe9sIMYPOy8Irs3/Im9HzLgPEXACj07MqQ8D6MRvaDcB7wVb0G9m+IDPXuAXTt42Pu6wBAhPfuRbzxPFng8IU6EvGFQBL3xXbo89BPcvCx3wbztQ0Y5P5+MPMxJXLy0RDQ9vchtvWTCCD3YqZ68bzBLPSfpSb2La009ZFoFPVyMRz2Igkc8XfQ9PY84EDumgBq9",
                "TJacvXEaj7zqJsE8JQ+9O7ybezwU1p87bFdMPb0R07nYmAk9pVtJOh2NfTwqOh88vJUnu4QMMjxqsJu8NbFvu5pjILwi8iu8K4A5vA2kITxmwFs75ndZvGEJGTwJBkc9lsSzO31T7DvC0ou8lXLAPHUuTbs22XM8YqlXPfPQtTs3/W29+MJYPd3fSrw3rEe9QVNcPCHUDTzE9a08UoUgPSCA8LxojGW8aFi1PMILBD15kwY6C4ZDvAp9rryPq3g8OtqWPFpvZDxfxq28NPZevNwJxj18bZu7XXu/PEz+0zsjwoQ8uymqu0rGl70wOZU80nnEPPp8dbzFjsI8mYcLvUZnxzzEx+c8ooQzvWIdpDwf1g49QwpaPfyonryn7hu7KjicPMcpm7xO3Cs8fZNqPZfHEj1HrU291X70us4ILLwkkjK9/CGOPB4kKj1kpRU9MKMlOiTyVjsIuti6M5c+PS6k5jxOymq8MnxQvPr1Fjy7Fw89WzvuvHRiy7yHMxw92oWDPIrp/LoM60w7FqN5uyrPB7x2RHi9CzmzvFFdHzutwgQ9/lH8PNi5O7xZ9MS8otKhPMipuryFznO82kcku+Z2kzyOk7Q73qCFO91hOjqMchI9qDf1O3mc77wkEIi8JD6EvG9FgTzAvvO8uYsMPGVtFDujSFI8pB8kPIT7AzxkTLG8O/w/PaMugb026KS6m5uHPZLm/jzXdn+9X4xdPOaZVL0uWja7b07gueyt9Lyd8oI854/hO2kDjDxozvm82Z2fvNmxLDzSL+e8CBBIPJMojLw1iCA9sDeHvBg7Rrx2Rek7ty8zPQqw3LzRK7w8kFMIuf+hrbw4p3O7+HLnu4gJLL0khsy7ui1APKnoTTymTho8WyeluzU8Ar2HD4I8hfG1u7vH2TxAkGw7yplnvFe1a7yWVP87zfX3u/dbM70PcaA96E+mPasQp7uBW9q8fgEDPO2ih7xHXJQ7mGgivE2FhzwA/AI9NXw8PUi6ezm61A881ZSSvNKKRj3ngRy9",
                "7mmHvNJFVbycAVw8zLjUO21wxrqhNLO7Wlf+PM+hPrsN8IG8onYevW/bSbwLPg27kEvju6NUcDwYoSI8rF6HvF1tOT2vDfk7TS3FPFot5rwTp0Q6OYkCPS4lmTvp4+o7ZtwKvZBYJ72KQSo8XTDPPCrxXTwZ1he9EWikvF53ID00D3S83pmeu+GZ8TzmO+q8DXkOvAaW3btmLfS8pqLSPHAhH7xxAVs9kEAzvAxQmT2vVgs8D8InvRCVxryc39E8I6OfO+a/jLxLxUo8ipshvAMD3jwcwUQ7xZyZPHMplbxKbVA82g+APJUy/zsaimu8oJREPNzXAT1bOLo8FAcuPVbDczvoo/47ZoHsuo0nSzzkSl67U1BKPAeOizt/FSQ8Q/smvDFwdr1c3IC8nyXVPBLGHb2NJSg974GqPPsfozrGwf+85a7SPNq+5bt96BS9gcDvPGwMHDtJQp48AfALu39r7DxruH68WFt4PO9w07gMQOu8ERGlPBkx3LzX7BM91eS+vc2BmTpBPJa8DyBKvDe1xLxBozU9mD/FvEHghjokhCM8StI+vTX6HrySIfy8hD0xvJxysrzI8Qg+nCMyPbktQDyhuMK7n1A2PW1zHD1LGYm8ynkiPLMGPrwmnIM94mSxvCVjGb2/F0E9kgE4PQFL2Dyp5jW84hdHPM+yiLzesT48mHSZvCnNzjxppAe9cHiaPOy30zyb5cw8Bo53vMCOGj3dmN08iLKwPD1UEr1YtS49f+p2veMPGb3GA+O8JUMFPTlMNrv+fYg8CKuBvJQ8OL0jrO+6RWnVPLSk/bwtCx+7YGxzOrmWHrxhmAo6nmwLvNq2obuWrrw6CbNiPMgzoTyW3HU9Y6wyO1ylJzwZiGo6Q4+SvNwUj7sASZo7G/4jPTI7AD18aOU8yx9Juxukqby4Dr08JCoHvMXz8bqORo684T8dvSxZGLtQAFI7vas9PNaiv7x2jIE6Tuc1PPqVdbwgypm87NjMO+QM/7wLWBa9yHlsPMS3OL30Eho8",
                "4XkBvZWeu7weBQ69quEKvN9DSz14/Rq8DgD5OogTNT1QdB67XWvXPDogJjy2SL47DtFaPFrPALwf9Hu8GYvwvIo3Xb17PnI8ogysvTetFbzY+3a8ACMSvTWoaLxQahi8Dd/CuzPNFjwHvmm8xBf4vIgCrLwFsqc85dDQO/tW5rzg/CW9m1fNO1CDojtGn/G8ltdfO4f5nTzJLey8edC/PKKh/7vknGu82p1jPKdvMbw3uMK8uxLTvHNuzTxrgAQ983SXOr1O07wDTxA9fJmKPMYIpzxsCtc8kdVrvNFr1by18dm7aMNJPXhAgzwNYmo82CAKPWlBpzzJ9yG9E+oNvHy1er0laNU8iEXtPPECP72sXRO9+9HxvO2k4DwbKdc8xDBJPL4oobxJI8+8cd3hvOw4VLzYhRc8h9lOvLkCr7zl8/i8hZpQvAnCmbyNQhO9e2TaPJ68pLzqCue84G+uvGVJvTsj5aU5ArsRvTld8rz27Ri8QW2+O1HdaLv1HhE8rKCqu8Ij0jzmDXe8xlshvGjuBz2ndYw8kmr0vNpGdrxXcIg7HcvOuwg5l7pFdR68vuHJvK1JwLymEwQ81SsRPEqYfLyK01S8qjXTumNb6jsDbjY8QDMFvdOx/LxUy9s5MmiJOy7tLjtMwWU8TNuWu9vZcjuDyYG7OXWMvI8XAzsTdQO8qLwBPWyekrzhxZW8C3mGPLs6r7vNPyc8XXPwvBhHhr33veu8rNG1vEB4zjwPRVe9Ga+/PEucLz0uXgw9xNqlu24LGz0bLGO7e/KQvOjfND2w3oe9YDfTPGjH8zzcZMW8uDplPNYH2bzip5y8fKw7PHk93DsYABO8jmi5vEkZwbvX6fg7S/QrvHyjBbx5hnY8z/GlvNffDDwqFI274SrovPl9Gz20Sz66Ld6zPPpbVb05gAo9KYfIvOWpgrwt03G8RckzPZVaOLwgYyA8BFsNvS45vrzAsUk8VGK3PVIXDr2E/Vo8PYdsvRCePb3wAGy60DgJPdfdD71hK5q8",
                "66RtvVAlpjxbhEu76LtQvQfF4buKLk+9n7t4vCiqijzbVqg85/D8vBobkTxnK808QXmzO8NlPjvOdYK7iJzLu3gzI7zgpA89PXxiPcMhH70F0rA84JunO5iyOLxATWe867dAO4Py3TyoIoC9wCkSPYq2Fb3AjYC82rfJvDGKir19m+a6+V3MO7vHPDxOLSm8gXtCvWAp6byv+Ue8aph4vEZKEryg0Su9xSw6vI1W2Twr7A+9T0GfPYqJRzz3b1M9QJ89vMPeYrremvg8N1oyvAlhGL1i7767QEsLvf+owLs2bf48JHqnuakWDD1KWCa9vfbUPHtCWL1zQ3C7bnRjuuQrTL1EWP+8LrdtvLNoSDu7pKS8VuQwvT1Pq7zazga9j0kSPMfRK72XhxI7psgfPMCDxzzhAjg9W8kCvCTcszyKAfQ8wLCDvOf/fj0PRq48RQHWt6f1GbsJpzg9Gx0wvBdT/LwL7WS7eYtRPcfGhTvZejO8m+6sO38d8zwtJtu7vu0VPYzKN7wwkiM7+4IyPB7cNbqjnWw9cqAgPE+/pzxxGP65G7llu5w/OD0jpps6/xA1vVYmeTwLJXU8tmoVvaA5xbtUwji85JpSvN1/0bzi8S28qgiePAOoprysRvu81RX8PP/imrqutNg7SfsmvN4zDDz/iqW8U3lhPe2C9TzU4sC8MtnhvF8hLLzXzog9J2qzPL32Ab2zd4w8WYlgOgCzoTwSzyO7dob5vEcPIz2msJU8n9ZIO3kBsLu4UyC7tAvgvK9R1bwPwmG8VK33O71K4jtitpk8ofkAPRBmkjuiHAG7ezNmvEUSXj0OOSm8RsmSO524NT0plia8cD13O4QVeDwHZaA8yM6DvHO7Vr1ONpO8XSO6vIDw9jypGTI7fIPzPLL4k7zazBm9LudlPB26lrzoMrG8mdtIPJNTwLxBC6q8a8ZvvHUZTbw78qo8UPICPb6ybjvqi5u8BB4+vb2pf7zZTyi8I9BOPaPB9DzQF7Q7vhUDvETy6rzKolC8",
                "+ZVJvGRyq7t+ESw9En1cPVTJFT1MD6K8gY2SPC7RM7ztmno94oWDvRgRDzyWasO8OYSEu/gDAbz7rF27EN5UO7HpczkK0Es98oNPPaSNczxc7L+9OHh5vV4QlDvmQEE9cv1hvPF1u7z6n7m8u1KtvJ8JhjwcsEe9oxwIvYU6X7wFdkG5WnJAvCUvHzwbOKS8FUMrvSnuzLzFFS07wcSSOkDEHbzJc/e8MjiYPDW8K72fA9U8Z6odvcQiybxZYCq9NG1gvLgaAzyJWd28QFQ6vfh63jzb7+G8u6RPPP9c2Duak4s8XRV6PLLv8jslS4m7qWMWvUj7YDsTguS8GiYpPQvgALzaczK8gsHVu1XQobvjQ1i9ZxssPVf4tTva6TG6f9L+upCd3boHWgC9FvJvvKjU2rzhVbo8ommrvBMf1bxNcCk9VlMDPb8Jm7sNCZc8wZwmvCgTw7yKNAA8gqyZu5Jr1ryY9Y89ADpbvR+PbzwkipI8rFOtOwvKGTsmChG93Gb7u6JssT2w9Q69iLAkO/4H7ztoGsG7S/u4O3am+jwoZ6O9TKNzvOTKKTzFAwy9v54wPQgkGzy5L0Y6UgVxPBvLBTx0xtK8DGXgu04T9LylE289xhaIPOTAj7yCDkK9w/fwPCHiuDyIXzA8z6mzO8ow3rybt1E9c+1ePbjD+Tz+aEY9Pgj4vBfppDoVyHQ80v+zvPJKvjzKtca7pDLlOzLj3LutVhi8DzqXukrFgTz8TfE9/j/BOxTIiDyVYeU8sx+eO4/Yqzxtvnk8o7YYvNC7Rj3KRvo9LLkgPMYL27xhTMY7nTeLvF025bw/BIS8pqkqPf8WEL0aI9K75lxWPArK3LxnoTg7ErIlPE+9TLxywV28PXayPGUYAbnU0Ao8YX7EPNWVfD2oND08RYuMvOti5DvtVvo6H9hSPCfpTDxCda28Ci76vDwvPLzS5Ke8uSymu0Iq0ryYdsq8gEMCPVRVyrw2JSO8foBQvLW8jTzvQZW8HJLQvNSqhrxu2na8",
                "s6PKvOGEkLztdue7/CmQvANLRLw1gsk8130hvWPElTzfQRI5bxEwvGykmLtHjMi7XqMmO/ETxjywQBs9IPQ1PA7wKTwgBUi8wWetPOJ8KD0VoG49ssyvvMgN1TwfBrA8s5veOxXbjLwW+6q81RJqvG3vOD2mpF+8Dc40u6FSBjt9kqS8w5XVvDTLAL11Wmi6QJoKPcO1kbzdGkS7AYoyvOqIADzPdAW74rvjvEMpYzuI5mU7jepavEwEUbzQ0r28sRA1vBMuOD1A29S8qiyevATnwDz2G5m81d5BvHR9Qbv0/tw8yc+aux4U27wZ4iS8cubFPLbuoTxW69Q8RujbO+wTurwVjTI8P2EJvC1HHTwSQCS9h8CiPE93Oz3raEw8zd1DvMV8Ebzf0FG8fTKBvI9o6bvm1ac8OkRCvWPkj7z2zdQ8JgfDvFecAT0O4bg7lOUfPbKO87y7+Aa9+nPjvF0sC7yYFly8LJX/O62Swzzz6Ms8qehBvG7Sbzx+Qbc79n50PEnS0zyte7O7p/zlO5JqjzwGbRS8DLfgvAFvsTx3K/07HJqZvSgFlTzA7AW9K8tePd/8RrxA5U093p1tPU3tQLw1+i+97LJAvdyXWT1o1Tu92J55O63LjD3oSLE87fSVvIpLnDt+pdA8IOM3vaywN7yFYFS9NtuGOv7ZZjxrC5S84bulvBPfx7sJqWk8kqIyvfdRg73t9hO9iZgsPLotfzwo2Gy9WAOaPBO6Orzw/yM9t4zJPP/iM7xIEvu8J2aOvLiJjryiguq7Q4ofPQJ6Mj1sW9e8ocswvBXzjjvdpMo8dA7POz6sMLw5l3+82JQYPF8tVj2GoTu9PhA5PDug4LwNMYs8hUKCPMB8pLxCT7+8kcGqvIuR1rzTjjw9Q/DIvAYqbTsJVwu8ZjFIPOX4rrtQyQm9ez+ovJ+LE7wHc1E9/K4yvPwnmDx7ib28z2J5vWGNQr010nq9jAzjuyOVKDzwdAw931GKvPToTb3Kl1q9HK85Pd5GEz143Qq9",
                "2fpjvZoagz0dzQi7nVVkPDiLO72uria9ayoYPX7CGry6VZo7U4HlPIP5kLzh3w88AJFNPRtjPrz9DtA7442DPH3oYT1Tocs8GVl6PCbg8DyFeI87SZ+vPOo/LD3/VR89lff8vBMIEz39rHq8zsQOvcWZhjxBsvO8JxQYvdzblDwt1QK9wOvSvLj/1bw40yC7Z6E8PNHmqjzyyg+9z9CBPJhcULzj/RY8ehAbPaGBdTwV2Tw69PbYvPJVNrwgW3Q8x/DHvG/aFr3o7Pk8ciXiu6pQ37zpdwu9gvAdvLVXpTwAjRE9kb1/PTNFWTxBnri8pHXxvMIq/brT/xW8ej75vKtw1Lw/ESa9bcPpvP2LBT16kFe8/EM8PQ7kp7xF5Qm9v2XWvGzeWrzmvkU9TVWwPfx5Wb2S4Lg8HIXDPPxtGT2zwiQ9nECaPAqyQbzLX1q71MC9udKhuLpxLSO82BF8u0iskDwvVos9VAKuvBJHRbyZOLo7S/KnvAbMJDypPcE8JdoXvILiIbrtk1w8TSNWu7jYvDwM32W8Pokhu5JwrrxjtfS8Q0aevFr/cT3Bcyo8ez65PZqmoTw91zo9vkVSPC6JrzxYxPe7b2wRvVghRL3J/so7+DMMvQ3Ir7yQEoM8FIr/PNSQhzwHpM68SlLFOt6PELygZHo9ULsCvHoYAr2FKRm8hurEvLaSED1vJp+84KR3PCaqljoK18+7H2qPvUWXKTyoueQ8r6rdvN4+LDwMO9A8SEPGu8VF9bopD6887ao5PB0cnjxwPeU7wzzVPB4mdj1J9B29XrMwPMW4ZDsS4E08eQZQvJbiqDyUb5u8dktUPCezJr1hw+K8zssEPcWvTjwuef+7Q52uvA5+KT1+OkO7rx5IPDFugDuj4gO9smWxvICeWDz5eim9GG6XO8u5tD0kiBq9V5yBPM08Gb3WoEW6WE6kPD+DZTzSW3E8fXYVvQp3Vbzi6GE8uZgsPSAnaD1FmT09TEPOPIJ+mbxeXZW82uyuPPD0nrv3vR28",
                "1ZxlvMfgDD1CCKE8yzDZvFD6gTwVnfA8l522PZfmtbwQoou8nvIvvag7KT3nZX08hoBYvPt3GT0L0H28vlhUPUZvr7wIDNO7+qGgPZpah7xcJhY9t/csvdlETD1/7pm8Miqgu8pUhbuLG5c9HDx4PDiyPDzPc368VeK5PErctrx/SdQ8OsqLPUlrkT0fhAG9HZH6PB1iybyg0n+7jAbEvG2+L71BLK48nPzjvGtiIL2/ZRQ96vjwvPLyi7zmaWQ97L3ru/6MbbxF4Ha82MUXPY2IBj1SfcQ84ODaPHC8cj1rm7o88jQKPQhipr3tKTM99jw1PKzDPzyz6IE7YMMjvZ4KGj36o1k8Jb7bu9esvbpu1PK8EzRtvKVzNbwZ0188qwgPvX4kp7wwquo8jRSfub9LSjwW7Ve9MPuLvMqmOb1PQIK8rFPfPFAdPz112ug9muSZvIKerTwkOV89IJ9OPaXcGz13PDS9FOoivR/n5LtVl0G8NysnvcVnOD2HTxs96JvgPDZ5mD1Adpq8nRk7PYeQNTrCAKk9k1AKvbcw2Lsf0A+9FTjJvEw47rsErL46lsfWO+ZVfrs08wm8LSFUPYAexrwqqgM9cpeDu3LDObtUnmC8WdEevb7CBbvoEii9TTxcPTtwwTzdgL87PZBtPHi2ajyyw1691ONKuj+ljDw21IS870tVvAjqEzwZmjG9SewLPQ0v9zzDLCe9ALlGPVYQjrxvXCG9ESMavXFtnjzNRVs8cE4oPeoaOjuz4Tk8ynOqPSWa2bzZH0G9OMe9PGZOwDxE0cu8uLmGPGDI5TzIv2M86nHZPONIi7xNU9U8xYXUPIHp6rxJdve8S2EAPenK3rwYgw+8NwEbPKnrITyjAww8G5tGvQ7JLDqi1KS7IxNGPCk/ILxpA6u26beivIIsqzzzLQu9rAqpvHwnCz2wiNk8FJrKvCmnxrvm6x49jlR2PeNqCbzbUgM8d9jFu9V22jzHlyw8sXQJPWzbiztgg1I9dU6LvMyC0TocoeY6",
                "xmT8PCdFlLqdEAg9qo7XPM8V8DsWH/I82q34PPtciLov6tG8wP70vPoAnLw6dhY7fW8SPQCRmTv7MaO72781PYdBHDwN+Qq9HEIEPTjcn7x2USq7rzP3u4ufXTzFns67OM+CO5TbNjw/CU47RLGCPAHi5roj9p499SIJPZBBBr3LtkO824KjvNkYjzzeJKA8XXYVPdwKHT0LLy494MOGvfMcArtREKK76tGUuy6afTw2gFU7rAIbPbIQ17yC/827baIivUbyGry6dDC8oJ1ovPT/wjuC9Si9wV/+vKw9pDsAG6C8XUC5u9QGr7qfSJo88tAPvHoy9Dz2aim7pwzZvPn65rzK2GC8Km6lvAJbSD0XasE8Wrwwu0b9/7sMama7N8/4ujA+AD1Sf9A865xNPYvca7lEiYy6sivxPJ/raLxQOM28EJJCPc1RMDyQRnQ78qCDvMLPQryK9re7s/9UvOLyMztAT1Y8vzIePKgYyLqXosO7BbZBPHeFMzx27jo7PW73u8+sx7ynWpc8ZM0GuaYoJL1+hSc8mvJrPEjvebyHPiK8SARjveHxbLuRviY9odARu/Mscr3SKD08azIsPIvF2bxSMJa8A5ovPR3Bjjwodr+8+MAGPFLC4bwzs/c8Az4ovHfoAL0OZks7l/2LvBy23Tu/0KS7DRjuO7fHAjwm0s281BI/vAeTQLzWy9e8m98SPUqok7y9Uqu8p8gdvPpaND31pza8d+VAPGsE27yiHH47Eh9DvGFblDz6mIg7ejCDu8HsWjxbFg67kAA3vc8vjTweRN08tAp9vFrShTrpzjA8ZoD0vDxSxDuWY0K7cpicPCZsgLxuAX+9nF1XvbF7zjyqav08OXinvIhZrTxx6Sm8/U2WPAkCKr2i1U88x22gvEecnbyvFL47YdrDPFm/ejwGqw88xstHPOAaMTwYEba8uxOqurOLgb0vP2S9d2pwPDYAhj3Y2Au9w4SvO8TCBz1+HDW99+lrvDu5xznxMAy9VzDaPD1qI7uZCsW8",
                "SMeSvP1PjbyEmPQ8aLIFvA7Vr7zWwRY83XpkPUbByTsN2Lq808LxvIH4+zy6VbW89TS8u2OD8zvi6rA8JG/+vAbvi7zmSwQ8A2jAvbhtlDz95b68DpiPu9rWRD1nXHe8T/ITvbMYgbyb1z47btRfPG0CF70R6wI8zRWvPFiJpL3pMWm8CH/DvKEyiTywr5E8B9muPDA+CbtuLD69rSIlvW5C+btAGY29qqa3uvPLXLxPU309/RjrPIhBebxVbco8H6MCvXsfAT1bWDI9AsrTvOJAU7zPILe8eI7TvL6YAbw7Jlq9XbzcvBLkrzv4vNO8dPGJPBBeETyTxdS9cG/QvGYvkrxHZk69DIqjvCs6T70NRxO9JbWSPUsLCT5afhm81GRvOw9/3Lzvina8W0uyPJHvY73WJnA8c+7xPLFZ4bpZ3dU7Hn2pvZ6OSr0uXwa9fadrPBt8tDzWxqe4N63GOmkhprwmKoG9vSAivWK3QT2X7xo9LyZZvOLLFD2P/iQ8v9b2vOYfD70Uwzm9hFSgPNDwH7w2UyG9ClOlPBxTnL2jsjo8Wg0DPXMTgLwiKga9yHR0PRf08jwYf6W7OREgPR/6RLy4TPw6AAcPvL/UNr1XFwg90xBZvNI4NLwWmrw8TnLrPCucezwI3g88YSVDvENEhDua2S+8OgXOPEmHAzw+0IQ9UX4yPASiQT0Incs8CAoNu735Gz20a3g8Y5ukvLtbZzwJqlA8AoNhvbbOM710K4m8HhL3u2KPEz2+Wa287cHxu4qyAD1dEKC6qaJQvHxeZLw1zIM8ZyVZvGktG72exzC7fKUsPA/9XDwn+jw7pf1Vuol8pToDxp888gBlvR1dq7vuQwI9icAYvCWdrzqs55680YwaPIfGSTwiOrg4oWSIPHEWCr2W9O08Pqy3vMWTVDy4e/67P+/wvMozmLzu6fe86FOFvDY5Qj052mG9xAXUPCvJjLw7/Wi9Jf+YPHshML2c6im9K6rCvP57C71zFx69FXPpu1rnVzz3t6k5",
                "FygOPQuXSL0amRk8PUqhvCo1H72xaaq8OmwYPKhwFr3BxnO8GhF2PRd0ZbwV5U08gNd2vE6ggTy85QU9JABZPcUTFT1S76I6Sz5CPPNLbzy62IG95nofOx3JHjyIt208oVXdvMep0Lxj10i9gJvzPBHAgbxPZuq8SVeIvFPzGzzy+em72hwbPCVBdTw790s827XfvPAtYD3nh047Qq1bPDJ5I72N4v28k4gXvaEV3rynhUy9+Xf3vE8wJ705b4Q9IxhLvAoEYLzngAC8ahQlPU0EprwBSTM9CQkivfVmCTxcFFu8CBnjO5jgTLwQ9OO5pyAEvQIIBj3fAZM8o0EfvEwnwjzrsrG8YhxqvXnMgz05cNC8+mUEvJB0OL2qVe07ei1GvUDLRbr/Wo485TYNO5/d77yE7/I8snU5vaRUq7wz+Xk9mYcSPYY5HL3ssQ699V1LvC5EaTqteXY7uUp+PWMGgD3fx+U8TYI2vd7AsrzAhjc8tEqlOcZsrbw6qZO81p8Su8LEtrxlp0k83/m2vEivUTxteyE9VDtWu3WwpL0yzbU8JFriOgy99Dx0E2w8YovsO5+dJb37owC9/v+KPMxbMbqFcJs7y528vG7qKD2tlo48F+umvBvhhTzFJ906P0kWPM7aLT0ZhDY9FT1bvezv9bwwVR87wvYGPUpvbbeiKyq8N7JevORR7jzT/1I9EhcXPV4dhDw6ABu8kDpRPChVLL3zsjA8iBUnvaOwurxDHQ09DhLku24j2j1gX4G8UrnOu0FTp73Ehw69863Bu+dUPTzamOi8tGrFOLqJLzzLvYe8OXq/vFYJtbuMHtQ8WOL5vHYCzryWfcq8fkogvQPFBjt0ZVw9P7AbvOmyZLyN5i492K+6PMyoHz3CrdA7UJ7dvB5Jd720sFG94B1fvGYGUzzNk3095TvuvMHVK7yVWbA79mwRPej1Pr1Jj4g8uvRGPDPW27uo05k7iM/mPMHrvrwpLlK8SIV2PHjul7vwS9o7JFDnOo+ciDxdJ5E7",
                "oDv7OwDtPzyHwGG82J0sPaCQTzwpjmg7AOvRO+vwjTzOjcG7kWp8vKgmnjvU6ug7qoS/u/eOYbu1YDE7XIElvNjzAj02Sr+7soESPUdUpDxkyi+6Qfk0u8+v5Lt0Na88umSxvJ/D8Lu/e7o7MHg8umJNFj2ci568T+fBO7B4ODwzMKY7MHOOu6xuGTwrqQ88QzSMPFDHCjkRqWe8+T0NPEmo4Dqor3M8FJBDu3ur1LklM1w8pBTHOzglEj20Xok8XS9KvHfUybo7gwk9yhtvvPotEbzCjy48ftm8O0mxGDxOFTA7OMlWOzqUr7mOVoi7qMeWutvz3jnZtB472TYLOREBkDy9lOI8jQ1SvGqORzwyqGY8YSDoONAxIj2w5MM7Z/sZPUpGh7xfkjc8AJeyPKrFmDwvEGO6qBihO6ion7xm0J670EYIPMCLNjsWwY+7irOdungnrLo6xAe8GkRPPdF/oDtXIN085ThgO6JBeDrz4wW7reb9u0tnEjpDSpM7JXpzO8htkTs/5z88KnvJu5dLSrtilJc6UlkKPAdmGTvWjUi8MeoHO69iSzphZaU6W1iqPLoNSbzos4C6xm0ZPU0DJbve/Iu7kFeyvM1DkLuHYKS7DJejPFhdPb7C8/K7rWq1PPKAvrv67Vy866O6u0b6Dr0RG+a8k56LvFT02Ly6buS8WAgfvCXsprwGl3q86UpivJZGNzwfne27whVxPHe5jjwYcd2889Dwu/rLlT0Nco88+JFtvEXzZDx82168x9b4vPUP+7vY71s8SkT6vHCvwbzE7RW9YXPpO3yRgrwuu+m7ZAyMPbM5+zurbhC7Fzk9vb02GTxH7Ma76EQNvVVfsjxBqUw8rZyMOn2j2bxKPlO8xZyLvKeln7wOmK88NcY+Ot/u5TxoeZs8aukbPAdoQ7u5X4C58moavKvH/bxA6DI91GiGO9L8IDwyymy6fRyJuwZL2DrxPMY8kZIyvME7UjtUlbS84vQRO+Df67vQRxq81PrxPPO5dT2Hmpm8",
                "z1AfPE3ZSz0YGQ48sDAbvDb8iDw7Cmc9Cm+cvKZqZL2dO8O8R5+FPDj23jziAYG8oiYHuzBwJbzYtEQ9IHyMPNRcBr10zs+60WYJvccAobx/iIY8Ffxcu1SV4DwQ/sm7aOvVPEaBz7pnfti651iTvBAPVzzvp1A8rt5VvOrWyDwAmJQ7ZO/pPC2BWbyftZM8AM3aO3jHeTyWkEQ8fiAZvA0hqbtSYym9h2zRO7DV4rv5bIg8pCiJvJXKZLxdAfE6vO4UPdPBITwcc7G8l3GqO8qwF73A4Gg9xGn+usVg6rwL+wA9k/5Cvdd9pTzQ9OK8bOU5vNVufLxUw588s3iSvIsPBry2wg8715woum9DvDr3ILO70TlXPK84nTsgJTC81T+Du5TiSLy9/i49dudau1qS7LyGd0M9gvoVPOSlaLxhDr67nSJQPUTz77wTwEq9GjQYvTaeibwNaSW9ovDoOwcM0zzuotO8sZlyvO5HrbxbdOY8KcIaPH1UkTxIKYi8m+CuO6URKD32wnm84FBPuzmJJrxfXFU8kCEJOz8CFr1K5P87/YIGvA5Ti7xLpGe9RoUQvD3aBbxTKQs87fVmPAvX7rwb7DA8xlpBPVxa5Ltwaeg8PZlMPNFoMz1G2+i8vCURvSItx7y5oQY9n+00vORKkjy9Ep68uEV8O6JNNj3Llpi7xspwu1JrlTsGuRi9ikcPvRANDLxLDG28eLwLPejmjzzo8fs61YmrPHm4Hr3x1IM7j9byvC0OIT20yDK7/ngvOzK9Cjx8Gmm8v372vNn3YDu/Vp88ZxCevFL2oLpWDms98poIvVZtqTzryqE9vaG3u4fUqjwpk9m8IZ6TPCMdFDyoe2273oD8vCihhrw7oYc9DWK5vDUwpbwONdq8TitSvArNWLwHvAc7e4EAPBGKNL0XmU47SOyBvKjE9TxDKWU9k9JivV58Bz2ycRI9XaQkvMZ52zyQr7U7BzmkPE2xdD3Afki9xQZEPRyDgjy73dq836O9vOEPmbw/utu7",
                "5Pg9PQM4xrreLpG8BYNePHgtyrwdQGk8giz5vORMnLyYWJE8HMn6O1qJlDzRrk488b6YPZjIFDzoWQw9B8blvKbuNTq71gY7QCVGvUZBGz0+DLk87QfXPA5jXb0z8d857QiYvG/DM7z41Ge8ckHYuN0K0Tvot6A8X0S2vD/46zsUchg8MWA1vWpWxDydngA86to8vThMLz0GzNC8Gjr9vCb6srzNAPE7fyeIPDH3V727eT87JCyTvGeE4rwYUl+9lm11vOqqO71x1bM8KEr9vCdF2bwPly69/dZYvGWZtzzGvQ+8q4EFPdIiuztw5wu6sK79vMXrgLwanTQ8VFxkvCMb2LyUcNq8kh0ovU4P7DtVPiw8XKA9O/6ARL34s+G7WeAJvNAmgzxL5Xg83RfDvOkykzxd4rc8jj/qO8vPZbwaBya8M18qPY/KVTzSizK98BITPIPPvbzEme+8BNaEvCRCQzxzoim9UbxavNA297xEu3k8BwAIvRyN0bzdroG8lmorvQQAn7y6bQI9x9KFvHx/DD1RTyY9crc1vJgKljytvgA9lc+kvA9GhbwZpBS8Zed0uuiNzryN2qK8//tcvbai/LpDDLS5lTvVvPVTMrydLLG5A3oGO7dflbxAoSg8+rLgO2JVDbxmGcI80TyPPHA5AzxDmL883XHsu+UsSz3y2QiPLokIj3ThB4/ODAmPOQIJj6pECI+cQQiP79oIj78XCQ+wiAePT4IHj5x2CA8sVQkPHoEHj5puCI80QQiPFPMHj+aZB48hxAePfmoJj+AMCI9MbgkP5tEIjz7MB493uwmPn3sJj4K9B4/7GwiPSwgJD/uWB4/1dQePqdYHj8HcCI8CTQmPvhMIj7bgCI+gBAiP3NUIjx6tCI8+KAkPPuwHj+svB4/lRwmP+n0Hj5GLCI/dNAmP6BEJjwJUBo8vXQiPUtkFj64jCY89ygePF5sJjwq8BY+yEgmPCKoGj3I9CY8hzwiPAXkIj06QBo+xugiPL+0HjzzPCA/eWAmP",
                "muIHj/9eCI+kgAeP3tsHj1PgB4+ZRQiPMngIjw2XCY8CnQiP9AIIDw+NCI9+qQWPl3YIDxCYCI/mcAmPLAQJjxXtBo8QEwiPJ1AIjy/ZBw9GrgiPcp0Ij2wDCI9rVQgP7PkGj2JZB4/kAgkPGe8Ij+POCI9sYQmP7OIHj6qSCI9PyQaPeHYJj0tfCY8eMAiPkWYHj71xB4+UvwgPpREIjxoqB4+ExQaPJ9YIj7O4CI8bWwiP4GcIj3s3CI+40QgP8osJj6skB4/6KQiPZPsIjxA1CI8pkgePQhgHDy1aCI/hsAmP3eoHj6rqCA9fIwiPyWgJj9EzCI8z6wePJtEIj50rCI8GCQmPuc1VvB0B5LuT1r+7g2sEPRoMR73ml3M9RAjIu47Z+DxHiN081sk6vJYk+rtkyxW8ENoqPclHoLvFfuw8EPQ5vfFCOL3fZrg8RzUzuS2QwDuMf4Y7KwqaPBtEC7sDijA9RZmoOzHxobxta+O8DByivM+OK73ULhe7g3idO05DJDs+26Y7naNTvSGLDDwlQYS8850KPMWKDr3Ljc48uv1jPJfOyDz8oT29V2FcPO+FNr2oNG68S7Q8PB1TLz3B7sY7GArTuxpFHz3QhCS87xhGvCC97zy6XIa8nsZRPVRanzz7ccI8FZAwPEp8orxITaC8KKG0PAUOdj1K7L680AlZO/Qk27yBACu92JZvvZF/lTwp6a28n6CmvKWAsDyp/F49ekJDvSoEfrwBxME77GssvEW9WTxl7Dg85Vz5vBjo7Dw80oM87b8sPaAUmjy/0ri8xaWYPDRb+7sk4dq7/w7bu+25/bzELtM8UjFEvOe4BDw18W48O17HvLf+ZT0Q/0g78BshPQDblztgW+W689jOvBAE8Ly4TNe8N5A+vDjjhjyVbR06NEmiPNzEdr0UnwA9FzvFPDH5Ir0YT1M6FSaLvSZUS7z8dnc8qNakumCngrwIclo823mSPNZu5jx/ixQ9BnGQvIrAzLqgJCQ9UWCru5TqgrvCruC7",
                "LCd5PJfP7Dsd2Mq7fBN1vJCF1TuQGIS9oiyCvOnZIL3TTxi9ZD2aO1VyBL0vdW29ynYKPABILr0ouAK8wu8APb4KjbxvFSi88cYtvfbRPbvIsUi8ZgyYPNI1j7wSVju9dPyBvRKwjr3d1Va9ZaFHPBVgwrxUHTY7yqksPRSTGz36HBk8aWHbPMp9wryMZAm9ucBGvXS6gj3c4zG71N5vvI9Hk7pnfwA9yWZUvSl2+zxszi4999qAvG7tWjwRcyY8oisBPQdN3jyQYEk9G0BMPeyN5byadiq9VE4tvW8fjbwf1NA8WpY4PBuuTDx0UgK9b6z6u5YHrTz/Yfs8kBf2PNjOmLvWSoY7ZPfevLgmdDwm/Tc9hHgePcuDkbyzq4q74781vdqzZbyUeD67dAGGPNyR07yg67g7QRogPICyNT3wGvg7EWBIvXPumTxCuL66CsTzPGzjlbxgAfs7XTlKPLz0PLxbE1A8q180uydl7bxvkeW73qvbO/JkAr224FI7vKupPXt6JTzvTMi8NVAqPGfMIz3JR+i7siA+uu9qsTwk1wC8CHsQveUSmTuyTtI7+SM8PJ2Oqjt1IVA7j29MvFijr7y7oAm8w9FQvH8yurthGce72E9Cun9XhDxG90I76/sDvRTMPzopxYe87IVAPK+FxLzm6YO98XraO2qvN72mRYY85dzfvABaRryyIxi8MvssvABA4b1G+Bc8NukhPflkOjz7JAmP2YoID/UvCY/CCwgPYwIJD7jXCI8p7QiPxwsJj2ybCI+vmAiPCnMJD4dqCY8gEwmP0w8Jj2fbB49IEQgPsdYHj1dFCI/CtAgPMsMIjzXGB48+PgmPxb0Jj9RECA/PvAePlwYIj45GCY/D/wiPsT0Jj5zvB496KAiP+YUHj/kACY+SKQiP/mwJjw4oCI/IkAiPWVYJD9mCCI+fmQePUhgJD2CfB4+yFgiPopUHj2obCI/SHQkPu5kHj0KDCI+OtgiPKGEIj9g0CY86zweP9zAIjwBcCQ+oWgiP",
                "oDsIj9e4B4+4fwmPi4oJD8EqCY8nZwgPGNAIj48yCI897giPHbcIj/xzCI8jZgmP9BEIj0H3B4+QdAmPW0UJj0B6CI+eMAmPLfsJD6Z+Bw88tQiP2ckHj/5VCI/e2giPRFcIj1s1B48F1AePamEJj93ZCY9idQgPqIwID1ERCY/magkP4nIIj3ytB4/rQQiPJzQIj2BLCI+mKQiPmRgJjyroB4+b1geP3cAIjwO7B4+HlQmPwS4JjxcVCY/YSQmPa80ID4MdCQ/KPQmPfG4Ij+UeCI+n2wePoK8HD8pRCY+5XgiPu0MJjxioB48aQQgPk78DjziUCA/UpQgPEYcID/wMCI/U5QiPytIIjwiAB48c1AiPuq4Hj/GZCQ8A9QiPKzAID88GCY+a4wePU0qlvcuJizwzDDE8OQIqPL8jqDyq9Sy8WNoXOV1yhjpBJVo9XSeZPV+n3Lybor47HxhwPaWQujqSMHK8r9VnPBFFwTux0c284BR1vC2rsbxRhVI7TcmpO2q8JzzXD266p+8KPcklCr0meiM9r10FPelsSLy4b/88cI1cvEGxXDw9De450OgdvdpI8LzsUDE8kVnQvLoMA71ySrY8hHWjuqzDRzy3qro8acknvcgFkLrlv408xp4zPK5EDDzGf3+8VvjCuwQMfD0znMu7WmFLO2Ul0DwHgLW7G03mvL6cvjz3DlS8nOwKPe7stju34ZW8x3eSvElpFb0eHP+74lycu2JGnLyluGW8f+TwPB3aubzd28W8i0ZVvLwiSb0+ufc6qbeFPVI+orx8sBM84hcuvBPjaDw/b3K8uAIeu+4scbxwhc88Nog2vEUHyTwJN5a7ZyItPRCDrrxmOY885N4SvDQTkjpKXwK8RqEMvZelhjwOqSi91UimvKbkFrxL7us6QkMiPHFoBjxJiXA9lG4WvS3tBb3WVJ28cFeGvAM8rzyiDGe8bd46PHpv6zzRwQO7dUO8PPDTKT1dLEw7WFmsvKIui7vIDag9Qh0NvQC+uDxa/oA6",
                "fm8APUHEWD3nMZ68nbN2vA3okzyccIu8d2QYPd3KgjxgYk88dWHHPADUarzdmyy70gp3u9IIAr3Op8O9mWgIjw0NCI/EXAiPu1wHj8kaCY9yQwiPHukGj6ymBo8VaAmPu+oGj4OhB4/GGwmPmgsID99SBw8pGwiPrV8HjydyB49CygiPmVEJj9KFCI/8lgeP0qoHj4SVCI/XvgePg40IjxtkCY8tcQiPrB0Ij4ZfCY82/gePOCcIjzvkCI9gwAiPo3YHjzV6CI9XCgiPAeMHj1LoB49zvQePskQIj0mzB4+T/wiP9egIj8GjB4+luwePxxIIjxvMCI9RKgiPLzwJj+o8B4/+DgePAcwHj6WwCI9GKwiPoC8JDxTKB4+/iQmPXgMJjyNrCI+d6AePdTMJj2AMCI+tewiPLK0Ij88BCI8IVAiPg2MJj43EB48StgiPdd4Ij9lvBo/vqQePmr4Ij4vcB4/yYwiPwPsIj00yCI9HxgeP9+YHjykUCY+FrQgPvaMIj7ZEB49OEQmPf1oHj3FHB4/glwePuVAJjwI3CI+1yQePcyMIj5ppB4/YHgmPLgMJjy7+B4+IIQiP6R4Hj4TnCI99ggePYR8IjxRUB4/ndAePFwcJj9+ECI9AjgePH9sHjyQ5CI9crwePo9gHjxPCCI+PaQiPqLMIj1o1CI/F6giPGJAHjwYgCI/4lwiPjJQHj85pB49CJQiP9DcIjzJxB49F1wePjGIHjzFuB4/VNQgPrAgIj4YfCI+zsAePcu4Ij+MDK7uK1lI9jQRwO8BERr0t6ee86dhEPJIEzbyDw4m8q06hvMxsXr3QveQ7sFutPKy147s3dB88acFEPOfmwDyrMNi8YXgkvOyFGT0Sljq9/ytiPXo2kbyE4n27YaObvPqXNT1dcfW8MJsSu/Ua3bs/6B07FbOoPL5izbyYlgS86ylpPFhiHDy9ap48ZoI2u4m7Fz1KfP4789wAvO8p9znTm6U7XztuvX3qxL1WJYy8FXpcPClNtzvBj5c8",
                "8T6fvI6hrLzJfge9Qivxu3t/V72uMwA8CucLvOGCEj1upKq8V/DwPFRcFb375Yi87/g4PaG7eD0hrBc9Oh1BvMWovrugUtG87qcAvHdvPLym3PW7u0d2vIHXRb1QUB49wyU9vdMcjbzR35s8+6gSvRiRWjpWcKG8mc4VPbOXgz1tFba86RIFvKAPgrz4xJk8x7EUPc3Dv7zVqh28Qje6Oij8ijroDZ684rTDvPCnPrynCKG7OF6vO6upyrxt8kc8HMGgOu3mYbtqO7G6TdVcPK6omzp+W2E9zP1bPCCKEb1U/qI7sR/CvHv0Nb2f0H69hjKCPKJPh7x1hAG8FvW7PSNPKD3Fob286qrOvPxTpTre4eO67L43uzozsLt+oAg9yKUZPM55X73XC189SRsYvXreoLxe4gg9dBz+vIxVj7z1Goi80uhPPBIO4LuqaJs9qNhYveD+Hruti4k7T/mQvD+/k7zKgws8yHGXvcLApLxD+bk8JWqmPHzf0DvHv3u9v/YIPIa9EDueMok8DhjZPPC9P7zxBTA9odaGO1OVkL0Upda7UleSvDQdujwob+w8+SYBvF0u+buUjem4F/uuvIm9ujl82e+8axi/vCV+HDsbL5S9HYAjPb8CdbttPoE8kUmEPCG4K710ro88eOeNvJD8kb0vdJk7vUUnvYbwFbvmYdO7KCXCvGrdLL3CdRi89FAbuhyPdT0r0lu8+FQkvZysnTvyX+u8e5AHPeXn8bwmues8TeLovL0lWDuY3m09Yw1TvJfv57yxjos80lYFPYUSubudbQK99cPnvDrlgbxjJ0S82KoHvX0wybu8M8o8rOx/PB9ter0rTju9/9skvfpUsLycy8a8kpkqPClj8DzClpe8BWq9O8oBg71zk8o8rpacvQH4fjz/ENo7JRzavCR0Zj2PHlc8ce2sPF2Mo7v7Ta48aGtBvYxeGrw+9uS88vnrvLKx+rwGEZ29rhjgOxXTrzzer1y9bWh5u2Czfr0ereE74/DlPLlNdjvvPdw8",
                "KPHRPG6+E7zdOaW8k0GDvA5nbTw5Oi29ZoSJPPsC37yWmmI8JgHTPGiXsbq/VFq9ltbWPHQpBjxzIS09UUvVvPOQ5ruKXQe8IjLavGi2xDy+Fhs9N5EBOQ0GyTzf8zg9YLGGve5bx7qnkkC8K/CTPEc0fLzdz+w8GQTlu+OlMb16ZUA9le1KvJHWYDwcd6c8SdgBvZ27ND3eWKI7qWFFvTsfGT3hvcU7TRAGPf+R67wLwmu848gIPC927ryRgbA63wW1OtkWoTxeQPI83JIoOlCprT1HUBg87vHtPJojH7yU0Wy9bbqCvEYpULxqDMs8W5cvvfL9Ar1YXi29hV5YuoY5DT3qZ3c5ooBXvFkRQb1x4EE62OC/O49xRbsFaf28d7olveTBzrpgWbA8IL93vVz0Qr28LyC9jS6KvHoIEjqjDhO8+/o4PSGc+7uUGtS5CD7HPFIDEr2dkQK9H/iPu+j7ijyrIdg9J/4Dvei6orvS6Qi9vpAKOyphrTzmguK8u/AWvO7CzjxRfkQ9+0ZQO+eqHj0Y42u9jDzHvNSmbz1YIaQ88Lqsu5BN2jsurRW9tHyLPB/JYDzKt627mHAPPOswOLygt6a85zdZPfr5Fz2BBTm82a1/vLCPlbso50E7ZESXvGT6hD1Y2Cw9h/HVuXqJNLwKtGI8qT/rO8OF5Lx8Z6S8nrznPM/qNbxqVLE72EFvPGgt7Dw2WlU9CC9evPa637uNunC9zth8PSrtM7y+pUk5EwNxvX/q/TuSE6Q9dEH2vJOhEz36I5O9NWXYPCNJt7w0QgI9DuhNPfuXXb23ea68XgP2O/AmS71nHi69yS6kPOOSVDwpqhA8c1cVPKjnRr06WKs7ZuJ5vEX1qjq5iRg9nYIAvFANND1L4oa7HUV8PQmqojxi3fQ8lPnZO7c69Lz+/ss8oG1jPHarCj32OLC8hmIhvJlD4Tx2SWe7Kzc2PDyuMb09Dbs7JFRPO6vrgD1Z7ZU8JWuLPNTw2zsosiY9Rv+fPD7QIryXPS+9",
                "MgpZvHhWh7zMIZg94z1lPEa07DyG54K8SnIDPfM+ozyLN+Q8CF3LvINARjxi1A49JPUqPf7p3Txg1S69RmH0O+c94TxQItQ8EAFGPWHdET131Ac8Mcn8PLcUFb2bPAu9Lnmku7XUKj22I/Q7PzPVu0I5fz031yu91WBovGOib7xlbOC8ppRTPEk6ljzNFCe8hBZjPeJkzDzuy3y8ktaKPKMHlbwgdFG947noOfqAnTz/wYW8NBw0vHif1zwUuAU8prCXPQ2YRb029yM7AeYvvfSUCjsc8mw8rKEJvccIa7sV4QC7U6HkOEuod7xOEkg7k+wdvPZ86ryP2T+9LzpPPDCGtjwjjUy8Nr7jvPn/Or1Q2KA8wRsXvfFbELzuIdG88MCaPCHRKz2liiq94IFXvccNrjs98h49TKqvvB/G/7xHK/O7wacBPCj5Lj1EWnM93diDuzQbVj33wpq8NNwzPaoLiDyK6dA7oYEivcC8SDyEpFY8aTwfvT9igLs/+2y8m9acPRK4jD3cox29uC+0u9Lv1ryPnCY8+3oDvCJZCby+4dY8LQ9XPBKdBDwfXoU7qIUVvbER+zuByOA8imAwPNQgZjw7RV27gX/zPEctQLyoW7i8jkEnvJB5Kzzbk7W83I7TPPEQCztP5Rq88rO/PEeJL7xPs6u9sXW7vNVydz3WrCq9WlqiPBrSTT2bw708l+SSvLk8GLzbmS09gqeJvKmKPL0JTBO8nR0XvKELQz0MTtc8756Cu4jRSb06GIA8cHq8O7VwE7yfpuG7s24hPSmiATo4Bks86Y2LO0hYir2KX6q8VFRUPOrnIb0HfrA8Jy5DPJtZmjx7ZDc8UalxPUG5ADvYTD09pbKou880WDzCrRu9z3+RO5KBNzze25E9gk+lPFlIMT1ikfu8sWdnvYXyFLwYD/a8vEUFO22/KT2UyEw9ExSUvGfOp7zFGfU7syrGOyb9mj0Ymey63TAOu5iLqrvzIvO8yDnFPKlpaLu1rjK98IH2u7QmFz2LrQa9",
                "w1JjPS6fG73PjbK83qr6O/o/ibz5TgA9oe0FPCtPk7vO9gq9W478vCR3orw1W3K73BA0vWnfAzyoROo7XqDTPNxEHj1RKTe9zmGNun0cmjyouh092e/0vJ10Kb1jf+I7lESbPO2JFz0n/HE9mnWfvLeRCD0OuSM9znlVPFEiDL1ohBi7RtbDvLkZCL1zVXc7bkzlvEWa8Ly8psY6HYuzPBMpBD10SfE8OxP+PHffFD2BpvC8FjhYvHBxGjzrKy49z4C+vLdYYzzSDLS8x3GVO9QuUjzpm1M6O++aOhufHL1M+fI8rMxLPTS1FjyhyJ08/L6nPAsOZr1fYbW83Lc2vOAj5zxRnJi8Lrg5vaQEjzwRFBo8sOhfPQ+U5zxYBKE8r8oevX88Pb0kEWk8oAZPPZPetzxu9hk87EYOvH5jgj0QKDY8DiJGPSVWvLvX8R+9YR3lPIqZNzyAvdy8M8N3Oj1Uq7xfi0Y9+dHqPBniajypmRE9BgShvAO8yDzJm8C8abfhunoq8Dzwbjm96ohrvIu9hrwrNho9OBZ9PD7sQTwGXzO8Z4CPOxfSmbz5vHy8nis6PPPB77wr4HM8fBaLPRH8Jrz+EB48HUaAvBvpuLuiJhM9gIvYvEhdPjya37S8dgG9vIpwFjzowAW9nUlJPVCiFD1QjYG84LtfvEQnobtZ3Dk9XwLkurrQgbx2CES8TY0cPYd9Aj2Nl3u8vfajPL1dtzxzmMY6x6BXPPJtEj17ZpQ9Ai7jPBmiFrx+8N46S/5tvAde4TlpMCE8z0hdvDnSQL3p72m8CLBWvFgrQr1wuhU96AJAPLY+Lb17DfE8+dMpOmcNHjuhmzm8C/GUPOG+MD30T2Y8nUwyuekUB70ajAmPfWQHj6RgCY/K7AiPFdgIj+oaCI9hsgiP1VQJj5pKCY8OaQmPdhIJj2tiB4/dggkPfkAJj4yyCI8tFAiPWpcHjzN/B487/AiPCmQIj7KCB49F0QiP4B8Ij1gtCQ/pmwePRzgJD2RtCI9Z8QiP",
                "JS4Jj1ReCY9aJwiPZHgIj1C4CI9qAgiPPyUJj6p6B4/dSgmPp20Jjx/0CA+02QiPqhIJj5HcB49QAAiPWX0ID6kDCA+auwePFqsIj8Q+CI9JFgiP2XUIj3NqCY+HjgmP2CwIj6FUCQ+kHQiPLOwHD1FeCY/yJAiP6S0JD1cnCI8B8QgPnmQIjz6zCI9+2wiP6LMIj9rZB48edgmP+0AJDyzXB4+akQkP+k8Ij1DvCI9j3QiPL0kIj+n2CI/+9QePrOEIj7OoCA+qegmPuzoJjy+kBw8x2gePkN8Hj1XJCI8PGAmPH+UIj+vdB49b/weP+mUIj5gxCY/SLgiP8QUID6v1CI+98AePcaEID0euCI/FcQePYXAJjwjNCI/8/QePtaYIj61vCA+/6QiP66oHj7mMCA8B+AiPAqQJj3I3CI/wWwmP35wIj3OcCA8kWAiPBfMHj7nFCI96SgmPuYUIj54NCI+EIgmPcEkIj3fyCI+ywQcPCRgJj80HCI+N0QiP5CkIj+XvCI+pYQmP7DIJjxkSCA91NAiPSTHevNFGCY/7VAiP4BoJj+DZCI8VbwiPOAQIj6H+B49+SAmPzH8JjzNkCY+CNwmPXf8Ij9eMB48iTgeP8+UID4w4CI/vKQiPErAHjxMrCY85CwiPHHUJj3o6CA8jLwiPVsoHj0OlCQ/r0gmPbl8JDxSzB48f0QePR/IHjxkuCI/WNgiPwvIIj2hRCY9b0wePEzcIj/9dCQ/a6wiPRpMHj7vJCI/OfQiPtKgIjxm0B4+HSggPD80Ij979B49CxQiPF1sJjyTxCI8MiwePP5IJj1LGB49fKAgPBS0Jj4rrCI8h2AaP5fQHj3+lCY9E0giP+JkHj3w3CY9QMwiPEVYIj53nB4/DhQmPAtEIjwiBCY8w+wePA8IJj5AaCI+VKgmPNqsIj167CI8K4giP8U0Jj0wMCI/91QcP4WcIj0PcCQ8IXgiPMnoIj0BJCY+eCwmPIi8Jj2xWCY+hFwiPoQYID/OUB48+wwmP",
                "QDMJjxrlB49njwmPYAsIj2voCI8SwAiPpa0Ij1n8B4+1KQmPcKoID+GhB494bQmPkoYHj4R6CY+qVgmPDQsKj5rvCI9o8gePXaIIj48eCA9hmwePn5kHj1npBw9TNgiPanQID6ksCI/66gePiAMIjzYUCY9mzAePIG8JjzFQCA/7qwePEiQIj5cUCY9q7AeP//cHj9clCY9f2giPEgEJj325B49qE8W7AdOoO9AzirwqAEu945rnPDKMtrx6hOQ880Bluy/yUb3wkt88L8skO2wvWDx3Fxw9khWWvGv52Lwu0W87arqIPEXG1LzdWDG9e7MyvNpZoLyGCqy60bqWO7xQCLuPXOo72sq5vJTqYD3shrs6aSR9uwsKwjs/Lf+80NExPVAJTr1E29A88RtvPBz/njynbKo8Iy8GvXD2nryMFTg84w0VO9sIEDxVge683sYWPZQwAzzwmyY8DTVFvIqKkLwH/Ok7bSWWvOPZCbztGJm8R9MRvRifU7sIHJk8hSJUPKPFhLpRRU29q3N3O5g3xjwemhC8MrG4Ox1vs7xU8Iy9gAeavC8VmbzZv828DVrSvOmLujwl8lO84MTKu0v1JLrpGYw8x0qLPGNIK7yP38Q6mOBavAOHGbx09cG7M8lIuinv0Dyg6DG8Wcr7u0nb2btViOm7KT0jPcWdtbxDjh+7DNfoPPRQLb2HDqQ8kpm7PNbj27wk8xU8A7klvCeRvDsKtIm807WNvP/gJjwanC29MxUzPJ8cjTz5xhA8OINKPSrHgbzBTA29NRIEvf2bjzwBYaO63PCZPDeX1bwnVsG8qBJ3uwLJkDsChSy7XEUGPWys1DzalQ+76pq3OfM8Z7v73zk9LruyPLZFPDnPIAi7zDIJPRJyMb0h6DI77VqMvNlUVLzI93m8Elnfuwl/QLxdgwC8YcmpOvTepzzLZFi93R6qPEFI+DwHbJC85BfxO0V7wTsILKC8RzR3vPZ2Az1nBxs8kofnPC1DTT0d8ko8G3yoPMMDFTxk1oY7",
                "yQtdvFdJ+7yMVqS8tf8MPF3WDb2Eqns6h26nPE8csTyyG4Q77jy7Oa0QCTtUFiY8OzOfvH4gY7sRwFe8zsV8vCIbOrwJLkc9wRVFPcxFLTtyMEk9ZfArvJAE+TuU/M68VtjXu/yHVj0M0u28ngdoOyB3B7x3vyG9g+ilvE4aGD1yuH+8EE8JvTinyrtP5la9MIQKPXirE72MQci8n5XkPABocrxSpOO8oFwvOuP4lLx/mgw9av56OzT+fjtnz3+8Z0/jvK3ii7wP5TC9uQlcPWqpaTykrfQ8R1YgvFyn9zudz4S7vbqdPNogaDoU7kU9Z3+evMFcortu9YO9ZRxJPCg3Ijvm/Um80B9pvdhCkTsYe5u7aN+XPI85LL35pOC8p/JnvPjH0rqyaEo8AHoAu8bIrbk4BM27cWMKuzgau7xtasm8Zho9OlwXiDzHIsq8kFNtvG2Cbbz/CsG8gEp7vO3Z87wTPuG792ubuptPOD3QBVq8AliEOiJUVry4xn88Cq/2vBQDJLqDnC28So5EvBN8lz0cL+C8XgqJvFFX1jx4ZEu9ileVvOECgTyhxgk8B0EivBmmcjwAxv28SUSzPBl3CA9sagmPTDEIj8u9CA/XnwePBn0Hj/UjCQ9xYwmPrEwIj3SqCI+etwePjisJD8CkCQ846gePtoMIj3tgCQ+MsAePpXcIj2CkCQ+TbwgPKAYJj7FZCI8SjwmPt8cHj7mlCI8wagmPIIQHjxyoCA/ZOQkP8CAIjy7zCA80iwmPPz8Ij/BFCY9L3AiP3YgHj9zHB49A7geP/1IIjzKkBw94WgmPuIkJj3j4Bw+D8wePgQgIjyHBB4+oFwiPAqEJDxIzCI/+3wiPunwJj5P+CY9lmgePQGAJD5csCI+VsAeP2ugHD3DiCI+MygcP7WcIjzpgCI+BuwiPzzMJj/J8CY/gFggPcogIj0b5CI/urwePTu4Ij5TFCI+a/QiPCasHj2+sCI9SsgePe4AID8hICI/59QiPgVwJj6wCCI/ygAmP",
                "pg4Jj5pOCY871QiPEmIJj+9BCA+H6QePYdAIj3O6CI9vfwmP4cYIj2J9CI+fZwiPYxwJjzrNCI8JgwiP3U4IjzmyCI8SPgiPXmQIj7jVCA95DgmP2qgIj3teCI/AUQgPjEoID7cUCY/0NAiPfo8JjwPZB485yAiPjwQJj5zeCI/nvAiPX70Hj9F8CI/oTAiP6koJD7gaB49E4giPJ6MIj+K+CI9ShAePLVUHj+l1CY/5cgiPvcwID0LoB4+Z/geP+boIjwJYCQ/iF4q8e2X0vO+vZLxtavG7t+v4O9eVXL1Gvsq7G9Zwu0OgWT15rQU9mQYVPTqtC7zh3Vc9mdfQPN4Qdzwb7dK8I+MNvWv0hDxuoTW8+CwDPneMobzqNpQ8LBTMPPn6RLz3cxC8FDOVvOrUXT1+f8y8A3FEPK1+6zyuOLS8hgkyPTIAcz1LS9y8vtEqPdMf2buW45u7mMk8vc1mFr39gmW9lGzavO4OgLwaLNQ8sAROvU9TtDsku0q9qAyavaRIzLzHI6q7acCMvFUejbyoHBE8QgYavDnue72I87c8r8pTPKb5qrxcesK8PCU9vCwWQj3gE2K8YIWzvGCnWLs1poc94N0uvSiNALxt6MI90TlkPea7abs9MuG8SxRhveD2bb3tNHI9fptOvI/auD2QpOu8wGkVvKnU9zwX+xE8KaljvGW+zjydQ4y9mG9LvRVKM73r14K9voNTvOpOJ70vMTK8LKdLPc+wy7wU9JC8l5BEPSMusT3TsPu8YDicvLyez7yJXRS9tNgavHi8C72ZiBY9LtDcPbz13jyT6Dc8lbnGPUXCmLw0Ad46KIakvWL+Hz2/nCi9OP3GOx2k+Lyk79O8iKOCvW5xH7yh2Qi95hRdvN0yI7xLgU69Df2avMcaSb3IlT89XBN1PXRDJzzHAqu8cz/UvOD4xDu+KTQ8DJSHPB8J2LzRsqO9tYYaPZCphTxg/8A7c1SOPfK/KjzS//I8zoa/PEjJxLvKwzc9VpqouvVpm72JQog6",
                "FnOivKlqer09xvM7SlFVOrTxDb1RtkI7ypQXvVT7tjykud67nmR/vOhznjxhABI8350tOXQFerzU/xc9h5AYO4k2bb3Di4G8MCsAPHm/zrwMeqY5NowXvTFHgj0sygW7ZJDSPOGa8zsro9a8dutUPJEa0rse6ic8DQ/CvO/L5Tzzt2w8gYSHvNOnabsANQk9l1O+vOsBZzx39EE76NOFPDR+ILwDcSo9niSiPBOQ/zutaX29z9ajPSe0gL01Ygm8aKBavd3KoDs+Sr68NXjWO5X9HL2JF6e82bCIOm3nXTzGgtO6VitQvALRZT1E9Hu8SXewPBd887shGn48T8yVPWRjcjy17l683dYGvQ8hibw/JgG8o0APPDkETLzqdGC8qq/tuvFJ2boZqLs8W2q8uv0hlzzlIQA865jhO9abeLyTMni8zQXMu0YbFLweXF09TvNBvfPMyTvd74s7o3ojvIClJT0YRAG9rqCGPICQwLyQa3G9RlQhuye1yDyJ9iM9OEmcvAA12DxLu0+8UvG8vCiftryKxCg8mYb1PLiSzDzJrPi7YjyPO1uYArxKKoO9+GHYu88B8Lygb828ksa5u7uV97xzGdu8SOHZPDCZR7wirrG8+dxPPTNsNjshptG8Xc74O9B/gLyGBtk7Ps5fPJ6EtzzDeZU7GlgiO99/v7t7xpG8p5sNvdk+NTxOiKw8LSonPEYlUjyJshS8SywMvTao9rvklZy7NVnZvAapGjzqo7O86uDxvKiHNz2PsAu8R74+u1gmOjmETY+6L0AdvWC5Ej1pHRG9Obk0O6hk/bwN+/e8bw1SO+J23jzQhTq85+W2PO/X6rxyBc49KsqxOzhyO7w5Ilo98ViEuzMrBbwEUja98JcEvEdRObuRiKa8CyIyvObkELxilKO84lf0vK4kRrxir1y7d7rTPPtRZrtHRY27HXRLvBcA6buAAPO80kfSvJknPTq0RSa8UlJdPSvDLTysXSY9QAikPO5e57oUpCQ9gqmlPBCPDb2tMZM7",
                "wLJvvQnwLTxAHpc8EQ0JPUb9gLlaaSE8QHcfvTnEkLt04O28DGpLvKRB5Lzrutc8b6cIvckKgbzyC7G8nDBTvGTomztgiAi8xO33vDJfBr0OR1u9uABfvI0YSDw71hM9JHFQPI5dtrzGuFM8DA6JOoua+rwpYq06OBecusAJhjpjLqo81QgRPfoPr7wfkyU8Q178vN7mCj3tbAA7EhEFvUto3DwUMFi9gIu+vBt72jxEnF28NW4/vDXIoDmJSuk8xZAdPQ5N+bwS9C68OqjGPIQh6LyNUUe8a9ycPBoErLuPrva8U4aAvIjHLTwIhim8VHXaPEBvBj1NlbA759r7PEOM3Lw3OrC8v28vvPaWGL1sec28jL1jvGBND71AVUC9D6AGvaRPAjyRA9G6RDGjPMXNrr1RgwY9fjYwPNqOSL0em18630SKuxr68TwD/oc9lp7/PM+jTb0yNe+8Fb//O53BuLxTcCe8XGvPu44tIz2U82W8cwU9PG/WMTz2CwS84BPGvQycIrxfVQ69iGkivLE3Aj0/j1a9rdu8PNrYCzyiVfa7SuqXPQq/4LzxHK28cztkvYYHMr0Yc0a87HvavNzNPTvqFQU9tp+IPWjzHT1FPaI9o2QLvdDlHz1J6vy8qboMPEE5ST1KzAK9ltQLvUhGjLzPe0a9EZBHPCJthLtrDT+8vTOVPMBAk7zl+Ak8zxOivJnBwjzMwdS7LoUvvba01Txz85Q80JpRvIKd3buTu7e8GWOovHmPwDyAwka9vSl7PNfrFb1nC4W85FABPfQj/7zm/bc8Bio5vBlvIb0PmQc9XTlwvSWOErwoocU8IGqbvM6JST1veFy85W1UvahetTy9i5A8pb+QvD3htbzVLR87RbYAvXO3Cj1QNSO9ig+Yu5yew7zZpQC9PEa7vKmMQrv5Ja28zIUQvfKMpTyz0v88wqzgu+iTMrzF2O68VIpJvenYi7vUAC87LHgtvddjGjx3sR+92Y2lPXe3/zzXWYs88C3yu28bYj3mYgkP",
                "JKoIj6tdB49ywwiPT3kJj3b8B4/8PAmPgFcID0/NCI8sCwiPyXAJj7BNCQ99aQmPUsIHjzIMCI+OPgmPZPAHjyikCQ9LqAiPI3QJDyY0CY9U1QeP8YsIj2ndCI8J+AePYlEIj1R5B49QrQcPiv4Ij/qZB4/aTwiP/s0Ij8/uCI8M4wiPlqkHD2l1Bw+OPQmP2kQIjy10CI8sCQmPsA4Ij55eCY/pzQmPOLMIDyh6CI9CnAiPGA8JjwrJCA9H8wePdtEHjyo6CY9gnQePDNoJjwP1B49uOAePO48GD0viCI8IBgmPofcHD2nfBw9mhAiPA50Ij4cLCY8UxwiP5zAIDyzGB4/c3giPAL4HDx4NCI9u4wiPuFgID0b+CI9YWQeP3CgIj7pdCI+XFAkPLPUIj3D0B49SWgmPx4IJj8rHBw+TRgiPWKcID+KLCI8vPAmPJBoJj4MQCI+migiPTcIHj971CA+PYQePtZsHjxEqCA9ICQiPupoIj9F2CI8jtgePOUIHj1ZxCI+6hggPzjkIjyZDCI+bvweP1icIjyPwB49QmggP6b0HD8F0CI/qQQiPfrQHD3EbCY95BgiPJ7UID7L/B48VogePATEID7wpCI/mLAgP8u8HjyM0CI9MZAiP3qIIj4k3CA/XLwiPvCMIj8HICI/QCQmPio0Hj5mWCA/KdwePLp3QvHqFtDkVQbq8dFDROxnPWLxFCre7vT9IPM1jJLxHHwm8+pYrPd2SbzxCXQs6GiSrPOrK2jyg7wq8CPNMvaclrzzWac65QIWHO0zRubyi3L+8B+ObvM93gbu5g328SPKUvFVg87xwhMe7GkpGvd6FHb2ZZgG9/r+PPKXVFzyf5/681/gqPBFhYzxRmgm9SUaPvHxVI72Te7a8D7sJPbqUcjzneKK8GUGeus3tjLxhduY8qPJTvRNOwrufEhM9bdH3u4gbp7weRKq8udhrvEAEej3F2aK82MDFu65yejuROSC8ba6DuunQNT1Ma508laGfOld+C71o0Q29",
                "Te/svOtqqLtcSam7CK3YvMtkYz0cTg2894u1u6Ex07r/RP66mz7cO+r+LjyHf0y65qlXvP2O+rxf6lQ7n12zvP3mmjz+Gu86WZkKvUuyF7wt8we9OvzWuE5/s7x/5ie9zo9tvAFmXbxJjNC8K+ZpPJc5Wb3ZmkY8QhmKPJyuPzzya0C9VdrZvN2AAjt7FRy8Mm+BOsuQCzves+Y7enP3vGh0njxkUMS7Fov5u/vL4zztyLK8n5RVvCedPzxQXzK8GqXqOg0DSzyiQ2S9dGC6vD5irLzw4um8JoYoOSw0DrzGGse8NP4YvM+XYT2UrAK9eFUzOwql5bsOPGq8FoRhPPR5y7wBlcI8GBEAORtKVjyt+p08+8MHjwyyCI871QcPSdQIj15WCQ/7JgiPsbEIjzXwBw8HlQiPT6sHDwvTCA+VlQkP3eAGj3CwB48vTgmP2KQIj+dPCQ8PpgmPM1IIDxTtCI+f7AeP/HcIjx3rCA+qxgeP91YJD232B4+i3AiPLlkIjx6cB49a8wkPCDEJj6OyB49gxQiPxI0ID9ogCQ/0+wgPJ/QHj07ICA9YeAiPVmMIj1hfCI/92QiPIMMIjyECCY9ewwiPHXoHj4K+CI8qEwmPnVAJjxmQCI+TPAgPdRUIj6ZrCY+ZtwmPMHAIj+yPCI/biAgPbPcIj1DXCA+oDggPFuoHj1NmCI+aYwiPSboHD1sxCQ81fAkPrFoIj4t4CI+AuQePuS8JD0olCI+g1wmPRdAIj9B+CI+mPQmPVRsJD/ZgCA8ecggPJngJj+CUB4/2cAiPkCQIj5CPCI+ZGwkP8bYHj1EmCY+4hwePHAQIjzhcCY8UDgePGbUHj0DtB4+YWwmPTswHj51JCI/fuwePdlIJj8ygCQ/uwgiPTccIj9zuBo91hQkP7m0JjxSsBw8noQcPeuwHj9Y1CI+koAiPRq8Hj1AACY/+2AePqGwIj2ZICI97OAiPJDQIj/T7B48qmAiPdYoHjwkFCA/lcggPctAIjxMDCI+lVgkP",
                "9AYJD9vrCI+kkgmPscMHD4GECI8PiAePWQwID5TNxb0p9Gq76vaDu1MEszw0PpC8GhGmPMrrPr0YVS68piF3vG2K77ylLIo7wCQZvZZ7YbxeMyU9bRoBPNbwNjzkGmE8ikTgu/Oj3rw/YSE9uomUvKb6Ej3uGhY9zdryPMxArTyRNgU8yATnPJQQB7xxgxG9ImGnPCPtxDoSr0m74FEBvTujArwK9DG8Aj4yPSxQG70VEig9lhH8O9+wGb38LaK8VoJdPDLtaTxKT+Q7Thz4vFZufryZ74Y9csCpvG7YNbzUNqy8lsOkuwBJXjzH4Ig8eE/TPLbXtTv/0om7h8SyvOXUuLvBQv67GRervA1r3LxolyG9HfY/vMjoqrujzAg94HuTPecGgzw1Gt07gr4AvViBybz6PPM74AHtvL8MibkD0Do98pwQPSMvBrztpha80+x/vLVqP71gDVS8KkoQvUvwC7z50X67z3raOxkP+LwTVm889Gyyu5XE4byT6ca6io4PvAcUGLwgCHW8pTE/PSmPRL2v9309mmFrPANMMTsl3ra8L7mBvd6OsbtblBG9y26UvAVJHb0IJ9A7EiHwPKFvOTyEvmS9ZfKTvHrk5bxcUW48zWs8vS/LzDyrlBC83Zegu7/piLyqsUW9kaiSvJxS1LuC6Iu8qyWjO/Rk3Tt+FZa96TX+PCPu4TzFwCE8Dlw2Pe+H6zxYvJ89pD9jPLOxv7yH4MO8hSUQvUGVO7ySyqe8AUlQPbBp17zxXo48GujUvCyKATseCo08nGdjPYqAw7zIvfe7ebvBvGPCgz3wYIm8go/VvOqLZDw5/ps8UgmIvDxY6TzhlzA7Xn+RvI817zsYG0s8v35Dvde1gbtIT/y7okPDPJ3kG71Rj8A9GU0pvNueEb09zsY80Zg7vf9RPr1W3yw8/SVSvelFAz1i4528YBnuPODLJbw54Jy8s/NKvSONI7zWtbm73E44vPL8bb2rV4m85d0rvXJP57xL8n479AP4uzcbijzDjGi8",
                "ZnvwvIHfJb3QBk+9odSsPFuUlbtrgqM7UpuovHUay7t3cky8L3zHPMDOtjzMvla7xQG5PEd8Uj1uuFo8QhCcvNyJjjwV9H28Q+3EPKdzizzWdEy6JYLluyJ5yjuakZq77UcbPIBvIL2Eh5M8dRihvBqAEz117Va9t1eNPGsXqDx41jW9In/hvOp3lLzBtpu8MuvQPFB9SDxkzV875X3TvNypojuU70e86iH7vCzBZLxkGJa7SBhQvYgL3jzq0ou8l7IsPEsssz2/mxY9WQmFug620bx0teQ8TiZCu66P5Lwus3q7TSKdu6jTELyyjyk9k6hNvTH5Wbra7YG8nw3rvC8OTT2WOgq88QM2vQMwhbtXlVI9dDMPPCQFeLzy9qk9Q99OPInBQr3lcZm8035RvD1Lar0B0wC9fv6HvTisCLwX7LC9Izqeu2Lcmr3dsD69Y3zpPH0/ajvqq7Y7AIq3PB9bpLu3W4C7P21LuyapHz2Jue08qe24usn4i7t28Ve9keltt1EFTryO38c5OaUWvJA4Eby+khI9NfBfvNfAfz2AWwC9pL8rvF5jtzyLsL48yp9ZOhZqAz3LpVi9KsVPPHwz6TsmU1m9RnYyPDq0zrx+kRK9byMcPTHuozwX2pe7tN+LPdWggDzwGC88HLqtvAF27LzfoLA8XbPbvN4ss7xeyA88ESInvYU2HL2fUeQ5kqiAvDfiCDwk/FU9dH2YvHen1zzfl0q8tEadvHbOrbsjcSk91l3GvOf+b73Dy309b28GvfjncLwnH9e8Rd+PPWyUE72ekCW8kCCPvcULib0h8Pa8jaXpPNZDbrpU/b68ji4Gvdcbg73jVNg8P/ytvDBImryX3Lo7UQcSPdRMCbyftq67ZDB2PMhnUDyIBWy8w4KPvMbqWTv2G1s5X9i8vS35PTzbC567Q0fzu0GVFT0wFHm8XMDcPGtW/jzUAzs9MO6cO/0bXb2T29W8mbAXvSkmrDyY14g8wJaZvKSR8by3l289mScCvJjvSL3odVY9",
                "zNuxPHjqBr3rnYU8t15NvTNGozrYUR49VweoPUU+R7zmmV49PaGsPIC3DzxCVuO5tgoYu0X1vLyzyt+8ADvgu/pDsjxh6J28fnQGPAEeBzzhEgs8MTi0Oxoa0LwLX3q8npoPPf5tsTyhtu08obERvZrkoD2ctk08lhmcPH732LxKgmw6ximDPOCG57pYpFg84FetPOq3HrxVWCw5pPu8vEg5MrxAs5u7uHdUvZHNBb3ytYG8yZauPbud1LvftUI9etgtvI/X17v6wfE8j6cjvEMCorqLtTu8tHlzvE79ljsxIBe9hRKBPbWQvzz488a8L4DVPPi2FL2y4j+9PyKvvCHU4jxyQJY8aNkRPa4nP73nlr28qiEFvY0zZrxz9BG9DoXjPN9F2zz/9h+9D7k/vOLjJL1WFjG9WKPePNG6hz05PT08HuQAvfgxBD5C4GA896lePBFa97wEnDo8YFh3PfHWuLzwjR+8VrBNu1eJgT3B+4E8XuwpPYczKzxtqIG9vSH+PFXCu70KNg29372+vKcnf7sVWnG9OoK8PMYIdry0HrU8HVOVuYZJ4ryZPy897kvOO5vmmrw8dcq83ZSWvD4Lqbxfi2w7FVgAvVNcOj0UOI+9Se+PO5xXLzwBzZw7ADJUO82+hbzIE1E9UTvNvHnllbtqHgM9vLFjvYT9obx8lnq88vcjPeKqtrvfmdY8I7WvvHWC0bwGcF+8fkwCPF014TzrR8Q9ch8fvSRTSj1fwGw82soavAtXzTyTtnu9mnvwO5txoryMxLS7r2qJvTozFTtc8RO9VKSCPB33NLo5aja9+ba7PcVGbLzEXBe8bBrWPQKAnjxsjVe9ZbsNPZnZBTth+Aq9G6Y/vTvxHb35L2Y9hybSufsXcryg2A08prG9PHaVObyWblW84YRBvV9cuzu3M8w8CXp6PJdSiTw9oqG82mBfPOo/QLzqpdU56DwFPOMb3jwKCjy7Z8aDvGOKc71ligG86EojvHU5gD1m+/08F+pAve/b8Tumv4k7",
                "glhuPPwjAL3iZQE7hzxHvE7r97wYXJ28jXuAugCbFr0aJNi8vSZDvXXUVD2/5Tq8i4PCvdm9rj08AQM8IyBkujVvhj1xQAW9ap0zPGIarLzfom4896SgPAynED3Xlzo8OS5BPINrET2dbZC8o3t8veSSpLxqSGW879DzvKrN4DpEmFg9jGTJvNl8CD0/jgo9kN8lPOX0rzyeOdS8o5A2O2ZjCj3a9Aq95HECPXqVxjwweSe9d2fmvJO44bupy2y9FkTXvAZBiDsncw29D5AlvFbKBL2FgSw92IeSu5rx/jsiDge8+pcDPbe73T3g7Ti8t867vHyrAb0Ngw49vQtXPGxczzxBRYO94IiPvKj6ELxl1oi9by4kvWkESD0bX4S84EUkvaSX47xleem72QDFPNWR+LyALcC8EwHjvKf73Dxlvrs8BguwPJUIiDzOGdW7mvaGvEIB/TrmNEC8t9ONPJNqIru0phY9S7cyvQrGDb2fZAg9y7hNvD9MVDy8kNO8vne/vHBzlzxHtoq7Uz90vI3gzDyDMJg9nW0IvRX4y7tjyi08W5EQvNXsFT1Rnjs9n+OLPNl2zLtnfIo9P0bMPEh9Jr2xWkg9H4Z6PU6cnDxgEr88OCriu0xSyjots5O8HoLhvAk4Ij14Cju6HC91O/8fcrx994W8jGnnPH8J1LzRl+E8MAKmvB3TF7zFE5Y6d1YXvOmzKbw6BBg9mcnyPBoloDxcwXk9HRYXPPR2v7ya55S84M0IukRtMTzSxYe8QgM6vd2BMjzcRqW8ym2gO/bKkryRkQs9LugpPHgUizyAJKK894zHvF2UTjucRIa8QVQYvUTz1rqWw2U8dgjVPGJyMj00GII8a6kGvTV17Lm/0Wc9rFJZOx3SvzwLjM+8TSANvbByvTylWR88RsuWvJd67rsnFoO5+TNMPdsyGzxZ3B08ewiSPBs737y/xfs8x/UeuXdN2zw5VzE7x3DpvMQH5jxSIKM78ZUcvHJa9bub4zo84PimvI70rjqUKCy9",
                "BkcQPedaZ7zThIY7HGgru6wyuTw3HBo9H2uJPCtqRLw5+9y8klAKu9EEXzx+6So9sv6xugo2G71jdo68gny0vA3YUrvXlOU8L9IrPPTrlrwkBAG9WJIrPQk0KL0xsoI90EvuujY9Xb0XP8W8NwZKO4/xGbw7OYK80KDKvIzoqzwjgQ+8P+ShvNNXHD07DwK8u7++vGTbxjxa6ak7U7XjvEcQv7re8tk8O18BvdPUtTzMQVQ8YHjEPJb6HLtCVmA7tvSVPM9SF71Qo/i8W0qZu94H5TznsAW8rhMgPc8JQ7yU8D86tjVOPRozAL3sVa08rZf5vDmWHb1PNP28po2MuzEnSLyKJxq8Aza/PBZL+LwQxJw8IMP2PIiZDzxwqCa9o1wBvTit/LzOrvC8w18OPVxfDr1cR0e8b9EZvSYwGLyibDg9ptLcPDBdFb1p/Sg9css8PXR9ljysuBU9j0FxPDYc0DzUCri8vL+rO1NAoj06zTo9hayXvNnOTLxvejA7HqC1uWSZF7y027a8nds4PNwjZbwHnBA8IAanPMtJg7yMV3i9/tVvPfL9Az1lgZQ9N/AMPJyORTwCZqY9VagdvddQ/7uiSjM9wZeFvAj1UTw2w+88vDQuvVO9sjyfU107/n9CvIm+Zb0fMDO8TtA2PYaLX7t3EVA9v/BrvGtyhzogrxg8ZFOLPI/oyjsLti49sBIBPOrLtjzY+rK8TkOFPF1xlj2KS4M8NHNLPQYhi71An808ByXnPKZCpr01w4Y7TSGZPK0hCz1tr4Y7CQUFvBhkvbyZ7J08q3EBvdu2qTwv3ZQ8oVYuvCwCwLzo0z29rAnXvXZGsLpeAaC7q5ZtvUzypLxdtwi8NL8yvDdO2bg/6rO8by2ovEHVEr2xD728eeOMu3jewTuIAnC9KBtROcLhlj1sNwm92KAKvVeOOr2vHxC8Ea2BvGHFhj3Z0Ae9p9ecvQDPqTwDYPG7PFNbvI9jEjz36/c818CWPEOZgb043ME8uggLPUkzD7ydFwU9",
                "Fk9+vCe9jr2jwRA9G4CtvATpp7yFG+08jg+OvB9VubwpjU09zArxPK1Y0rxM8Ys8Q9IePeJYbb3DKt6899HWPJb/8LwBo4e9i+uDPTDN+LywLPm847BpvXHiJT3efkw8By65vDlFgL2LQGw9pjz9O5VlxTgdox+9Q1lwvGppMb3izjc81G9YvfVpNz2/knW8P75aPOwdnLy+0MC71FNfvCcL9bsIwiy86lPXPHbudDvREYk98gvZOz9ykb0qa7u8GZMauxnFoDxbtXa8z8unu5i4Wbztuhq91jagPC0PhLymRtq7+XpPPQmDJb0mOkQ8oOMhvKFjV72MoCa7G/qzu5TsN7zKQwm8BQ2hOtqnU70oIf+77nnLvNJqOr35vtu6df92PDKg5btzrcC8LeBAuwEa3zuUZIa9+ITCvEKoJr1cAsy7Ct69PIi4tbx5Jhc96mMyvYmg7bw1lHY8A/sBvS9PN7zu0Yi88QIKvU0AHL1thIK8YNEGPDoQhj1c27c9rJ4BPPukaDyjKJa8zGybvFcfkrx604e9H9w0PEv8CrwjPUo8tHc3vEYkUj11giK9UE8SvT0ryzw01cw6gaDQPKVEkrpESci823hnPI4k0Lt0N0Y7eFXdO/EekT3Ipko9pKW0vBpa5LzzIT+9Oxx7PDeSjDyP2947l5Yaveu/gD0v+Mm6WNXqPBhzk7yJyfm8d0xrOz1BX73wEEG5B6C9vCIlCz1tyys9VtmKPRO1GT12NBQ8gmeJPU77o7wrDUk9SDc0PXxQrDywzNW7vS3Su7yd3rzsa0S8tNknPFUcAj1b33487YSCvWnAaDykDdU8wOZXPI0Qb7yf4CY9ZXsgu8b9FTw7uSI8CMK5u77A0zySDPi8kAMDPXHN7DpIyYU9oIGJvIJxWzyriXg9lRrmO0kKYb2X1+o6/PsBPNkBUbyi9kQ99lfgu/iPPLx19bW87MkRPX3lgzz8x2k80rqcvG6FGzx095o8/AdWPa2qSrwMHRO9z9tLu446JLl+SQ88",
                "D3w8POzsx7zY4l49U1H2PPd+nzzXXNc8zae8OrFXrbtAFMg8c3SCO7EW+rs+5ay9hPpDu7LIeD3Cglu9Mv2PvKp/szzvQ6g9xB08vY+Tybt3v0y9gyDQPC9BPj0Mz148DwkPPHaGgL2xQrU6by68vPbyjLw/xr+84zxMPRSsFDzZG8K8EAPEPOh8Zr3ndgePpZAIjx4wCI9E/QeP8y4Hjwh/B4/zOgaPJaYGD8npB4+6sQgPI5AHj835B4/YdwePuSUIj+O6Bo80MQiPF0EIj3kqCI9gnAmPQdsHjx1bBw8ITwgPISMHj7vaB48yPwePoHQHj+o7CI+y3AePUR8Jj4HQB48uJAePRqQHjyY6CY8m/giP/MEHjzuWCI+R9wePIsEIjw08CY/OzAeP2CsIj8anCI/eHgePERIIj6ZrCI+4mQePjZYHj1OcCI+2/AePIIcHjxbLCI+UoQiP7bwHj1BsB49wAAePwLIID4ZyCY8T9QePs9MIjxbbB4+MrQePMisIj1QKCY8chQePLTEJj63XB4+sBwiPiKUHj5lrCI/JzgePqPUHj6y5B4+EHgiPUtEIj+C1CI/r7QePgIoGjxM0B4/EEwiPeY8Ij4SSB49jkAaPZW8Ij8oZCQ9JYQiPy8QHj+/kBo85ZAiPf9sGj7QACI8zxgcPS2wJj+1vCI9RQwmPkkgID1JhCA9BSAePDiUID1fHCI/wygiPzEEHj19JCI8qLwmPBacHjzEGB4/NRAeP7TkJD5mXCI9YKQiPEJEIj4zqB48DtAaPtoYIjw3yB4/QJwePrecHj9XhCI8/vgiPOm8Hj2a/B4+iFAmPR9wIj2TJB4+lCgiPiYIHj50XB4/SuAiPPWcIjznUCI9iyAiP/hCAt/03CQ9IQAiPJ0gIj43ICI/IYgmP5B0Jj/77CI9i+AiPWMgHjxxHCI8nSAmPPlkIj+kuCI8/KwmPRB4Ij9eICI8AXwmP8t8IjylhCY/xWwgPuHYJj2BwCI9u9wcP3JUHj00oCQ/qNgiP",
                "MFIJjyQDCY990wgPWIsIjxZ2CA/eegmP2bcHj5xUCY+FCwmPWZYHD/MyCY9owAmPGBgJjziEB48SsAiP828JjzeWCY/PWwiPqRYJjwTlB487hQmPPNkHj46QCY+jqwiPHQUIj4veB49NIwkPs3EIj1NqCI8O6gePn6AIj0oYCI93dAmPqBYID4axB4+9cAiPUo0JDxdFCI/WbQgPSoEIj2lZCI8ucAiPj3gJj8FpCQ+XjwePqi4Jj3P9CI8TcgiP+moJj1z0CA8CcggPTwMIj7uxB49LQAmP84UHj75ICI9pZAmPlFcJj8T5CI8oXQiPF88HD0G1CI9sFwiPp/MHj3GLCI9qBgiP+TAIj0TIB48l4AgProgJj8LnCI+WaQmPNcoHj4J5CY8TRAiPduoIj6fpB4/kZQiPiXEIj9eJCY9AEwmP6gsJj6FvCY99HgmPpwIIj2AvCI+mDgkPiRwIj/7yCQ+Y8QePQ4oIj3HrB48iJgkPje0JDwKUCY+PCwgPst8Ij/NiCI83mAeP7EkJjxJvCI8c3giP8Z0Jj9k3CQ9r6Zq8K7PvvG6MiDthkFq81EWSPFBJL7x4YMm8Q5ntu84I4Tt8oVy8Jk3kuwv9wjyECx+8TgbdOy90W7wZxrW8SroZPV6CQDtnqPA81YUgvA7JN71XbVI9U26yOQby3zzq8Z69l+cyvOuGOL3wGMG8R1GLvc4rtDzQRyK8+ynZO9CBPD0m3qq8Q6XZuzdX8Tzltl08pgowOzrU87y6iii8F+4jPJR7Cb0M1c+8E7CQu/pBXLt15KO7c+2RvFcsxLwWjwU8+GqYPAUkkjwCB8s5wRSWOuo9hztR9iK9dnUgPFDxEbxNTQy9gTlOPVYkUryqKJA8+t7OPBUWEL3tb1S82vyCvXfkqDvkb/I65JS5O1A3xbwCnuq8ozGyvJVEcrztNRc9SHecvBpQWr29tik8aISFu8MiDLyJSzC8Yt8tPdAsjztrWsk8W7CyOAZdcD1BIK872U5IPN5FL70KCDe8",
                "hQTNPAF59Dwt6gI9L+xrO/AczbzljYU8cM6UvJvMBTzR90Y8cRQOPC8Ter1PSO28fSF+u2jflLzIOK28fv/auy2+BT1CA/q7bTIOvD98UjzRmdc6J6GFvPpH+rwlwZS8FQLAu+B/gz0bohO9B48NPesXxzxungO9QcnbvBDfrLztSZ47wgZtvDaXh72sFfm72h/Uu/aBu7zhofC89f6UvEdyrLyiS6k7+Ub4vFNrMD3Vpp0743i3vD/gRT2yVuO8Rk81O0cNu7yy+Tm8yf5VvCKBhruSBP+80o0CvfC+WjsQqrg8/4REvKt2bD3ftL08LqbDPPtN6rveXqa7rMmeu2x9u7zPFRc85xb+vOKh8TwMyci8is1UPMQwIbyDsPi86k8EvU8vmzwlk3i8NzkeO2UwCjx/usy70wWRPVO6eTw7GjA9+BYyPPG97Tur3jU9z9cBvZK0mbwKFHu9jmLTvHUam7wSN+k8pt3OPG0RRL1vYS29XOPju8d/jT20sT88thudvIty/jzHL5483Yq8vLc/Z7wSudW6dqrqPA2U/DuWiao8juQsvMOvqbxFDJ87g95NvKT2dr1S53C81IzHvK2y2by/vxE8zSGsuxty/DybHJ07iTkNPHDvW73xE+O7N2vKuwp0ubqG54+8NJfyvGOdCLxaDBW9LvWyO0AwFrt4UZI8KStHPcqjjz00jr49jG1DuoGXGL20rpE7+o3CPWs8o7xykY27Z5swOxO0krwoa7E7vhO8vB2Va71FXU08wAxRPEKaArtDQoI7ODWFPDztHzv7Ub67P2gpvBW5XDw2ni886uejvJs5ITwMv5+8JGVjvQ76Wb0UQki8EL04vCnnlrw9CTy80MaoPFkKiDvGjSa9GbfQOzKEVryNiAM8s3rJPGhoMrvnrLM71XmdPUDGBDwxm1o8HbpVvT1suTz3LYQ6lNHKvLCUx7vHrKU7Ezewu829nrr9wug78RTCvESGzzt0BIQ75bAavUPVILw+cKe83LlTvVZ8FLzV5eU5",
                "Z6N0O3geqzwCB668OKb5vHsZGTyNGWk8XXoYvJBYe7wOrec8eXB3vEOPIDyxsxK8bIhvPdLO5LoFi6y7T2o6vfmTS73icvK880KevFBNtzx007I7ybWBOXBAVTzgMxg9S0yWu4KtZDxysBQ921YUPYBVUz1fGoi70F9WvKy+mD3sbWI8taUsPbrH3rvJiUk98wy3O4DrkLlgYnW9VYWqPZmw9DpangM8dsdWO9Bi3btfN9O8ASveu1LGdryEKO88YjWiPLX/Hb3al+O7bIFMO4IBHj0JQK27IcsrPQysNjtQRwa8tAw9OxDhQzwCxkq80a/WuyqeFL2xGnq8h69tPBAeNLytFQk87sZAvSwyTz3wfz89H2iGu7K8prjLI4C9zCAkPRF1HrxGpsQ8+WLVPF/xJ7zYbl+7eMkNvNNoOztXwyq8czp/vPb1GTxrFtE7sPAju0Ky1Tut81m9rBNtO6MeiryaRF88RTPkvMcGX73qWm+86Z24vNFlAD3nqVA8Qe8pvHo0AL0zAlo8bBuKPbbYFj36ysM84GOUO8X3jr2lmom6hZXqPJFiMbzbKYg8dqQHPGgSoD2Qcy+9jRouPWYfArxdwt26cFqXO8ZpgryW9Re7r5o7vFHwf7xiwKG8vRxaPGnoxrz1h7+8GgqfPKdLFTzfcUm8Oy6XPK5PpbvB5/e7zYnuPD9NdD2LvNK84HhTPQ4IqjwrnPU7/AnPvCZW1LxKv6q8XATjvIHp1ryxt6S6kbeguweEcTwB/k+8M7g8vD9tqDtqC3I8EJTjvFf56bzP8ow8dm9VvN6tq7vuzI88u0SlPNuQ/LtSYLy8dxwKvVegXD3t9qq87UahvEJXzjzFVjo8NfLCuyBSCTu0rCU8XuquPEFU87woi/K77S+0PK6qzrwfap67nHQdvazN9Dy238Q8QAoNvJx7F70u+0i9v87JvLpSvrykXMK8frQqPS5AQbwSIG08vU9TvA2iHLx/qae8zstvPFgBD71g/4m84VMEvTDVSDxGL6A8",
                "bW1NvBovV7261j67NCc8O5TgJLxzNxK9+H1bPBNbmrtiW5K8qSZGvQGAObtXPyS7HrX0uq/LrD01KCO92N1JvLSTALzYXe48zLIpvTSnr7xC3tu7bSWrOyeL/jsAxLI8fYqSuv1v0Lw1c2y9SCVcPHcbZj1T2RK8EbPRvEmqAbzN05s87PmZvDHFw7xFCTo9OXx4O7B5Vjw10rY74PcKvCBQq7uV6hO8SqSCO2knebyymVi9IehmvJ9uTrq2bX28fPMhu0YO7Tsk/wK9VHQiPZGj0Ltedpm8GpisPLnZ2jys9DA9TDdpPdb2kLsV72a7r/FpvC4XWr3jTQC5BSIau3s2zDwQnPk7rQjWPDksxT3iD2+70FlkPDT4Rr1nBbe84rWyO5XZBby6NLo8fEzRO2jmgrzU1rK8zN3evHWMubzONCI9sZ1BPJkKATx4+JC4aP9FvPKzATsZuJO8gtRpPZd25rvCBz49UnFRPekipDmSUVW81/oSPFQG+DupzkE9rYcAPCARnDwxjPo8iNWwvCZS0jpuOfK8+YgDvW1tDj1KYgw9xRPkO96XLL0SK+w79QTFu727ML2Vg1C8TDZBPKic6TusjD68OncTvTs9CjwzJwI99sUlPcHi07zgrg48i4drPBBEwjw2E9m8tV4fPMhHAb2vHVc9PHx1PAIOKj2j6B67cVmZu3qT6LzJgOK8xUBXvX1SzrwSexA8SwWZvHb7VL1l5xq8XGOtPXhmfzseRfe8ZNkluiydDT3gdQs7p++yPFglL7zcdTE9kwtqvFdj+zv+Kfm8JmU8vYulE7w9cKs7kZp5PDQv4LxjrtO45zSMPff+Iz1Pyp68Um3EvGoz6LxMntq7MMSru5S6+jw7pRG8py7qvAAhTz0Ga+e7GJ0nvJX0DLzfP468OuMmPL4qvznzVoi9EvAivdX/0juOlCk7vqZiPMmCjDovVjA9u38hPU7CF70w7Ic8FicLvtf+1zz6cBK89oiJPFuUID29uWg7GSe/vL5zMTyx6r88",
                "tVhtvGkPqbzYkJe7MSrwO1F9c7zgwbk8nCoyPN7DqLwyXoe7PVzXuxbgJDqXq3a8VU6VvMbBJD0RMVq8sdQzvDrabDsKW168pKLSvMte3zo9z6W8IIecvALQBT0XpUA8d1ozvMo7uDzWRi66s4MSvbOfSb1BfHm8sEULO9ISMbwuKfo8+D5Xuyh32rwL8jo8k8oHvcZHPDu1VOO6Cz+ivBEur72Z0yk9toOnvJNJoLyowNm8VKLlO907G721md+7lVpsPAY+FD35gJa5W+JTvLV+XTyDZmQ8OpGwvLJ1D7yej4Y7O6dPvCSJVrxj+0M620y/uzgmCj1GZXw8eETMvOHTojwUQ449DDp5u8RMO71+Kuu8zzSQvE+2dLxWyv47vsU1PH4vrLxkEO68HN+LvO5YBr0cQHK885pWvMdj0b2puHy8y2wDO7pEDzwl9569kzoRPeq6HDtiqMI8SBjHPNF3z7zSQKE7wA8bvV53/jywLso8WATIPEVvFb06mfc8ksJRPameTjycSnC85pXVvL1+Czz8Uei8giu3vINAYzzY85I8ccd6vKIBJz32hbW8wu4MucZAOLuWgaY853jfvKGAPzy5CwM8uvhQPeAsMb2SbaY8nr7tvAPg8rzZsxm9ODGtPCz/iTwTQ848jOutvObho7zZzSQ95jpTvCw2dzwb8vW8AN5TvKnRlbxeiyY8RX5Du2Rb87zJ8Cg8+J3APPbpHTxh1oE8gmqfPJZQe7tn7SE8A6D9O/t59zpSPss86EbevKz1ID13deA8Qi1ru/DayDsiq568Z1ydPKpOOzui6Ei90BEyvBZCoby86K28SpGrvJsmibyiWce8uaSLvJB9EL2h3Z+8nnaePOJ8ObssIZM8DpLCuxYrLDzFdhS82UfqvEa3m7zMKgC7W4inPdfXxTxoVi68HRGrvPKYfDyFxm68f9NXu+fUBrynD0g96NGjPBi6s7yWHsq8DK4PPOhAoDyIYU699lVsuwF47TwaBmw8xFfLOnn0GDtzQK05",
                "/v7gvEeKCjqRKcq8Ip/7PKY5vbzuTkE7Z0tRvW+vDb2VizK8pgxEu5WiQb1g6yo8E4mVPDEkHD2Sj867aimyPMIy4Lx7U0a9HxEQvBHPPTxncLo80oAwu/Hlazw2YH48o2ZgvKaxlbwZsPc60K2FvNupar0G6py7e6XGu1aD5zv1ORi9iX+mvODi7Lz3brk82e/8vLYVWbxuhoq8bfAOu8yVAr3Ika28eLbCO2cwIT33CfA9c/dGvRZOIbsjebo8mMvPPA4GJDtlRBE9sspkvPCZlTq1kAg9as2tvNAXWjyrCok8kNRqPODBKr3nRnu8rGUwvejNxbtgx6U7hxgWvJ3fAD3AH2w73dCputU9Kz02jXG7G/KOvKJ4Irzn5d+74iW7PHJPtTxa8n08/ktTPL+LJj2Ov1280pxIPOFbDzzbaMc8BIJGPVAv17tfxoi9xHK8vHLf8D1wEQi9bAyUvF+UlTx8ax28OhoGOryMvTpoI0M9qyLuu6F6a71ULHc8IF2BPHXJmbvgnKk7y0PgvBtvPbtK/+U735osvc2QKry76Ki75V4kPA+qdLyQsgS7s/kQPC7TjbxRwdo8K902vG7VxbvvGP87ktZ0vK0i3LzHdIs8xnF7vI/SADyVIxU8lP4QPMycg7yy9I490qSBvE3GAL30lAC9CgscvVyO17w9eII8/ciCOqC+ZLxDX+O8oqdHPCEK+LlE9uS60todPVAssTpPVD69Rzf5O20goDpOJH66w/cfOt8NvTkPlKw6pduUvEglBDsGVpe8ZhMlPWDVobrzBV89eR/QPIlU2jsURHK8yVQ9Ov5jK71P2W084JPFvIuKCDzq64+8YDYhPVVmJrtLMzo8aKkJPVqXNT1bdEa9pRQvPUfUkTtnfB89MS2hvLqi7rqm+K285HjNvNKJC71VNUy8F16CvMN4Ab1sDY68JS0wunP2ErwI6wE9ZFlgPDrS3LyNQrW8RtThvLFrXDxrZWU9/oYPPTG4Az3mj0u8KHpwvMXpsbz4dqa8",
                "Q5xVvU/F6jzeqhU6wOM5PBAv07yF3ik60tAyPfyqcLv66u48rG0HOwZpC7v2lxM8P4kDPchCAbzh8go8dvxPvBbSyDzx6qQ8gnuSPZ9pDT3GxYa8UwA3O79SMb2M/j294vUqPdDryrr7BzM8QDuJPJEnNb3sxbG89BqXu8Y6x7uw8aO7Jb+SvOpiq7wduRE8iMKZPLvNNL3EuO875MWmvPSZwjxkmAS9pLbcO1mt7rlXDIU8LAeevKaYQ7z6hQE8lxRFvCb3Wb2YGQC9OweqPHcAP70j+kU8Tnm5vAJCq7tDLy+9YYY7u5SlEbwLY5I8GiGNvHIInDovIi49Esh9vF5TjTxscCq8XpyaueuKk7zeIRm8ic66O55D6zyAzh07RmhTPBebw7mDOhO9BikJvftnPrwCVmw9lUBnPQ+noDyPnUE8tKBUvX10oLy0mok83bKhubGFEL2QIfg8BgJWPGPatru8+i87gqW9vBE9J71ORV28tTRCuxZ4hjwLnNg8GwupOw7VXryZ3yY88LbkPJbnjjyb07a7xkPPPE9wFDx7G2k8BojvvNu/s7oURE08ccDavC8lDzuMQpC8CEvfPCYbGb12qUK8EJXuvEq9Eb39kaa8uBExva1Y8DwWB149KQxRvdLFsLtUyqI89v7Tu/6DnTxJROw8X0VkvQa4przir1u8ruTgPDfWqLwlQq+8pNMHPYMbKLwDjNc6ZOR9PboHsLxnlNe8eVEJvTo4kzwx1yO9L8gHPH+Y+jzBeJq7TBdvOy4vhTsnlKM86+8rPGH/rzw01zC8AJD+Orq6gj0kFjS85FOqPN2alrtirY49LOjUPB2RxLkQuUu9vGNOvLn1Or2Hlho9fCtTvf99fru+97u83PkjvKUlijxKCrO8kZ0YveTnoT0/q8O8drgSvLESQT3Hbzy9y5ejvSiBGz2CyLU8QalYPZmsHru+1Hm9bqUiPq8RC70iglU9mmkMvZFeizxHcAy9GLyOPGfCWzzi7lk71VJHPA52QzxqVRM9",
                "InxFPbp+PLyG+Su9K/J4PX4ETj01xAu9fRVGPKchFL1uOka9OmE3PJxvH70n+aG7Bdt2O6ASfTtOcBM8o4vfPKrmsbzTSXY8JPg8O8WW5byisC68SIetvBJLqjz4yoM9/ElEPP/cOT3V5688uM5gPSGbIb0OyDq8e9kSPKQmtbwLzM88+XA2PHuJWb0ghhk8r26AvMeI9rwHkIG74JBLvFbsWr27LS88kDJXvUvXrjwRq3Q8SFuwvAr/lDyf2Gm9FUkFvfUrRzwKHym9+InLvFS8mz1uroO9Dl6FvRZFkTyiIlY89OdMPas60zsS+ea7r1lKuyiyx7ymK3y8j7TMPI5YHjx6NGo9RYNYPIejnzxKn7q8u7I5PFrgqjvRXgU8d/SZvAjfNb3oLnc7Uj34vLm4MTwuwNi70t4cPcge4zztkvC6YBLuvAXPLz26xAY8Za7CPMHiJL2spEG93T2EPADRA7s56Be9y6kJPOlUCDxUNQ48Mibbu0tp9rqvQGC8wCx3vN2SSTyhIsu8qCW8vAzVBj1uX6w8ErC7PFLkojyMaFi90GQxPNZetjrfno48ltUdvcigYryZiyo8DVPhvOf8q7yXfTu9A+jYu3QkHD1INIe85ryRvF4vDrzDBas8fKdjvC87wrz1dZm7f3C3PL0jlTtip5G8TMwPPQaEGrzSNdQ8p34ZPLKF3LtFWmW8VcdQvRU3Hj1bCX28FckYPChFsrzjel89lAABPO9ExToi/S47f5qquyFLajw0GgI9hC2QvFKukzooMZS8TtdSOxxY47zNKMw8QwrjOp2nzbxzE028Ve5MPaR6szzJ6aU8vBofvfErtbszxCy9a+wVPatEADwHhCW8su5DvGSowruDt6k8HPzavKQILTsaIwW9z8mjvB08PTwmH169tKuJPM8WgDyosz492utdPGWZ5Txi4zK9qawBPOHivjr3Ej06tO3pvDD5FTyIEIc82UZLPXqxJTvUTAI8d38SvZxYZbysTM88fxyyPGSvnDzXxhI8",
                "+Te9PLeQyj2OOb48R5m4PElAaDwsmim94CoJPdPuDj1wAI+7JAxCvJG6Bw9ZFQePIcgIj6xSCA8KZAiPfPwIjwqqB4/J2AiPGM4HjxYaCY8WEgkPEJ0Hj8JTCY+eYAcP9HsIjwk2B4+5fAgPDvAHD09TB48Z2AiPv3MHj7EwCI/mxQePqqQHj3Z5B4/OlAeP1QMJjyAVCY9l+QiPu/0HD7OMCI8/mAaP+84HD1FBCY+hfgePUq4Ij0nEB49NQAmPHyAJj4k0CI+0gwiPIUAHjzMRCA/AOAgPyr0HjyBTCY98IgkP8kMIj8K9B48gEQmPMPsID6U6CI/ChQmPYI8ID2UyB4/o2QaPnxYJjx2wCQ/UygiP/uUIj+qOB4/+zQePDaMIj+BuCQ9SJAiP+0AHj4RfCI/FMAiPbqQJj93OB48vZgcPS8kHj3EACY+FgwiP6xYIj7vVB4/qHAmPa9cHjzOxCA+HJgmP+nIHjwzTCI+I3QiPkncIj7U7CI/YCQiPhgkIj5c8CI/o4gePgv8Hj2eRCI+yXQiPkCMHj9FKBw9XYQiPIJQHj55bCY8YhQeP2TcHj08rCI+a3wePWpkHj9AECI/xTAiPKy8Hj/lcCY9S8giPzDwJDwFdCY9K6gePTLoIjwK8B4/HVgiPGqoIjwn5B49cTQiPUL4IjyBBCI84oQePHhQIj7rTB48yZgeP4OkIj7yOCY8O4QePkzoJjwLqCI+4+gePLVgIjx4qCI9xO2q4wW9QvADr4jxZcyq8e1a7uyBb1jvWthC8DBAEvehT5LwAEui83S8svD2yozyepFA8Eu+UvGRhljzmgzW7nQDLPNGDrDt70Bs807dFPFa8Prw1PnI9S/mDvE+2XD2AqO87MXXLvO8vI70lmDA8iulrPLuYzDsV8T28ZORsu4HekTySEVu8ZApCPLovhT3Gc8U7MgLyPAMFHT3HCcu8TTpNvCu3Nzu/E6e70LacvEP8pry0nsS8bs5bvX91Urxu1cI70Jx+vbca9Lu4GzK7",
                "HxcdvSPFUL3hOYQ8fgu3OWYnZb2j4Jm9gN7TvHmRGz1t/ko8qOxPvc1APb3m2Dw8NJanvMAWYz2n4GI7qIKZPH//PzwI71G8iCmovI0EjbpfoIo82ntNvWHnwzv7vHA9tTQBPVWiIT28+qq8zum4POE0SDuJdFm8ipKGPEUZqzsnFME8u7aWPNYcvTvdZtO8jtPBPSkhnjqFLlo82lDsvMYjNr05QOq85f4OvF5agTsqKga9To9CPAtiFj1KpJa8QHgtvXeIurzAUx49isB1PCUXgT05WpW8cRkZvEyV+Dxw7PI8s4knvZ9KYb3FR5k7fM3aPCfFtry6Kuw8ebkAPWsyHbuLoSy9kGVrPJes7TxarWE7Q733vJZ1Fb1f/QO8AtndO4zXbjw6yZm8aWuTPRroF707HxK91SyXvJGCEzzv7oc8qignPAPGBz0XUGW9SSTgPMBSNzuMJF+6XFRdvR3HkrygMgq733VzvLgWIjv0OZ48jt5qO5ZhSz2nbz68N4LPPLOAo7snR5G8fjjKPMGqHT2KY2W8GT8RvQ4JnT3J/6y80/FePWhxwLsWtKu86y2rPCVKoTxigvk86NXJOewe6TvjJaw8p1G6PCPEuLpSxP28LK5vu81HZLzCp507SWEFvXYpmb067rI7B+HNvEpe3juN1rq8DDyMvLvuEb1RBTQ8nvmSvKWrJT1Y92Q8JLY3PEZ9M7zPYoM9+eOcvPAEZD1q2bq8Us8pPcuX9DpDzgc8NVcdvar0Fr3b8Ks8zSYMvWUNFr1zTCQ9mRMCvcXeYrx8+LO8jGKpvDiPBr3M3c67Gb92PKfHQjxUefe8TJEfvQ/s9zx76gk7uhk5PK6Hvzu2hec8WxuYvDXsLDv/Spy9cnhlPac70DwdWZC8t70bvetMxzslcqg8LedmvY5NKz3MZxU9T5ELPbuOIz1MG2y7lMwSOxpgyrzx83w9hYZWOz9bnbyRUAe8ALREOJGdfr1V6QK7hbTkvBlIYLwlUj68EVcsPYIFXTuVGIG8",
                "k6bYPIqJYbxkucm54+Nku1WEHT1Y+qs9TIVLPOhDITxWSW48d5kdvEu2NbzgA9s8V8BvOwe9VLxrPNK8Au2HvDOhcLs8vwY9ARu8vZbpnDtn/qS81MCxPEXGgrtnQSa8QkjTPGxxvLxErQE9d+gtPTz7Fb3i5/u6CwkKvYboJD1CSaa8F1dzvOIP4To5gTG91CzHu/uBfr31dkW9VznEvPO/zbzqG1i8fvtzuy/PCDzKqAg9z0jBPACTurx9l7i7dp+5PHCmHLyrqzS7i/0aPPBrMD18y6O81TL9u3P8JLyXUm27kKrsPCT8AjyHR5i8Scy/PLm2K72yUvY7lxUvPS4d0buaCh693hXavCTs4DoUFz68axzfO6AnlrtOB/A73klxvCofcDsigQK8XiZJvLAFHrv57gg8s1PeOSCNM73c5MC70pMYPQ2eDjpxY9y7fNCbvZKGuDtIEde8PUVKO52vgLy98cU7DQosPIaT2TucNCS9mI6evOSOuzy0oma9rqhjPFuqbbzUmhW8z5+ZvBCynLsxbbA8qiVJPE821Tzwf768ozgTPTEcTT1kWZm9eZZ6u3Epmb0niDe9G5aGvO+TD7yWWC09EFaEu3eTHrzhddw8n8dHvR977Lx2fbo8nVYvvDzqRz2PnpQ7QUL/PHd73jugJjm6CQ64vOVABT0F7jC8rMofvSscMjvLt4w71sTUvLW7LD28m429K6huvGAaR7yIUTi806BwvUnAvbzHw8m8vSyTPWDYW7yVPRA9xjlFvcVomTx0Cxe6vGrmPOAkWrzEZtM8g0zMPNYOA7vdblI7QXqXuzBq0jyn9wy9mLCHO/PEbD1U/TO85EAzPN1YpzzirDA7FUI9OYL3+Tz9dAO8zbJLvSFh1TvLFh48xaYHPBW0PzyheCi8LDgTuh1QtDwQU5K74jM+Pb4Sjbw3hIo8khpZvMs1YrxKyQq8lm7uvDZHl7wxS+W8nF2/O3gysDwVvv47AomuPMBRoz35MlI7auVCPPzgUb2YOE87",
                "2yr+vHDeF72731m8a4giPVm0ybzD1a+8ARbePGQ4TbmCOZm6leutvFOqnryrKUg9qudtO7RFAL1b0oS8O7pHvFhtq7wfn4W8zy6WvfhyUrzX+XW8PWWUvFo6Tjshsow8IdFPvD2eTTpFWbc7aU2lPEAAxby+wn+49SUYPZ4L8zq77ww97HDtPBvKLjyL6IG8kb+EPEpoAT0uyCC8QYnhvNT3Kb2kCQC94jI7PBsRXL2TW5y8tCYBvSudYTxDrH+87pzMuy+QQL3nt+W8BaaIvJ5C77y8K7C7W6VnvAS1srwL2Ku8f6EXPPmSiDuZbiq9i8JzOyalGT1fHV88i0kDvY7+fjwAbMq8IgGCvB0drbxBck08cWyYPDnU1ruMtFC9GJm/vMNrvrzLuIS6DYNTO/jDYDo9VM88VfTgOzYZtDxYroW8xLOAPNv+pbwLWRw8OOewPJ9yarya4jg8Sa4+vKD4EDwmofq8wc7Cu+NNELwTl1O7eq/2vBcuvDxXHOe6FWoQvLmt+jzaG5W8sMW4vNciuzwvieY89qfjuxsdUjyWOz08JzIQPEpeOL1xKp487k4xPS6yQDyj5Bm8GvzKO3SSkj38Qu68RrgPvDmSID1usCm8Ovm1vOwyBDxgZ0I9cRpwPBhHer2KpD48mkx/ui8LAD3E1eS6doiPvD6MD7wRlpk7H0jRPL/K/bz46GW7vrCFu8FlijxEWDG86HTtuysN9buMdTa9i0dSvVKY3DwYwY08i61SPQezyjyU7JW8TqAKvSNvDrxceae88P5LPWGaFzwscTY9+BIrPRNSKrx72yG8JZZLvPOjDj2ciIi8f7YFPR9BnDpKDDo9tq0QOqIenb16aAO9zwLMPTgxObyqkEg7p8EMPaKNc731lto8QNbluvtSnDxrG5w8M62bPPgXUD1TiJc8wJlHvD0WFLzqf/48MYqzPL3sirzmAGm9tF7vu4rsUDwNds280UuBPLY5ML1FeLq8duNtPRwGMbxdiwo9tjnlPJPPmjwFgjG9",
                "LkVgvPb/y7t+FY083zAuPClb9jy9LAm91lYuPUWz5jx0xaQ8ir31vFJykjtBU6q5G8ZYvCXpXz30yW28aj4pPVmPYj262D29iRW3u1v3OTxVnQY8YfuMPNZZeDyBvr88K/xTvYOuJz0Vl5E8esrAvbGxB48w+wePeRUIj/81CI9kPAaPJjAJjzU1CI94qAePr18Hj6XwCI93TAeP8CcIj1tlCI84jAiPY6cIjwV0CI864wePnU0HjzXUCI/JoAePYDwHjxqGB48wpgeP5mMHj/FoB4/I1gaPE/8Hj3hxB4+52QeP2QwIj0RwCI9FCgiPfZoIj7f6CA//pQePzDsIj138CI8lHQiPBTsJj1PSB49JUwiPs0oIjyWxB4/BAwiPBCoIj4pXCI94zgePPwEIj4ByCI+fWQiPsLAHj8p4B49v1giP6qAIjwAdCI98iAiPV1QIj+s8CY8SMAiP4XIGj+jYBo8GzAiPtjQIj8DLCI9yEgiPxvgHjywDCY9sYweP/FsHj3weB48uGQiPKQUJj/1cCI8X3AePNAUHjy21CA96dgiPcewHj0RXB49VAAeP0gIHjxxKCI9XhAiPEkEIj99eCI9TVAePj0EHj76BCI+2MwiPc4MHj/RuB4/kVAiP0X4Hj1Y5CI+uqQiP3GgGj8WBB4/Y3QePEqQIj8LwCI+fSQaPuukGj4UVB49rZAgPBd4HjwOVB4/nhQaPn7QIj0RnB4+XxAePaRkJj5DjBo+s4AaPxYoHjzdTCI+ayQePJf4Hj/rnB4+hHwiPBGsIj12vCI9D1wePXQIIj9UZCI9GlwePoNUGjxHkB49yIQiP4A4IjxPkBo+mGOS62WXfvFX3gr3G9xa9eAVTut9okL2wEt+84zXOOzjZlTww6qw8RMQcPZs/5byRpNG8r4WmPMofUr25o2k83XciPc+55L0Z3nw8sU+xu1vH8rtnUl296Aj/PEsFJLybUuA8+n9svQi+Or1AyOY7YZmnO8AVKL0XRcw8I3VnvJYDFTx6g2O9",
                "achZvCiYMjwrLAs9bCYrO+yBMr0SbLk86NKiulz76DxyGBe8H0iEuyxLFT3i/xw91c6EvRTl0TxWjJ88JufavKjLe7wSLTc8rZEXvbQCxjv4WHQ8OoTmOq25r73NwYA9lufEPOGXmz3BtRG8xz5Ou/wtmjyfDKM82RcoPWmo9juScQM9d4xFuxPoRLxisOU7e6gcPdlCPrxaVBE80SeYvauuiby6K0Y8iAS9O6EYL7xurVI8Mau4O+rRd71NR5I88CsvvL8xf7vSQoK8Gx/6PFcV4Dpa3NQ6hd/iPALMprxuSyO8IOaIvMKKsDtw6hK9E5DhvbVrOT1KjFm8UG8Du500AD2w6fe8eyDyPB+tDT1KoVI7TMC1OVJzcr20/aO8vSNEvZNMoTz5tJU83AvPvKpNIr2vXEG9V52RvH0uHr3IgZM7P1soveLeYbtP+Iq88kznvIBL0rzfkbW6IqfFvDGeo71hTyI9Rjz8vKRA0byXWWi98nYqPZksG72UU6i7Gq0PPGUOZD1KOSo7XKQsOiTboDvbG5y8LlMqvXWe0jsdR6I7QIeKvLVHZTzjjgG9HwuyPH+SGr1Hxc08UO0lvUL6tTyjuig8lL7SPJ5DBL2LyTK9t8dhPbCXxLxOf8m8bcUzvbPVcT0Gkxi91NsLPdFaEL0+0BI8ezrTvJtwIDxFYRy9tFcfPaT+8DsfJ0o8/1S9vLCVTrwR3AK8FBW3vKzMNLzBDQS93AJ4valkLb2XgHg8SNYiPeTCnLzUoFW992q3vEg+h7sL/o09Bxqbu+8HlTr7yby70xpgPCh+Z7wXwCu945gDPVn7lT1XM3E9JEhoPY9kOj1cLJc9v8kqvPGqE7odym289uJPvAk8oDySeFq71zZiO8LKqzyqZ4c9rHYIPPyE6rt/2Yq8p/ixvAzvBr36VlA8d8lqvfeFVLiqJjQ71o7qPIHqTz33P/c8SQA9PCEtubxc7ZQ91dKYvP+8STxy2ii9A+F/vPCHwjwyZEg8CzCBvT/LNbz78ki8",
