{
    "input_shape": [
        18
    ],
    "hidden_layers": [
        {
            "shape": [
                120,
                19
            ],
            "weights": [
                "8SkTPdfgQjyiEN89AkcoPvtuKropm6C9DRDttwtQGL7no9a8KQA8veBxvL3phF29Z9mWvMU3jr0niTw9dptZPfnFTTze7qa7GwR6vslLgzzUuVU+kuyHvcns+jwnXlm8mR5bPYMUHb2NTLG8SqKEvVKtZL2LgXo85ZDiPCU3hr2QlbW9D7exvIgrB72KTp883gvZvbvOYb4o6DS9Io9ivfjnU74eaEg9v4w1PRVGgL3pWUG8pW46PMDvlr2izWU9qfKVvf8Xhb3WCwy97VcdvTUyGT0zOpY8tFNkvVJVKjxqbbe8A7THvSGFfD6/ZZe+gdw3PdshGD3p7Fg+0cX6PJjdrbo601g+xWuuvHCpHrxwb3K9HOICvE6irj20gVG8gffou39oIL1gaN+8iiKoPROBND3CpeW9oRSHvXn3/D1eDss8CrcqPRdcHD4pVQe9H7kQvYiXsr16Gz09eTMUvW2LlL0d4xC9fnGWPUBClbxt1lc8aZKou46d+70Wc8e9IX/DvMaASz2+sWm8jPLtvWDVkjyRmVm9nku3veK4070v/jY9lfZhPaIbN7yDy/W8K/OMPbbLyT2KmoM9TbN/vRs+iD2TLxK9fSQ+vCdIU72Yx0G9ZiiJPWyvKD2A6pa9G6zHugFb3r2FsvO8X2rTPYrUyzzXlVo9N/R2vYaalr2G4KO9KYnTOhEviD1hPGi9BBh8vQ7bfjwUe7+8qo7WvUc3G73nHkk6iJ3SuxU7h73WKQ+9/Q60PLf8Zr3CZhg9S3dNPaY3oz3smz69/tWLPcLnEL2qkeY93E5UPXMJ8ryO0ZO85r99vK/XJT0BTvm7eNtZvWgCv73pl5C9DpHCPMxtdb04MZu9vzdxvdji6TvmUD+9wMvLPXZCoz1U9Ns996EtPFrA3DxEkg+++xG9vIRWmD4/bzI+bbw3O630/DyfXn69Hbu5OoZorb22czG9g4tQvISmj70EYGE88Fi0PWM3tT0+96k8BDn4u+6WIz3j/Eu9pPScvS9NqT3yXQE+",
                "i5ICvcbpWTwklc68TVwPPvmn+TyQlrs9fyTLPVi3y7xxesE90cgKPaorjTw31Cg9Xmycve61bj2UEYK9LxwwPJauf72Ohtq7IDIyPs3rCz2/9649tOYMPVfD2b1QBNM76iGSvcvDV73Jxk48VuKjvS5EbD3e1JG92QupPWh+xj2ValK9Bo/2PXHJe72VJ/M72GM3vHljSj6CkoQ+XWhdPSDF6TxlUge9hL4dPM8I9Lleyji9Mmc2vKRorL1Dz2A97vdovNyenLzdwKY88zLXPMpEYj3DQ5e9nqxUvkqhpL0XXT09yB7fvDYm47wTN+Y9I/aQvT1DF72AUfe9dGXcvcMqkj0sNTG7nPozvhoPSr3F4J87kK3QPKXZ1LzkXJY8cgT/PVFHA73cRgg+EDAvPvscVT0fcMY9B5eRvRdR370KO/c8A6ENvpnD670anJY9d8OqvU9yXjxYwQS+55hhvZ69AjtaadE9ktIyPGBCQT3agYa+jisZvlKrUz3E8GY9UNTkvVVmcT2HIze+nfUjveVRSr5cKF89vB5JvfipC75+Yxk+ZzPHvBUkybwQTpi9cbQdvTlBbLvIjZG85R1svPVzFz6N/B++D55ZvEr+5z137hY++o0NPbaGxb0dmD+9zX2JvaNatr3cPRC9ynOfvWQiYz0+98Q9/AtwveAbnryBxJQ9tv+9vP8R0b3qXTU+w8lMPZ9dLb79Fy47kj55vbeCkj0plqQ8mtYNPWA2KD0bX588c+7+OteGEj04Oam7ThuzPQvnB72pHZo8h2obvDqipD1oK5C9G4vIvY9uqb3vPsa9nCPGvVzd5j0QPqy9rHu2vKYsQD3LePo7g8kmPHsxyD0tRLG9BwEdvXBNmD1h0wS+f1/NPFvz171LWzU9ejohvRunQL2TIhQ+/pJBvtFbzLzyO3c9m1iLPZvRdj2RSmg9UzrquwH0Qz1ChYk9LgQCvA5A+bwpXTi9PvBwPW7tJrzLIj48e6U1vKHTDD0pu+290oVjPmAPlj2Ril+8",
                "QGQDPEBi4LyujXu9N2hTvtq0nb1ZbRC8DtavO3i9BLwy81g9O3efPTw3E71Jihg8MMTivIUTBr2duHE4GfJEvl79U74sjl0+EbJuvV6Zej3CtCy+OjUBPUoaJT3dStG9bnPBvXd7Ez7RY++9KkkxvYVQ9LzdsoA9XLYGPoXSQrzF9Aa5pbKBvPHDBL5Yg5e9cnGAPbvLwr14kRi8yK/pvdMEUrwIi8y7EU2HPH5yd72tfRs9ZhYVPhDVkD3MTCa96/bOPRFDXD35WoI8O0ytPMlnHj1evqg8pyoQPlrPsT0jvPi9zZnQu2xrPb0jF6Y89nXkPZbAHj12gM48LBYDvb6Kv70y66I7VlSXPbr4371Vx2g9Fot1vJI5FT14JBC81pAhPDT74T0QRYC9W3+/PAAdhr2Kl7A9hn8kPT1aEL1/VIu7YEt5PdfRLjxNtpW9Pqq9vbC2dTu2DvE87CmMPbomTTzoqaA9tZqpvZDRxb2MLzk+ajL+PY2BtDzCS0A84ZzfPZaLm70vs3k95mgvvkMwfL20CIe9R04tvHE5eD09q2u9zH6EvM3gfT1j36G9e4XIPVRimL5OlOk6UAtHvTk/Nz1O7xg9R1W3PHKF8T3LxF2967iLuzhmIb11HZi9kpGFPP6mKz2RhcI8AvjCPeA+xL0HNqk93eXZvfMsEr62nEm+HUVNvoeCtz0qj2+9yRwwPmpGPD3z7QO+RG8jPdWOSr7YwQy8xf2BPGFmvb22ChU+rKe+vAZ+pL1SGXA94LBrPeyFIL3j73S8z9JBvmNll72Zcq486fcYva2xmLyb0fY8Fm8EvbKPHb2pxZq9wQG3PY2tHL1Airc8htYdPUbVrbzAg5G94CDFPSnIRzxSrmg96fWDPRXyTz3rawk+l3GVPnrQNjv7dxM+X7PIPc0m5z1bU0M8YzO3PZWc972NiPK8acWiPFdBGD27qqq8dYwmvKqbgL3EJsO81hoLvcDMKrtQifK98OORvXMKgL2akJC9Ay9vPBk9rr2EwS89",
                "ammUve5xYbz2QwK++P0NvRyYHL2P6Cw9xH88vfKbtT1RRWW9NBeUPV1HlL0z8XQ9Q0xEvhR09r1ATI69/ZNRvQc9Izz9c0E8oE+NvNSMqTz+Eq28kVM2vOzZ57wqh2895cFcvTl7ZTy8+aa9zPuFvXio8L2yYIQ9ZfXAvH/Ex73Ojoi9w53HvbT6Aj1pocM9eCFNPHxjxL1Av0E+KRQsProHS70GXhC9j0zlPLEd2j1Wd/Y7visBve6nBz3uLv481Wmxu2K3Kj3lOTS+zj81PXwgsb05WV+9TJtduwAP6bxoZKc9cMRvvb2Ulzy767S85/3RvdfUnT1SKea7h0tDuhvczLjKPhE94INAPSfF3j0trwe92dH/vXb9Gr1eFcm9Ji5xvSt9sr2cPeq6A70pvTHXWDzRnT2+1HK+vYU5oj0nNia9TGXFvaGQR7s5mR09OhTGvIKfaL36KiK9LbQTPF9Ip7yWlSe87O8jvNmhR77hXEy8FlBtvbx61722stQ7zS0eviYtqDw5Giw8UeScvZforLxMpKq9a6epPJfQHr0+F/y7vZkgvnFoib2Oxx293oP0vBWpFD52lgS7u4jYvfPgLjybUY494YJcPYy/p71ui5E5bb2Lvao0UTzRsmy7N/Revbne6z1hW5S9nTSivcNhizzhTYA9/fX0PO6KlzyLkYu9fwmlvWh0Or0VxOK9UsZMvrTUqTv+ZCA9nFWPPcZSdT2XKNe9V1YDvkCv7zw7pyS9CV6EPSTDNDteA8M81NagvdJDL72c0ty8qCcBvuXKB77T8sc8oNy/PVxyjDzFaLm8mVGGPhrgOT2ZX+m5EkEDvirs5T1NHOE8UKpnPes0aL1/qKm9HtyvPey43zzG0pa9vH8gvSquDb54PAY9UOqkPFjDbD3mbbi8ic3uPKqT3z3SIQq9sxGtPWg3bL1BTc29UeIFvRij8Ty7ZYq8dcTku5HDKD2t7wk+M6MkvesZzztBUWO924KEvcwn0L3GjgY83PEbvkrcKj1ONPq9",
                "xY4uPREFp722YxE8OK6AvW89571YRrG8bMaavXLddb1jRzI9xt/9vMQmwL2swjq+eJCBPpQ/ZT2A8Es+EYcbPO0mCb359tE95W0NPlzaHb7B0HQ9mEJru0logz0rNZu89K0CPeHTGzzlDzG8/aysvD5K7LxvG2i+U4m2vFk1jD2k0rg9VTpDPmMr7j33Ekq+OegGPtJQ+byW3EA9QSAqPJ1mZb08yYI8XnNuPYVdGTxUdYQ8oZZRvWNogLwVAPY8dSRrvo4bWT5Rew6+ceQvvrSIXL67Nfo9hC7FvUGW+7x/tQY+bKqXvAsSAT0qmJ68XfHIvYNmVr1wPvE70tCkvN0LOb3H48w88yDavYGVgz2gZAW86t+8PbtK7z2dfKa9bZIQvTMlIL4r4Qq82LonPWgAar0/SWY9XWYJvvdemL39RR89ze+rPa18Nz2alJe9H9cvPIMKVD0ktwE8g7/dvVL1nr36RTG9OS9tu5/Bpb1/axi8J0iKPMmcGT3S5O+9xUQqOTMtybx+lc09GfqNO9wE2zzpyEY9XnbAvXAUJ70636O9vlyqvQlqlz3b/ic+TRNAPcO/Az569LO97XJUPEPKmD1wEdO81Isqvlx4Qz26vgU+XCtPvGKUBD01dY29lviXPSIji73CDCq9GgygujX+fb6To3i8ove/PcEqE75NrrO9dXarPVBOSb1XspM9riKGvYuefD00EaU9yMLFPVcQYj0ZuAK99i65vETdnr0Y8bG8UoySvbaEbTz8Rvq8mpQHPuNpIz6/Ptk9hCoKPtSb+r13EH67+7hRPDOiYD2EnKm8qhaYvalSCL5oIC6+yewNPTDMqbxB4so7L1e5vCD3XjyKvGA9HblMvsv/UDw9Zkq96qssvvxnzLsj7KK9i6VZvTaDSb2ZwfM9jfkWvcA9CL0EB7W9dsR6veDlfT11jH69wwQ5uwZ4qT0jANU9nkVHPTDt8bwX19o8D88VvmO8rL1a2gU++DGcvPHe6T0DQLy9aC+ZPEQROz698OG7",
                "Q6Kpu+fggTxQKp68szpZvRwDmj3vqYC9jEACvsNJKz194Sm+a8bJPbxrBb5t1BQ9U+B2vEPcar2jljY9UPU2O1aXFr3YiBC+wyHMvQy73zwPZeQ8qZq2PWQSmD0tLga9HikePQINFj5exw29NEb6vXdRUTyWE1I8pUrlvXg7SzwIfnk9v9LfvIpuZb1Fk6O9bUIOPPkphr2Ccwc9ksSKvRNct7zHmpc9Or5MvUpcHT1Ad4G8GQAavdtpFb0w49y8MC6DvlLzaD4iL4i93ZiZOwEDGj4m3Nk9YC/PPQpROT6aXim9m01+vU/XPz2zkrA84xq/PEPmLTx7FMQ8oVAFvHu94LwGri6+3VjAPVeZQ74yeNq8Vq5wu+Ca/b05Lk29sW6iPPi7mj0h3qc9q38WPOWYnbt9yhY+BH91OyPt4DyfNmO92BXRvC92iry7ZR89/kSxvCZtUjyGr0a+pA5CPekfCD2SXoE9lpj6PTP3ij3XUhO+sGDcPeYUHz1U08a9oX+BvUskcL1C4FM+Xp48vM8jGD1Wgey6VRtqPR9JYL6iXas9xaB+PjYwQT5TW9Q97Gdyva3GBb4FA5M9kLIvPZxEIb0epDC9DTUqvsGIzr0snG+8chYLPbN+Vr0qV5U9Jc9cPIS21DyVTk++2lWRvfuLwDyVZUK7dF+wvddxCz0cNEI+3zJaPcqLKDxr0Ig9o3abPQt4NjzWm509OWsyPCKeFTx3LF+8nxA0PdobjT3pPDA7f5Q2vV6Ylr3ldb69AzmCPKGIEz7lA8w9eH2rPd97W70GbJA9xbKCOsSvpj2OTfI8d0VoPZXjmTyrejo9VhbBu4lJmz3OHIw9XHOTPR654L3AEcQ90rwQPmhpMD2Rn1e9o1ljPZEdq7zOgr08BcwwPq54bLt6LmE8KQ7Hu9nLMb3gP0M95BuMPZJ6rL1SCAI8COBcPZJwdz06wsu9E/72vWsrcTyFiMG9c66RPcHGtD0jzYY9VmvDugfix72WgA8+d6+nPJV/iD2h9ka9",
                "8RrAPOJz7bsN8pQ9v/WlPPaq0jwmbL69B/Hbveas5D2XEAK+dIoHvg040D2UiKo8WmiuvPDahL0HgnI+ofNKPcfstb0RyXu9Z9SvvBkbUD3xpu+9BeZIPcLOSr0j5ac94j+CPEe18L3Qfnm7TXF1Ps98lr0jS9M97EPJPTK/i715FgM9tRFePVaIlDtEqvQ8wo1nveXoHzyRhto8Q+l7OwTIKr2S5MK8jQggPQAn2Ty2+0G+WNmBPeJiLz3ys6u9r6axPSoeF76ObZs6iY+uvR499LxXc689d0/gvQN6Lzzjnbq7DsoIvV4Dir10i4C812AjO9J+u71z6SY+Ro7kvdIumzvO1pW9qRR9vhl0Gb4CJeO84viLvguDzb1boiQ9LSdhO+UUeDuDpxG+gAbvPCgvsbtjua49mPZ+PeGnCL0IQjm9ZnL3O/u0GD59CGS95L7avCM8i70j4EI94aRbvayehLn3M6y81Ns0PRKyWT13L2s9nuBDvdSs0TykdM69N63KPKNNwDxsIgA+bjmMvaKu5jwbCoC9FtfjPTmfYj7JR2e+XP16PXbpbT1w5SW9XKkaPNV1Tz2ozqQ8rzx9PQlk0TxPVCo9xpDYvAtbg7xR0NA70ZdPvPwpHj1DWxs6SQGPvTwJr716VZi9aMpiPGVJAz5+a6M9OGIAvn9FrzwUPaI+6wjWvWLZ5z3D0co8LSReu/UYNjxMvIG992LEPWWfBjzeDsE8M6iHvT2kPL5+s4S9cQS0PC+kJDyrKCe+2T8fPV+uJL7f78O7FTwWPqs+5bsQ1/884Z3BPEXWqruFveM8am2YvSXf6DxDaKi9H2tRO+w2Uz1o1dI9N6gxPmFPzr15XAA+4cgAvCM2nb3cIGy8IKIqPdOk+LyS6Py8pkx5vIOC8D2QFsQ8M7/HPTG9GD5NBBg9TmQMPeuPpjvhENu9ji2MvR/zAD6uTIk9CMyBPLsXG73MXBq+S870PV7iAD17wDs9+FxZPRm6SL23K+w8n3byPPcbnT3bvoS8",
                "OqMnPQwmjbxNdGG95ng9vO6yLz3omRa+RFgPPgLJ2b0VU/i9uSgAPvMc3rzGkQo9yPoavZLcwT0xTbE8JV3zvHzKn734qCm680fsPBsbeD1zaUO8jUK6PGXRAD18uhI9v/DTvZakpT3I7fA8P4I9PTswebw9CVS9iv9lPd/bJL4dxGg8YuX9vDen1rsnWyY94dL+vNQyRj2QO1U8vl0ZvSuBCb6F6hI9BVvVvbF10DzLIUa+XD5HPqrP3z1hQdO96jyJPaaAej1SqMq9NRGqvaT4hj0S2YO9z6RIPZL9fb0klYa9+gkwvaxTpT1qzJc9vY+qO1dgKL7QBbi9tsoFPmrKIr5gNFY8bPVLPGEm7LwxpBg9CV8AvZZgIb0fWhq9avWUvFAlzb2DjBo+w9WFvf4D8zuLAd88xS40PZk7FbzEJPi8LSsNPvFnMb742yc+ph/LPc6NBb5jqqK9PSQTPdTCTb2chHw76rgyPdcIQbzfP7I9Jpc1PRe1Cr3BrLc8p3Q2PeibKz28eZo8VTvOvW9sLz0vtSO+2Su9PTte5r2JoIe9f52lPOPBor0oNLe8sESQvUTMfD0LLd89T3VIvCxwljw32/C9pdTUvCI4u7yk1I09JJbuu9Z+ur1nLHe9dEkEvO/GLT53bzM983aMPa9p972lPJM96HfYvK/OGD5YQk89z9k0PZTeQzywTle896mdPTPrxTzrR5e9agzIvFCQjDwKY5W978CCPIHsSD1w4QK+OFNAvBUVPr02/BK9A9jlPJ3WO7vRHeE9HpTFvEZ0pz3P0tU8chMePdfI5b08zck9lW8kOyyPiDsdU0C9phPMPVK7OL36L22+8JsBPs94Db35Hvy7vZW7PfGjYb0lzr89mNz7vYYqZTzY3428tHjdPKAQGrzBzDc9QQO5vY1XiD16rY69UeUMPRUU671m1u+7zCSTvV22z7zrovK9k5uDvbxwh7yjIZO6WBaSPe+wAr3L3h69dTFIPV/hk72iIYu8HaQEvWZPjj0e8Zm9",
                "KNb/PZDfyj1P1E29LAJ3vbcvCb7Qgwc+KXdDvXfNFj40nBS9xUjbPBViXD2DR4M9J8pRPaAbubzX1yy+9LCUPdnidryX1IA9ECfuPUZzFj0B7ze91zHyvBqkUD1PVCK9NwSiPW9lJb5YEq883nXEvTcccDyHkdS9dCBXO1oTFT1wUBS+4lsXvYWDZDyHB5O9zZOZPeFOLT3lB/E6Btqnui21uL2dp7C9KGKVPHyE7j3In5U9azuFPagnob2sMji9YYGJvNj1ab2WOb27hAjFvSB5pj0e4BU9wEa4PcCjFD28qSQ8iqd7vPEfT73QonW9H36SvZ90Cr6Ftj6+ehY2vltd0j2dMq69RE+Ku+Gj8z0LPnq9F0jHuwDtC76X3ow9ONidvKnemjt3l0i9OZ51vXZUJD1Rw0a8lhbBPZPoxT2x23K+tBVxPoTgUL1zQJs92wxsPYGgA714Y5o9UWO9vajBn71GIwE+uCSwPUOeAr3pKzO+j1YmPbf+Lzy1Bpm9koVdvcA7Dr299cY9+kVxvRZ9XD3rci299zPFPcVhTL04tQK68qNmPW5bxr1ZdfK8OFDjvC1Zr7yDXJQ9fU9GvW4Wmr1YhN09DAxkvaBD9bsBYo29+0emOhGWYr1nlne+i6GKPQpVRz1R1BK+CJ2Eu7jFEj4S1qO9nTCevCJnXb19Ok29q23OvSg9PD29jcI9ss4iPePQML0HOy89aWwrPdFd4D0m2XQ8PasePRjsdjznoaa8b5EfPY4FjL3Uoty9QwbZvSHZi73IT+O9Yv7FvaoJDr1RsAm7qc8WvDAOgb3E4UW9f02/Ondsg7yQljq+xlEPvuu/QT5uYMc6e+XjPZhN8T1vA848fHs7vaVpCD6nZ6k9RA4KO+vemr2poTu9V5M/PVP8rL1FAbO8Q84LvS0T3T28E4+9XLe+vVaQJTyV6C2+aRU/PbxKQj3p6tQ97kAmvaneKzzw8rc9VFGPPa5MOj1pEaI92jZJPUTVij0OtJu9OyEQuhYEnz0XXKW9",
                "V6KTvUDi2L1Qv5C9wdDgvaC/KL7DKrW9p5sIPfnmE77GsZ+9DgcMvYxxLDyEyH88COpbuzYXhj0n3VG8YJ+qPNjhrb3dS1a9UJ09vf4rpj2xUxE98d/7PSDaRbzDurc9VPg0vRVFs70gP9O8/oi1vDP8jrz10FK9uQudvTctWD0QNUC8f/sOPRkIKz3choy9PxC0ux+GIr0mGuS9B/KFPY3QDD0JlQ++qEE+vhWb1T1WwwW+qXD+vZLNoLyH/D08UD9UPWDDM74t6Ni9Vm1CPehKBT2PNZS96149PZydiT2X5209OacXPi67hj229T69HarbvXd6ib1mwJ092o2VPWdTNb01W888gOyLvVxbijzkepC8e0Y8PZF2jj2xa8c6jTrJuseolz3KrU29ppzSvdNjlT28OAg9DXS0vdPN1j1yXIu9Y3Guvbrk4jzkD5k9r4RpvWArdL0XT209+X8xvVbORj2/ghM9sZ34PdfZvbvECTa9saC0vLrt6zu5Btm9B/gJvaOMXD7Js4A7NfgGvWHyvjwlWzM8LSXIPelI7LzWx/m9r4U8vZ48hbmPohW9BAcFvWNsSD0SDjm9nAIMvSJjsT06jp68i94gvcu35T1NLIE9BSCSvCQOk70hV7e9M7vyPSUdvjxr0h29uKGJPUjVLD1qhxC83iGGPTmvNLsmNCc9PdeOvOOytz2I+9I9aKRyPILrhzyO5ss97huJPiIwRT4loRY+TtdYPV0dp7yuJyo97FmNPZ9Klr2xw289g5OWvQX1jz3EAJ282psEPiX16zsDNYS8oOZcvTDwPLwurh294C0aPYEWOj651rw93bqEPa2CIb0hAQ6+s8FPPcOD6z0DOuE8ZcXFuyrdnDzuJJo8Cpb+vKgQHD0d4Wq9SOKkPavITD0GT8+7P8lwvgcssTx3gYW+DT6NPrsQR7xdVAS99acKPp6gOz2Otv28pNJcPF8xrbvmO107qOgSvJv09bqYXte8dDOjPEyBTD1NEVO96u1/vZKYTb5arU49",
                "SNtmPn2NxL1Ra7K9R7Y3PMZiyz0WD8S8Iw5TvWqBnT0s5pC9RzzdPe4eQzzPhyI8lINlvHqALD2U9Qc9QPNFPBLjDz10hEc9fM73Pa3j2LzsUru6VY4AvtCGA706vIm+ZVNWPURyJz5Q6sQ9CJDrvQt1ar21tcq9eFoxPGJ7TbwhyXe7BHeGvSrc0Dpm6tK8OYvkvBM7s7s3k4C9whPqvbFaF77lEza9+sKJvvvTOz3FHcG9VeDOPSMldr1UBG+9uslrPXC9d73HIhy9Wh+VvSUi5rwXCXG8KppCPZTU5bxE3be9HYjlvWBuTb6vI2299pVIvateI76xS4a7mWllvknLPz15Aay99BGkvXCHST1vPg281NbAPPYLZT2xm6q9jnwHvOoAlD2OJyW9+eYLPnm+J77tIAw9unAyvmtmhTtY8sG9yZUevOQH/r36gVO8jR6IPVBQrT2ULh8+yya4O1KWVL1DVco7OiX8PeVE1DwWRbm8+u0fvfBFoD1e1KO9qujIPXzKjD2Qfas8qfnwPB/Hiz1Lv/U9WyHhPe/L0zxq7Ry9pZmgvBiGjry90JG9ba0VPD/n9LwHufk9tklxvciITb4/45O7DT4hvV2a4L0LJjC9HoeNPI4glTvz+4e9MatZPZm4HrzH00q7Ib3uPWoptrxc7sa9lh66PY/qMz178ES9/FHevWPwSz2GBMm9QZnQvbVcmDzJKhu+v2smPPfeljzPyAc8UpNlPOs/yL3ste68+X40vGZfvr0skt09c6/0PPyfbz1ZZ3g9nh48PfDjxjzWPNW9olKEPANZMT1r9+i9ync1PUFDiDzZH5476ngIviuSZ70Tu1c9pLlZPWRjjL0pW0c9cmaVvUhQBz33F5m9SwPqveokLzz2PW+8VsQ1PU9dDr6wQns9aWh1vYI1AT6hkvC9WNx5vRk/pD3dIoo92jdHPKg94D28sVO9d0swveKiEz5UsSy8wS8fPbhtWj3nCPU9TPAhPEF1BT2wYxc9sqQavdlqe75JA7q+",
                "glGHvbu6G7neram9UqtFvW7kOb1yDCK9q7/puXiYGzhxEE29FfYZPSmxQ72S1tg83MY5vL1vHLs1Q489V+xmPQAWSL4auEy+nwYYPo9lhb0iBMc9nZ8nPvXC2D1mGCe9oNSHPLw0aL0Kg1Q9Yb/UvS3jFD3WcDE7pkXUvBpe0DxblG89JWpHvO3f3b2bVDM9Aga0vPJ8Ob7jfoG9tbCLu/dsGr7pFYG9pcqEPSFhNb2FX/08vE14Oz7q8r36JSO87Vg/vWS/dj0oVIy8o7kPOoKaDb03Pum8OiK1uTmuPL6PEFu+udOZvQOAsL2ZjSm+9O/UvUNzZ77db+e8m4fmvJ1Ngb2UqOQ9YIT3PbIfKD13m0K99kdYu0KqMT2BN/a9PQobPUAxhD0HULq9rTULPqlpoLxK8s+9CaZ6PcOI8DxLJR29R3qTPGCyerzk/FW9zFxzPSqOxbvZNcs8OmyYPDFbBLx6BU29yYdAvfATBL5dDQa+jS0wvSnpF74xu4O9fg2tPXJucb1/LFS9x21bPnK3Ar6CMIE9UVpPvHXWlDxTLIg9yZyfvWeJeb3WbGM9wHsgPSaBsbyrL/S8nlTlPHeOUj71JMg9i5WbvYLKlj30aY69uEr8vWiwuT2OMBu7DurdPNCkzr06DhA+i950vQpa07xQxSm9jPuJPHaPkr1iyYa9+6QdPV9AOj7iyqQ8Wm9ou0EpS7wgw4y8xDibvayTJz3gKRG+hLVavgwrhL29J868YrEjvcTwnL2Ryji6koRwPaXtmD1ymfE9OP86PWQq6r1VZns9fV22PZkiTz2RM8491SJCvVkX071bLu06h6TqPbZ2qjyMWkK9G2/gPKBwDb6vMqq8QwaDPVSJBD7MPS29ejhivVGKQLxF/Oa9"
            ]
        },
        {
            "shape": [
                120,
                121
            ],
            "weights": [
                "Uj3evPrVT735TAS9JJvSO9rJGb2a/2O8BR/6PPencrzcZQg86DxXveruyL3Li6g8aKYovdRCM7wz/IK8rLQ3vPRywj2Aeh691S/cPO952bt+ZWa9fI7YPdDzZbosaJu9pMCavZEQFL13Jrs7JgVovOMzP7s786G9VETPPPaD8TxkJJE97N8WvcZqwznyb189e20gvRl5qbyU0bc8+EzWvK8rcLwO4qS89irovHRiGb06+b260pgrPMqzU7tvGoC9M8YKPEV2ybyFEX49dLiZvGOAk7siApc9p3fCO2T4AT2cSpm8Ymmqu1c+Pz2sF6Q89Ck9u9uXOD1597i9f1ZdPWoLiL3g6Uu9Ae8qPcZA7T3WkHq9uUgJPXk+77zW5Mq8p58APebSOT2Hx1y9FET2PWxPuT1x/Ss96Mfvu7qHmD3lsAe9OkfqPMltBz08kdM9nMRYPMp1/j3XUVU95nmFvTJZmzw59CE9rz2FvIJPYr1UmqS8HEo0vAQUab04eK09yqTQu+YCwbn+F4G9wThWvSgIAz5Xy0a9aNedvIL0CL0bpSU8TgZovUTahj3w/BC951GQvZiKtzyWrY69B36PvfnQ8TzV8rK8aLtXvXOCZD2zs4Q92J2EvXYuYTxMxri8uWkwvZ07CA8tPwgP6RQJD0ACCY/OeAeP3VMIj5gOCQ/IKAmP4kcIj7q/B48jTAgPXWIJj20aCY+4igiPI+gHD8UsCI+YZwiPi2AID4NfCI/i6AgPq0IJj6sSCI8kJAiPXREJD2RhCA/1EAiPCGoIj0KuB49xjgmPpz4Ij0VvCQ8e4wcP6/0IjyNzCI/yFAiPEL4JDzkDCA/SdgiPoVIJjzjJB4+eEAmP7zwID3i/CA+p5giPyvoHj7uxCA8nOAmPs/sIDwywB49vIQgPRNkHj5nICI9qqQeP8JwHj9p0CA+XhwiPnKMIj9NzCQ8LWgmPVz8JD9iUCI9bYwmP8vAID6aCCA/bDAmPLNAHDxoSCQ+RCgiPeNsHD4UgCI/V7QiP",
                "fVQIj0WwCA+2+AcPS3gJj5awB4+DHgmPIuYHD3F3CY8b8AePSPUHDwiuB49SzgiPyv8Hj3EnCA+X+wiPGqYHjzFqCA/FuwiP7wYIj3OjCA90eQgPqhYIjzloCY/rRgiPLf0HjypJCA+cLQgPPfYHj6ArCQ8DEAiPwfYIj6kdCQ+TlwiP4TsJjzypB4944giPNkEID6+jB4+howePCBoJj7NiCY/gNQiP6QMIjxRaCI8UpgmPmtgHD9S7B48QqAiPROYIDyLwHr0z1vm81FoFPTcCSTzW2R+9y3iBPK/gEj1CAnO8Gol/PG6A8rmFXEO7hoNDvfjssDxqSIO8TLS3PPH1ZD2VUj69SXSOvHePmrzqzre755ybu/0fUjztasI8MVXVu+GgvzywoQs9C61FvaWxeL3awr+7pnJxPPpcwjyKxAW9irV3vA9cEj1yJiI9CJJvO0Bxezy5yq08CmgJve9duzwcfCA8M3PfvP/krrx437G81lnjvO+UcD3azkQ8cjRKPf70G71CMES9OLn5u8dw1rstBYm81yoQvf5ROb3Byrw7viCFvb4LiLzgd7I8T4OBvJOgjDrcSPO8TsIHvX/YtjssZbM8h10TvSZE5rxKvCe8kanevAx5oDvRZ4U8NSH5PHXdkr1NHlO9BN8GPJ+2D702UY+8/JpMPe/pkL0fIWO8AiR8Oqrcgrq7S/M83/d7Pc2GCz3oJ9M8XEGuPUr5rTyBgkO92fJXvA4eJ73RgZw8plWovELejLtxaDc9amGQvMwse7wiug48SGUwu1j9BrsZ+qO7cCmuvClxID2Isx49+6SMvPNZz7syBzY9y94xPKy3pTyisBE8sWPXO6b3Az2qL5K9Pgz3OxRsPbzqWOY3PQ7dvIC5Pb1jL229VPIZPFUACrzOd888Vr/fuxwdvLuvAeC78nGQvbvHdrw83oY8q8CeO0706LwjsUo6eWtcvHrpS7u6njM7g0V2PA9dqDyyqCc70uZSvHQPIDt5PzY7NguDvFZCfjzZWoq8",
                "D51QvaehwTwDM1E8t+5FPHO73zqtYsI5/BNbO6KQFb0K4188adcTvbJ2ULwlktW8cFwjOyuWhbwZfvq8GdAgvX9C/zzmE6i8aks8vWhxHb0ErV46OJCYvKGkEbwGP+K6lluGO5IYpTxjT448Lq0hu4OrsroGO8I8oYt+uiJGNjwAmQo8cPgfPRkeC7xab+O845OGvcRYnzwJVc28iDVavYUmGL3dvJO7B41AujtbBL2WlaO7C+vWvASgO71rvD09p53gPGRoAj3uhFW9wyoHvZKwmzxQYpK81yYvPWCrdzzT8se8vUqPvJem1LxT5pE87jWYPEMvHzs0Nx884/2gOTZFrDt3Z5m85/sOvQeQk7xlY/S8nv0cvBN2fDxEdx87vFacPCKvvTtcTSw8Upd/vHhgz7zBbha9EUK+vK/0lDtfRWm96ctPPefKNLwBtgG93nZqvaPDuzxf7Ls77jADvA18Cb1eV2m8rO0QvDSar71r81O9iVoBPWCIYT2lVT29co+KvbEKBr2Yeus8NcW5PWQw8Tqdt5c7x77NPBNVwTwW6xA9UH/DPJE+8jxyf5g8QtCHulMRqDcNA4w7c/5APBleJjxcLZI8QtxdPETM1bxMhD28ALJkPCgqJzzE3QM8eVGZvJTupLzKWcC8sFYCvAxZ5LtfNzK8F8vWun92wTw/jsm8G3jmOYqBPbzJDko9P9pePBhRejxE+jw8m5D/PNXjdbzNFty7xp0sOt736zxsTbs7F/UAPWDL5TxX1l88b86LPOepELhisxg9FGJBvChnwzz15QU9a7yEPBuaybzsOLa7a/2HPJH5HD368rK7aO8kPI+24jvm8+S8SIqlukxPTLxHC8k61vPnu0it1ThzLUs77joCPbALBz1aBPw7ifC5vB3oFTx+X5g58RTYu3pGXLy2ibq6uQSCPe032zyE+gE8tyvMO1GGijz13we8vx2Nujqbrjz0Ge47rNISvEiQ1Ttyxhu8aQ+OO07S3zy4E8082I/XvBLhfbuLRAu8",
                "YrKkPJgr7Tx5wDc9noGSO8O8ojzMPAI7R3OOOwOXWbs15TW8c//TuaLb97xkf807fjsTPEHTHTwkKmA6AvSWO82cQj3tP9Q8fLPpO+KIRD2FmYk8yfizPBe+PLylNwi8AmYGPIk1zLzdUt482q7kPKM+Fb6vuRu9eGR/vHHWWbx1mAu9uVNtPNgXTbyWr7G8B5izO57bLTxSKNE8boyYuxq+q7xqQI+82kVzvYa+Jbzvw3Y8VrVMOXVvFrzCcSs9MbN2vHuegrwBxUE9B/IkPCt2Dz1pYIS8KxTuvImjNDxYh8q8PwfKu3gMhzxafru71YroO1hlCr1i9ug6yUT6umJONbtwv2Q9UFggPP7vTLh8GEC9bvlcOysqszyl1ec8a920vMq9Q7xUwBI80vxrO3ggG7w/4nw88V2yvPPOkrwALDi9dDSAu8OWKDxFr3G8ji4Wvcy1zDuEzLc6n1fiu5kjyjyTPos8LBiTPPrJ0rvzb+q88eJkPJsz5bxqQ8o4qbs1vIOlML3mpCQ97M6uO0ZRE72R+L682rozvTqP67uxKLa8VdEMvVRukjw6tpG8FLUsO8Amir3ejsG8E4aWvEM6Mjyu+5u8x1Gsupwgz7qsH6A7ByCpO/NjhrxpKUO86WnBPEwuG7wfwwC95A7Ouxqo5Dxjp3g8kQDRvOr+lDu68iK7rn1ZPc46xbpKh9i7HK0FPMVgFj2PQ1W9XpaXvA2t67yUVGe8JKLFu3WuqzyfHQm8xGYLPFSe0jsCvBk9sEASPUFGlLyejQm9PhoqvbXZLjwjw9Y8LbROvXJmXrw757U7tL8fvWwwvLw+HxM9HC2DO0aOsDuARAW9a7u2PC2hrLw355q8TeU7vOr9YT0u2q08bqzOvCC+Mb2aKIy7rPOpvMfAPbxoqJ092VOOOxbVpjzr8eW6G8nOu7qqnzyga4o7dfIuPTp7zDxPq/u8MhyWPBeUqzwKydC8vQjFvCIXxDwPw9E7eC7fvOI2rLxofk09d2gtuyG8tLwW4ni8",
                "/ll4vJryhLyg/TG80fYKvXBSRLzfolq9O4/kvDI8izyWpQQ89VGRvNyxYL2nwPs8rBdJPZ7DBL1HRZS8BCxMPB8oPzvkM9w8cbrevFJuqjy3tEs8UvkQvR2ZT7vmWw49VYjTO4TBmr1ZvS07jv4fvEcpBjzz6zK9m50nPU0IKrwzBDE9n9OTO1YvrDxXmli907kZPdu4aT1HKI88V4jsvGWL37sK4HO7isuOPZvd6LmjYum8GjYhvcjEFby8EKo8780NvZX1kTuXD6M8x/qMPCJrELw8z229EV8XPGTCRTt/etK8aHHHvP+zkbwWRKu8pr7HuREqxrsVrRE82/LwvNEdzjzM7U29oyiJumoeqTyDiNO8/T28PSYsP7z/e4I8hudiPVa8CDyex8s7dDLKvCHe/LseGzM7svBjvU4lfryQnaS8/kRpPftmu7xZCRU8DRTRvCXHzLuW0i+6HmWKPLduCTxthpg7q4c9PGjJDr3/q948d8INvIniFj0icUA9OeZVvRrZvzz+RBg7RYZ6PIVy/bzn3Hm9XzqNvCrK/7sGs6q7dk7Pu1htJDzjJRM9yqGGvHvjk7zpWjm992yEPJ4h3TziCMA8Vi7TPGhmBj3dCs+89dKGvR6mg7wgu2Y9ntBcPHpP+Truujk9WRgJvTJfhrwBlbw84XzOugWgIr2nvDU8EAHsvD4qDD2T2i88mGxQvBxpe72hB7083F87uxvkELsrvgI8XM5FvarHqzuamrm6xJY7vL9+hrzGXjs9KNsvvV2RlLyLxIy8xBY0vWHFI7v2OR29MPTVvM1arTwGSG08QTcSvdHB6jweaNa8GUjTvG7EO7vyk6a8TrGnPAgc4TzVKYI9UeyhvOSNgrzQSIM8cJy4vEfGOz2Ifqw9MaI/PNbAijxEsD+9XKTOvMD6lD1Pdk69aY4evXBfG73z5iG8vf5LvW5U/DxTz9+8W6D+PPpHvbsjwNk9iemfPXRaKz08eDu93WIEven4Er3WP8Y7ogwmPQsxtzwGqiW9",
                "FCQZPUku1zx4FA685kpQva5gjr3dKcw9K8LwOgMEFLy+OgiPgt4Jj80tCA9X7wgPldQHD8ClB49tjgmPp80Ij3+hCI8W7QeP030Ij41kCY9kgQiPwRwJjyWOCI/S3wiPVaoJj5IcCY9yDwkPNzcIj6fpCI/XeQiP9XEJj5mvB4+IxwiP/f0Hj5bDB49bcQmPHusIjx27B4/hCgiPG2AIj2pXCY9lPwgPuR4JD4gwCA89bAiPSbwHDwuPB4+MHQmPnpEID4f6B49l/wePQwAID9ejCA+HqQePsKMID7x6CA8HZAmPXkoJjw+7Bw8fcQmP0oQID8BKCQ+AJQkPF0QJD/wHCI+XoAeP5eYHj6WhCY/2XwkP5oYJDz9oCI872AgPmQgJDzMnCY+GVwmPsJ0Hj/UdCI9FmwmPlDwJj+dRCI+hLwiPR0AJjw4yCY8hKgkPkmsJDxMXCI8dmgePgkEJD9BSCI9EJwmPtRsJj2Y5CY/9JwiPnGQID/WICI9MvgePy9UHjwaGCQ9dTgiP2R0JD0ryB4/HvQiP5ecHD71HCQ/HBgmPwGoIjwgPCI883geP/awHD/1oCQ8/TgkPC1wID/ziBw/UxAcPhTkIj30DCY8VSAiPiWIIjzYkCI+lqAcPpQ4Ij0xOCA9GcQgP1cYHj7zwCI9BPAiPnkcJj8tkCI+1qwa+V3wnvSE5QLyWnAA8RJ49u6itTbyARQi9MdoBvLo0BD1GNdw861cBPCQiz7qWgxS9XKb1vFSpbrygPBO9GkqTvJv1Sb0A6Ww92XoOPWS/ljzvuD689OwWPVuw670OwTA9RruWPLXNgDpQ4Fu8VtIJPewEBL2aluq8wytgPTmfOjxACNy8Nb7JvBjrtrzf/BS9wNMTPdXCbD0CxiK6N/cNPBp7G7xmyrk7Sao4vQuQh7xPTos92J+BO/ygvDyY8IM8KV6BOyQger0fUIm7i8dSvYrwKjuX2lY8/wdPPFwcgjyrNAc9OWmBu9SqrrwlShC9tDEfvasK87xVCum8",
                "A+4oPVNVY70WjpQ88ZUcPJGWMb09A5686srOva/mwjxjEZY7438VPShbLzykI5w8chBTPGGlgzuUOQy9couRPJALBLxJaHY9TbL4PBYDwjxZwPY78hcJPbagGb0KUdM89XJ4vZcLJj2qEYe7pvI6OhHH/LywohE9A5T0PMTObDwgPVq8OyASvFBei7zB2Hm9c0eDvd+59jxfyxA8NIylPZcCq7xmpOY8kh+OvYj5lLwJA708EJTAPFTcl7yQvtQ7wt0SPRrsiLxFz0y8JxSWvOVZkDsHTxE7kjgnvT1VzjyDAxG84/FjPPqJOT0hmQQ9b1vZvNWRPrv0/d28wk4pvUmDG7zExeC8QrlVvAvs5zwIJc68ufgnPblCkz1I6Gq9P992Pcd9kD1nfHW9S7levJmkizvr6rO8Ya+CPV2+1LpKiQI9kyaJvBFTD73epw27D1HvPCjDDD3ikga7li6kPIlUCb28OHO7vKoFu944Krv7CY09UuhlPCIxJz0aYJS8bUo0vSAXN73LZ5C464ZdvVysTT0D/h29xLSLOyy5XDugVtE7/b8+vIEMVT3e53G9LcssvGbxIL3bn1A7W+VivehVb73Mi7q8eeJUPboi9Lrv65a8Ecs/PBX1wbz6CA+9ujHXOk6LjzxVpoI9Kf2nvNwdJb3gNtu90CX8vFtR3DyleKg7+z8ivVY2zT0/LRi9YKc6PfX77zzTdQg83fUQPfQwTTx2Sa29HOayO/EkGDwTbCM98GViO07hVj0OPQw8HgvzvAtU47zE22k8BMfkvMuNazxUP6A9OzqZPCYK87u6/aS8l1oKPVgGczxWGYu95SqzO4HhNz0nNMM76NBIva6C47zQf7E9IYKKPVDWgLtgh+K8ewdlvCvNETwAVpu7WM67vMBlNz2g0zK9ZTRKvS3rwT2ndb47NviZvIXucr3xuJs9UaI0vLNr9bxUqsK8qIAUPLafLbwLs1O9R/rwuxwXpryK5f88UnXGPL3OX7trhNo8WRsVu23XEz0J57G8",
                "zg0MvWlB6jsFDw09B7srvVl03DzEnvW7Evy8vKZT/jxSH908A5KSvPtfybsM0uu7CS6qPIUSQjwxPpg794/Ru40rwDztrqC8q0uOPaSl5DtCOC+8cWyBvEIm0LxagIK8w/hCPdy4j732TLG8RjvuPIUC27sT8405+5ppPEPXuLy09jo9F7epvF2SLb03wuw8U0HovOxFGbh3zxw81z6bvO84SL2ATR+8qwDkuL/98zyMCBG9xFumvbz2SzvZtWC8wYmWO/hnVzvxD788jeUxPSEhlLzM0q06T4YxPaWJdDilPbW8CCNPO1ivvryNZbi8c2ouvFjarDyCHjK7DcjlOwTjM70eYhy8FeimPI5uIDwXzYe81QAXvO5t6zsJpIg9SftQvWBVFDxJYvq8FO9vPI8rCL0a7wm97AvUPErpG7z0FA+7N0lGOzSRED37Cos8ZiL4vFxp6bxTRxq8MXomvfGuEr1av0k7MGT9u0PLvbzVngK7PnNDvYS7Bbwf7tm6GQfVutJb0Lu2V0q83LfqvMgZOj38TpU9V64fPG1dVD2mp4+7+qS1PP5oMjmFUaG6kQr/ukWeDT1xmaM9k1m1PffQFT3oxbY9EzUXuyrr1jp7Roc8aT0HPbeSuDzTuHO7NE1fPWbkvTxwvfG8rhTHPJntMDvwEBc91zK7PMb6aDukP4M9qxBqO9la5byx9TO90Xd/vP6bMz1CR2u8sSMQPeWQGT08ZJs8QqFQOjDdqDzl7gE97IS9vIOIaz06j3y7soIEunPis7tVY+Q77HzzPD5vHb0QXVU8G/aSPNm2grytPR47IgJoPXEcMDwLu1c8rNpzvBMoKbt5OgI9Xzn1O1h8sLwxweq8pcsOPeo6mrxs9Vk9blL1vPOAP7095O275/FevLoeZz3Kekw9of0sPL81Bb0J0J67Y7GDPcCZbrrT/ga7W72jvHsMeTzxOBI8MCGOvDl72zzIJoA9DHs4PZ0W4ryXdNA8EtqQPSsVLj3YRDe8DjwRO87ugL2G7oc9",
                "Sov7vHRDOL3b8iW9xhxvPSL+Lr0bbBW9rLgBOnEYmzyQAtg84CRgPZ9PADojMoE94oXbvMB9UTxkHSC9i5JEPYUKqLt4CL89SPDqvPzhJL1xb4e89tmCvcCsHDyZ8d08CYf4PBLFhbwYS4G94iDYPeZaL7saqxm9fdkvvVSbHL0qkDm8IqYtPe3aPr3s7468RpqfvaGLy7zPo8u6AdkJvCuAlz1YoSG8+D0xPWdXIz1dcBk9GHyDPPgbk7vs7RM9zZqwvLNevbxWC9480XYBPdh4wrw06wO9E/XZPBhKsDxC0i0915oDPVVEdzzA2bs8tjoSPdIjjbngYoC7ySnGvHVEED2x/AA7FsEGvDvxVzwbag+8797WvDeR1byJ3jY7qwcDvSwqCDzbEAM9wFojvR7rhLy3o/87aZldvEljorzypu87wTDsvFJUn7w7+4u8r2CiPXKJn7zo9cK8gSKCPcSSlbxdAK48KoAGvelxyjtuhqS8PUyFvDihYDwUxz68eNJMPSelAz2g3d+8bzS/u7ARiD3dmmO9vuwkPTm5Rz0F1Yi789KqvYXWCL2fDoC7QD+DPTCeIjyn8oO7n6FGPOS+uTzp1/w7tLUFPCARAD1aSYE8uRUMvQwIFjx3yHw87ACIuyxqrDvhpPS8S/2hPG4rRLzKL4+7eX59PWFAbruAN4o80AMzPMci77yVohq9dVwZPcOXrrxYJmi8Qs7UvNaRU7zzU6I74pOQvDLSmLwDADO8vmnpvKR2XjyLvB49vc2MPEiszbyypBq8sFXMO7hi1LzeoUG84hm6O6p5Yr11nAw970N4u0ZsaDtfLDK9io32PO6xAzuG2Vi6gJ3pPCDTC73ts408DaXivJJ9HL2Cd3u8JH0nvaX93DzOwRk8iJPNPE5DEb1JAqw8fwLRPMtefTziuAc9AX7XPCPo1rw0VRK8kqhaPMzIAL01MZC9xybWvJyQLr0ycfS7qpe0urDJ2bqZd1a8R2uiPNLH9jw2SQO6XdvEu94f5rn/jmi8",
                "/saevJnAeL1DK4c77+MFvUooVL0AsRg9mZ0RPYrGjry8w6C8sBhcveERQ7tgtVE8BROSvOcdWb3YBQ69e3STvOxlLbw2Yh09UHmcvKEtbjz8Vns9ZqKGvftIi7yoEVi7MGEkvXPBQLyU8so8yHaKvJHxnbsuClK7ygKFvI8csLyxYJq8QUg7vEmtSzzsqgY8kR92vbQIgTw2Lza9eqWLPaAbbjwVVXg9BgLSPJbrML2T0uC8MvUlPYGTsDw3aLi8RaaUvVP2SrzqvZe8Vjs3vN+aHb2iZlm895YePfNRxbyRVfC8pCYhvU8iBrxoMRg8VtFjvXQFIzr3dAo9J5GavEmV2zxk3LE73bIYPIV/JDxX7RW9qV78O6tTML2+Wx095v0CvdDfTTxR4+G8h2TXPFj9A72Px8+6lX3hPNYQTTt2EmO9VIfBOxnQDTzK98+8NeF+u2W3ODyauI492xN8vJ+jFj05W0y9/M+rvcsRA7w/uFC8IHwEvWVYRT2n/yc8otrwPGBNNj03UwW94ujIPA+Ujj0lsOc86+kDvRGVYbwQnOY81+byvIOqrT06D+E8sis4PL9FST3389Q8s2wnPAPb4jy7Bpq7WHyku2hZRbyKfsK8XG58Ozvo+zsKcgI92em8PFESRLylZcG7cVyPvZvNsLwWEps8hkQKvdYMAb3FeGk8hSqkvFKDnLthdxe8Sm4fvf5DDj2ViF09NXrUvFXOITxDRh68FVZZvK4qRDwCFxC9AmY5u8slojwwEas7oolgvPIIUr3A2jM9O7TbO9QjAbzE/Im82mNvvY4VdjwxWzS7os+IO5o9zLxvbpw9datIvV+XKDyEFtu8k6isvE2zAL0Kznk8ZLTavM9xg70oUfM7bgTPPauAFL3RlRm9qufnPM1fBzwlSbe841GEvS4t5bx9l0E9Hjj6u67bFT0DB0C9ZlP1vDc2Fb0Ldw49wE8vvQNUQzzlI0i9qpnHPIhAn7slQ+w8vIK+PPJKs7zvDSQ9+0vRPJkK8DzEMII9",
                "2CEivbHusDvmImK9B9TGuyIkCb0TNqY6QKJcPWQad732KFW7OqKuPMvhprvOGUk7urs5PTrSvLu+k628bzvAvPvpSbyj92K7MF9zPdAoI7xpXS28o3aOPDAF4by9SPA7QUEPPMBGQLviXwe8IAp/PITWeDlVvAK9azBMuwmZP70hsWo766XpvFF4aTwtZEK8C2kkO63rNLzNJ5q8FEqROson1bzh1ks8TnbWu7MTZLx36Wu7/WE4Oyg8Pj1pGo68WM6SvAQl+buBgro8VUuYPQ00w7zl9PI8ipvwvK/EhrsoaIO7WWp8PGldJ7ysWXa8bochvUtjpTwiSbI7BlSBvAzV4DrAYjy8S7hrPYZ8LDw6Rfe8Dl4EPFjZ7DzUZzC8UTNCPF9wRjyBtVq8wVoROlgmp7x/AMS8GA/BO2tqebtw2DS6kbcRPZmIJLx8qsY7wk+Qu3lbp7wJU8O8TljLvCLH/7ulecA8LmrbvEY7uzxWfYc63NZbPIImULyEdDk9ym6FvIfyn7tZoGu8XfLtO7kyy7x7VJc8K6bnO1t1NTxkYaC8CCDGO5CqNTvz+yQ9x1PsOzgnX70lXsM8hWuFvP4aiDxMNfK8yHMQvN6xbjsyNMg8bc08utdObbxOeT28gQPzO3zRwrthEzs7xaWbPH0hIT3XrKI8cCLkvOb2eT0ySIG8ggmMPB7OPj37kgy6bTddPL/L7DsexSA7Cz5qvIKoub29BgK9G7GAPSymAb1Ig4Q9XIkEvZZgzDzKlh+9vfZoPIq9J7zK31w821oBPS0LPD1HaUi9KrFPPX/joTsFouu7JsINvaBHczwu+Qg9SS8Qvfa0AT1Hxww9h7qqO6wzWb1zDDS8UX0qPO5RlLzYdOM8qdZBPRErNz118zm9GoEJPHHhmTrCcDC8PpLkPIJnvrwioVO9CIqyPBQJEz3tG+279wuCuy5dWLl4Vl080U3mOzWXzDtwZlq8LLZJPWnDtLxN50U9Gl+KvUTrLr0FiBs9gxTju4jR1TwCVRC8",
                "DGojuh2DlrxjtRk9vAv1vIEI77ys1R+9Kzh1PL/qQjtBeCW7KArCOGG6iryv4hs9hTFHvf+QY7yFDw+92oPmPIURojyExPo715+uvAiMlzw9jhU9SPbqunEnFb2G+5Q82M7Ou3Mf37zIkWe7+iscOwzTtTxkkK66P2BQvHFfY7uds9O8MFOyPK+jNb1j4NG7E0J/upsNfj2Th948ixpTvLMPoLxJNoi8YR1KPOFU3Dz0QVW8A1PePPcBeDzEPH08qIMnveEkzjszE0q9xACRvEMIxbzGxq+8KIZ4PYACdbzOSUk8hw0gPOKZx7xPXpa8sfERPH4XHb1wFU69Q9gTO+G5gz33cge8KUSWPCiQNz2Hkoe8KYXbPGJSgbyPXQm9PnfWvPtj8DyW4I48WxIbOyq5LLvsTcE8JgmNPM1NoLxx5tg9M1Q1vOb8fzyj6HI9HqcdvIh0NLxxK448UpHkPBtZfzyAgSC8nrr7PLGNqTmsVbG8o01XPUE9ZzypgWc8frTTuroQNT28QYq8SYSavE7UCjzJp+G7dnujukSdpjxSM9u8Ec5gvDTl2LxIUoy8dVA2PRdIBDpjTkQ9nD6jPGARLT1y7r08/DAHPfKspbvltR87M0MSPRPjMrzwOQy9IrYPvQNRR7wU0XU9ruC7PI9l7bzyMxw9p9euPO6qmDrb8Yg8CcgbPYi2Kz3N2pc8YSZoPSYKEbxpQEi9rcYivOhXirtppzi9YqbbPNqUBL1v7v889mixPDc7xbxUbBS88V4ruwTESr0eQRW9RVkwvFWiLLxJxdC6T8p1PDLN2jwyDtQ8uk7QvF8Cqbxokhi9VcH2O1cvVTzXawG73w3bPCXV4bwGo1y7pKFHuxV4Pzx2NjU9oqwFPRa3Cb1shdE8mnvmuzP7hzsdMZA91ci8vBu2Ur2Wn4s7k8MMO0hvnjywUCi9ifuKPYXxSz2aI6+8sj8DPe6+CDvTqEg6ujLzO27n9DtuqoY8ncvyvaTguTwTcME8UO3Gur2Vjbwb9Fy9",
                "7mK9PBKevbyhZHw81TF7PZcFLTtIrS29IfaGO8LgeT1zGy+9sRnXu7LYIb3fRf479fFdvI1MGz10b6m8OCCZO9SoCTyo+HK7jNt5PRyx9bpGqP083EN7PLlqx7slvKG8dmFIvEO8Sz0IPUO8sRWJu1EX7bw/RCa9ZGNrvf9/sz1tiW+9D98RvToMnTw084i88WzwvJJZMLr1j428TR8FvbI/qLsty+m8nuYrvDBv7bzxzyG9UTNlO+sWizsPSxC93IkivZ6j1DuwcFi9q38lPdIkYzsNUDK9ndqcPG+RML1ZjZe8CJitO2sn6jzTpJG8q4JaPe4QwbwlbkQ9EpCRvQWL/jxf2tw8BMDCvOGKHb2SXMG8tdnGvG43hL0hLTe6ptnVvMQvTr03nEs9L/TYuVSxQb0MlrC9/oH9PNPAqbye24G847xRPZBgDT2mBoY8CHSSO0a7aLzj26G8KwIoPEOzpj1gdTm7QMIEPZJUqjsky8i8w/3JPOypAb0YLIy8N2xnvAEttL3m4sC6UDGYvB6Drjz8t1W9v34/Pfz037xwRYI8e8EmPU7bfTzBDGK9ZCDWPFjtPL3L6Kq8dn+Du1tJIT1Ypkm8rnruPFWFID09H/26kcYRPSTOPzwM4WK9WZbWvPavzjyeov45S3pYuwPWabxn2BE74PIZPckd8rzkQYQ7IyAbPQWdcL1BKyC9P5w/PJFTMjwnLUa9GaYaPNJuCzwxZVU9G5WbPLjMjbwWZyC61k4kvbxTvb1Vw0O82UYfvYAdcroy5BG9pEmivSiYqbw/fZ+8LI54Pa2Y3bwLZpe8C49uPC3b7bw2w6G9Wm+6vBNmyrt6HDu8A1q0u8IZ8DyQ4wo9ZQlRvUExnLyVgWK8BvESPV4f+jxjtnw9H2/dvJLoGbuBbww9GFb3PInJDz1XMfC8Gh81PP8/eb3Bgym9ULi5O2F3+TsRnDA9ifIVPT+Za7zxuce8L5XfvN49qb2DXNk9mO2kPdsvBb1MZzy8tEeqPFbdZLyHNdS8",
                "J/BRvB00MLxCw8M8uCpRvWGjjLvN+l+8oiTDurIyAbz9s4O6Z0y5vF4w0bzBQAS9jhgWu1x/R72dTXS9xjxSO24H0LxPXHi8MZUavVZNwDx95qu7jgnIPHuI4LyFgs084mQhPU9CPr2yHOM7aVGpvBngzDwV35U9wbLiut949zpIGnS9qX5JvRPtgD0Q5G+7piyxPC6lLb10tIc7wjwePEGQWL280eO8O0Y4veL1Ib354rg7Biq+PQZBR7yVOGe7QlR8vYNbFT2x+6E8b3g6PH6Eab2Kr5Y8dHGfPT5pTL2MXks9CAt/PdIezDvsqa09JvmBPUkiBz0z52K8K9GPPLXS3rvZ3KM9Fb13vNj5Jr0OCuM8on0OvXrbG7wFhiy8wKmgPZS9nzuJXBC9C06rOz9WxbvDuni8zZziu3d/AD1aCtE8PYkjPQ33/TzMCE69Z9Qzva/DOrzSpEC99w27OzpPLLzZbKM8o4sDvYF2nTxkN2M8khCBu06JKb0aQ249FRxsvPsN0zyxuD26jlrHvFnZJDwoy6Q8lGEQvTdRrTwSkyW4X+MQPRE+pb0xvdu8OqPWPHKRlr2QPIq8ZwdDPN5BNbyYNaQ8RDgOvZPjjrto8g69fVqzOyyMfLvSG4u915yhPKFDwLwVgFg9+om4uy5mk7wOfxW8vaEKvYC+fLxxxta6kEbMO4Fatjt+sSs8fRtAO5onMT29zt48SKQvvX8y/zwquxC8ml2BvV4m3rxhVu48aI7dO/fiGb2QlQi95zL6PE4x5jzmVuW8XWh+PP+vWD3MQ2483ZTTPBgNtDusywe4GvUDveeyI7s4MJ+889B3PfyKNzx1K3u8lnojPaXSIjxQNGm9lq8yPIkPWj2NrHq8Sw5Iukjd2rwTzfI7ZjmFvPW4Jbv8S088zApevKsmxDsgA848OyDSvIaOILzmpO28MEPdO+oSizms8M29EqmBvdUZCTyrY968VyQHvDVUHDqIFwK8mQyBvRJOe72A36O8THKkuso6GTvFPpw7",
                "5H6COzFBB71S0Ro7R35tvAgbQLyZfeq8hkKZOtP7xrxLCUc6JGAwvX4Df7zDX7Y80LTLO1YIg71mRF08vQaSu1p667tucD+9ya4VvPRoZryn6wU7nolMvdVeKr08eku9Tgd0PVuqO70iSim9xG9kvTL3QbwWYEA9GDD1vM+UaLy2iBs8Dv+JPOmTHj12DkS8WVODvJpvzjsOmMa7rOUKve/iUjyQWXm9nf6DvGs3TT36uaS7+fFEvfRdFb2alY49RkPuvLmfJj2sG868ZgP1OzHL5Dt6R4G8umirvdoRNL3O5+k8Gl6qPA2C77y8enm9mEj4u0W3Z72XuyM9gVIDvSH7U72+6Rg9ciPGvD7EGbwNEJC8RPFtPF2CnTxDpHo8z/KjvEDvHr3/cJI8erZfPV8NtLv1wvQ8tuGwvMrkAT2k8ZW8QjOKvZIRN70VY9A8lPZZvWT/oToLchS94QXwvBbVHT3XxEA9VYOqPIA9gzzdsAI93RhtvCOJpj3wYs08C2PNud/Dh7xXfK88Ha+evLLPEb2VQs08lJPRPHgT/7zdohw8ZmCSveLGxrwO51a8038HvVcGOT1xWRW948uLvGgk97zerUm8G5UlO4TtlbzytJG9aNYPPa9bFDy87Ie86A35Ox0hBDxu77O7U5h7PXgiHzsgC4W8ETUtvLDvoz1iCiQ88Bs9u2FHxbu5R2q8CZKMvNBMtLvpjPY7ScjxuB1VMbr34rK7zXS2Oj4J6rw5nDq8giwKuxCwNb0HQQC9rlEkvSrxC7xFpDo8Wy8yO69PbLxZB1i9j8fBPJ2aKzuMKW495Q6RvIeSsjt9kog7r58HvRnojDzlSR29bKCkvDaJfjxHXJC9M8CNvOM4GDzhNw09EhwuvaD6wDxfI3C8eDGIvcNa5bxC/AO9h18QPYnGfrxHSAe9eTnEvIopTz0v51O8BrEZveR/kTyXShS9Kw/hPAsFqbuJ3Hm8b21cPbrQQryGYlK7b8hnvMqJrbzHfq25CVTDvBoI0jzjCPg6",
                "boi3vIuZj7xpjAA94UVwumHzKr2fTsy8CnVuPAX7H7ucGGu8T5UBPVJSBD3j2yU887H8vJa3iT0HZo07OhxMvbtVpTnO7Ia8OuwvO7SQDrxuw0S8OA6OPKcaoDvR84E9B2Q6Om5JgjzaIbo7EL3qvHdvIT0AYyo9hzcFveqFCj08W0c83hEUPMAa3rwdoo895FuqPYmb97w0bly82OWVPCEKHzzGsUo8hrgDuhxvNbxv+p68O1p0PZIEsTwYNK+9m36OvGDNurosxOa84I6MvZzrJ7zkZIc9990JvWc+xzxI+oU9JrmXPMh9Uzt73AY9i4A5O4tIqTu9Vhc9hRWUPel5nzzojp89zfHoPLgAjLyoGk08A1r6vFDdZLytF/08AaF1PcQgQrxAIr278cmZvA6GJDxrVl+9xdrWO7wcYr3ULJk9MrWdPJwrMj0/Vls9ws0cvbkPQbufr4c8ZyXau4+jGbxFNr07dVFUvGlaeTw9+Gq6rxFNPWMow7xtEU88kZLGvNnFGru4G/K7E8zVPJONnrzs/oE9Js5TvQ+tcryVaA+9tuG0PAD0CD1QXko8IAyJvZiwkLz10Mk7HAT1u3x6pjxn4Lk6f/shvWJaOzoQSwy8VNhiPDHA1DuuGZQ87CjePMd3prw1cIM9t4mBPIjRnjy1hrG8ScT7unjWRr3MWe67ZhQovaNbBD0H7Mk84ey9vHMTY71xuIQ80fCquiH1m7mkew280q2DvPyytDzDvgc9bgwhPOZsNb0lYmE8uw/BvGjwQz2VNLk8PNStvEyyWLzLnPS8qKC2PAN/hTt0EAu8rBUOvVUlxbt1ABQ9QVzxPBdaezwVN0y7kNJbPfRyOjx1VEe9svJ/PH11jbwFaxe6EMLivPCbHz2Odce6z13EPOeddrs86om83GCBu2YXbj3bLg67djwHvVIfu7ynEkC8irz6PN+xkDxi78W8vIKEvJ/sqLodpW89L/iGPCNUrDxEQ4k8pER6usayIjx1rqM8VkeaPVUrFL3y1W05",
                "5O7ju3xjzjxFqJq8UmsqOov8h70hCma8E4udPKPkaTzE0qa8+XOkvHnmJj3mi1281WmDvIeSy7vxKx+9ZW5SvVKoHT1EvAU9Y1V1O2MxvbxJop28bAugPJ3GlTkx5QW9FAyMOzeOQbuVa9c8/4LdvFN5bLutUZa5oq8YPaHrCL2JONO819YcvVRBHr3Hu9I8T8nWuyJrFzxmVmI7T5cLvAEUTb0itzk9YW1IvR0AOzw1VXw8icV/vLf3Hj10o7S8W3ajvOLzhTwfZWU9N6JYPeh+A7wCySS8UP5cu4pHxzwIavc8Q5pPvf8BKLy0mki8fbGNO2QOAL0HIJe7RTZ8vI3Fhb1lhwS9XeSlu8LZaL3eNnq7Mz4vPZg0Aj38Y+u8wP6+vE0gD72Rnoi9pT1svYGF9zwtlZs6Ta9Wvaz4Cjtkg0c97deIvS5YIrzvxpi9nbXevA8RjT3pMAS9I04ave/lxbxXDKa6K82cPKAjdT0ysky9jS8sPXISQz0Tnq28RBoevZEd273YvO69DjHRu9NhEjt+jSe94fe7PEw88bxtxxO8wFc8PULGa7ktGcM7JPMtu8xEkz1DEoq9jFyFu+IDizzoYca8QlImPfTvi7zWpwW9Tf1Vve7OI72KtgS8omPBvFkCuDzWgWW8bE7iPKYjLb3EHCa9BYJJPaMcBz1Gam89cJmRvcQ6qb1TSOW8qHWyOzjPjz26tm+8PeHJvG84JTxE0Qw8D1BJvWxXELzxFBY8DP4SPUvq+z2Fg8e8XMApPSrVBj0mTWI9JL32u45yZDxvrfW890Qcu0xavbyBKnM9+XrXO3nhST0ZqzO9n3GSPRvK/7yt4BA8NH9kPb1Wu72RhaQ8xWk0PbCmu7wW2d487i89PRUTHD0afUW94JoGvSoHYLzejVy9F1IFPL8mlLtA7JY8kCk6PGwUGD1rhYQ9UEqFPRwiIj0DV7w8oa9GvdU68Lv8uVy9hpGpvB3Xmr3Uapi8/7HmPHCN7zzrJua8iEg1ukMUqT0+2+Y8",
                "fgwcvBTRODz2i3C9dX+PvMO8UDtfMbo7bIgNPrdDzjzbnJA8WaNevE82Oztjqeo8cLnGPL39vLx4Iwe91w2yOwBLujz3gb+74TcqvdV0lLy8CYw8z2SrvEZhij0B47O8L1UUvAiOXryBPC68FypFPQJP3TwL+mi8xS1OPK8FqTuBL4c8Dm+TuvELPzz7L1u7DABYvPHhHzvl6CQ78T5XO6z/FDwdBEy52x1FO9eSkjvUctS7ydjRvH/LwTyetrc8gEm1PN8vijtyU2m8MNtQPGbBi7wN2rq7EgECvejZBbzIFUg9Yvc9PWUIPzs9rBq9xYRyuuCqaDx/eVY7GTCzPKut8DuqdY28wbP9vKT67LzxRNw8EdEkPWYxEjopS1u801nvvKSEQrvAHLQ8E/quvCTWNzxWiO28VagQPbz65btyyyW9OuGoPFL2CTxVv9m7ne/kvOJkVrx2cSe9PN1OvfGVAzx7K6E7kuiGuyUVujx9BWm9A8dHvSBmj7t9/+y8bpYVvTNofzyT2907hm9IvbDxqzyqxW+8noBFvA3To7ydn/I8PHGzu9WIcL1Fj2W7d/NIPImKIDxKTJc7a+6pvDtGJ7w7Cvm7tE3Ou+Qyfrzg6Xc7iM2vvQLCmrzfb3G8CT0QPH8jtjyWSIG8uQs2vAG0x7wh9ra8q7+lPBcy/7vDVIQ7w95ROyftPryF9Gm7KKzOvICbGz2gNJ48TRQEPQGGSj175Kg8mq4svSpadz0TXqs8rrUVvKKiz7zV2pW8MQcRPbLP9TzAdpY8Wk56PFX3Yjw84xg9MVAHPRRBzDwk0aW7rkCIPZsuAjvK9Jw8eql1O6jOAb0Vw4y8ofWOvGxexTwSrfO7+iMYven+Hzzq2ec8k/3TPMTNajynxkG9BKmXvNQzizpUHo68a5cgvdTSXrxbMcA7iSV0vEWviTsk6BC85F7AvVEcr7zLZRO7irCxvIrDsLxrqLs7HBK+OqU2Vb215Vi7DquLvC7vLr1KCja9XFPKOxRukb1Z7+67",
                "CIOdvAeYLTzUwgk9JRHEu1wMjbw77o68/deFvIIeMrzJK2E8dlPLPHUWgTxV7UO6GyKWPMQhQzwOf4Q80sNuPeT5trxmocG8TgIyvekXB73QNKM9EW7sujdNarsCKI27IveXOzyntbxhqCC8BnUdvWB4jTz+PBo8Av53PcanNb20W2e8gfW5vP9LF70a/si8RnxouyWinbwLJUE84BfSOMcEBL2bqAS9xVTKvDW3yzsfIaa8OHiZu2xek7w3jAU8erSKvF1GGz3eAPY82pT4vAR2Ur1fjzO9d+QJPQzTpzxajEy8InsdPDq8Vr0l4va8o4Shu0+yBj1vdVK9J96FvFPB+DvF1nU8PQMUu109Pz1ZzDm9YnM5Op/PCj0CsxG8jbmBuYN2H70mKQi9tlM3PNPwmbxkvws6x1f3vEgtQjwP87M86/MzvYfOBLwvuK27HfILPQH72Ty75pG7V84DvJOoEj2hGrc8AMUAvFnghbyQrgq9/OCqvHrDurxUnxA9JIskvRRhtDzT3mo9jIiFvDmqdLhmTts8aa1mOx9ZBr2MEKa8oGW3POB1xruF5uy7ukdzuv3sBzx1KIE8aZU7uo21Bj1P1TY9M8Ouutt2hLxOYEG88AcpvGdk0ru6LIO9UTPbOTEAWb1tEAq9zyOrvAFXjzzJEy47XiCDvOFUSD1Z4Gu7CvhOvAy3hDzDfhy9p5AIO88v/byaMZi8aO/nvCR9GDyqUge9VHi2O2qbk7u+qUu9sDCSvAywq7p3RBs9bJMPvRAzDjyG6Rq9Jv7RvFWxRbzeULm8aCIpvOAoLT3+qsa708wLvbhL+bzLX/y81RV5u3U0SzxW8yG9HLozvKrPFryI5V89/udwvWQryzywcS29nBZ1O1D0GzkZ//y6jAdnvGs3xbvbFig8hr5iPAaB5jyADaI9qOi6vBKn3Lw8zZI8tgVLvXycRjyZOaa8b4qqPN2WE72edIE7TM3EvGeqjbw+E4y8RKw5OnlFED31v166LFwFO6K8ebt+ege8",
                "mKbBO74YqDxYwXe80lQ2vRMCCL0l6m48UeIJvHmVs7uJVqo7cpbqvHCZUzsyo6Q72gMZPTIi1TyPYjC9OHEZvWd99T2e4Q097Z9evaOzf7zfuYG9ayd1O5E9VD3dHtG7J1qnO9M2xLrNutI8pGwFvXupVrz1cgO9XXBXPATm2ru8XAo6Aj+3vMsNzbvzncW8mI9iPXFee7wQzDQ7hisZulpczrzFeAQ8UuGiPIT28jwPuf47MJgzPTl1Kz0yUPe6iXGju+Hycr1sfwI8ejyuvPdEar3blYu7r+GwuXZUUrwkrXq85fI4PTDmJz1Hghw9twVhPKjIUL0oxAa94p9dPTPGCz263pC86db1vB7oy7xPpyW7i48CvXeYmzzEUpS8p8AWuxgXtzyMC+K8a0eHPLhfXrslySg9e/YYvJ1jq7yVtVs8NsWWvDpmULxti968+peAvYt/xjzAU4Q9Z2R8PRS4Fb2xqO06xHBiPPm0fT0upUe9ZaZTOkNTjbxZ3ic8UAd9PYG/yrs/Ml26jhWAuxFdK7xPQtw33TOou0CZNjzjRwa8k6tGPFii2LxxVqy7lJayuq1NwTvZHZ+8rDGfPB6dD70+wrY8F9vzvO0D9bzBXwo8s2LEvExF/Dy4+PE71DSYu15r0ryNOGQ9JboIve3x3LvBWt48QXkxvKLMl7uPlFA8PmZEPcEEHT2bqpw8fThVPTAa8rwUgcm8FN47vdgELDw8X7Y8McaNvHhgsLzxlSo9/rchPW6xAb3vfx284COsPD+XwbxAlAa97lgzPSPeQL1Suny86RwFPU7hHD1znTS8S4iuO2hX4bx35xk8Qv7bPFxVm7zwOeK8XIAnvORP+zzpijQ9fmhePJuLzjwsiX69ZRfTPOD67jzGnoy7UYAHPD8c5Tyi8o+9iTEdPdAE57yejRe9D16OPO/vzTwgOzm8KAoDPKZxZbzP1e670H4IPXhEhjsPWL+8tTtRvBainDy5u4o9WiNzu6Yj2jvdOii8s+USvESKGDv84e48",
                "nCrOO5+m5TxkL748Q0l/PNmGW725fDq8WPH8O9biC7rfUYi9bhwOvDOG+ryV/lc8sCkivObMvT0goSC8NtAuvaGHYL0Cf3G8OeYsPVlNbDulwiw8zQBfO+JB8Ly1tJQ868IlPeScmTvSqiQ9GKEKvXYHBr3yFs28tsrePBZa5zzqMwK92VAovNbK47tBAq+8lroRPPqUxj2RRgy9OpgQvcO9OD3hjHA8xK0/vQWpTDyoNQi9NwhBuxSv/TvRYbE7tTlYvc/xhT0H5XI9ez5tPCw2b73vCwM86zFDui4GZLu6xDG9nc0bvSF/Tr0JROy83swavZVzZDzlZZA9FkFNO6ZpUrsZPmC7Qm04vWkWA7yhfic8lQh4OhJLQ7zoAzo9vYnNvI2zGr24XA29vdFgvZ6URD2zwRi8ZnEevSlD4TwvAJ68vgAzvI6e3j3SXoG9eO2Pu5EtQDtzhKA92fSyvcoL67xNKlU8MXOTPXZqOryg4jI8qqYpPXSEhbtHWao9DqMSPbveuT2gny09ZicsPbPghjzJMxY7YduJO5g4eztQhVW9BJCfvNPOsjtwprK70ksbOzGjiLsvrYE9+/cbPbi/Oz1rSsC8ugvNvDbzg7w/8Sq9y2YvvXuDtby/Qlo9RpglvTf4qL0JqWw82XdtPM+277wwDug81REYPW8WHj0fjow8Rj+gvLuTJr3v8+i8sPx0PVdbRzxcQym96PDrvQyegr3aDYa9lKdWPb0sxT0EmFo8qY8QvXjMFr2Mmja8iCC8O+aC+rzFWxG+vZ6hPJCEYTyjnm+8qOHNvdt1dzwdtsS8CwI2PfdxVLtTXLk7+a5LvVs0LLxAiKw7AnyLu+f/H7xxMqG8r/WyPOQQfrx5iee8RHbnvNbnCr06k8G6SQ/CPK/vv7yvjjE9EhFLu9Bo27wDi6E8L3AtPYHfM7y8rQs81G47vXk5LL1ihEm7NKaKPKqjLrzcBv286wXtOxShjLzJgzg90iYIvaP1NTutksI76ggzvO1dFz2BtqQ7",
                "/YqkvDquAjtzOiM9mZQ5Pa/+E7xfKZm8wVNWvKNDJb21WRo6K0wnPYRWN72DCmk9cbFIvZK+1rwJYtg562szPZrfkTxVemA9pkPIu5WYoDw1oMc8oJ4KvA4sJ7yOdUM96U7SPBrghTxCxIy8RcYTPTWgbD034iy9KDR8PCTAAbxw8Wc8UAOQOslqcjxbYO07wKiYPXWUszsCiws9O9UfPQaUGLyBbRK8g9oAPFdOMz0a6fg8cYuyvVsMPDtzpgA9KxVYuygXy7uNm2W8jA7NPMMzXLu8tR49RFievOjxPr1WDiA93WzcvIY2gbzpafC8ElLIPOlmjj2poes7kosPPWF3J7194sq6mud4vfJ2DD0FnEA8jyH1OuvTfzxFyr68iCRvvH3JFTz+KhA9r5rkvS8iNj3bXDQ94l0Nveh79bxUWvM8u+uNvZb/BL3RvFW8E5/Eu0CFXbwWybe9LLUUPYU4YT3JWF28SgA9OtJQK7340oA8gge4vO2qPb2vOas9mhUDPGV4Mrz/Ubq9GY0zvPHu+TuBMQi8dduTPHvWIz6PpLe9+TkuvRfLDb2szJa8Nni+vXc3Mr27FhG9Kto1vb8BobwTFtA81pLovarRUL1RqFI9JE8qvfnOobzAU848rnuiPQumDD2hEtm7HjmTvRqQP7s2TgS8DEC+vMw0ery5dsa7HCDsPDSV3rwW3Be9zysRvFCBqr1r2qu9VcmEvco96LyMUgS87+qYu96FpjzhXTG8+mYlvUXeo72frFW8lounvDz41TrydiM9ySoJPEMhCjmD5Vy9oKsVPWSZvb3d5Hq7OUC3PFexkjwmXqo74lEBPbc3kL37E+28xj9dPaEBvzyp+ik8SrgevaVQxT05oQQ92hT7vCJRIz3yp/w8OqeePKt8wrxyRQw9Bs61PZ5y/TzBz5K9MfgOPLoNnbsyfGG9Rs49vbI17LtNmaE69kW/vB2mFr2i1J684xwAvFVbg70VWW69AtJBvZFJXjyouq68UZ0yvYq5jb2fE1m9",
                "d7FHvQs7Mjuzi+U9WbhiPewkyr1lhGI9pBMmPdK7lrszlII9NIyMvFFnTzzg0gg9uiPNuaeZB7txzEG8NgedvK89sbxQTh89L3nDPMPUTLzXNVA9lmRlvHpQbjy6U5s9/hlxPY2SuT2G0XS8sioPPcLLXDy6kge6JIq6PEFjpDsnxsg6CiiuvFwQLL0Vq0+7OqwVvEumJ72o+Jk9Y3QnPR7u7rvI3Ks8duUDPf9EOr2QV808S7XtvHGgk7xsEIe8z5ikvFo+Ez12iIw9b2pfvLR71zzit+w8YQsBPjYkML2IwyW8hFm8vGpHTz0yFIi8PfDEPErMHLw/XZC8WUDSu7+kwTwjHJu8lEIjPICWCj3mLOa7kE01PCBHT72dt0o8E2Z6vELlmDy9V667+3kYvLT5qzuGsyC8OnsEPXr9nTqoZ/W8UN4yOhaN/jsKxIU9Ah5OPVJRBbz49tY7jXu6vKkgNz2pQe08HTbwvLUEDrwwVLC8q1ozu/tgY7vVqIo9ghsWvcAz47xOEoM8OA0zvPnpADu36+27G3ypOsTpGzy+O029EfoqvMeQM709RoE8yqckvR24AL2z+ns7N00hvMecJz36iiY8EvYGvLI9O72/Zyq8KY98OoLAOrwd+sy8+3A2u1AZhbtFoHM92ESbvFyTnrpxIwm9H22eu/ErCT1sKhs8lapdPWgSkzysm4S9DuMcPN7mCT1yLzO8aU6ZPDxa0Lz8N8e8lshuvJV/rTx/5JE8ARsVPd/Ji72ckY+85R8GPVdsn7ylLsK7DG8pvbAcb7ydXqG8Q/IJPfXg+zlhpnm8nNgzPIkX/LwRmHU8OzQHvQF1lzxu68q8oDYwveXJw7zOLcg8lPejPGvMKrwx/lO8vuIWOxU+E70Z/GS8C0FlPYjZ4zz3Adk8B6TEuwZxLDzD0Ia8iOSgvR0agjxqCjs9Lp7tPOldHD3QRps784KBPdXPkT3BZ4K8hIfLOsFDvryZPmm8TWkFPZKzF72y74Y994s/PdwpwDxswCK8",
                "o5D1uogRkj2B6uG8a3y9PKzMUz1DyiK9B0kfvexvMz2Cijy8bjYyvSj5PTydyiG9hhQNvPKcYrxk0sw8PIKSvPp7pbu5UMa7bNEePL/bkbwECCA8upTEuRMM6jzjE4i8oQDcPIBn6TuIm0086C8XPEJeTLvcvi28nOoIPCAW07y+abY86BLvOn4vGTzG4kA88iCivC1+N70Yz7Q73YLAvC0RKb23Nxo8Fp6KPfd0lLyGa3+9n9wUvUHYe7xHrKG7DVLZvG/F6Dse1Du9Oi4+vaHkfzuEYwM97WHQu1hIAbvI0bY7K/ofvbQIAj3eHmw90k8lvP0ZEr32fE69tSIuOnsL4rt58K48ZaSYvNiF37s+edm7zJq0OzH9Lz3cUuA6du21PLvoMjxXuo+8MbxEvf2FRLxAs8c6480CPOk5n7zNQiA9E2fMOsoNcrzjlSS9tT7iO6kCBz0Csrs9fp5QvLFqQzqxqGi9aBGUOwb6xzy7gjC8cSzfPCzAILwe7l47MNCaOtJ2Aj3wjRM8I+MgPSAldTxeMNG7Y0ddPVVKgT2gHZ49vmQGPfAGjjvPdMU8p21NuqZvHrzUZcG8Ws58PJh6Ur0zdiC8iVGOOwzsxjx80Oy7ONj1vBZXjzxqMdg8mKUWPAZFhTpPT4U81n6nu1ZPczxCwN06R5jevCXFE70R1d88MMgLPMEBz7s61xQ9f3JZPLFo7zxf+AW9fPVvvNrf+bt0rg69VnRPPWa5HrsadUI9oLlvvPdvszydTfy7XY+VvC87Sz1ThjS8tSMdvA7uBjz/x7m8BfXcvHCyHL1+kls884dZvBGwSjySYSk8bkC8PJHFlz3NNNm764vkPHitD7zSNLK7ieDMPJcBdT3ydJc8MxMWvT3d/jw52iA9AXnqvMFYXDzHIhg9TqPduzzUr7xq0GM8gOc4vJvCk7qO2jY8+KCzPBM3lbxo0Sq94+0PuhL3f73CTG49rzwGPXU9oTyOOq48pC/Lu02xRLwg9T09lNANPcb/MDoKWsW8",
                "dyG3uzCQ3zvnfbu8wyWavHqr1zxy7vI70xOlPCwI47wCNdw8n2KnOw+zm7yS6Ek78LhQPPGrIDtR6J25fVqKvGCF+brC0aw9wpWru67qsLt8UZW89Jo/PDCNVbxZCSk8YHmGPTEQpz205k48d8sqPcAKQrz1Cly800G1PXg9IL2rOxC8vF+bPDMOObxJSSc95YpyPQJHUD3OBga7M8gQPZEzCTzt0pk8I1MHPWp/ErzAIg+9hX4aPN05nLzA1gY8DW4/uTzhDLw+nEY9VBRjvQRHGb0B9oK7Rx67O0kIrbynqso8heghvTchG7yS0BC9lKUOvR6Ijr3bSbM8j6n2PAebJr2unf+8mny6PBp3Kbsnolk9XxdovdAFnjzWtp+8y5kvvWyaBLzem0g9CA7YO6lqZDyLlLc88EotvBS6Ar3TRZC9U3JMvBnrljxprCO9TS66vFcCg7wCcAU821n7vAKHa7yJ5hY87d9DvKvGTrxX2Ma8T1uvPewhuz0WWbO8pu7gu4BDsrssfJW8KUwiva8V9bs36uU9ob9+vD8E9Dzvp849cE2hPFuIgjxMhLG87v9dPIKCT72dg5K9VsAfvLsAiDzqjj+7R/Iau48OObz+Do08xH4evWIburyvnta72zoFPXmge7zcKwy9l2P1PJbFKD1T8qi8XFWNvDU4TLwsr2y9ppsmPeKpDj3SHUi9sHSEPdE8a7yRr888DuxfvP02Hb3hyUc8HhuNu5yq0TwJLoy9pVsMva9Dazw1hq28JpDEvN4etrwiKQg5OGkLveUDVb1UJ2Q9Dy01PEHPWT0+Ipe9ijZ8uwrtPj3Nq7O8p1envJ24FbyfFb49c9QAvZgbQr004To8vc06vfQPpbz/FzM9PDRxvd12pTxb7mO96/5tPeEKpT1WdSC9lnXpu8H3kryhnLK8OAi+vJe327wCV2I7zYntvDHFn71lj1C87rCcvMzhdb3DuAc971biO/uokjxjekc9/pVOvPmCW70Zh4c93KNdvZEHBLyo+1y8",
                "ypHSPXRTSLxwgLS5DSCvvGnCQb0o3Qk71rzOvPSBBryl6Sg9Yl2QPYssNrw0CA29vsksPFnw0rw3wDE9zHnJu+DXC72szSW8r6Ypvfp1bT3Q26I8q6EkPcOS3TwVFeO87r4WvAb6kjxdz6Y8Vi8Au6cRDT2Us4e9dWG4vBuLgzz5YLo89/5vvVvHKD1Ccxs8VmaHvXqGXzze2Me8JNUXPSIGB7wNAAE8DXYSvG2OmLw+bYy8jRXLvIGzO7wiCkq8zfm6varQ2jw63Ae8GfyqvMCTbzy/S7+6fa8MvPS+qrymvGy9l2c3uw3AC7wlmIW6grqqvCNdJr0+aNy71EgEvcOJb7xm1Oi8bm1APLteQTw4cNQ7dfPMPJ1Hc73I7AS8pfB0uA9EDTw0hmw8KgypvJWQDr3f4xO8FNhSPS7yOb23POK8CXk8PNu5cjugJnE9m3MZvX1EZT1v0dw88r9EvVlcfLpJlBA8+1B0PH/qj7seZLS8Kz2zPKMNkD0BXbG8QxbRPGX3UrwUYWc87hevO7ryvDxNsfa7hIdevOI1+LypywM+IievO8HqKzsYwEK9QhNJvHRNZrutdRC9Q5VhvRn/8zyGrES99AqXuz8htL2c2HG8nv4wu0kaAz0/NKg8m1hJvcPdGb1qXVO985dgvRR8Dz6Y+n49zxKJPNQAXzynDB69zo7OPB/hOrpJFE08MPx+PM1fAb18FA09wG4evLjsi7xVIoU6QbCMvYDvXTzmL2I9VQXMPPzPfDvxFkI91bR/PHF+9DuQIQe9Zoj3vJ5o3zzLjoq8uoY6vIgol72yPX094MISPJ8yRD30hCG8loZuvEsQO72WJmu9iiErPLzjwry7stg7HijPPL3SBj3zgTK96aLSPLOCpTww1zc8bUS8vJxuhjzdgL87kpQkvRixR72NorS8utt4PUSS/jzlKY28pDnpPMY7UL0bK4g7c0uovEtBBz0bLrO79hPTvCtnT7xLwUC7/9UHPGwIeL0suY49vMpvvAvw6DyFIUA9",
                "2b9FvUZueDyQ1Yu8nIc2PZbTUz31Yog8XcgSvKmGRr1wbqu8dMbwuz0hBL1rXM077zTsPamyyLyBWxi8nuT6PM8yOzypija9eCCLPCq/Wj1WI6i8x5nWPIlXtTqMwhe98IyYO1m87Tt8OLO82A+mPCLccDuKFXe8aOVsvR1F6jxPthO8Tam2PWCrXjwSQcs8Zo8YvfG9Er3mp328rLejO0iCuLzB8Uo8bC0BPMIDDb1Jgg+90AW4O1zWHr0KJ9c6YJ9Avf8irbyDxHm7RrPMPebv7rvcH+O87xIMPVa7ab0lMic9OGFfPBS+tryLW+q7OdRFu+82lzvzdpA8kOmaPLeqA7wP2Rw9lLOPvH4BYbzb5UI8g6EXPRuCBj0drI08rqYNPBFehzySzZ89La8/vL1znrw9CIw6q8yjPBI2wjs3LL09IGZuO+jLBz3qXvO7BmfBOjdmUr0bE0a9KcZyPeL4gL0zvo69ygIsPW+CJ72+SKM6F27Hu09MYzu7vqu8uj5mOwv0kDvcPQI97bHfPFlXHL0RhQw9edMPPKQjprxcUoE9pG6FvbtpxzwRDv683GhvvAGf/jx9viw9x23YvLGXVr2xmUI9JiYIvOElOLwJgC29bzikPKNFEb06OH68Qm4bvV6KJ7vvACU7eDNavHkIeTqaDjC8YqHgPJ5f3rt6oh098A2zPCxoQz0Qw0U7w3fUu2ANlD0AQbS7go/8vPt7BD3tuby7C/B+vYMcLzyjYv47jAvPvAI/J7yiozC8rKofPew3pDy1Mzy9XABnuvgB5zyusLw8Ch8LvQZqvLxYaUi8yikdPVDOrb0acrk8zfUUPN1MGL1GGtc83b2au5ubNjpl3zs7rDnRO1hz9Tym0Re98ugxO5c7Wj1zKA88rKxLPCG3oT2cPhQ8/kFlPA4QUbxdZyg886MvPREwKb2RhRi9lb0CvWTUBbwQo1k9SXgrvSJv4rwoqgq8+xdPvDwGxzxV8V+6sp5ZPcgTCr3HK+g88MEivf75GrzERN88",
                "cDOvPYz2A70WOky9Cqa0OzI6LTxDlnq8asS7Os3lBzwGRKm8gtB3u56L8TzxcIy8Xc0avUPzULxjRsO86KyPvOwQDT2K5/W7wJSLvEYIpLznOF695vYHPNm/jbvqua27FCSKPQc9hLvH6eO805wRO/qOiL12ixa8BMzguigLZLyEopk9vGZkvccHg7wKeci85TEUPMBATzzBgSk7+4OhvHyipzyqMHY8fL0GvZ7W4jwqoD245FZAPJw4gb3qvaq84XZNPMAjkrpgXPs7GbyZu4Xf07w4zKE9RMwyOjP30Dz/1Rk9TAuFPKOw/zwl9gw9q0a6vA3txLx7FF88j+iGPK3oHT3ZWHU7JZWePO+gfry7SgG9p1RyOzIFlrxCRVa8ziSqvGCrC70Fgt88b/lLvWTzCDyz8z+8g5TNO3WMezs1Rko9tMGFOYD4f7yU10Q9savGvNwdLjwH+go9MwgsubUgobxlDpk6UbkEvT7vfryuke28CiUiO4oHFjyYQpu8ZrRIvaN01Luvjde7NZK9ugMZXry8yQO9v1AIO3EyVbkv8dc8ZC5vuhIKAD1m5H67La4qPAauBb1/pWK787KouyIueDwA0Ky8q2cFPfBuhL24Qbk7NThNvffelTw01jy9P+shPLEPPT0Mwqk8a3S7PJVDxLy69x88Z3uKPKuZrDy11668QG/GvFbgEL1cZ466oiw0PSTqP7zPmT08thuzvLzpQ7w6exQ9REqAOy2vlrs//rO8JwL6u48WKbxgxlG8B1jKOynt8bupLHG9DWB4PXW2S70BWZy85W9SvIG8q7yk37K8+Gk5POArk7q3VYO9lgtUPV9jRTwbcj48zp/+vElbcroMe408CGw+Pf9U/7v0io28bQ4JvUd/YzvOUCM89lmZO1kArTyOw4M8vCOsPEc1vLwyxfy7JauTPP2MFLztRhG94J4lPOiVLD0d/4c8p8/zvEkCZzqEm3O7DT1tPZDReL18xcO7guKiu9rEkr0ezSm7kTUXPbDVfbwyd148",
                "dEYaO32b2jwmqzY9z+WtvOblTj2mmsg6sSsEPcieib1U6Qa9l0goPAsW3jymocc8tTriPRpJKDpzzkc8/tNpvaN0wrp3MTG9iod4PH1V+LxhHk25TWU0vEGaULvkFC08J8cHu8P58bw5FrS8f8MwvJU5KTzndec8mOt+vUO4A709G7Y9OTfyvEb74rwOBz47euoTvA9BHr24KnS9MJ8ePVPSoby8m9E92xo/OyJsAr29vAO8GF9mO4jKozxwSJs7NNWxu8oxp7ztzU+9zg7YPBOL2Dyonz28HCfMu+4iu7uTzh29ufcgvIZzkLrskjY9NcuIPWEy3LpDxYQ93wsDveSh1jzau7q8rDBHPB/KhDz0LL+9u+iHu6OzoLtFFgs9xYARvQXj1rtKvJE9AMVUPNcmrLuaA1i809JivDYdH71c1Vk97hXfvGGLVTtgQgS3xtirvMRFv7yLSgc9KzAWPZ4aPDryVbg7Ikk8vOOaDr3SEp68i7L3vAmPYjxCfcQ7mq6bPD0kFr1GEJK70/43PSbpVb1+Chq8K7a9vLUJqT3Ejg4+9MTguyMRVLwe1Ha7QnGVvKB5pjuqGHU8yAVHvFpB2zzyWpq85hwuvCLT7LzqO1i8d75WPHP7C71o6Uw9MccNva/7gDxi8rc8JsBvPDzREj0oLFc89CazPDKiFD1fR6k79mKVvZpthjxc5J06k90xPPpRLTzFhew8CopdPdpnO73nPy69qOD3O7W4nLxvzU280ActvBptTD3Fc3O98vb8PBTLY7xeCOc8rifMup4lBTvY9qq9okrFu2xxKT3hzNQ815CXvArij73fdUm9zWVXuy0qczwLz5y8O5wAPQ5JvD0u+Wg8hWzNPHIoyTymatU85wCNPHM7ErsSgXS8LqZOutuNWz1CpUW91TzNvBAMF7wYBVg9MAEbPNy6ZT1NJ3e8oesUPRK3Mjud6Ju8oH2GPXoZIL3pnAK8zerSPI7Z0jynPdq7h9DUvLCeNr3pVYc8pNGvvVpG7jpoyY28",
                "gAx2u+LIpz2mJ368mwGCuyw5Gr3mog49BIO5vJnLijxtr807LIgmPOnW5bwciYQ7x3AlPVZoTTxSjH+88bgVPaH+Cjwici49qENNPeSTCL2bdkS6Z00wvR7YozxnlEW8zGyOu6OlMDvHZZs6oIMTPNQ0Ebx3Y1k88ChtvC8HNj1qAXG4aANTPX7YGboGzoU8yXFzvJjWFr0Ok9g8c1uVPZ3sEzuEZSo8yMHXO01GwLxjz5U7MeL5vJMQIDyPocU8Zln1vCUhtLuthxM9y1gkvZo74bspdYW78pE4PVLe3LwLQky8Z7sDvGkqlryyCMs7LKCAPaigsTzkKY248eEaPYEx0D2wtzS8xvyAunJSTTxIxMO80uKFu2uWLj18lwW92VgxPf9QzzxxDmk7NYGmvANmJDw6G768ttcTvIXfq7slcue7xzpCvCP4Bjz9mJ+7faPavIqfdjoZzVO9xyIvvdxd2zzRDy48mFqAPbGGnbwfSIw8bdKmvCNDojvWVsS7ETJGPUhAUz2U5Ay9OJDtu5LyCL0RdAa6ZuqivA7opzp+pqO8wLRdO1NBBDtJoFc8HeAbvYlXbzqxUea85Ts2PVjVCzuewgy9ORh3PBQ44Lvouo07djpvPVwnrb1kwxa7AB+RvJKFkDst/yq82rGPvOC0rju++4k7Ekc0PPDitDzjo3G95noZvem5R73/Vgi9RKbAPGbQJLsY3J28yqtUvDg+rTnpAaW7t6e0u3y/8Dyl/e09Ho4yvQZhjDwRaki8PgnBvBNDHb3P4LU8gOppO7bfS73bX4I8qcc6vFj2Cj1Qthy8USNLOXHugTyYfzm93G4yPa+YNjpE/r47bCQsvDbXRD1NDgi8jGP5u1TwHz2VKp0709SCvPy6vzuF7dg7zZcXPEQOorxrW3W81XpaPE1hGTzWJxu9N3FOPYzyezzpQ908nAexuruhCLz7TZ87zG5Dvb0QQ7wjJym84OqsvAXddLzoDzq8gZ0Vu0oU/ruPwBE99FC9PISEar3W+Jy8",
                "HGd6PbnsVrsywTg8v2WUPBPLfTvokCW6rqiXveRErLsquFk8pjYmPbpiTzxfl1e9ccSMPI/dhD14sU480thxPMt3iLy6Za68+JCwO9lQCT01nXO82LXnu/uEjDwYHV29YZSEPIZu1TyQRwe8OXh8PJWrib2mkGU5EqVEPbctGDzcoO67+CMIvXCXVL3wEXm8VQIBvDSdVDvTtUo50zrGPJ0j7TvZjmQ7x84HPSLkJz2z7Oq7rhNXPdqywbxdjCu9OomGu8fjsTy7Wik8dht8PRooubv3eOy8hEaVPO8rmrtHS5a8rBmoPEqJwLzOnjE9a5k/PVtgkL0rrB29iswSPE0IrzzXppK84yvKvOOXpLycfsY8mTPZPJzrJL2ZSvE8pqYHuw1Kz7zFWBe8GJAePflk+zsbvhi9ensxvNn1XjyxIq67VO8SvZYIcL2PJcw7gydOuwwPz7pINTq95DbkvFSmq7oruHU822kXPK3AFLxqTNi835bivMiki7obC4S862enuhewsLwnFJ09k83wvPrziTzpyiC9zxszu2WpOzt7Giu9RNqXvL6dhzyc1cG84DQDPeTKGLwdrX88IshFPLFlCb1HATo7rdQPOw2k7joXAze9U++OPDDWOrszGRU9uxkWvWf//LxGlD+84wAMvXdlwrxv0YY8ZB4qujjAgrzO/ao8lXbpvEoc0LyKPxY9L1XCvJy8yrzhGha9F1UpvfhuqLzysro7eJjvPFPjjzsi7W28/wFOuwi1Pb3yB4q81wDmPKUDRzwnOqU8VdLBurtpCr1SJFi91ApRvfMLJ71hR1u96oUEPLqfHLz6XW48J/cbPfL8Dzu5gQS8vWQdvHFhSDwnbmc89DAmvNqRabw5DbM7v5bTPLWPE73TgjW8mm16PTGQwbyekHY8htwMPQcs+rx2w848gw3sO2D0Wr1ZWoI8DwRaPJxvbLyNwG481HnOvNGTnzxi58M8f54AvQYuHT6iSVe94KF7PFWavLtwT4a9nrf1ux4Tl70BKbM9",
                "jhOTPD1TBr1DHQg8VHmTOzH1ML0tR+M8QYJGvU/iGT0JIhu8FvYIPf+MgzzYJ7s8NiG1unJwerzw12u98F8KPRZStLztl/46XdzBu/XbXTzU65u9aE2FPMGVSj2GLmG6Jpf+vGSquLxrPz49f2YrvETwNb3K3aI8SBoJPD172zxOByS9XDSWvL8XHL1zO/e8QpXSPFe3y7wsrfk8qK2MvMe30Dupvzs99Yk5PSL1OLxyUDe9NRuCPasxUb1qdca91KYnvPQT4bxnQe67UbmMPICRyL3YeLY7uDwHPOkfMrqxtJE9Npz7vMb1lL3uCRE88GquPLkQvz3ezI+81JhePI4mdjxXRNO8hQA6vRxTRb2LaJc7ayNmvYAzdT0Zhr+7oz5guywOQ7sx1Zs6AvOKPLSZxrwAtMW8kFFsvbP0p71n/Ro8Zj++PPuwkD2YpE887x38O70+27s305u87+iiu8T3Pj01baC9QziOPPQmUz2e+gy92HjiOjyCaz36Tdu8qPMbPFD41DxLHQk7X13LvEYHljxrcx29KDs7u4inhjukWUC9LNXWPMsnC73zTaG8SCIUPL7lQrwaChG97DHbubH5Cr0DYuW8HUQzPQmYAbxNz2W878zDPD5P17sq3bu8tiEiO8aGeDwonB26CoI/PX0JibvnMdq7fSjqu+H4Ej2y7fc8DEUyvOJxwTxt6M48s0Trug2MXLvpcN68ZrukvbCa5j2iVr08HpHEvFeRnD1xdSK8ci8UPa9fjb0kK6C83PPLPdn0KbxQM/M72qJDPcphK7sz8eU8PGSTvMy//TtE2wc9hlTVvCjxuTvKPRS7dxIBPVYZgLyGHJK8/BDBPKOJbTwzeim94bDmO7QWqLyn85G86gm+PYWHJz2vBQE92v5qu2Zmnrs1Dis7Zz1gvOpWu7tnQqo8UhR+O7sAsrtQ3wy9TpNqu/NfETxQ90s6aak7veamurxNsEA9dBOxPIoOkzycb4U9uvtIO2o4urxL+JC8+mAHPIlVzjwqIWA8",
                "JF5SPcwn2byxNIu8hQY4vfnnSj0sdVA7JCGFvLpiDrxbgIm9C4n3u2vdVTzHmmU7NF+8u/niaLy0vrK8fk4vva/Qnjo5SzA94jywvEWq0zz8ZAe8sgWsvG5CsD0egLa9CneiPAqSAzwdaaK90crcvMtJMz3oIwI6miqFukOh/LznU3e8ptWOPL9Wgjwe4g08vpe4PDgHAby2PGo8lURPvfHdnTxWiUO8ycp8PTUTgzxP0IC8eES4O/7RDj2pMqg8YhqLvcygCj0iIi69dHVeOuXUL7xy38U7MAEOPcPZpzp6TTW85pEnvN+dhjx2aku8CJrvOn9E6LuDnT68BYBnvGArFr21L1K6oiOqO/oerzxu0YE9YwpyPXqOSL31KpI7KCA8vIC8Wb1u3B28luyNvR/s67sZ17+8IZaPvGhk4jynMOy8AH+putfAHb1KGaO8dwqMvAVCKL2tvce89ZyavHe2CThcKwk8Vi60vPsPHL0ohsq80vMKPYNmFDy3CAc9hYGuvC3MFj2mJ4U9jBs3PNhEFT2VQRK8hShlvJXcijtbzQQ9nsTQO6MO+Lz6y6q8p8HIPF7QDT3Jz5Q8tXLavCyYbbz+sCs8K4wku/pYVTx2oCQ8LGHMvExLmLzX9tw8rO5OvTulX7yk+nc88XsdvWrXjLxc6PG5WxsWveyIQzxMX7K7VXk2vUV1fbsSko69u6+4vEkaSLsbxlC7rOg0vRhA7LxpWgO84hKPvMPYp7xupEq8uANQvUwz+ztfqWC8fJ5OPZ7YCj2m3B+6632oO2tMK72JETe9EUTjPPyf67zm/i+8k+K6vCbJ2jvrbJa7KB0EvOC4Kzy4PJI8yrc6PX52DbwQjhy8I2K0vHUBhT3YYBC9GKaRujABQ7yjwF+76i7Vu+Ag6jse1lw9lpFivKE5Sjvzyd275WIcvKBcUDx4TRW909/YOtrSszxEYqw71tn+vLWVLrtNDkE9lBoyO8km1rzHC167p5aMPEneR73QD1A8+UKYPAzdF73OHhI9",
                "Bx0CPcO4yDyQCnO8qfHEvBY+PL3BYhC9FbXlOxeeHzwAtR68SO2DPBch3zwrNgG9y9gAvWpWprw0Rlq9iu1ePHy7DLz61I+9jkpmvD6hgzz/kPQ8kdatOih2Hb1DqSs9O0PjPctIZTzzwTe9/fVWvV20Jz0WAI29afuZumVaIr11k5y7em4ivXk+K71eJAo75jedvBq4IL2WSfE7naaEPOMdmT2UvuA8rcwRPEP9EDvWUBo9e+0+vFRDVDzEiFo9JGi4O5vifb1oP4y9RjREPcFEEzye0FC93UMiO0HZ5jwRamC85HKPuzfWBj3Zujo95eHGOXd0TD2vCTQ93DbKvJK2i7x4rYO6yPCYPB/UVb3T+ea8+fLgOytJmbxSX5I8mEqsOzKzsby64s28/yqOvKXCLLi7JH685KZGvAOaOz3M5EC8/TwPPGiUnDtweV08vmoxvHhONb04NVo6sXHLvH5jhTxnkbS8fEHMvM7UiryXDb68ezALPVOD9zoM7E87FbIAvCrXAT16wAI8nlNWvU8OTbokRgO8C8asO4/8Hr2hnN+74uUTvQVGx7sCeAe9XVVjvEg9urtyaYu7KCywvL5jGD3nAQk7lDyAPL9iQTw1D9M5GrJCvVm6ZbwBWte7fT+1PQqqYbywmh68UCIhvJ0gmD18ORi9khG7vEmZWbs7GO683/uBvPCYgrwzzOM8oh6cu8ZEXDzEoSw8ycAEPCCwKzxGxAu903mQPKVeuTvE/AC9woGBPcwPpjxCy0w8qElavSAfSzy1bhC739ICvX1m5bsxPas82HTcO/6iEbyB82a8tEQBu1gsiLyIjnC6R5yuPAy4GTzjm908z7wdvYIhsbvSHwm9aJzRPEcJPryScws93UGAPGIwRLwWv/07RMGtuypYdTx/xBc8p5CePAhPZbyjAVC8yzcwvJEPXL2chi47tmRkvAjMQ7zly7g81huBva54Dr2qHm69JY0xPbDqRD3O3ae8cm2qPDJWgb1Uwxu9tAqpPO+9Iz2espe9",
                "hDiEOxVvXL3EEca8tBIIOqfEjbyhJNY8d0A9vOW0vjzxPD29Th7POxyNDL3ftvE7jDw4vV5Rhrp1QM68nAo6upfOCj2CK5w7c4SXPHR9M73Lf+q8Z66BPEfArrymvsc8i23ZvLdZsTykH5G82ChpvXaIrL0Jl5+8D4vyPJ9aXL3WFw29m7kIveGrBLy17OM71IjXOg3py7yH05w7G7d+PKaeujzhqro7/7kKvE9M1zwxOIS8/eFRPJNLCLwadOY8x7AtvZUtUTqqxsG8Z3BzPOSJB7zZrGe8qUQ8u1p9vzzeZeg8QKRgu/SScLwYnBy97AaOPTt+8ryBvIi8d3EvvRKrDDw3j2+85SD9vFFzOz2UqZo8mp31PNrjhDzbb448JU8nPUF/mrzs79G85u6KvFmt9Dxti069wyhyPK2mNbwTqkS9NXhYOedtrbu8Ny69ZRliPU+BBr1SKKC4jkhwvNnYeLzza5S7x7SHuit4TbyUjVG8vLFGvA5M0zrHtKG8Ra6DvPf4mbyDECQ8tBagPByYPryeAU086oqMvFS/Kjzr9Lc8NZQYPbMGnrx/FKA68hILPdjhhLwJLDS9uOwCPE6MUTwBAaY7Dde2PC82lTviDwa9MjdbOulvybwKqsq6UBeEut4dQ7zZXzO99yybPGaeHrtwCNI8oDNrPICx47tsYzG9efEFPEMpoTylATs8CM7ku3TxIT2sDRM85l3FPKA9QbwKQ/g8LiFTvGnmC73Z8JG9ly5CvX137by5BjI9rhiGPPS9yzxhEwa8JP0evT3qfLxal6i8Uyi1O9B/yzw406s70Lm6PBCR6Lyg5YC85zcpvTREsjz5EdI7fvKSvHwi1TxML8w7SP9XPAJGXrsQ5/g8niaOvfbosjxxuPo8Tvb6vK6XL7lVbgU9ugFCvUhaTj3aC2W9DfHTOX6qSTzS0ES9K77dPFauCz1wgw48E48FPRvWZbz3Jbk9M8rivF3dbD1M0G49/KepvHoQg7uBl+28l67EvPjPIz27ycY7",
                "8jVGPGDsWzwRhv+7h3+CvZR+RLx/9D49/B58u+eQ/bx/gX87Bn6juswEYb3ia+48ZZqnvAtFLDz+7T09oItRu9ARn7xZ/zS9F2glPPcvpjz6qdi8xLBEvWriJ7zMNjI9FE8zPdloAb02Zik9g7d6vH0lv7nO8Y48DdMUPSPGDb0lRBM9mnGRPCnxqbtxHkQ9U/EYvFX+0TzzjX280+3iO7WiHjuQByo86f69u0g9WTsefWe8sSAzPRiJ3DzCcDY9Mm04vJH37Tzd9OU8v9ZJvC1cDb3TayC9TWWwPAGUabwtEC27MxGGPH8KszxibTi7hq2CPFWlmrrTqfQ6NG/kOrm357xA+6E8AjwxvKwz87yi9Fm8efj1PKvMljsFbPM7TXUmvd2Fr7z07+689ENhvOZu/jtcTkQ746xqPUFn8Dz0Zsa7TwrJvGZp2bwX18w7W0N/PMrxhbx0i0C8BwTBvDxqCT1vQSU8zWArvVQ0Ar3WWZE8zxhEuts7xztQgs48T1wUvVvmaL0+WGq8nfzpOxJ6IL1bDz09MFkevZi07Ly27Uq8I8fBvO5cWzuRgki9W156vF1cybwzByo9ZS8jPbibHL3ZRda5dFScu/rqHrz+iaY74TtIvAR16bpqUwI9SHzpPaq2bTqfXpK8KItaPA+VBz0urNY8ebrXvEO3jrxYJAC9nSwFvLrJijyOtkC8MwE5PfY30zzU7om8fLtdPN0sD7yBKZ47CG44vfoaXz1ZIWQ9FZsmPOPo0rzfOWW8igEqvRHAmbxD0Ry9vwOxPIG9hbwYoXy9KxALPSYv8TuKl346BBGtPHvfl7xk16S7WERFPDXT7rtyxNm8bvuMvYZI3ryTDIw5wZ8DvY+x37wETSg9RRNDvA7z8rzDVL48+m1XvTsGtrwHLgA9w8J8vFAdyLtZHic880g3vLiQDDxTWv28yUbQO3DLQr0KIHc8V6WBPWsprbybVwW8q0gqPFXNXDwgtZo8lpXKvD0Dijy8bgK9Pj4tvbbx9Dz1CyK6",
                "iwosvNvOaDwVzUO8R4jwO8H7Az0G0vW859poO81a/zvdpmq8uF9QPJOWhztg6ge99kUOPaV8CD2496C9NxoRPd/uE73GQL67jNRFO2kT/rxcqom82H5nPbplUjq8Tbw6ABsVukwdILs/qNm8DoXgOzKHBr1RFRS9xja4vKN0nr08rGE8pvsSPZGsMLy6GnA95ai5O3ndmTu+P+49kzsAPAloAz05fVe8cjWDu5zz3rwqZdG7uLesuy4BLL0DjKW8OdVbPG7MkryO8Jw8mlyRvAR5I73RM948iCuavHnKFz0Ln2w99tCEPTaqAz03YpK7oSddPPuXqrihNv87LxVkOxGeWD3jsLw8pauMvb2mJr1JihK9RT3IO9i19zyRL1M8o0VHvLNBvzt5hQA9xDENvdHkGrztFRO8TqhivaDBF70edLk8biwMvCoqLr3gLoK9a00Rvd+5kz2MA1I9qMK0vMtwMr2ZA6C8KjeCvBBAaLuS/cq7TkixvLugqLzsQ189bxoovQ4yRTy8TtC87jdvvZB5+Tx61pM8TSsPvRv5RrxrJLc8p7xfvBI/RrwOqxm81uJKPOyiIbvwfQ69wljHvNhOSrwAuHi8gUMQPW2/VDwZyUU7hlpvOrxcSb36Zac8d9W2vKM67by3qr089eFKPRlGp7rNfwc8BWJkvOar+jyZ6YC7JSDxPJvcqrvm/8w8LjSXPC14Krvvbwa9qLFHvZPiATyTem+88UJwvCGg1LsbdpO9103iO4KV0zt2Sys8hpwNvYUPDzwCI9e7AV+ZvHuT2DxQTDe9FMKOPcBqMTtUoF28jlZTukA/nbtIrCo9V1YsvU95h72OjRY9zXmOvMjSYbv56ym9G3FHvEMGsLsdCNu8YJsPvTUtAjxLoU49DHFDvErHGr1Q6s08WWoPvYrfnzvSrz08JFqrPLAOF724q468x/sjvOcrBrqfpwu9h0cHvCFmlbzCY6i827j9u2ovs71d3UC9aMYjPeJewrpss/W85mxyvNJjiL3YORM9",
                "LvzcvHcqjT1xlDo8DFItvQCpjDzDKNu8FQUOPcUbFj2RRoI7z5nyvBbLbL0Nb8Q8m4BFO3VHP71K3AW952wVvDMbSTwrs4i81YmSvUM3sr2acri8cbNIPXoi17zQu6I8MGLWO4AXlL08TiK9+sIQPb3Okr3opJO8DYUcvVs5HTwGKbI82fbaPIt5yD0LfZ88PjZivPiSjzxs6Kc9C/Bwu6xFX7wjyZQ7V4GZO8FagjwVEHm87fxXu+d3Gb0Fpfs6cjbkO9hrqrtdGxC8wvOhvCwqBzv3ClC6cShOOwoRiLyLOMk8X7t2vf7c2TxOwQ887S4DPE48m7vUMrg8sUAlvTB7FLz+sb+7AGo8PEOpBj0+ByG8XZCiu0Ufk7oSYdI8ps4mvYM3D7wHt3s8oOkhPCaRsbxa7z69DuNXvca5Ij2RKMU8sWOEvBe2WD3eyMC8LScpvSnlobw0wSO9DYK2vFtcKrxENas79K9BvFrvoTx/RKk7JrnvvC9cBz1qj+u8460Zve+uoDzpWi48WDNVPfhYYTsLtfg8gEThPN3/VLtCFeW5anDZPHuEDb1Qezw89b0nO5qBy7wXTPK84FEGu0po9ryEXLW85sbFu2gg4zvFMQC9B6RGva0a3bvzwAY9kC0XvLde4bybtlA8rCJvu1XtqDxbpMo8UivnPCergjwMvJa7St1PvR4zEjw/t8e8IA8hPLd2vTxHeTe8AEAZvW2rGbr6BwO9HXa5PBqB7DzmECE9pbJqO3aQpzzgGG4913j0vEicHr0J/+I7ba4TvLZwh7w+7ma8M9QOvXozobwJaU08yyCNvCquGL12v3e7cIRcvGmKk7z8Dzs7ph+LvXvjD7xa9ES8nWPwvOd6ELvy/Jg7osoLvPj6Cj19r1K9rhd6vA6UUT0H0828saArPM8URrwwppi8Mqu0u4EoHjyWK0+7tT5qvdioe72KKQm9II49PJAXRzzsmKe8wo8uvXzTPr3qfIW8pboIu9+Z6bx0guM7p33dPIfw8rly5K68",
                "Nm+5PCsqBTxoBgi921Vzu2ebijvPFcM7WPNAu3a/L70DPdA8yPtCvP2Pl7vmOJU89l4avSc22jwaYv28PRKBPKGp/jvG8Bg7wMq+uaNHiryk9wm7tiWEvIYinzzf5jO9H2eAu6TsNj0uRAi8Up8CPFvVmryFmzE95PnovE5y6Tw5ahg9ncCQuteRBj2ap7g8didFPci50juAiF28FzMBvGNE/TossLk8HfpOvJboPbovQym9KWPyO+KNrTyzExm9zWMQvQJmrLzHsdq6uPgJPLi45rwdxzM7stWhvGo5FjvmyEC9VC8lvP01vjy6osG7XepuvKtzijxP7aQ8JqAYvViIHL11qCe8jTWku+yZsrxPbxC82CYGvbAftztzYjI8l3aTPJecNTwExCO93KEwvN+iOruqZRg9j4UKvUsBlLxOS8u8uFVXvQXq97xhRAE8VTGTPdC7rzyIpqM7An/AuyF5QL1M7Wg85UgfvWpF2TyE6yK9jZ6ivJQYuDzvt7M8m/o9vS3EKzwFDM48XpruPC7DzDwWB7+8Cu4vvDxAsjv0GAk8gf90vVbfLb10Cj+9NOHuPEu3EDzBNM2853uHvDs7Cj2CIk+8K+5NOwu/47s4dPi7Xk1nvBrzdzx1Pi08GVRGvJAGwbxRuCI9yqSLPOYAcrtsn0e7Or/nPEKplTwPYo49ie5BvFMSDbxi3r474SZhPQTx3TshpN68xM36vJo+hbzlmlO8PKCrPc25lLxeXNO8+TKovMn2Brws0IA8Pbe6vOVe2zy7wDm9WGolPHoXjTtKqTC8+Oqmu6yD0bxoxnm95jR3vKsLDb1Gqgc94p4OvTH5pjx4xqi8nVaGvCQNRr3bPOQ8/FI9vPEXubsI/Cq8ecLiO7wp3DwphV49jI2pvOnWLD2fg328uES3u5JWKr0bHDG8UbuKPOdbYj0DnSc9iHboupvdwzzdMrE8GRXoubHYJzzGw+M83A8YOx3Oh7z/qAO8CEewPL+cjT2cAr09bWyAvKlcczwT8Z28",
                "b7YRvQjn9zzW4t67E587PQab3rydTBw6OzXYOupNXDwmykK7J8YvvXyFzLy9FNs8p4A6PEzl4LyDXXO8pM8yvCp60zuStMA9USKMvPQtfbkccQa9YenrvISxvLwAy9O7wVIMvf/7JTv1DfI7yaQFPTBCZby+u4y7nAdTPAeCRT1OpK88o0dLPQqkLbylNiU9BUoYveoz2bwCBtg7N5EIPOASJDrt5Sk9bb+jPH4QLjzudpe8DuenPBFUKL1Y5xY9KBVNvUtRrbzBI/W8XO0YvYrFgj0kTrq8w4ujOxq1nTxDelg86w2bO624M7xKiXG86jmgPODIHDy8bZa7VoIRPe/oCr2iM9k8G0CZPDbmXTuhpxE97u5SPIQpbz1SKb88QHCbvHaR4TyzALm8mqbKPMRUbz3yGtu8KGALu5rxn7t7cHk9TpO3u6hbtbz9V/O7abMNvC78fzxVEb48YIXxuyldOD1i4e+8FCJLvBujmbwr2Io5ALBnPHwvsLt7KC69hxVNupEPG71WOTI9xCMYPBgfF7zGz+k8W8X8vAf+Hr2IA7i71ethvQ2kX7wKhfA8U4SvPEBdjbtXVoU8SL6ePEyqBr3toJ88RdbEvDeL0Ts4XfU79+MuvKbAKrzuFgA8R2X+PHqTBL3Tez0974htvA9vejzfKnE8ftRQvaK7Gb1yrii94Qz6vOGQAj23kbE7cpRKPHKFHj03tSy9kXlcvPNHoblcMVS7mDhtPM7IyDzTS+K58dqjvFInTjz35pC7tS93PBho17wyHDU9wANOulrTXDvC4fq8LZuauxBhxzy2/pI7hlCqvGA6qrv1xXm8r6ikuzXlBT2d9jS8apRJu4TuFDvfB4S8gS8bPGAU2Tzyg9g6Wqj6Ow4LFjx46N48msw9uyKSsDz/uw49cPGfvNMt/rvLUlM98oRHPNfRST0j0O27jsYYPcRKlD11/Qi9vTWaPK9FY7yMeTC87o0EvHuXNj2QyZY71csVPTiSHbzWM0C7FaasvK89Iz1YYwg8",
                "+GkRPeLgNz3RYOe86PSmPPVGVj12pIq8FDtIvdHOj7z9WZA8BF2WOs99LzzF1iC9mK5xu+JOuLxfqdA8AW9IvBPOKLxra3i7X8UqO7losbzX1OM8GOJoOznaZDxGQiA8knONO/yddrxishc9F5M2Ox1P/bwQAmS66XISPSoNLbxaqzQ7DhH2vFLqzbz0DXw8OFcjPc9cEj1FIB48pGwZvRZsrzwskT480V3YvHdJrbyrMpy7p+wrvTNPSLwvSBo9Xe4Cu3fwuDyehHa52zecvJ/3SrwtuU28pXbtu77adzzlByU8gby+PId4e7zEwxM9A9gSPTiw9Dqe7I48vviyvQoSc7wx2wA9sG2WPPlk+7xN8o68MoesPdYrzLz9BUa8Tr09PaQJQj3gKck8Hx2DvRMnkj2CwoQ9cWWfO89kLr1/r1K95TYdvRrflDy1ic27Z12BPSo87zzMZUG8Clx/u+tUhLzw4Ik9zLcYOx1JTTvX3Pe83xCVPfBOdDyaFte7MZMcvGptSzyJfys9BwIWvWF14jxXY+c8ESEDvL94XDygVFC8v/G4PcVrnbwTdqu971oivdj5dz1xn8I8MiiOO/Ubez3aA0E8EoWIvHuHaz2PaDu8Wpr0veyvEb0Zw5a911pMPd91kbzJEIg8KyAZPGbFAr0XptC8RBWmPNv43LwHyUe9DYowO3mz0L0KWA49CABbPdOS3zwrFxI9xe2nvIOz+bnmJwk97k60vMJS7zxtw1M72tC7PFFIwzwwdPU79hFnPDPDc7oNyxC9UvHwPBoexLwiwRa9NZ07vBoZkbteP/U8cBOHvFjhsbzsV0i9l0uUurN0l7zMOom946JRPKuTiLomcJY8B4LlPfNmpbzFEIO9xva8vN0aCT20SgS9tClPPYwpT70dXOo8q3pFu6JKi7zfHyi8AHdTvVJgSj2TgrC8fVyQvHZlGj3CWIi8LYgKPXztWLyaQz68aM6kOwqmkL200Je7IZufPD+iz7z64kG9g1TFvAIBBzwO1GG9",
                "g3cYvExlobvr5Te9lCOSuoC5lzypvBe98l+ouxoGNb14zJU7p4eIvdnaOTxKJiM9llSsu7fvurzZALU80G+pOkZMgLynzM67t6sluxpKXb3fq8u7wIk2PEmNOzw+ejk84Mh4uwQLjrxgQhg9IFFtvKiuzry5KLu8iPqSvOYNJz3d1+y8RtvUu6VA/TsinW+4Z2AePOSX57zT9ok7WlE4PGFULr0BkwC9ZTyEvKyrDz1Di2+8hmcCvFJ1QzttgqY8tNoYPX8PjbyPaKW78n9FPP8ShzvDetM7k28PvAp7MrwvGiE9reQ/vfj3GTx0qc66m8PBvJsHwrxEnt485QMBPVbzZjploeU83YLBO9mDOTyH/ls9W9KRvFKmR7wGxtS7cct7vJ6UFL1PMwm9BR9ivQ11pDyh6tG7qebNvOxFwzwCxJC9kSr3vIclmj1MncS8NPERvCnD77z+RZS8haEEPam8/DzA7+G7OomLvCAsNb11NjW9gGxdPc/ykL3IMQ49j4e5O346oryR73o8VIXwvDGyaTwxANs791Y+ujqBBrus/1m9eQnNvDsN5bsT9Yo8vASAPS8RDj1StkK9927uvLhWzTy9Zx09GKZyvSAwQ70Fn3C8NyIxvW2xQzylvPY6DavFu0n63bul4Ww8DCp/vLbk8jpXR1O8RxA6OwEGkb1YssK8ENwHPAvQGLz9Ukm9UBMjvTC9jr186Iy9gt0CvQwTSjsK9go8YmwRvW/+Or2AeD88zYSrvDJiLDtO1QS+qFxcPajHTTwEwyw901HCvCRr7zzgsCa9sMlZucQByLvncmQ8uzJfPYxmkrw3bSi9mz9CvD0fuTyhC/u61FzMPNQLUb1gwB29OmX0vJwvUToXkQg98VtQPb0l3rz1s+g9z8E7PP7Goj1k2Au8Wco3vQ/sEzzEcsk8aiCmu0IA+bvM44a91rG8PEeYAb3WIVi8qkDaPPHLFDyYDAK91JMKPVlqnzwsMZi8qg1NPZm92j0RKBe9TEGYPRPBkj1uXJU8",
                "DCZrPKq0Iz1RI8c8Uq4qPcKY+DzyJRs9iFwWvdYVkz3SO0C9zGicO/ZtAj0C73M92tnkusjd0LtfCRC9uTXJuwsiBL00geU8v/sHvE1T5rvliQa9BtNVu/wH5z14eQ29fesDPZ5Fj7sn/xQ9hEKtPdymzDw69hC8X68+vLkesDxSgfq8+zMMOkDujD1X+BO9k8oevC//gD3d/eo6QSY8PIKskjx0ZYM8DWeWvUb8ab0ienK9jpZGu35IArwHOLi8XHpBPEopRbx69Zw8Xop8O48qIr1X/r29kWgSu7m6BL2BSOQ8w705vQwR37xs85+99NUpu/OpE73xFCS8pthlvc6j2Dzls4Q8ucINPR7Y0zwpWqa8zM5PvQEclrycFeY8e4SMPL8WnzpUDiq9yiAGvKESyDpvil29Pce6PPTzGL39hTG9iUH8vGyDd73wQWY7zFLZvNr0gr2zGpS9OKM3vQ8LCT2ZHZw5H9/nu0dO471pEdO8JJ2YvdPI8TxOijI8sirlvO1pNj1yD4g7GOwmvdQMQL1pLJy9CudqvANT/bp6wKa9Z2ysPG8MNr3cTIe9kbc5vSqr3Lu0eSC9AWRfPQqsqT31qOc7c0qsO9R4Sb1h9+i8xRtLvQ9D3j0uaNc9EAqovU4uST0rsMk80FcIPQaxrDwD2Rk8Jld7PFVik71z7us9qlMfPcTi/LwyP0m9xNXNvUpyjr15gza9QrwGPL0/Sb10ZoI7SO6zPFoQir1apq+5/BIsuscz8TzOsGm9loX/PLucaj2LZpc8+6MVPYL7GT4XqB+8ZeodvBTIoTwPCJQ7QS/0PMdQPL1izsq9aj/JvD0iTj1RBC88a0mwvHprWj0vzWc86oSVvSCOaD28zjS7sEBBvMfGOj1LIyM9ste4PLrxGryqm547YczvOgpjIT1UK4+8OOZvO1k7yDzlLHG9iTiGvPpoc71ggwg+FzCoOwxOJDzAXRe9oHvpvF+5ij3X/xu9Mt+BPcwX5LwmYne81r7avPgFKD2GCQq9",
                "IAY+vQtVLL3Q21497m4EvPxVrjtIgG+8arM7vIykUztdZSe8Vl0MvQ4bAL2ILAi9FqKKvZikIzyO2IK7URfgvDfVFzxSgQ+9hDPUvOjzYbxKXAS9dP6RvPjOkDsMiXw8GnF3vPTXzjz27zG9n2vePAhmJr3pYyI966WAvBFPmbv1ZS+992e6vAISaTy+w328eSSIvSI8zjx6Zp88rj83PeWDXT0m+9u853uyOy7BXL0SzMw7ePzmPCDxMjyZWBA8R4yIPMH9fjtykra83YwTvacFX738KKe7RzaavMtuoD3NFpE7sq4Du9ikDjwNBH48cdYZuqbLjrxX9hm9nCY2vKIkQz2CXo686KZAPIGqMbtPUEa8EX0FvTPWirw526C7CAJju+UJE7yRiAW9MNgLvcbXFz2ck9M89X3vO4xsVbzK5qU8rBmyvA4wrDo89e28b61svfVZk7zx7Ey9pTkEvHE3Azy0oi88YE9qvZNPj7zZCo88lIiiPEWZ4zxrIrG8G9kQPcR8SLyTgyg7OIq0u4aaHb0mzXi82vNvvLgfhrwtwoy87xHDvDWQ87zpz6e7KFdoPDLjMD3l0u88Fu2LvDe2XLw1JDc8lkSFvD68v7x0X5U7SDIlPVQVGj2QNvW8uX1Nuk/pR71hWfY8jYFcvVfSmjurQwK9cIBUuc8sKjsmwQ69lsKPPHqrUzyFYXO9u2oYPWDfCj1mC9K7IZQJveUdPz1NtB49sUZ7PJnGhDzpmGy8GQVuPGcsmzzHylw9WUgGPR0KvzynlAq9sTgZvZtPlLyozRe9m3eQvBnHCzvIrAY7V5y/vGnDkbwJJWE740omu854Ej1BaNq7ZToSvZVilr1NvHM9ug0WvRGbybupFF27wPR5vRYNAzwBkzE9XhJSvCMRpjy7XRe8MAFMvSGWmb0NbxM94RGiu8czFDnGMpu8ZCm6O57ttDnKg0e9QK0yvAxQRL02ECA8wAAQvc+HjT17OhC8pteevIqVjbwK+0u9CVVmPKwKpTuAxIM8",
                "DCEYvLKHwTuZhW88iIc1PJax0Twdx1A9CGUaPXD0JDzr6767vm9EvVZ5Hr3be4A8JuwdPVf/QL0aBYW88IuwPKliwroiiZ+8DJYYvW3tn72lesE7/6+7PN+ayzyErka7aM6qvAqqp7uzyyi9fjpju3GzRDyq8Z684+ybuRHQV72vTzM8TAVovF3PprvpnJM9Jn2fPHNNg7xzq1i9HMwlO0sWGD38fy+88LZ3vHkZxz1Ld4e7n6RxvAiCjLwG/Ja8EHIfvAJ5BD3/FAQ9LId4PFM0KjwV44M81UROPB4ogryGP029sCfevDtpGr0TUMy7jpMzvbMsezzaIVy9Cl9QPXP+lT00c/a6voemvJfFbLysnA08HDPDPDVwar3yrne8U6rjvAqoRryPv7Y8GnC/PJmVwD0iomi891sZvWD1QDoo4xO8WxWvPKDOxDzFJwS9EDzCPP7CM7ua7k09/VoQvUAaXDvxcBA9p8pBPQdfDrzclOy8AMZRPZ1MfrwYyS49PJh1O0YpHjyhPb46r/qAO0tvibym1L479LdEPIuRcz3sQI+7x3UfO+DBKjsJp0o9IQ2dvO3VED3bWZy8aSb3vBROjL2crey8oeboO6Za5byhaey7uy0quv2EFr3tZC29p05bvK9uWDp0rCm7JLACvWOIqLyqXtu8pnH8u5RmfTyPcuq8GhEIvfgKNDpbx4c6UNDIvCFGNj3vbtW8eF8ePf6hCT2bTuM7PWmjPHHEszwpltm8M51cPARO8ryj5Zi8oKgMvD1U+7yjnvG8VzZDPJKEWzwkGSS8MHzsPAQ0HT2M6P861JI9PLbSMD15CTo9GV+XPJJTDL3qpGW9rGfCPGqa1rvqZaW9oxuIvM7dkLx+RkA9PYXnO9m0g7wF9pg7yrVgPcixbzyBihO9r27/vII5gD0W4CU85jerPOzWnrw5S0I99zztvANVJr1VdQE86P5VPAH4RTx/J4+8SkxUvNW60TwMojy9gi2kPdADMb23d5+6bh+OPfZ2QbwEan08",
                "LGGLPAGWzryKO/M8NLA5vHe5Wb3bOkW8UJsxvaoOUb23vgy8dOTYvH9EDjvbAo87U3f5vN5Hr7tDFQO9aIf2uxPlDL3w+bW9A3TcPCw8ajtcciq8QptIPRJ+wLyrKwg9iwycu4SGLb0tjqq8ad9mvBG+nTy8mGG8oL8QvSJU9TqOhNK88vO2ur0+BT2NyqE9wCLaO7I7PDu3CYk7mfKuuyzM87sRnZ08kOzcvAFPDbxEWWu8LIWquz8MNbz4I8s8QeuVu3W1IDyPVIq82EneO1ATcT2Cvt67xUD8vIg9Rz2ktXi9pBqPvbl7ubyzy7K6rvDxvAnd4ryMDUY8oFOTOxYUEbwIbI08TPiBvEvpsjw1vSs9ro6vPNoiNDzJm+S8KYvwvHbBWLzya1i8MLJCvebKX70APL88NGfpvDsekbyb9lM9PY/CPLUio7wgd2O87efVu8lKgDxSjN28cQUuO8zeVT1l7Gi75TuIPEGxcL30I6c8RtS8vPS3w7zcoZ48GXzRvB0d9jt5xpo7gRHNvN8fA7zGCz08ZqPaPGs3lTpwiA69NSawvE9iwTxxD6Y6aFIXPb8kALsuXhu7t1SFPaGzHjreIBg74jE8u3hykzsE8jk8rwIyO7lDGDyTzmo8SM8NOrcrCDwYOlm8LLilPLZNFL3MYoK8WGuJvKcq2zwFMRG9F7BNPH+6szrKwks7X1A2vasAxLtD7UM6zGKXOi0Vvj3SVRm8kIaMvI0xKL3KSOG8nGXBu1ywz7tiNA69pltTPDv7Cb3jzks72/JfvYBZA726kQi95Kegu+kWST2N56o7kskBvRSopLwvr2y6vQ1SPVGDK73E6kC7NChCPVeDTjv5ZvK75ENQvFXdRT1S2q67n8O2PfNaZzy/7Y676bOVPE/mxLy4sfo8ctBCvHOXpzuzjXC9oaGWvPnA+7xOggY90C6PvGyTizxbhyc7MnrQPFFi2LznCoo8wFgDPUTmZ7wz5Me8dmVHParyXb2yLCs8ssYQPOebHDv2RBo8",
                "f4uOPGLJlDx8smI8EeNFvaxCdj3bAlq886tCvZT8kDtq+fi7lm2/OywIvjxMjIO8wHWLvFEbi7181hg8EdSkuVe91jw2ukS9O88yvcDYCbuuFtW683exPEehOD4DV6k8wFAIvWOQZryD0tG84OPSu9q7P7yiwm4868nxvPVRGj1aNXi8n+FKvWLOFLwdHRU8Rs4PvYyTtbwW1gI9kIsZvPnYzjyuI7Q8lFFJOr6MQb1EXcy8+M4KPY8JgL1g7e67FuiAvLjnDr3tcRk6tCvgPFaXsLz/9oC96aDdO0jjgjtrggO9eyumO3JDgLw0Dka9A+lsvYyDTz1Ll/S7jw6SOUxAIT2HQEq8E4Q5PIYKAL0pWKu9cpF0PRdIurw3mD296nuUPcSNrrzYceW8cV0+PecXCr2gB2Q9bH7Zue9ThTz0gLw7ajtQPZVutT2yKeA86KdfvME3Az34MQ69HpKrPFmTzrx7/uu85j6aPN5NXzuXEIe97watvI22FD2ftve8Pfafu1xpojvRtya9ejNUvQlnprxYO+68UkWtvNHUFL2TNYc8GzF4vW75grtoDYK9C10/PO8SnzvwDxi9bEhnvZOsd71gwPY8fwBFPQHYir284ZG8pwg1vJ+fe700bOk7ZEnFvDaSkD1kkD26T/oJvdoGgbxeoRi8kKa5vTjp/bqYQpi7fFQLvTB6Cb2ewqK7XuNTvF/eZb3toqe8qP7DPDLunryNkJg6i71vPcx3zLtPWXM8boc7va5kiTwbDj4+p0tJPS8jhb21Dti8tTa0vAQeUzxmnCu9PrWBvSKbTr0Oepq8rWl5PfQPyrpbw0+9zAqZvF0vy7zwGii8QiMUPOHxHjxVzwk9fjOpvMA0lLu0cl69Ee7wOUWu3Lwb3Ei9cFZFvdoHebwoSRQ7gQdoOfVilbub1+a7m+6AuwjCYLx9PAC9We28vD2XDb0Zrk47w/MzPFKrNL3JCeG8Ph6fu3OzgL365wA93mCLvQk1qbx+LaI8oOGcvKXk5Tz7+mS9",
                "VAQIPO8Ic7y1ZoE7lq1jPU9XkL23B746Ga9CPVo/JzwR75i8AFbIO2nOQrycl2M9hi6uvaj2Sj37xWs94zgfPtZ8L7zOos27oqI7O2wIhD1UWNe8Kficu2Woiru3wzi94hzovP3CXLwuXg+9PZMtPaDyBLyc1Ry991Q/O/+ZSb0zW1A8AFUkvYAbmbwmFd+86QezvADi67yCG028ciKTPODHMD2Aly28PRMlPB77orsZFkW99Q0JPATAgD1ZV4S7T4cEvXkzHb3gL/88QSkPPdiahDoIES+95AWgPVrEpbxkDx283CA4PSwXJD3MK/273Tpnu4UQ4Lu5qj09P9c+PTTug7pP9mS8G5CMvFIBr7y/Pzi8Iy09vQw9kLw5P5Q8m1oBvfz7JDx/vlu8xaeGPHaz3bxoXFq9EhGUvDXqc7xBKDG9BxJ4vID5ubwPH0o9P7dpvMBbzbzIjTy8vNnYuz/++rwR7aW85rwPPTVOML2uT3Q8zPONvI+USr2anbG7n/Z4PJUkSb0qyU68oWCZPIsnZrtBOy+95KETvW9tXDt9gHs8XN1cPDjZWbz6ArQ8OUGKvFUK7zx2vMI6kGxmPUveMz1/3tk8seQAvcCEw7yc5gu9ZxxeuBwuoD2IYP48cEX3PEgyqzzdhIo8qWpMvMDRkrq21w89X7HwPPSpETwXw6m7hz+sPMvR8Lxbzzy9x8jtPLVBMLzlBkE8+4FhPFUHIbs8xKy7QgnqvIcLX7x3jme8WUQlPQ+EBb2sVk0857nqu3a7qrtQ0SK7XWZfvakMCDyWsEw9+RLyPA1ibzzUBa68T6VIvc+eKL3QeAw9NXj6POATnjyTq6e8D6ESPT6Qgjxk6Jm8C7rhPAYZO7xJKTA8+TS9PLKCJ71ECME8ZfoZvQ/ZLjzZKJK8+LOVvGpw1bxEaA29Z0+zvPxzprxqmue8r0BPuh34nrupq+S8L5a5OnV5gbxEWhu94bFUvHUhHzxJmZC93sY1vCscYDzPCKU8LInPvIhyKT2zE1k7",
                "FfWsPKwcpT2GbgS97+nxu29Cp7qOPAY95J0GvdWs7TyHjYW86g86PPHNo7pNR2S8boYNvTaqnbxACQA962zvPNgv0rvwzSy8LTylvYTSM72gg3W8uwGxO8ZsabzzFQk92dI4vX2ZbLyD+O88VRo+vQBwALs8TgO7lHo4vXAftDx5kJm7JB1mveYoCzuaNNg7L8TsutjN4Ts/5T88xBTZvC+VOLllU7i7ZRV3PKpQmjxQTzI9gkzjPASI5rsvZgQ9J4gIvZp9tbyhrmU84HcxvYboBLw6WBW9C2eZvJuYm72FkNs8vPW+vEs+CjtG54g9GFilvEDpTjr5F6G8htICvUDjKz0sJe09PpsBPU65nTvKxuk8/7kmvIwqNr03mkA9nIsTvDmXE71+YUO8bTPaPPsFj738BQk9sSEnvN8zaL3k+oG6hGL3u1nTCLydooa8FOmfu/4aWDyqYuq8Il3PvBU5/LzEPCA9tprQvGcFdrwPJeu7yIoZOgu1az1Psfk8D94qPHiigLvZjoi9PKI/vZA4lLv5LAmPahwIj2mhB48L7ggPhNkIjxKwCI/fXgmPgwAIj3Z/CQ/c8AgPJzYJD3IFCY/NeQiPxScJjwd+CA9hFwiPuY0Jj3HtB4/ofAgPwBMJj9kyCA/78wiPi2UIj6afCY8iIQmPAhEJDzgqCY//fwgP/NoHj0NgCY/4EAmPA5gIj4FfCA+PPwmPsW8JjxsbCI//vwePmSkJD5pQCY93agiPv+UJj/oDCQ8fLgkPQ9oHD9YnCY9lPAmPQ7kHj4vfB48AlwmPbWgIj4BwCY/+BgkPspIIDyTcCI/W8gePv0MIj7cyCI9Z9wiPd7gJD+HIB49IqwcPtCYIj8cNCA/uUAgPpMMIj78lCY/JHAiP2W0Jj7UhCI+BXgmP13gJj8Y6CQ+YcQkPbvgHDzikCY/dhQgPh/sIj2FdCQ9aDQgPwxUIDwFJCI/D3giPOlYJjy7CCA/x3wePMHoJj3kDCI//EQgPAMQHjzpECI8C7ggP",
                "djEJj18ACA/3AgiPENMHj0y8CQ91HgmPUYIID7iOB4+QSwiPl0IJj6SpB48esgiP2FsJj8EiCA+CKgmP6D8JD8qJCQ/02wgP0JIJjzwECY/CogiPpVUJj4KPCA+gNwiPjEoJj11SCI+9qgiP+yQJjyYxCA9sSr29W2TIvJjvW7t0ozg8NNYivAwchrxjzbM5kiepPGmZH71wSJA8v3h7vdkhD73dVAw9t3dNvY0Smzzk07G8HxCHPALQ8rwphTS86hyGvE7527yUXjm729tHPWWNAD3hW9Y7ubQwvVjooLzkz3W9yzvIPJWgiDwCso+8KoiNvGueDL1lOgu9tR1VveVwibz4mUC8406dO+9TtDopYyy7E3AbPYtqhTw+Ody8nRMQvGF+Vb3qgAE9/45LPKDpQLuP2C29Ia42vCCvrDyDhRs7JT+IO3gmgbzxHOU837onPXVM1jxM95+8bGdAPD60GL3/xR866jrEu6LydDwTEd86DNIbvbEp8bqPMgy8kB9Ou68sgTwucQq9wQrsPEnLv7zFZWq8Z4wQvBrTlj3Dv5K8T/MZPdoIaTyUHxa8970IvYdHtz3LhqI8mUZYPG1iwDzKNDA9bOsEvR6t+z3mk0k8kYZlPENTHj1WOd48j9e1vF+xFb0fTuO87m/WvF3Tm7xv6Ro8XrgXvN1wAb2saza9+w06vJXjnD2GuIe8hHoyOxeslbsQ4tu8VrUmu9Bd6DwLHfG8/1sRPS3dBDyR0zg820ipvB8itTxFxwk7EGf5O8Gm7TvyWOi7NkIBPesQvzxPZzS8E7MTvp9Vu7yfpVC9QuqAusjID7y2aCY8WiLqvHt5KDzNhHU8oVEYO0riL72knQu7FJODPc4smL2G4Wa8SMm3uKGRFz1KbsK8ZvsRvdYAML2oyCS9eapdvMdrgb2Hcz+9PEWnu1RGwjuUnjA9jwjCPPNVSjx+xBm87hIjPPUFjzyx+A87Uv4Fvcd0brz9peA8Pvspu2VRyLvDu1o9QZ0IvBcKQL0SnjQ9",
                "Qrynu9mhvbxO8oQ9aGRlPdqZrbzsPiy9nQMuvFzNFr0mxWk8gqVpu13xobwUhQw8COW9PP7ufDzRwyw8SJ19vNpEjTzF3MC61avBvNGwAj1tsA09GFb8vFJdib33CLM8F1yTvMSS3DtHnLE95C60PJJfHrzt9O+8qRXju5FmezsZ7DK9uUoJPWcLSr1XYg88F9/jPB2fEb251cG8TEdNPTM/Bz3eUpQ8NRpnPWQoJLzakps8wH+OPA8ob7zxalQ8MhesuxgvTjze2Hi9YBO4vCc42TyMKVs8H0mBvMHdF72A/9w8oKSTuyMXuDzB0DG7LgbqvGXa0j09Wpo9yq+avKoHAryaot88pErDu6OCIr30/EO9WTz8OyXEoL1KaJm808M2PThxK72XpgO9qbMYurEA2zz9XWU8rze0PBV/Pj3gRwePNHkHj0bXlA+lwpQPY7OTjwwJkw/9RJOPM/IHj9xxlI+HsgePnNuTjxewlA89owiP+LGUj7BLk4+3FpSPRbGTj/5Fk48AOgiPyToID/OzCI+FxZOPsYcIj/MkCA9WwAiPCVsJjxNvk49JS5SPBnYHj/b0k48d8JSPRxkJjyn/k49q2IuPYbgHj+0WCY+isAiPwzUIDx7ek4/W0ZIPKOcIj7UfCI9d7giPmR0Jj98MlI93x5QPQseUj2oZB492UwiPxw4Jj9uckw8y4pOPpNIIj6Q5lI9zOJMPT1mUj4KCCI9mRpSP176TD5xXBg/u6ZOPkr+TD9lgBo9/gpOPv5aTj4+dkw8hEgmPRn2TDwciCI97SpOPGxoJj9uCCI/2zAaPifSSDwqECI8UlZIP9xKUDxe0lI9EcggPxdKTD/2wkw/++geP6RgHj0NeCY+aygiPi0KTj7Z4lI9pqpOPvuSTj3amlI9wL5SPgxGUD84sBo/AWweP2bgHj3/Ak4/3agaPML2Tj9felI+p2AiPPJyTD3+VlI8d0gePc+EHjyJ8lI/vwpOPDPIHj2R0CI/L8wiPjaiTj/wClI9BDZMP",
                "RkyTD8lICQ+p+5OPVY+Ujw0tCA/hhgiPGdiTj9JzlI8qW6C9qTQvvBN6hrjBrWm8k/mDvDg0YrsdDh69bxf3vI3BUbxxTj07sOYSPQfBgL0qTC69dAVLu1peEb1W55U93+Ktu70zKbs+UOK6ULcYPPThRb0V7zo7o8+8PN7gATzftz49wBIHvSAhJT3qQce8UStjvJACI7y1jsA8o8W0PMEbEDwYRhq8hzCCvFR/RziLU7+8JqFEPY25GbzUZjU7rIsyvSNUZDvEoWO9oziMvKg2cTyUMnQ9RpbhvGbtZL2MGI28wpnIvEkgEj06gwM9YSlwO/biHLy3Ba88WokDvZ77wby9Ilg9sIBFvcvX/jwbseg8p2czPHM95TrZ1DQ8ofOdPZyzxL3Zl0g8NFHovM0uVDwoqmY8XObivP/St7z4mta82cyTPDMZtzxVt287e0daPDOQEL2V74+87/nKPFGw4jsDvvu7Cf9+uUjfQ7y7c6o7+c3qvKdzObzqx5y7Kr1gvM+ENr1lROS8SpSdPLKwirzNDlW8nvarvQH2BTwW0tE8Co2mPJ+8hry9z9U9mkWdu1rPCb0N4Kg60N9OPfM37zy4M0u8gEw/vAl/fLwqYAI848+yPDmjMTwa48G8AD6ZujVH7rv6Z488eN5lvZP1orw6ySk6R1JlPavAWD1Zbwg9D9NzvNlB7zwJMda8+ZvWO2I5Bb2mcLq8R5qBvNU5Gr2enxi9shHxvHPJCLyrUzk8HugvvHQMG7xes9Y8UhquPErSgj2vJta5H5oJvLLNej2unlo70k/oO75IeTtZ0kq89hbNvJArSLwWDoE6jsiBvOzzEzwRgpC853+CvWQ4GjwDs7E8uQaQvNEw37xZBV870x0LO9kK4TnPMic9dAJIO+fEBL3WVHu8jlF7u0bYFT0jTuK8OGAUPcH6kLk/eq08sqoaPS2vEz1lEKA8JgsXvHN6fbx2TrQ7+pxjvE2XmL1gaq884s0AvYMNID1O8yw9GIytvNOp5LyBOiK9",
                "ZAcUvW6rFTy0lAK9mKFqPJCn0TvFVhi7MgMPPe+n17x7moO8fvCYvQBU5zxdz3w8HMn1u8MH1Tok5G+80cANvFFKGTwvsD69s2oIO1+Su7y1WzU9qG/Ju7awdb1V39m8+6r6u8M/HTzB5TM9ICXtO3NftzyzYx09TZ4QvDQwoj01jaW78la3PKaR0byPQv08dnwHPCHjzLzX55g7QE71vC3G5rp7y0I8dle/PG0fSr1ySa88ZnZWvOxuBb1QeKE9JpWwvPrewrzjn7689OVEPAxfPrt+Sny6FlRiPXG1N72hcbA8HgIwOR2nmDwtfkK8iCOYu/0ClDy4Wvi8Rk/HPFDZBT0JSNo60/zivNXmOD1Ip0c8KUvvO9Eh0Tz1dac7M0fFPGcjJbwAVq26YdDAvErmA71uEkO72m4kPRfPFT1P3RC8bVqMvB15Bz0b00w8IRSxvMxdtbw9XyE9iYwqu05Pn7z3c128AEYDvQixlDoXXqQ8en6rO3tDprvYUew8ZVSCvDHxtTwSs1q8hlglPQRp0jy8vXi8d3c6PU7wf7xtnua7YNYnPX9/kLzD4Wa9pKxWPbjJ3DtO9jI9DF4IPc71D7uoCKu81BlkvHvuqbwb31k8rRk5vG0Jgj2eFrE7mZSFvO9+X7z7Ha+8w5M1vVBPJDo950y8Byu9u5rU6rwQyKM8OB3+O7nDBj2vtaY7IoIWPd6HzLx29Jk78vSRPG1zzDx+kIm83xlYvKitBTylnrq7Irr/vHVwu7xOZBo9OdNOPLyj5Dvkr848roREOw00grytBts8AfQZvHjeObyVaWU92TRDPRK+l7wnKyI9vIhJu9UtwDyuGSM80T6DPEMHozzbEE896d+7vEDM2Ls2AAE79bknu3wFeLshJas8poyROxwpHL2gLWY7jOqwOx6ejjz357y7YKEYvA8TJT2N7QQ90nF0PT8lMDwTdZ+9494TPVWvnLukBEK9KRhePG+1RLxRaha9IX2UuV9lHTwCLLc8EeXtOqqHMTwu6BC9",
                "YAkNPbJME72M0sS8MjIovPweYT3S8Ru9ePZ2vdl4WLvU9IQ8on4dvZlI8byMdWy82AsyPM/FDDwYa309T+IMO6dknboabZM7ZPh5vS96Gz3+3z29zB+EPa0bb73x6Z68CNIEvF82XTxzG6K8r7+kvIp0A71mvPG76S3IOzyc7zxGo7e8unmcPL6vSLvEyDm99ttZuwtLoDsJnRA9l/GOPQpv6ToHite8y5anO5BJkzyiCpw8AZRePL0/ybsS/xM76a8MPVwCFzx28dc8+CSUuZKH3zxkti+8eNtnveLz9bzKE2W9R1kkPcLHCzyDrkC87Q8dvGuUrDyDH1w8dVnMPFKfCbs4MH27xam4u/ScUrpj8CA93lvluyXYIr27r+G72nUVO4h3lDxbfSG9mPr6vMdp7Dw7otS6qI4ePUgplzvJAQW9KjCZPCjFv7yG1Y877uxPPIDxi7xtQiy9a8g4PAf3iTynLQG9xewbvYydPTyM1gg9La+OvDYrrruQQgQ8dLzNPOGZsbzCVwS90mnGvPVJtbx42Sq7fbJZPQKp4TwXgc68x67xvKQz4jzzTk29pjSrPB7m0jxy3VS8NMBTO3WOgr2U+2q7edG7PNCz6zyX1A281oQHu6e78j145xO9g4afvREilT1YD588pOZDPQpMkT1lYjG9xyeivLzdXL0eiMo7mQdVPauoEb3ymR49VVcmPeLZIb07faa9NkpoPO562Dt99Ec83stIvLGUN70cynu8oVuHu1+mnzzbnmI94H/vOzVmCr23YQE9rDExPYqch7x2mnE9JwmyPE0OzTyEmK49eRrQPdqOr7ySd7m7oNwPPb0DzDyUMjk9kiiuPMNxjTxy51+9rTAbvAfprTzYxJy8oo7TPYMvwbzgXSq9SV7YPKO1dzt3ojE96TJ1vfyNOTtzm1A9XrXWu7qNjDu2zFe93TsXPTmTyrzZobg8EzyPvIAuqzyy+OC87Ky0OpdliLzMm0i92tSoPYHTGrw+Zh+9Mfe9PKbVUTy48YY9",
                "JJwIvIxgKLwzhzS9QqSxPK01cb2wYBc93z0IvVAenbz/VZW8JROdvHRgkD1LJ/08s3JvPC+Opzptip28YcjiPaJXkjzFNJq9+depvReDpT1/RK49Cz4EPc6XarzsKgc9vlPRuov+JL2IiAW9+8spvT30jD2jFeo8ocqKPCkw67z/sBG9T+3Fu3CjhDwD+D286fiEPKqHDb1a6qw8hu+jvEfUpTq1Dz07aSSiuZx7tDpA/Aa924AIvS+/TL0s5c26QI6mvHN/pLzreV887smYulmwxzxe5327hkG1vAgzGT0oKYQ9gikhvFY3Fb1wT+a7TDofvQfw+jtSiLg8CS7JuDy7+7wYkj+94g92u3Bs+rxuRSi8AApRPOkc4Tzhwpu8nmKYPH67Sz0O5S86EfNEu8siHr0pNK+8S7hDPWsdXjzBOQO7ptXVvELGVr0MvWe7xWROPMwBg7xp0FY8tdsUvGHqLD0JnbA8nkV5PO+F1bsPpeA8CGRivQqJwLuXldW6OywYPYMfBD1iVta6jitDvQpfP7wHVIi55F2WPF3pej0PPiW88V6dPBZpwbv6SNm7xLU3PJmXXLwF6RO91fatPBqIS71IewS94rCBPJ+u4LsQT6e4E51LPTngiL00TDW9S6joPM6oSTwVhHk7a00sPTBryLs6HUk8Mn1ovJU0Db01eTQ7RnZxPaSatLzkK6s8mSd2vHBSlDwTEt26C7P+PC/txjwzgcA8pD2kvNe5ZrwCkfq8rUyNOoP+pLu0InE90NgUO+24Tz2DwBi95zhGvXrcIzyIOC89G2koPZS5mLqK7AA9hVM3vN6u4Lyrmta8DIPOvLQ3/DyT+D29KMrluwVBJzzCBqW7P2uvuyBhsTws4xA9JjYWPMYP0jvggAG9GNUNvTYWEru/x6a8hS8WvQoTej2VBzA9ee+HvGSGMD1W4te88XHDu02M1Tt3BYM56lEqvWuGCbvBa5K85YJBPfJVnDxDxMK8MT3QPL4Ewzt33uw8dLd3vAOhyDuI2CO8",
                "Oy5zPCo1gTytwrO7oOzcO1h5sbz5hRq6t4UgvTVQFTqzSrk84jCAPJ5TU72oaZC8LefivMWyOjxjgmW8t0SdvBI+EjsLtf28OHTSPA6j+jtFCOa8v0kOvVEgpTyB7sm8d58LvSckdj0Bt+u8PYJYvJhdx7w2MlU8FlTcuiCjBL1IUIA8dv3gOiKfOjvclTY8twQFuzeUNbvuxcE7gKxLvL5ZSD3z5Y67rwY6PWToOj2b4Ba97raRvOd7HrwPlj+98c4WvQ489TtsaQG9dTm4vKCmLz3A+Eo9lb8XvVzeYz0rxz09tCKJvEpPXTyLvRu8lB+GvB/h8TmMTWq7ZXtNPFcum7yAaBG9RPPnvBJdzDwee628NU0UPaUVTz2ivMQ8WsfUu264RDx48Y29UaMUO4cYqTwx8YG6k7j8u9OhlzvAEYq8xFuqvPyUDbvwGzI8TIIevfvWgz2OUwe9IxjfvKnt0TxLGmQ52Y4Nu4+JkjyrGtQ7DsO8O7YjH70oM0+82US/PFNUCb1xlBA9EVnUvMpdCr3z7wg7u4ebvLCcC739y2w9iOUXvH7E6DwyiTK9bCoJvSuHyDtlkc+8TD4Jve5jFTyfVCM9iE3Zu3IeiTq1t0+8zForvapxQjzABGc86HfuvCOx87o/3iC83XGCvEif8rwDXJG7lXi3OxIpH7sdgS48zd2YPA7o7jytp849Bk+ovIWOhjy+/Wi8gJBuvEBWHjq9sy69uXeoPfjid7zCKYE8NviSOzhfLrzYKfk7axhLvK35rzttb8o83dBFvZaO2DxEOIE9euTkusGxeL0cdrm850sgu3apvruZJtu76hWWvJ1YdTwMdZK9kY/FPJaJ9bsRgw69GDplu2D/JTqvvFA7sehAPRk6nrynlnS9NqlzvMf7BLt9aZs8dlRevLrSKDyvTTU8Yc7hvG2WYzz5Ke+86R5kPbxwZbwrX6U84SB8u7tjjbwrg1i7tuNVPFnMKL29GdO8Mw+cvIoTX7wqqC67zveOvXW3r7wkFaU8",
                "MSzUPOQfDT2eNMU7cx0avOxUcb23I667rMTauzwulDyt10O8kgzAOCDwwL1c0Pw7XAAyvVc2c7wgSlq8xmvQPDqhUT3nbjs9gUyiu5xzfDwDz0G9bUM1vHVpD7qrLpw8Cu6AvPMmDD0xUAI5WOldvEfObz2VcY66i8JAPWubfD1PL9o9QIJAvJtiirw1g2+9kPTju+BTL7zVPkC9NUGcPct6Zb33CZu7WnhKvH4NjLvU2Zc9H2JoPLvktDzDJhs81ErevBbFszyfHf+8gtYuvfvF9byftIo5FK4TvQJsVr2DtiW7ZTemvM3lHr0Zx4Q9Y0GvvO2gwTwf/x26ER0fvcdG0zwcYjS9Pz3RuxtvkbwSlEa9KcS/PGczQLzbJp681kVZPBeFPTu3Szi7vB9CvWm2x7pyIr+8+w+SvKBeIz1OiSq9n6VIPe7ESrwlfKk7oIoZPdb7ULsOyRu7kPhvvTQVqbwqprk71/ovPdST+rx1kKk7mum2vGUOwTyUG9a7qRMFvSDIyzvhyOM63Y8Nvc6cbz2DyMW85zYSvBu547wHKgq9tZ9dPNJxILy0tEe9uGqnO9kX/ztf9Jw8CtuZvBVsM7vNRfS8CqpjvJwpEL0P/Mw8pfjsu83JJLyari29Tt41PR6JWz387gU9D+h6vKvhDLxh+Au8T9o2vV7xRT369RW64fWlvRMa0DuoVto8GtyVvJ3aA7sxufs8Kg0PPR0zyLxN0Dg86OOWPEs/yjxoaTi803QZvek4pTy9D5S9rp8/PUlfBz0XGBu9QnUhO90KWLwBM508p0BWPEBycr2XfGG7/a5sOUnlCD3xr8m8FLyaPZ5/N7sUhMY8EkxoPOMcYbxwaK89ve9fu6zTHb3E6B490jjHvEr1y7xuCk+9qsnOO7kdfbxm/xW9/DnLPNFwB7xy/p29HlRLPUZN3Tu5l6u968KEvK/zpzxQCLI84AFpvMpYO7pFV768Ilrru/T8rLwzriS9omXIvOWj77z1abE82R7kPGr6Fb0GoBu9",
                "x8WnPJKts7zD7aK6CD+0PLbzZDxXYAA93XO/O2JjBz1XbxM9nd+RvEgF57tjSw28R+sXvLlH7LzfFYK9gA3+PDNWs7xwJAY92JvtvMAMJbsVOsa8BbHPvGyIujxQ3rm87uxyvROmBT1+U5K8tdOAvKtKZ72ukFu6YKkEPXVLq73/QhA6XPo8vRVcObwDSxs8gvw0u5LQTDx8Vje9YGaXPe+4xjzdPIY8WqmZvOMadzz7Zyk8NbvyOyskGrwDksq7g7N4vRZ1L731PYG9Sacbu4NiuDvBK6C77fbMPaIC2by/+ZE8UVg8vHtIwLzJJ8W7DMpdPWmvyrwTbhW9URN0uyWzEb2e8Ha8o9uMPIIRwzx6qbI8/esau9ceJb2G9MU7X/X5vCs10zyCCD68gA56vGxj5bucMyO8w5VEvCttJz0vFZM75a6JvFYUnjuCH5s8agkhvWIqt7vAg4W8muzcvMUWsjxQOnk9qrqXuq4hqztWMI295JKevADasTzQoyw6gHEdvdtKKbs4XTg8ij8bPYsTGLoJoGq8PvwBPZWSS7sXx/K87X6QOfWz2TyD5ms7vlV0vQS7fLycKVa8LoKyOy9b8rs/55q9PYB9u8svNL29Pmu94/LAPJ8l+DscvII8INzdPSw//7yIqAk976INvTI2Rz3k+7u85jGEvC9jbrujy/a8R2zhvDpJn7szPXi9L3REvT7AaDu3Q2k9gjlWPemdnTwjkrU82SZSOtz9GL1ncWa71/e1vDJMlTyDZri81691vR9eyTsmu8W75qeavJBhzzz0qqq7uNAAvVWkB7x5kz09fsNAPBiGFr1nqLU8IKJVPYLHJz38Ks68L4Lou48JXb3C8Bc84P3uPH5uBr21//Y8+GbDvWSzVbxU6E49y2u8uz51Sr28buY751KdO62A0LwTfCY90SkiO/9wiLw3UmW8M1qRPep+G72+6to9F/cNO1g/Zr1yn9c8VFgcPOdxL7w+ksA8CYyiuVE+DT3amr67RPMNvUrhDb0k0vy8",
                "9ic/PLixeTzVgHW9U41pvH7efDtHDiK9LtSFvNI5Mb0Ltak86sHHvJZfeL2/Ib08ajoIvQYuCL0Npy67s59WPNRGsbzvKay9W45Evb/KGzzdBWK639hbPZITobxguIi7UTFAPcZCHz3iXli87bVIvG3LZLoZFoS8Vbc0PRm/8rzY8Xw8PcEuPAUWvzt+yQu9URCYOpxZWz0o0sc8VVTdPPiFHj0VdR69/qiUvBcukjsEfTo9IoMUPWnPkLzRyHq88FwYvZlIQjzvxqo8p2t6vGQ2kjzhYhy9S98SvBQpuz14oAk84MTqPFjbOj2GK6U8tV0TuwwmuryT+JS8aSA8PVFukT11dz+9jPGHvet0vLysMZM8SzUdvWmxBTzHNz698HOQPECCizuwiw+9feHjvMpVEr3EAwo9mp2TOsTN6LzafNU9MQxyPPCkpzwYXwm77H6nORANprzfqae8eccxPZWfGL2QscQ8ybYfPD88yT3QBaO8Ox4WvbBKyjyVcis9MGrXuz2HbDwGVag9FHz9O33WlbyZCJY90lu9ueSsO71yKbu7U/+XPcpecDzKHRy8gXnFvF62/rsWGjW94PIWvAroFT2+EJI9ZYkvvbfYKbxTu0K8e7MKvdgz9rvrHDk8A0MLvHPQ7ry1WAA96hoPvXERuLzqBoq6xazpvDE/FL2dYzE9GBILPNnFLzyIzgo9jnkdPLLMcL1dfl89f0W/vClkR72Kh6y8g8p3PRT5Hz3aGJC8lipJvIrKjbsSqla9J/ASvFkXQL13MPc6EI+DPARdQL0iGoQ8l/qevGM4Jz24ZJS8O+x8vFD0Jb17pAI9I3YxvHsvFL2wL9k8UwozOwXGN72vQAg9/W9aPPsC17w0asm8bfY+venAijvN1eI7BiRnu9XyhDtRucq7lcYzPJ75HD1jrwK9PhifvGQzRjzbt7c7wgGjvAM+kjy3YJS6kKs7PXpp4TzKfXk83Gn9usJiEL3Impw9R6orPeZ3vLwoUig89sW1PB0yhz3GsU28",
                "bEelPT6UNj237TK9768BvQvnW7zQcoU9SvOBu0RqVz2Uu3G9f5SQOzu8Lj1xBCE8QNamvJwCk7wI50e7pUVvvKzYer3P/be8CwJSu5b1vLxnm628qrkEPSOSgjwTZOi8lFZRvd1Foj3wciu90S8WPOE4uzv/Cdo8CvCfPR5Pez10Yei7KSkGPaeM4Lz0fS073qwDvUM9Mb0h1TW9shCWvMw8FjzP5KY8hMIVvbaWk7s7aRm98uSMvRPLCI8pXAgPW4gHD4QfCI/ACAiPcnQIj8zmBg9oKQmPZSMIj23WCA/XKwiP8EgID8+sCA8+pAgPC1QJDyvoCI+/cQiPYjsJDy0zCI8HEQgP8qcHDxpmB491WQeP920JjwUhCA+T5QePx08Jj7tJCA+zrAePzusIDx/XBw+bPwkP8w8ID44vCI/0cgiPCuQID3vLCI+5fQcPVH8IjzhdCA9R6gePeyMID+kdCA8RMQiPPfcID7iyCA+nHQkPqZAHj1upCI++nQcPRGYHj64JCI8mNgmPUO0Ij2u1CA/2igiPTHcHD1H7B4/eYwePsi0ID0URCY9bqQePolQJD8JrCY9KBAgPJHUHDxD3CA/NMgkPQn4ID3oWCY8oeQiPCPYIj0jkCA+zoQmPTqkID7UHCQ9rQAmPsfoHjzZ3Bw92/wePU8sIj/nFB4/PPgmPqEoIj7VUCQ/xzQiPUpAIDydgCA9L/QiPZxwIj01FCQ9qqwePItsID8ffCA+W/AePrb8Hj6tUCA9/+AgPZpoHD7qbCA8sFwmP4+kHj6upB4+oDgkPSOMHDzJwCI9kSQmPF2YIjx0lCA/RiwiPj/IIj3NfBo+6qwiPTscID44yCI9xHgmPpkcIDwTMCI92RggPhAgJj3T0rr0oEju8yrJxPB7RBDynkpC6gAs0PUKFr7wbYA297qn7u+QDrbyF16m8FFsmPKBhDrxFwC66U3YaPNXF0bxIFLG8eLVHOmfIRLssFlK8GwONPCB3w7vuYMW86GO8PJ8wWruWN9I7",
                "ixINPds6GT1oiMy8DJDMO/Usnbuyw9q7rQZePayykT0q96k7tccPvC9D57ynM0S8V8/yPBEqGD24Ah09saFfOz/Scjw2vbY83a9svBf9yjx5pDU9TLExvV4c3LuvsRQ8XAO3u2qONT3GqhS9Rt0Cu45SDTz+IYY9ptiIu8zVZTvIv8K7hCWaOzp9L7y21JA6tdcjPfC4yDwHUek8YU8TPDHAN7yWHAy51xvRPXky6Ds3I1g9f+gMO1vNsTtQg0O8zdWgO6hRKD0oYuk8TJBlOxmVIzyWmow9HhraPI8ylzpMNHS8eArtvHY4qbuNirI8eIFcO7gx7TyBrga6wnAzvTJpUr2jV4E8JzmvPIbNaTyCTLc7nFo2PcY/jTnOyr67VQfcvMuEz7wMsdI8Yr8VOwrDUDz87mE8/iukPGj3BD0kThA845Z8PaQ5zrpALoE8N4npO4nAZjzCjXw9AHi8u59OY7tqO489TNrZvCK2mz2ww0K8gGZ5uoh0mDwdDEW+Jj4zPdDtPrpmZ4e6VB8OvY5fi7wMi5o8h3aAvHIHiTxydxs97VtaO+GxVr3/y868IFKovOnwOb1huh68xWemvB6Mvz3uXZY8XI9QPDPWC72VJpm8TOxlPVB20D0viZM8Z8iDvIbljrxPgSY9KOuaPB/JrDykNIQ89LK0PMKo4zxFfxk9+mfkvNENKL2NA9G8lpWzOm4ID70CP7c8/WPZvBI+fr3KNNy7M5jOPL9yMD3bVO08sGUSuNU1Xr2V18w6MAsnPcVGJz0LOH+9FEyau1hiUbtVI1Y90aYcva5ICb21Mby8fIB1vW9CAj0UP2+9FVAZPb46qj2kHYg7lB02vQ/hYrwXT4C73SN3PG/MJ72871S99qGpPBYYYLxJDBm83CNPPfffmL0lLYy8EAc0vCQQhL399bE8gqE2PI6VkD0XhA498IvGPD7onzpo3ug8dN4fPW14fD0+FBs9PBAlPU26Cb3jhT08gm2MO6+qrTxIoUO7ID6EPWP84TytJC49",
                "ALwrvfYdJzzK8yo8N8vrvIRZNz0adTC9DSlDvZbUPL2Y7/a7R6+DvB78MTt+dgk9z29Tu6AZM7tE3Zk9pHpRPYiJyrsCKu68qTsmPDPOlzz7d5+933P2O6mCAbx7zj27KoASvmsGtzt6QVi8me1bPfaUh7wGXas8uyNqu2Y5Z7surbo83tRtOn2z1rvUOGW82Kh6PeEZnjpD5Do8hQk/vGk3srwJUI47whaXug0vEz1uP8K8i2aru/uDKrs4uFi8uVixOzx7xjqkOEi8vQp8vJxLYz1jOTK964QQvXHfkLqlJpm7VbwcOsUjyTwtmmC8HeS1PEwntrxoHFa6305hvHsjs7zeOU68e0QEPMbQ1LtXsG08vxgwPHEbpjwpfvK75nQ2PPjn3byUqL460N8LPBjnwjlIasy5ozoNvXZHKLyTIva8wzQTvZj6F7zbokA6pQ2HO+f7zbxdeLy6zExdvCEiQ73pjts96bTOu00auLyd1RO9EL9iPBkWg7tEsTU8i6tPPPhYnLyUHW+89EoGvbdE9rsRhpQ8byuoO0I74bty8mU8JuB0vGW+Nb1FjRq9pSs1PTgcjzzoUUg7/HFOPJFcNT1krCy8L/ObPJt2JDzN/j+8fxWrOqzv4Dtxl+C7f8/JurP/X7wj0gY9YLmBvI1+Xbx4+QS9bMrPO9rOHz3Gcao7NpmyPI0UibwMRC+71vGyPEtedLgKjmg879D1vBWlbrzZfXm8b8h9OX7Y+byilAa8FDG0u6uxPrhS3IE8vZuDvH0WwryUTxi9uAk7vXdpC71QLhA8IDbYvC/0+bpVvFk8MHHmPAIImLyk34s8p0xJPN+NUr2LNje7ETRdPIepSby0ZJ+8R8AevejfGz1ffFu8q8IfvQveIb1dS8887jfvu70ak7u3mSs8uTaVPFOMYrw83gq9fzMAParpPj1yEc88AAs1vIHLqzxuLM08OU93PLMC+7yCBaW75VDRvPkJtTrvAJ+9LuNfPDW6gTz0fBS8IhS8vQZIGL16Pg+9",
                "kKWJPOrDNzwwwV870VC8vNWnRjzP7pe9J2wxPEF4DL0NrnE98nQaPU05krxFGkK9KHGoPBQ89byEpqu8SXiqPJFTSj3xadU8A2MLvT5gAD0VwUQ82kwbPTzkqbwu5Ge7el29PK46urk9QOa62OyevHkXRbzwkRg8siT5vNzBhTzpCQc978E3vUMv8rzSEmy9a/EAPUsLTL00IZG8VvknPO8v3jxodqy8oO8iveKNKDwH1wa91naxvLKgc71Su+K8X0wFPEcuwjxTktE8fNqlPJjzEzzHsBQ9F/DGu4vdprzAmYc7ODxMPcEcOL1Ar249mU/ku9hGo7zxjfe7PAScPY1TK7re5iK9kN5hvMtfBb38fyq7pJ5kPCy++zqfyC69YWIivaT3e7wif8I9Q9gkvS3+Ez3jlf88/rOivHhqDDoO5Lg7QISIvAS7azur3R09ge3Gu4XvmTmjkao7rq4RPSZMEbviy2u6kcXIPb6Pk7zmDgU8GFSrvRj2hb0Pv808BnXQu3pAkD34XWI8uEQgPb4kRT0iqaK8VfkKu8Jq+DwPFlM8s0nhO47bEL2vgIc9YK87u2B2S72OUHI8pykqvUVkLDwd8vk8/TGSvM/4wziOnnI7ia/6vHz3cr349YM81bSWO5Fwu72V6vy84mM4vGFoy7lHaQO95NynvOG2jLwpPJG70YYNPcZiqjx4yz090DShvA88oLxHCNW80qWYPNgO4rwBtgA852AqPYv+vzynbMI6oB10vZVBF7zn1n28myojPRUUp71ys/68cvfEvCgcNb3x8L07V1u3u+cQkLyuNLy8pBRKvRwzlj1fPwG9ucynu6c2GTw5whY9N4/zvEvBQz0HTnw9JUUFu6YSZbvsyKC9UOE2PF6fdTsfdTc8fOVrvXIJu7xLF5m7oUgbOuhjVzvGv4u7gEAYPQYhnryCmyo7KSZ6PMp9KLwXJZM8GbQUPdr4eLzzMRy9ZSI2vIGjmjsa2RW9oFP7vOp7j734ITy56YNKvUhHorz0xo28",
                "ZDmGPQEyvLvrWAK9PEp/PR9iazy9U3o865pHvTWQBD3WCXM9MAmXvaAtgDyqDtQ8kW0WvIXCG72VSGS9yKuPPH2p+TwI9ri9zBG8PBc0bTy4tHs9ZWnCvPOzoL3Kjom8fEYJub7fWr28zOE6xcGtvGJQ/LsfHBK8xQFoPcEp+TzLcPU8QWCRPMK5Zrx0AgE97g8zvGY0WT2AAog7m3ZBvdkXWLx6Qgy9GuOBvakSC71Ax/68+7wCPfNsZTuzOdU8xIGRvBl85bw19FS9ZA8XvPV7vjtjqXS8pt67u4OpiT09TGI8wteLvTi01js/jVg7Q9JMvQXXybxWWv28r4oWvMML0z03WqE8xZbJvL9mUbyXxA29ImqjvBBuq7xHQGU7wcFKvVKEKz0mys28jfMzPcaA1zzSpR49KCqjPNpqBLuXf2o8rsgivfz8Qj03tz88PI/APJuDUT02nYu8YH6aPWmxX7yTGF27A4AzO7KFSr0RFpM7Vc4IOp8+uDy5Y/i7okSsvIeXhjx301Y8gUITPZZ1iDvLVzi9WCwpPW9nO7ygVCS85Ytsvax427zrxp+86xypO4jhKLyj+sS8u9P0vBxHDj2jJVi9sjRxvXY4IToQSiY9LUYlvXBXVT2poY28vFEUvdzr6zy9YZA9ziWWvGLi7rzHxwk81Kr7POufdjsuLbq8tHDpurZhpD0IrE68IwyHPKnuNjt2Q/u8DX+/uwNYAz2erIc8H9qdPRFpaLzx5Xc8BKtjPDwxS7xBm9e87nReOpza7rxLhR+9bT8BPZkH3bzdGsC8YBLSvLOiirz/I9W8fl5NO/GHJrz21dS6a/nnvHL6O7xv7N08C3cnuiZQnDwCYS07qy0buhA8aD0Gobe8Pnc6vMkAxrzY0Ba9If4ePSBzQbx2hlY7H/ObvcR2zrrK51C8SAc1Pc8wUbzaF6o8z1BIPL9JzDyUFg29mu40u6SXp7xvcGA9xEMUvBX2+jzfp7K787dkPYResTtCeQy8o6/ZPH900by2kCs9",
                "mymSPaHCIz2rdw29JNkqvXDBTjzgIky8mO4TvfI52ju81ay8SUY0vRJBqDyY3168tLuSvUxfnLzaCIG8Ku0VPJSK+bzfeg08Jv8FvBCezrsmChE9IlHVPOjVlbwgsGc9jfAPvQWY87yTGIW9r+apPI01a71KAwO9EuT0PNE0rbxms0k8JO6mPA+QSLynxo09fz6TPJQ1qT0ItgU9remGPCsOJjxS3ww7hWbZPKhjp7w2kr49ppqFPFlKMT3hJVg8hi6IPG2ULT21hgA9eccrPZErsjlgouU7BMuHPMa6XTxgwv88G31AvQoE87z55N48r2w9PaQHhrx07GI8WMu8u2njyLvjmdk8wUY0OxuxTz1SLEw8KZYpveS+szz6ALu8LLMrPVnyIL2htSw8p8vuvNXw57w372C7GDgBPPHxerzEU9w8eO6MPXNirbvKgFk8hLAePMfd47uHwg29aWG7O0dU2Txm5rc8TCASvOMgkzx/e8G8qWEgvehg4zvT8qG8i609uO/VJL2dCQ69ctGUuy7f6zu9q8u7wdmTvGAvQT1pA4G8hNqqPNUMGD1ziTO8OjmSu2GBITyQDLS7nTZQPGdxojzUjiy92ZA7PNbwCjvFM1+8794ePGhF4TuiK3E8EtayvN8P6bxTAqk6RoNqvOD7grtymcC7VuE7vC01Hj3i6x295A+3O/oinzxjnV072gyLvMaxybuf2aC8mNarPPO8Sru+ZN27mriPvaODgzwdcnQ4fI6DuzIVSD1xfZc7z7U3PKZImTxN/ZU8p5ztPL706ryDBkO9vcEBvOY3Nz21rxi9GWmfvK4NHTxwBjW8UJfCO3zGLL2bLAA9o0qGvX8RRb0F/6a8c989PDE5P73jIDq9N0QEPT+/Wbz1nLu8JdMbPVxpBryWzee8/mBkO5naHD0JzZO8zzbZPC2U2TxMw3u8eFJUvFoWIT1cxQO8mOGBvdOVDT15MTU8Vdp3PMYs+7vf/7i8u9fqPFyR1DvynwU8fGmvPEnI0rxryNY7",
                "lHggvHoPGL1FRb28E0AMOgDTx7yPWU292cMsvW/ugzyoHjS8InPDvFqLDLxSO8g7YmYXPNlEhzwehrm8Yn9CPRr8gzvxGoC79yUXPNLByrwupRw8SFhevGLy7jyJ05I83LQ4PcKsujybuSE8//iOPNevkbu3TgM90UG6O2k/8byWuKc8KiJPvW5FFjy1SkY8+1o2uVsnszo0S+Y897C1vPscoDzzR6a891VVPMo++DcStSy8udRCOhuFHL0AtT27Q2bbvEtDsjzwUXE8Lp40vLLSJTz0Phu96kG/vFTsFzy0XkM87xpZvXmhhjxsKJO6jSkkvCXc9Dw+A4g7wLdEvbl6LLyxSGW79NBWvHM5wDz5+lg9MwJZvNqe57xBCJI8m4NiPDM6ljy4hBK9NGOfPBQEbLy4XCi9irQVva2QPLxCLR89tkeNPK7p0Dx3P728881euzXzj7mn4Pg8cPOiO6dMGzxG7Yq8rPCjvC9q0LznFoU7HQFvvId6CD3Q/Q08u02pusjdWT1O8hm8RwKfOtSkGLwTAbE7MNbuu0pJOby07gY9a0nyvNJ7H73uzVG8mLwGu6nSBj3k0+686S9QPEy11LuLQca6oTRpPC/qDb0Hcuo4TM1lu4Ph5jxcy4u8sQFpvcWORrwrTMy8WGa0vCOVpzpdeJG9ATfVvMdqhryeafK62ALcvCopPTxaNNy69rDuO4djcb0DTa+8sz2zu9FBFbyun2Y9YtzDu+K6frspum88vE+ovF6sozwDKbu7xRcHvWDtOz3SwWi8OyvLu5GyGzxJvJ27dQ4VOx5GLLxu2QU99lROO8YLKDo8Ay68xCMXOwnLQj3LwRW85IZKO5BCubt3VNM8LqkNvItZFzt1q7o7fOwiPH/zRL0UYow8mmbxvODryzxEXAa9bji3PJ61Jjw3voo8g3MRPA3OJzy+hSi6V4H8u42ERLyVAru7p6uIPMhof7ooP6y9jkRcPORCYLyAViM9bzmKvfYArjv0nqA8BDlSPOCSxDwoosu8",
                "MCadPCVUgTw+wDy8cv3RujPRkDz4gKi8La82PLxC/7ssRXo9O5KiO53bDr2UMTK9j1E3vc2FZr3OVSO9pwXLvPezyDzURMG8vCNGPMjfFTzXlxY7d68OPNRTrrxai768CHoiPI7EDL3Wmya8gOx9u12dujy9Rj87dic8vZ69uzpDaXE9kQ17PIZLWLsrt3887CBsPAvXkTwm/r272QVtPD8JlruRda48K2CrO4/bg73Etj89rH6mvJuWJT18woO8SGtkvbU9xry0nG09YMomPcOs+7s4tcE707n3PJ0O17xXDZA8nG7vvJ3B67jxthg9BqebvEM1nDwyFyG9YHnAvFHugLskumw7rLVnvASvhrjju6+8pb0IPUJImLwUSbo8LJLuPArts7y0toW9W5LeOvE3Oz1Ul3s9Xvr/uzSder1mosI8+SalO5Nkuzsfr4u7TVqfvGJSPTtDxY48rYEuvfuAH7xcv9i8UMuaPH07gjwOyv88Nn23PLItBb0p3RQ8nZqdux3N9LvhYgG8Izq+OQQEVLx++9s8bxaAvChBmbyQQTI9x7gGPJKnNjzxRAo9mIBwO4RCsryZf8G84GOePZH8iD2p6zA9CPRUPa51HD0iWEw8cu6LPfEIgLyMIxG7bG91PLGLeb22Aw69BA6UOscv9LzY0PM8WpiOPQ2OBj1lAI48YipAPFrBMTyW1nO8sHvWvJmehD1bS1Y9CXq3Oh27sbwOKoo7fN2KPOBl9Drn4Nq7IA2NPOruQL26X5a8itXgvKfBLzw2hGQ73xVBvTgtmDxyZKW850WdvTKx3rtkhvs8BaWPvR13B48crAcPitEGj7UgCI/xWgcPjr8Gjy8NCI8xSAgPZu8Hj5wiCI+IagePKJkJj30YCI9HOgiPou4Ij8+UB4+NEAgPs2wHj1J2B48OzQePseYIj2yXB4/9LAiPzxAJj610B4/NKgcPm+wHj9WCB487fgkP+bwHD0pJBg+UkAmP7ukIjzzECI/hswiPoXAHD00nCY+9jQkP",
                "o4wIjw11B48IdAgP5w8Ij5B8B480dAcPgZAJD6xGCI80KwmPJNkHj/8RCA87LgiPzZgHjwpuCI87SwcPa4MIjxSCB490bAkPUe0Hj5J+CY86cQiPQfEHj2QnB4+GIAmP5h8IjzYMCY/3gQmPnbsHj8hMCY/XfweP6QgJD6tACI+DfwmPc/MHj7cOBY/aNgiPV1gJj+DiB4+//gcPyQMJjxS1Bw+MpQePMssIDyZtCY8/cwmPfc8Ij8XFCA/VTQiPzxUJj+8NCI//oAcPiVoHj9TaB48EcwiPx3wHD4c2CI+VggeP2BgJj5iBCI9BrAiP2moJjwg2CI+exgiP5o4Ij+/HCA+nqgiPSvcGD/LcCI8HjQiPY30HD6BQCI8POwmPDCIJj5RZB4/GBgmPcbgHj2QrCY8LFwePtrwHjyLkBw9+4wiPCswHD4mhKL0efD89z5p0Og+wtLxR63g8fkFwvd1jdj1YaRe9X0AgPACvZ7z29/K78xlFvS3kVDt2EKs7aF0VPawk1zzzuTe6OkCbPE/5/rzxR448+g6FPPOgSL33PWO83kP1Ow4Tmrv+dsa7V9JWvcCvZTzq8768rijBPGAapLxFc2+7C/ExvRMmgr2sxcs8P6VGvFaI27rwcxS8AkEvvSvkoT1ImnQ7u3M/vZc6OL3HoA89FXTvvEMBZ7zXWMu8NO7BPNLQVj2Q5q+7vJxpPFcZqTxd+zO70nJ6vOCw8zyAbFw8PvIkvVqgODsJXrW9aY9NPVhXfLxSCKw9V0VZPTsNcrxeZMQ80rc3veSrujzBy9E7NSgDvGhACLyd6hm9QL6PvVwVCz1Xt488noB+PYS1MLyUtWA9IyOBPUruMj1NF9k7r9HDPBrAwLyl7Q49L20JPdnCDzsKKsq8h2+cuhU+zLw13Tq9hTAtPDBdSD2pYE089bDFvC2Tlzxv7JM8+FQEvMdPuLzmxL68J2okvYB4xryjB8a8YgkJPDWwN70jc966F6JDPFWn27yk2qq74VcFPe4RHzujNxg9",
                "szTxPF9wH71WCZi73tFAPGFlO71hCAK8t4WpvPuxhbzk0mm7yYEkvIokpruB3sq8/UnOu8TLQ7xUdaQ86kn1u/dSJr2TJHQ8ZIPyPFkJmr31zDQ9fsvovLY8lTyc5S68TnrXvEzFPDyyIh26Zce4vP3SvTyECt487PSTPdveoLtdDLs7CZ16PWirzbyWcvO9RLLCvDOTJjyCV3U9JWQ9vQ8DG73i6aC8w12qupyl+jxIKUi7vWUJOylkgDy85/s6FevKvHhR+zwlg7G7rT4zvSrwhzw3Y7e8ww1QvMY0gjuHTXu8x5n4PEra0bwOFuM85RUBvceFDb3xz7u89qcRvUgQSzxyfPw8RxquvO2XIbsjwhC9fykcvTgqvrxntJ+8g0nJPH2PCDyTUKI8FzFxvJstXr2X4PK8P0RevdbP6zystQQ9k/WWvWIO7LaEwbE8KtobPaJpGb3TbzY8cBMUvTs5ST0bKLq8KCOvPVCxCT2nd0A9wi19ulyNvDxAqiG9KtpnPGLcKj0Z4bm72bB2vKYoBzz50Jq8g4QKPUnmYj2GUHY8b/pnu4fmkr3qHZ+8NZh2vTX1jjxpeiu9GXGwvJhBfry1RkS8f3rPPDXRIT2gw2K9FTIsujTNPLsnDCO93z99vHKnQD0OfGu8ffnFvBQaYjvXIuk8dqMYvTpPWjzh/2o9TYu3vKC2YLpAwq+8uHA4vWUIWryZMQc9JD3lvMtX9rzss5885/cxPMCt3jwhOws714mrPGYww73Ykms8SSpjPD1wobwg0Jw8ki0HPShKgL2IIYW6L7nHPLQmL7uzm4w8/cxXvQA3FjzJsyK7F9MUPV9sZrwSvOe8zDB3PHCqqjwpgai8HE6FPb33Cz2tzCG91854OjAq4jw39oM9tOvMvOJyCzwClCy9uXJ1vbKNm7wBuS+9IA8RPbEQILxeIp+8oXsQPEpHVj0ZQCq9BYqhvCDx5bxK/Jo8b8gDvUJYJT2GcIu8QxUJvW6UoTyeH5i8o8yPvLR0CD3iFmK9",
                "bFrYPFtQSb143Qk9tWU/PDDu6DxQOX47BN4QvRCcybs79CW96Cn2PIogzTyPweS8byYhPaAHzbsrrUQ9vQ1tPFMvgD1eQj49U5EOPIMmOrwElH+9GtkvPQgUHDzQoVq85dJkvIPUID20ws+85A//u6zdLb2PFz49d1tDO42o37zTC0c9eyDavIZzPr1mvny78kYKPJoDZbwtZy29dVkpvECoLz06kcS7uZ/tu/ju17xiqg08NJ8bPa7MST2KgZu86C9vO+p+cbsEB048qGl5PFtdib1KImm80ezau7LXfz17n8E88aP8vAw4B73tqUa727e/vW3WgbxzY+s7MVlMPGV8rbu2pl+90rHaO5RdJ72myBO82IntuvL65DwB7QQ9hcSFO9RjHD3Q8Ka8m0bIvAzun7v68gE86AIgPd2A1zkHK+87lXsiOzvqGrwslj89POvEPAzP57r1aBy82Le0vMNAGD1bj7i8Mxy2vEikPb3kAuM8uk0svAQ8zDsROmS8V3QmPF1CkjzT+p08aXAvPapuQzyZpdg8IPS/vEDsirx+JBW8Y9qkvLNdubtKJuk8SvD2vCc8/Dy6koU8qv3jvOurdL2MM8U7AUWOurexIj34u6+66fe4PFpr9rrstPq8r0Y0O8FJ07yvwLy8Oq9POh/MZb0mCwQ8X4nhvGWL6LxGcRw8ySvNuy4/Gr3Vveq6yPTnudTp2TsJD4E8GHigPG2ftzwAamE86dRFvf3vhD0VN4c8hTRHPUAeN71Basw9xaxnPGRcgDyzICo8/bGEu6p2Hrt2VpQ6ZKwNPIyGnD3LfYE8DpsPvXo6azvmZ7c7D6akvA0EYjxWpae85dgJPJYKzbwx60g8U4GsPHPz5jyBVR+9BUvgPJ+rDLx4tFq9s/E1vMcvgLykvTm88ekcvbu/vTldUYG9fq9dPM3YLTzG6AY896lHPGj0ubw9kKC8PtQ1PDOhOTugBYG8E0IJj4kFCI84UwePiAUJjzKRCQ+rDQmPLhcIj535B4/1sgiP",
                "1vIHD0DHBw88DAgP4CkID/jUB49+GgiPXgwIj46lCI9OdwgPzR8Ij/ZBCI/7CgiPZ2oJjwjqCI/1bgePq00Jj8LOBw/GtAeP0+UHj8jQB48keAiPvHMID3biCI+AYQiPi2oHD00OB49x4giPC+MHD8uUCI/zxwiP1NgHj6pTCI9tNQmP6oAHj9vPB48/gAePl6QIj40YCA8x2AiP1OAID8QVCA+EywgPwmEIj5IZCI/1DQkPr6kIj1rPCI9R5QePLMQIjwReBw8eqgePaPAIj3JqCI9IlAcPj7kHjwikB4+95AePpJAHD11iCY++xwePxoMIj5gFCI8hpgcP/8sIj9i6CI+JHgePYXIJj4qoCY8E1QiPq1wIj3hzB49A/gePzakHj5NXCI8D2AePMaoIjwTJCA/sdAmPotwGj8zlB4+c4QcPdTIIDwU8CY8mugePRbYID+EVCI+OAwiPpsoHj7BRBo8NQQmPssQIj7a6B4+zZwePxKQIj0ZCCY9tpwaPUFAJj/M4CY/zzQePph0Jj5CVB49G4QeP6mUIj8LrB49s2wiPnuYHj5G0CI+4yAiPYzMIj1NTB4/BTQmPQrR6vXIhsjqpmvs7wDoXvY6YiD0Lfdy7BZnFO7jE6DzAMIo82tOOvHHBhbzpFsu85Nsluj0CMz3G3Eg8SURbvGWoIDsogs68OQ1Hu4P5Gb2gfnA9WLhTvfwsuLzK7bW8FYpSOvmkAD3qx7a8o+s7PPxiHb0sYQa9Tt/4vEX+WzxJf5a8o+tcvAxyDzya0JC7mz+PucBQmLyvqkK8HfmWPJk5nruiyK68NEJEvQyA4by9gRa9n0QMvEngKr2ofIG8FnuTvNaVR7s31Ku8FdXNPCijPL2rM1I7O4nIO+baCr0lM+m8Cl6ZPFzkwT3+U5U8dG6VvAn+dzz42c06mbL2vMOwG7wl76q9mB4Qvbunbb0dLa286EG/PGoBurxlJQ89NpPFvEJXk7ytfVc7SzdUuwhHtLyuXPm8WAOlvNMKubsHi9C8",
                "k22/uyJt7zz7J7I8/diou8eNfryrqCM8qhP9vGmJw7xJkaG7zfi2uoMmVjvD90O9Dx+/u0kZV706Hf08za+2vEgibrvrdzs8xUO6vGUPTr35vUC8awivPELCkj3Ddgy8Ui88vIgmN710bLw8KU3kPHGMlTsfRR49fOQCvWXDCb1A17e8v5rgvBiIrzwGSA09BAarPIuotrwjJzE96RqjvPIfhz00Qau8GsuWuePS5LyZb1k8xLEjvSvt4jttn8i85nOzPAl5Gb30NEQ8Yc6IPI/bTTyXWgO9NCuaPd5ApLxE3Oc7Le1dPFuITLzZt+c84WLaPKWF/TyTLhI9MYYrvOoRdry6MQa9NjI1vaLjsLx7OVm9HjxyPJUHJb2Z0Jq7emzuPBGjnTv14YW8P3XNPODjery4MYs7alsvvf8pbjwZG4U8O64APWSv7rwCM3Y8KcMJvWYLnjskWiG9Mcf9u5g2/TlvyLO8g2gGPNFMCryDwIy81NQgvBGjGr1toe07X0GbvP7Y4LxzYba8MbhbvAQrWbyfXPO7xtp+PFSk1LwhQm47rSe3PFqJhTqkZQ07bKy7PHWHLD28kkE8SdBEvX53gLzRjPk7S7jTvM6wBTy5h7Q8eZluuiz5jDyAD2Q586cEPfUVrjwCJDS9MdBmPKL2NLyu0vW8jWWNvN7Lk7wON009aJCZvMwvu73YyYq8WWb5Ox7zJb0JNSu9/EaUvFMmNj3lBqk7KT7pPBsUHLz/3Hq8D98pvHgG0jpYCpy8Qvv0vCWpibw1G1C70DOBvAmSPz0VDhS8LlN4OwrvtbzWV4K8Ge5HPGy43Tx4LaA7rc1oPPcpHjzJji+93rDVPAuuSrwf1o47QXz1vJWkC719KoS8PllJvSsZ5rwx2yQ85pXhvCwcRDypUO683M/rutgxgjyD95O80RnfPNO6Gb13ZHm89bHRuz9ZML0nsry8KlgIvLWqhDuUqo48yyRJPMGzS7xFVoy8vjc2u/9Qpz3KKDs8wxxnvQNfkDzfI6Y9",
                "01W0uU8I1blMUCg99EgKvPIgmbsamRa9Zt+EvOO6NLufUSi9Y5WXvHM10zx6u8892axTPTxmcb2tyBG92JxAvUDK9rv9mT67GCJTPVbPjLyOnQo8ADh9vVponbxq+JM89+x+vVl9q7yImY89tFtxvA4LgLwK7ae8K7GGu83gOz1wfYE8c4aaPLAaW7zEMy488hELPQeCEz6lMYU9hzLcPOc3iD1q0QA9X2DVvHLsbbxWBc885c2ovIaw6TxA1xY9kQEWPZfowrwzOmg8prh3vIkr/bwgojY80D6ZvP/6pLwjge08HyfpvC+R1LvClyu9UQy3vJ4YYjzKRRA8nVkdvWvnOj2JDIK897KMvaH+Bb2n5AA9ZwuzPdnGGjpopCI9kD16PX2IsLvPfBI8uxcLvTy9gjzoUIa85afcvI2QGDz1OgI8OYMTESwhxztk0yU9qbR9PI0f9Ly9tUg9lbfiPHyRvLwbp0k93RpyvqEhFjyRLD+88cHcvB3U6bz/mU08hgoLvao5KL0vxaI8c8WOukmYDr0vsL+8O8pnvKzzjbw7pj695/ViPOZ+ErwLLDo97gZKvCIS1bxNeuq7VC2hvIUAT7t4dLC8z10WvJgQgjyUbJs76IMGPeICfz0P3T08DDPXvOQPBD2jTkI9+WMVvDpIGD12TMU64u9+vDZh7zufUii9Qt5rvLqINb3V7QO9N44GvaHeJD0ufgA8rsK2O51BiDwIoum8M2pbu2YWtbxePgS8CzGWu5nwvTwXo3U7gUWzvFhVcb2wIEi8gzaIvGw/0jyt4AO7du/IOyEpYj2anRQ9GuD3vLfLbLxelvG8EsvMOJECZzvTnA48ZdFDve7b+Dxss4q5O404vTqQWD1esEO9dDWGvIYUSDx7p+k7hqu6PCvrxLyUty+9VltDPL+yCLxoNri7R6VtPadXUL1AhVC92qdivATfgDyybQu6risWPZACh7v10E87qbQZvDz7GLzHVBg7uZhcvEz9GL3FNVM8MvmBvCmaIbxkDG08",
                "6uyKvFuxnLyEuL68gK5JPaBg7zydMpy8Rm7TuuoH1jzQQhw8+cbsvCt3+TtM3AU9I5Lru7FMxzwSmmq8MpA5vcy04DvByHa8E+SyPPJcLzy8sBy9qE8dPE89yztDjWI+IFaTO0zV8LyMbTw85b9aPMEe6TucdZm81ToEPR2E87su0SU8TnKTvJaRQr04sVS8FiuSvLNNkT1Gc4C8VEh9PX1//rx2GGo823EkPJWhgzy0Usq80+g5vArt47r2bYa81FRUPOvenTt8x4C84sxJPDLwMbzd5DU7WyvnvEX1Ir1Wrlc9HTrMPBy5j72b0wO9+shDPPmAN71kh+G8zCwPvDeh1bsDVL48asE0uI5yrDz0M4M7tobHPKIYD71kne47/nXyOh0NGDz08468O5mjvH10gTzCuMs8b2eKu7YpozxKCTS8rDcuvDayvLptyCG8193uOyti47tUgBg9DUwgvGPdbjtr8p+8xmmXPAtuWz1WKxu8mnO5uzMhDrxuIF+8kUXdvABpb73u9gi7/LxPvE+njTveyKk87tQSvF2AnbwUUlo8ra5EvXbDvbxv0XS8VKhyvOX1O7w9LjQ9oiQRPRhYWbz2RuU8nmmzuOT5ajymaYa7rKQEPbCMKDy39Zq8M0sjvSdW0T0Nq5G64NmZvEMgvDsOr7o8X44AvJYU/jul9/s7bhHQvPKXDj3aoW68GNJkvG29njyABe68TTbbu+KB/7t3gbq6y2MRPS+UgbzSkNq99mN5vC03ZbxSHKA81uNkPCAU/7vgMVm8R/7JvDYJ1bpLaFq8fClbvG+lH70owWW89wSFPHFKbTwBdja8BASNvYo8jbwaDoW88zHNPN4wm72Fl/S8VCcMPS42kTxPsLs7m19RvMnBXr3q30W9sNgRPK9cV72T9f877dngu8U13bzLdS090P40vcbqGDyXTE69h5GnvaCdsz3oxJU9jl9WPVtlGDtrvN67f6MHvSBU0Txd+PI7R5QaPZngxrwLUVu85SvaPM1ehLun7E48",
                "Px/Xu+35dLzjPFu8TYUDvEwgozt7mG88171mvFOPAT3fLyo88AwNuiL8hzwnVOY82TotvWLX7z0GWRC8R+J6vI3Baj36Dqg9zpFlvc2z27wkea28sbM1vf16LL0MBTG9Q4nWOnQrCrx7haC9eIbgu+7WSjzQ/lK7tED+vAt8kbq1ghS8Njw+PYlVL70Y4548NGXNPdQHGDpuqPe8wpiFPCbH8btCIec8BSi5vM23Vr0twY29QC+AvX4+E71Ljss75TUDPCuZkLwU/ZO8LUz7PfJhHLuQwBo9myxIvQU3jzzZZo683f0RPCHxdToj8cM7Hl6uPcgUKL0ZJVE9llS/O5OvCb3OsYc9Q6SjPcNxv7t0v1o86VxdvCLEXTx+6dG8pORbvOWDmzzhEjA9I3WNu7cGbjvMO7a8FoiuvGOURLz4aFu7PgyjO1UaKjsw6bq8rFHUvCY3ILzUVCO7xNvFPG2BLTysHg28GMK7uoZvD72g+tS8EYFwPJDzBj0yna07DKNZvBVBnTsVwhC9m2tQvF1GrLy7glw8H66Au2t2H7zI9EG8wgMdPAeZRr15Clc621JNPXKGyrxNWS082SDfOxaNUjyLwJy7xd5GPKLmgro/+8y8AndcOhYPAT0Q36O6/uF3PdqFLDzuXJ28i95IvMg6Dz1NIdQ8izKYu60qcTh9lj287HjpOl2UfLxKL/I88aNNvIM4Dj2UxBM9VQVoO59ci7tucam8iRZKvTMe1Tz+wzk9CBvUvPdG9rwXsfO8VOCPPCEBmry7bp2718irPF/FjTxz6568HqWTvCxZOr2sDsi8XZ5OvGH8jbwwVve84D1JvJ0NSLynZLy7EuwgvOqpmjujggg89fFBOzbLhjvswYY86kzHu2p1prxvpg87lxFzu66A6rwi3s486yNWPBDkZjxj9c+7+UEPuxy7Lr1VBIQ8Iav5OsjWCLuQrHy88+w6uVuyLTxEQQG7KkOkvDpLQLxwioE8jrTQvCyoKrwCTE28lY/bPEaGkbzi3OS8",
                "Hn4lPFXF8bwo6Gq911XnvOEOzLzgtr+83RonvIELPjxiBUO9icmoPOH+M70BUzO8ErqwvEzqNjzhDoO70pWavGxbjrZ6RDW9PMSzPOsuTr1N2x685Kz7OsF7trxhQVc8LD8FvOP+SjzoUDM8zyuDPLZa8DzxERy8U0XhvJ2xI70SMi66uJAevH7CBb2A4IQ8VuA8Pah8P72mGE49m7fCu4i8j7zPhf68xhZavdRktryXV8g8rfkevbUBvzyHnGO97F3UO9TPSLwh+lu8DhMnud7pmD3oafe87XLSOsYcFL1GBsE7XUM8utHWPr0B8ki85M08vQqWND3NhvU8X7ikPPG9qLwNJi89uyefPGCdkbynJXQ8O6ecPDQm17zTbhG9zk1YvXc59bzWZy29BnGEumqp3Tvd2ns9fduzvGSIBDsQYlQ9pqliPdejfLz5RRe8k1oovb4TL7wG2tm8LLigu+PhFb06D4y8InR9OuyRprsOyEK9rxDxPGJk1zvZxXa9RmKbPcwSUzwrLSA8wKjCvLy24jzWqSI8ViBGvJLpQrxnhy+6cy+2POWXhrzOpzw8/Wb9vK/Epj1sDAK9DiqGvEgdnbxvP5+7KkK7PAu+a71mpxG74aRivJUwezvSLMY9"
            ]
        },
        {
            "shape": [
                120,
                121
            ],
            "weights": [
                "P+FlPZZRCY+LUYm903b+PMZOfjtYpuI8zngPvYPrwzyQ9QiPMd+CPWm+FL0lg0I9ReIRvQLo1DwbizK9V7Q+PaFUuDxw4aY8KMKrvXcNM7w/p249vWMZPSM7TT3t8yC8q0NTPMW+Dr0C9J48LNslvXWAaLqa/dY8Jn7ZvHPr7DxN5iY95x10PTw8ij3qKNO8Jqb/u4AR6rwqMyO8f8cevXPWULxAdRI8NCMmvKA7Fj138wA9sQE1PXdJSb36dfC7O7YYPedWRr3QcXC9qCWxvcLw7DyThpG6o7PQPHPwhzw72Bi9tXQIPRrzWTyWx0Q7qxF8vcQ98LzNjKO8q1Cru6kjADrGdTQ9IVpMPK36fL1Og2q8GmS3O6nVRryRAU28WNzLvBuJED0PMps9BJdhveYjGT1NaQgPsdjWO9t12Ln3IpOPIewbvJX2Bj15AC+9VBQsvZbb57wwUJ29K63PPEVaXT1gWj293LNqu32cBDyJD3u7dfGgPV7cB48dhZO8o5WOPc8iV7xeGhk9d+8kveN5mb0hrJo8dRfMO0Cx6jva/gq86JGGvLXKCA8b5fG8O55nPfn3YLlql5e69zcHj7SIqbwvSB29fmH8u3gZkDzWnP28Y9h/uzT0hzw8+GY8b1JVvEzJdjwcHAiPl2qfO18DWTvwJ1G6Ph/qO263ZjyKmwY7yCwIj+GLpjtc2ZU8ZGUrPXV23zw+KUa9BByNPMLSPTyvKgK87OXZOg1CYTsqXT89Xm7ovAc4JL3r4Lu8KAKLvH+vLLvMM4W8zN+BPH/pJbyMQwS9Mg/Ku2+Ynbzqzqi8BMwgvFPTqbyNExc9U4nRvGxqprykr5i7a18sPbADNL0JJRk9CI24uu2gbbzWwwQ90e09PAWJyb2+z/M8V7Kgu7naDL0UWoc9cVvFvJcihbxmFEy61zbnO4Tr9LyBXcC82dgmPcw5bjzgyeO8jiebPDTLgbweng29AOLfvElhFzwlVNM8Tk1iO66+ZzwV+Fs9qSt0PFROsTxzhgE9",
                "D/OfO0sI17v9PAC9XImxPHoJGbtOLFA8r4AHjwRoHD3F60K93u2SD2SwED2Cure8V+aCvIWKqTq+kym9MJaXt6sEmrzdYmA6cbsYPbXY+rx2Jcs8evKJvX6rijwoaQeP9OA2PeGr9LxUtx28XDnavItEij0ZoAa9ShRaPEqOhLwmbne8kwhkvCoTibzcpgePIfq2Ox2Om7z0Lu68DS7Iu6mIBg/dINe8fxWbPHaekDwca1g8mw9LPMNURT1reJg8VaaePLykHLy/qCK8B20JDxYOBLqPSvm8it76vBCr8byLTzg8Bz3UPR/CCA/kXhg7tU12vVeIBD3IRcQ7VQKfO7Xalbzq0PK7gR6FPdAGprmhpaC8HgX6O04llzshrye9Hp2pvJqfxTodxDW9qgONvMRCoDxh1RW9KsUJPasY5DzxzEI9NWaMvIweN7wWCOk6IBqZPDKBWTuwPRA9i2FMvVNqu7xmkQI9eXPFvLCZ1Dq2w1I8dNQSvDwCRjyhrqM86LREPBBc27uFpEA8bDFdvVKJbz3awJe73CsvO8la6rxQUfW7HGfQPC4GRb2AdTm7Qs4ZPEIT+buFcfm8xutjO46Zkbz2ynU8qA+HvF6lnLzA2ww9hWknPSPwJbxVwwg9qQV7vD2SKD1sRb88l8yNO6Lz1zyw9CE8dIdIPY7XCA8Nq1u8gGUYPNzdCA8X4e085d3YvDznjruWpFw9VWXNPPKFlTxkhgw9elSiPYGYCD1V5mm6Kh0YvMcCCz0ps0y9SgAHD6BCnzzBBh89mewvvAtM4Twcw6O8x5uFOxrKhz3PBrO8bmZpu5eww7zhw+U8ZakID/NsdzyqT20892krPbJXCr1DtgcPBhgyvNkf47z6/009TdS1vOBSsLwS5Tg84s/WvOJ2g7y/aLG84fHIPeIFCY+g7ni8b/PtPDqBObz+YG28+3cxPNkxcLyWbgmPq+21vN1aGb05tI696pHAPIuNFr1BzZU7p7MFvZk14zzuV2q8xr4NvaePorzZGgo9",
                "X5amPLBpXD1nzCe8ubAAvdf7a7yxnDe8VOD5vAbeNL1hFB89M5EiPWT4czn4QtY8DgzKPLeIv7pfzDq80oYlvFJUK73my9K8EmETPRw+67sD2dQ8KzHRPF0imzyhgQO9oe7uPC51wjoRd4y8ld8FPKmiYbxmXB+8zyfVvDd7irx29Es8sFxbPMMrkrwefjG92vZRPLKOWb1tpU68d/8SvawLnDzbK7Y82/tOPJOvWT3q4eM7nmzmPEO8izsPc6i8ryWFPGVNmr2pI7w7gITAu//FMTszY129fU4oPWv4gb2PWgmPpGs3Pdmv3jtZyZMP5SkcvHIJkT2ePqG7GH4NPApfirupnz48l22WPXXL2DxxoZq8fB4KPf+IKzyF9928ZC0FPbo9Bw+GR2o7jiU9PGfAUDwCH9w8/Z9Cva/PaD1eMqs87TmxPBjrHjy/6Q09g5LpOtRdBw9Vki0+wz8bPEinxbz/J4w86+gHD44/Pry0R+y7quClPAolbTt2i4C9Qs/wvD9/ObzAHoc9bl3Zu5pBqz0TNgiPYSMHPC01ljuinPY7KR4muhay2TspHZC8jg0JD9ddgb1Z5G89lV2FvMgmKLz0mMo7lMotPVZPSz1qlIk8FzM1vdHzZ7zk84W8YuQ8O/EIjjssYhY9mDyJPYfynLzwlAK64D+sPcSgH7xDQpC842dkvFNMnj2L1Ri95fODPCTJr7yqm5g9x7YTvW6AfjwuggY9AYZyvfUxEr3zcgy8Bm1OPVeS5jz+EzO9g71mPPIWPzylQuY7o1zjvIEPI7y6vKq8UtPdvIKHKr0xnrq8lEFLu6ECqjxe4AW9kDaYPD8L5Tw9NS28ZPV/OgLGFT2Un7a9FGwFvdMYGruL/iC9rLYnPSuifj0RnlE9kUKAvN3KDzyr6zA98LUKvPYgiby5ega9jS+uPD4tnbxz7wW9AXwHDz4isLy3rEI9yYGTD1j8mb10WEK7GBqdPDjKcDzBmz4985AnvYT76jxU+dq86FkfPJhtWDaCc6W8",
                "JKdFumjqXz2C/waP2l82vdB3lz26qEe8B2a4PCgSOrtYOFs8vMWUPX64CTxtXiy9VmBkPUOOkT2TTQgP10i3POembz00m2o8ZrSSvN9vBw8mFdi8hqSPOi9aRTp+8QA7VSoEOyFZ6rvawfI7c30lvROLEb2sf6G6NZ0ID056Xjxr+wS9HKm5O9wJCT2HQhK97s3CvEWHCY/9pM28uROpPXB/sLz3Hw095U0MvTnnsDxe0zG87MXxuv9/ET39ARI7jok+vHNag7wVWim95BW0vJFnDr3xgcq8A136vIqUMT1BZps8D1y0O53SZzvQ+Ao9fGDVPD0WgDyjakA8YnSKPC0/zjriNOI8X5JJPe1jOLzF0ca7SN27PBGfEbwMyps65vVqu8z1B71H/Mo750NSvb/6wLw59o+81C9MPa0VZ7wrNCm8ia5uvNgVBr3dOTC9ZxWivOuO7jwkVK+87K2Ou+abBr2tQGa8V5+FPK13JL2tOQO9GqgyPBQ1vLv1HtW8SDF5PNziMb134F47l7iCvOJ3nT22ITs8YZEpvQVK4boMvci8qJHsPLZCCY+CG4U49NpMPHcwlA9+vsq8yxb/O+i9LT2j/CY9B9O5vDrmq7oROGw8+l8QPF6DurybPnw8K/rzO1QENb19t/I50AwJD4ETA7ywMbi6eHsJvGbBQrti3I27RQA4vRq0jDs9j1C8NCiLO4fEvjyX0QW8iDQIj6IzoTtF50S85kjbO6cCE7w//AgP8vPxPAg3MDzpfTu8EFLMO1oYWrv/OsE8GVqhPDLY2zvvPV67o1oqvYI4CA8QYpa8xHE7vFuIDr39+gK94QNWvDXdWrnkNQgPony0vHLH2Tx2cHQ9ToQWvWDuebxg3oI8ApazPDoo9bzNesq8fINlvfgHJzzuWR+9lcrZvOiuUL3Gudm8NZOnvHOaa70aCEM8Ijx8vBYXiLxADYG7+SCiPWPWBrydWxm9LIq0u5LtHjxSZK88ji1ePWF5Zz0h4dU8negCvaH0wTuI3ZC9",
                "0TccPVVVET1uYQ49O/FgvIdXBz3DaKi8PppgOhKomj1mglY9Xk9MvNkNHj15JUo89bD6OmhCsryJzHU89qojPBvBUL3o8RK7e0F1vQNRHbp928G7F4/SO9GsMLwAAu48JCYDuq47lDymhEQ95/58PHYTDr1+Ajo8UJxePH9gdT23EVQ8suKNPBnbej3p/AiPUIE7vCKr3jyGLggPV5jIvM0LH72iRrw86BZeO57sg7rxree8aMWRO/9c+jsbrNE8EwZkPHN5gzylZRA7FxFFvSljCY+G4oA9MJWZu+uuhDw968s7udOjO9R5BTxViL08RUYlO9SsOjuXHgc9MXkTPU3cCY/Txim8MeoOvTyZQbx57sm8s0EHj94D/byCmpq6mCIkPpcCi7p0qCS9RZQCPSatQzsZba888EB4vBEs2bwqkweP0yN7PNuFMbw2wCE83ziLPKCyMbz1hxA8am0Jj+3n/TyPtCC9q3JhPOQh5zzdrx48DBbHO/7Dnjxwuqm87ovNvOMty7xfpog9YtEzPYtMhrzWUC47mfN7OwsxFT3U/0W8x+FUPCgpWTsCbZE8Y0nZO7qKyzxQfnk84RzMOiKfkDvdno+8xnlCOwnD1LyIKc4874UVvGC8nbwCGbU69KqbugocLT3icIs8xhB1vOU9irwW5jO78zgBPe7QmTxjGJG80fUCPUB6Ob1ysUg9AVOSOs5APLzlrCW9agO5OmKfMbuVrVs7cVjovHT68DrX+/S8kt7cujuQKzvPr389C4EYO4VWV73rtti7yFpJPCdMIzzMs+k8ojkcPNOSfTxfnF089k6gu3z3SL0z4q28gIsJD+Vqyrzo25M6KPAHjxYFZT3wVKI6aibmO8ZAEToYG1e78CFCPIsKnjxJj8Q8qiItvCrnuLxFQ5i8TB6DuhakDTzDOgiPuqabPOzJCr1D76g8KcNNO4yglLyq3DA914+mPHajtjyphCy8GxeYvHmvprkdyQgPNt44vF3BIT0YHMw8N4SzvCOuCI9GKsu8",
                "64gBO2kDEz0a35e7+Mfeu0bWnbxHEQC8cLrAOwEveLyDmuO8pI4Hj78tHrz69O86LxOGu51mBTyEJGk85y3NO+JNCA/R3ci8JwGsPKUoAztZEvM8IEiuO/YGSrwSQLs8j5YgPHU1zzqTn3M8F1hhPNk+lzyWRRy9vy+/PObExztolCO9KbyYvEVQUzu2kBw9223QPD9oGD3Dj5i6DHMSO6C1LjxJWL68ekm+O/Rynjuz7108Ha8YvFFVFTwYX7k85zm+PG+/RrxMmHo8QRWEOraxazwk3tQ8UMCIvB7R6rw7hGY8ROevO/JrE7zArLM7ldzjO7k8iLwr30e5Oh/duxoKGDsEamg8ETtnvBDutzzFBTQ71TKsPA3alzz+oNa7fasLvMUXWLt4MoS7Xbuvu79EvTtpXce8rWhmvJPRDbspWjc7U8RVPTvy1DvPXOw6l46Mu5IOCY+KVXS7iSD/vCeuBw+cr/Q7jIZnuudD67qjkFW7QpcyvOlOiTumbBi8zQXJPLSkKj27OtQ856CFPAudsTuR0jQ7gV8JD5NmqLxWNNK8662IPPXNH7yNTRK9bZ6+PPRdFTwlSYi8zVGSO/ZDmzu2qfQ85xoHj0KWw7x+0Ia7TcEfPCxNEbq/aAePVXYQPHzPRDyML4e8xpwAPJTYxTx28im8bdANukhFjjwcGoq8/FNHOqxXCA/n5K68ItaCvD2/gLxWeia7HNFqPAXThbqbSwiPxYzsvBGoYzyj47M8IUiOOzK5pzw47kw8naf0vLGqyzsU96c898RHuzqR27zwf/u6SZXmPKinyrxQX4i8C0i4PG9hHj047k68L7RFvBzu9TsE+xW747QQPDgfLb2XlNC76dwNPU5vYTu5/g078YmvPBGM4ruyvA88HdMXvCmgPz1+KL28ApR+u+QAlLzFpoM9svEvuxpPUjp8W+48I2dovDFNRryVU2A95qTJvGd/BLzWHw87K93du79l/bze2aU7JBKgOwFgejzgXSm9PaiqvLK0g7zrpyK7",
                "eI5GPFv/6TxXL/g7c0ervGgMJjyePzq7z0hnvZjZtbzfwmY9X0Hju5Oet7ghQ668itcPPQl9YryqvQgPVCb4uz/CujokmggP1XgnOqoO7TxxwBS8zgaMOXu9ETwR7Z27x4XuO9lSGLwPwkc8nbExvPii+7yaCKa8EWyIvDkXCY+9Px09qB4LPU+GqbuB+wG519nvvOIyN7o/1308W6VmO1EqVbuX+Xy7XmNNPNcHCQ+qjPI8T3EKPLmYdryZ3QS85f8Ij52gnLxNfpg6o/GDPKQZtbvNMpg7Ws9ZPGqrFzzH/ue8pA0SvM9XqDvarAiPhJFhPdAc5r3j3927yvS1uyCOLr0n2hS8CFwIj1jgRr1d7e08BRiFPQnwrbwu7ve8nJCBPHV7f7yw1SO8TS4evWMBsjtiSBO9qmf2O4/FSr08i728pkzju/8Dg7rTj7C88V4aPLEC2bvKbB+9Y7I6PR+MkbwYVmK97IsIvD0QXrylprE9GkczvZjuhzsiJRe8bnBIPOhOpLy5kYm8MlyoO3wfK7xqWEQ9eQC6Og57I71QDus8/XWkPOKQcDstSR+9O/PAPNvKWb2myLE8Muf/vNBKj7v1ytm8DrB7ujFebDv8KXy9ultWPYc8Gz2unJu8y3APOwS9GbsMA/e6DCccvFMuAr3504O8x04qvYi2jbwC06y6NOuPvEn49rzeBRw9j66FPU9f47x3WLc8zD0Ij9cu4Ly9s/078FYJD+jyYrv/hN26q4bOPKqE3L0ktle8AcH8u/PkRLoBTAi9wPh4vdNNMr3TSyE8nOkMvRnBZzzNowgPFAkMPUrKJr0fT5g8gTwDvSf6Ybx0J6q9y1wyvDZN17zmpQe8W11evMZKBD2s3AgPtwkHvOEkbj2IFvo6gLLrPHFsCA+n2Su9jHyqO9yalrwms9i9rLnoPOBEIj2lp4c78+EAvGa7lDvkgAiP0XYJD+67CA9qYwiPStIIj1+ACQ/yNwmP3j0Jj4ujBg+apgiPXyMIj5PhB4+SBAiP",
