{
    "input_shape": [
        18
    ],
    "hidden_layers": [
        {
            "shape": [
                120,
                19
            ],
            "weights": [
                "gyqVPZFDZb3nzZi9wA7HPagyhz3yeg49H64qve+KaT3gCxm+oChlPQv4VT3BVw09FD9huQ2G47xlg1k9ofAsPTzdxTzWTd49Bqr4vU461jsiNcI9ZomZPeMKOz3lx0Y97kmLPdjQIzv4ghU9Q2rRvN4wuD0u4UA8ywwqPZW5/D0VcHc9vuDJPHcxdL0jT7E6TbO1Pfae2L3kwdM8ac5tvMfEXr3MU+W85kspPVOaPLpRxoG9eiQHPnwjTTtlGQ09knd/vWKVHLxlSCm9NCKFvfMnsz3l8C88FA2iPHyGfj0hZqi7zGTmvSsVK7znnbO8nGKSvAO34bw8XqQ9WLRcuLN51z0rfpy9F8AGPXo3kjwYNig9AVOUPGCwebq2Z9i8b5zJPa7JD72MvK89i3wCvu2acT1uHwC+9ocAvgKPvryyF8w9o1M+vagCd70E6Oo8hePFvUQJer3+HrQ8WHnAvbxRR73EV/q8kAOEPdcUIj2ovLu8FHTsO7G2Gr6JpWq8WYIYPl7hTD4/tKc8rky1vO9xZ71IgV08MflnvkHpiD1c1ec72j3SvQ5tvTyL5dW9BIX5PDTBZ738+bS95duPPa8zgL3Hj5G9uaKvu8AiAr2hA3w9BrixvTNxpLuKmRM+P7q+PEI7Kr06M1o+99uQvAm3nDy3+iS9Fpyau1f3JT2NXqk84/0DPacWFbxMdTe9ggIIPnQbcr2ATsk9fu02vp90hjzhZlw9b5fMPaVO1rytjcu8a4z5PeHpqz2mQQ49D3QTPEhdijz4l8Q8ai6HOzWM/LzwZK89IEZ1PIiyqzvqKN886g+VPqZler5aoqY9n6l4vDfTRD6Mcxu8LYv5PP3KFj0Nibo8o1KZPQ8477s5Q6m6tbkhvaOrKr0vuXw8nikLPJF6Sr1Wm3o9MqW1vRZM1z05kQK9FCDCPWbImT3RzVq9hew8PYkqn70DUHE8OapTPI0HoD1tplc9I3WbPX+36TxKbVS9UKf0PH1vqDwroo49+AvQva2y9jxYFlM9",
                "qF7dPM5xUzxMGgA94E0nPj554DwCsnS7VKyTPb0u1rzKPuS7y2yKPUfX4zoqMQU+KCAmvft9cT35zLs8P3AZver+Vrw37cu84rrnvRi0yLytnsq9UkhIPdv5NT1WciA94pryPT3BB76SQWw9g/CdO/DXpD1/V2k9a65DvV4/Dz376lc95N1aO1ibqDzNFCy+/OMivnQM9jxL9TW+tsKSPd3phT2leno9MC1ovCyz07zzdko9mt9ovbjY2jzPh6a8wa0zvXbcxT2ZUTu9mwMZvU07Dr1IShC92vrwvAHtTL2AhQ08lsoTPVjSzT0kkmM9/cE2PfcByjx46ku+OZR4PYioIr0opj49SwRXPaIMNj2Yi4K6bt7ZPPUAMz1pt/S92QEHPlyej76D8aO9ovG4vB0CLr4hicG9qCsOPhw9GL4+dWc9ag2hPsas8zxyZCU9qr/5vPiPWj3BvrQ9+q7QvaXkA72gVpW9WReKvVhBbDyHCze+c1MFPt7IRT473f099kOfPUQ4db3io529BtvoOzOkMz6j5eG9Wuo3vVUZGb1yCna9Ze0kPIJX1jzno+k7lIjGvDGeOL2efsC9QRcpvhdx4TwmK7m9y5InvhAVLTyrBPA8mpozPZgFer1SWLm9aWn1vKzXiL1gw7S9otPoPIcwwTxm6oY9KhZ7vI8/RL3/ebk8gUEZPuZaHj0YoDo9kkfcPU8ChL3Wj728P437vPRtJr5Ic/68JtwCPCa8qb3sT468j3npvWy+uztTQEU8wcHMPNIbyzxFAqA9ceoivJX/ZL0VKpo8bLa2vdCJ2b0iOJG9nC3Mvep54z1tY3u9TxjQu2CGdr34x7G9KZOxPN8AXLznoQa+NMcVPR3/m7zb0G89DCHGPaMTHLxZgoW9UaiMvQAljz1Ytp2+rQ1hPnfYQDyn7ea8240DPs7ZmLw+ACE8zxbWPd+iiDwixgc+VciMPNdQhryTc5S9gxPLurx1sDzJ5UI8TPkAvNvfqD2LQfg90+iXvbPIMr5hshS+",
                "HwNouj9H6b3vsW088coGPXOSqzwKFDW9pMZlPEjGqL02w329+J4BPWEDBDzxV1m8xhQbPJn2aLxyz747Nvz2vVNwBD7KJRu9FsfCPVft871pHxK+rUPlO/2L/bz1ixQ9SGhPPeUkLr0FEPC9GpKjPardD72VCY49QmGQPTdwpTxVPie9R4QrO7q6yT1x3Iw+Z7CkvnZRYb1N7/a82nXgPS/yPz21ckq9YRQVPguvDL2a/rI8qFHlPAyi1LxQxEA7Pq/YPK3YNTxh9CK9hFaaPAlLWD7R0Xw8HOgBPuiooT2kdQG+CV+SOzCURL3+May8JSf5PAgqLz1J6LK8frSEvdvVjL2Pps49ifh6PVwC0bvrzwG973YovYHefb1hU408znwBvq31Z74ClIU9gcYavaGHIz4J0gw9ISFOPeVjPb1x/cA9uAfdvC6WxjztrA6+XbfhPCUUdj03QPA8qHWyu2lqhr2spo87bR7LvR5IpDx4/r68sqwFvJotCz4BX+09WljOPPnb1Ts8sg49QNj8OwB/q70TAqy8ywMRPi7Zy7zkW4O9T4H4PbYXHb2tQJ29WM4aPeiSwb1Rm1U9gbXevXcsJT6eBRI97NUYPZ8wcb2hmO47oO3oPDyFpr1UjKM95qWhO67RRDz26Yi6z/MivBGHkruhTRq8l2iCuxaKYj0gbtG9fcSju73PKL4gZaI9nlw1vhKV0DxR/iU+mXaAPZ0X9DoctW09tcwlPewxVLw9RxI8fBLiueGhC71hVEK8rRa/OzwtUL3ZxPA7JuNDvUNd2L3QwuS9oJ4oPB07NL7JjVQ8kKAXvh6wlzynwxi9MhfEvU8rsr30so89KbPwvdDhcLz87P+9enHOPcBOIj1f6EQ90IGkvRvkab1xFvK6ZQO/vWkbZ74OHRy+p2zDvJPAgb6uqEu9RzJ4vUtTp7xpHyc7/y3gvey0HDt5iR49sttqPeEcOr3CbiE8AcpUPHuTPby72xs+A5A/vUI3v7ylrPs7lC43PSgNsD0Dydi9",
                "AtzCvUwAPz7vF8e6ZrmOvS5BAb7YkYC8OcnzPR9RJb3rdQ+9i/FIPa2tSr1BUvM8wysxO440Ib0+veQ9VeAHvN/Xib0V6ow8Mj0MvVG5prxCN5C9yBnxvAXDzDwMKRC9xkByPZg+fDxO/vs91MkjPE7Vcb1pJOy8KiMjPRw1Dzx9LQG+Beh4PcKlJb14eUI9pzDmvOjROLx5CEw9dipIvbCs+D1vla28fWhxPRMemzs2oCq828/4va1kRT2jxIG73WRYvYgJGb2uPBw9zfp2vfYwSr4/kaO+WOpLvqSszDy50jm+zE55vZ7aqz07lHg9hWxCvOxxLb2u3xA8gxEhO3lW0bwj32u8nw0vvbmwzrxll6C9SIPJPQ1KJr34JT69K5ufOo5AqL2quqc8J1WLvVeV0Lw5yRG9PDqWuqCUST2h/448aFDuPc7CrjwszYa7i9i9Pb1zmryO4ae7d9dXvZyMyr1FZB6+HkquPf1oEL6oIZW9pITzPeskEz2Boyk9W01uPGAbrz1lUoe8NwTkOirHhr15QTM9PS31PCCacj16GL08bjmGvbKuAT2IziE9gXCGvY+Erz2EJJA9ABPHvXu/bz0zDoy7vNe1PZQBOD1aim49/iVeve24Gj2mm7W9VyYAu0KoPDzFajg9xqk2PS/ztrpNQ6k8Wb28PSJpGz7dexm+SpYyPvleAb70TSa+4ML9vVvVkDwiLDO9kBIcPcjrgLu1rK89jKIpPvDj/7spIgO+YvXUPeLyaD1Q8wW9Z6ktPesw9rxXZy4+cONbPsiMAD7xA548NkywO6fXp72xAYU9UhoqPWWcnLxgFeQ8F0KevSFDbbu7oGa9E9OlPaDXPrwkXCu9l8bFvO/Y3bzWKLK92c0tPVygRr2GzpW9wZnRPEicArwLfw09Tv+gu+R7Wzo5sAy9kR58PSPd4jxQ6si8JwIfPdEqqz0oJw28WRAAOw1kzLwMNu270eOOvcCAzr0nLBy+3QVVPq/j6Txza/c9xwTEvYFTDD15obQ9",
                "RAKLvac7Fj1oFAk9/u7SvWzR0Dzlqoi8CD2GPI87zT2eGsE9BaiCvJEODr6sDdO94zoFPgEYEDz85EY9Rts7vb1fkr22XEq9OOGQvVI2WL1VXYK8sVwYvpRVezwDnqg88NqnOwwzDjw/9L681PmMPNpILTws52y9ycu9PQS8/b0e0dc8p8OMvFg30L0xFpm99syTvObsOT1CXuk8vlEevRoTjj0gGoM9M2HLvMvagD26Lr69rPEyPUtwZT12BMo5s2suvg5+j70yTnu9nHcAPkuN57nicaK8xprkvRolwjxPEKy9/z/iPHOMerxYmQu9yIhlOwozQLynNoI9gVb5PaUB4jurIYW9YQeSvSdItb2JG+i8uiUMvGeJJb1uJZK9hje2PCU39b1fi0M9L+dHvh6Wl7wns6u8RBOIPAOGur1BHuw8OhenOopPlb2BaIK8m4KVvOTgE73LMpK9DCpwPR6nh73+4s29pcWHvSH5gz2Z8W6+ytsJvVoL4D1dZ7g8BWOfPPNp3TxLcEq68nSXvcK/K73ThI+7e+ITvURNrrwf9ms9yXEnOxW/Wb2/0gq9YrGIPd+zpD22aJY8pcW6PaIZED1giT891JlPvTXpjb304609crjCvReZmL0yx4k9Uzk1PSlorD34sAs+xIoMvlLKUL6l5zU+Ac5GPUMbtr1OAdU90yeyvQngjD1amqu8UAvtPWsl9z0tJkw9240bvCDzi72KP7a8NRl/ves6bz3jJ3m9EIulvXwFJz2Rs8w6t6bnPQLdWj75Syk+B30bPlDkVz0atyS+Hk9TPX15/72C27w7GAI7PcsdDr67/4c8IueBvTyUHj1l6nE8XoKJPXIJK7oVnZg7nE2ZvlpWXLxGlxq9ys+ivezcZ71wLjA89Eg7PdEAsLx9FhS8raIsvVBXir1cqjY8jGTgPFWtnbtDx649TNSQvXsFZz10lAS9Gb0evUOTtr3uJLe9dhdxPUyooDq46RA+nvn6vV/79b2nxgw+yfshPMm3Tz0+sAi8",
                "kkNnvZ93D73I65I8j63rvK0thLyE/4e8wz5tvRPWBz3TK2G+QfpjPeOeAD4yWYk9uJyQPIjKU72s0Fy85gMYPVvjWz1Jkj+94ZLcPDCk3zwZsCa9oNs6PcmPkj0nSDa8ByRAvGlyhLz2vgG8HA0Avmxx2r3ILzs+LC48PLZrKr1i1K49DcjIvUbC2rxwcKY9NrC3vNvS9Du1u/K9QdINPuHmAL3b25O8M1sfvauefD1qUCC7pRWMPYswhjrdMjq99zwePs9RRL4ttqM9fRiHPEUqerxtZKg81tSvvHAFdD1AgFy8AckhPX70FL1X3Aa9P70gvUlnBD3EWiC9+eslPbKZbDxJAW+98EJ6vURV2rzm9ju8pI99vabTWr10w9W8Z1UYvapH3zwjyvy9gZSgvEH/OT3J8N89AAUWvJr3TD3a+VI9+77kvQRxKzonIKQ9/MdtvbdJez2j4Aw9htXJvXcjGrvObMw8+0EtvlUOBzyxMhQ+/SRDuUf76Dy5Oao8yQwXvicCAb2ZK8g8gJIUPqGRF72EfIU9U0EMPdw/0Lwd4py92nMOPxYjnD6EuAI++zI4vZ92nDxxIJK9m3R3vRhoL77G8Si80nIpPbrRH70IRI48Pj2FPHJ5uzwqj5E8rHazvCYZIzyxqnS+yInRPBa9eL0l5mq9rceBvesmADzN+aO8hbX0vFSxCrzXeLU80cAMvc6Rur31MpQ9mgQUPc+aJz0Kv/c8pPSLu6iuhr2Ni548Vw+HvQGrUzr1kWe9Ra/HvRG6Ar5GgLM8oK13vRqXLz3aq3M9i+7YPIujjb1MMj29G97lPd2axTwUq/e7L+v6vE4R4bye/o09W8sgPV7Rgr3Oc5Q9NsaKPXwD2bqnpFW9FCe+vXUi8j2dIU89LrjOvIEjTT3325g7Ma/rt5DXuzxfU4s82dWjO+v89j3APaK7MsT6O7/QY7xqgOS8YtHqvWeWJ76optE968HIPVEnrD0dpwM8pthavJWSZTzLj4C9BLD3uUSUsj1i1mC9",
                "hih7vEo0ML0aO469/3eoObGcAr01lLS8qCkBvsS4Vr0auqq+7miQPbqgID1fKCU9+FxIPpSFwj2Kl5k8yfmtPQoEuj3xNNS9w2N5PK5TLz3/h00+EfPYvK6H4zzmQYM9N6IZPH0yOL55rLi9fssQvoGpXr4RyR+9IJUmu3G5L757eii8vDaxvh2MaT0WwjE8pXtavSZKbTyjUIu9SyO0vWXqLjz7PTa9g+mOPYD2ZDyQ/Km9bkrxvHYXgT6lObA9zVMTPgf+sj25cKW9lgAuPd6dwT2c+de9t2V/vXsE87yzJnk9ph2EvReewj2iyec80r+VvQe20Lx+7pc8025OvljQXLrSvdc8sOgzPnfncz4TmZG9LRpqvdUqpz1QzES+poOpvZ8anjx8HM88b392PEiS+Dvse1s8YJoMPZhnw7zQwRq9aekavPvjrr5t0ZM9wAKJvj/wqz1ymj092S9VvdQ9HT7z2S89xuapvX5T2D100Ia98NyovcglgLxosMC8y3dNPjzpB73ogjA9m4MivUubYjyFNoa+wyjTPCxFE703wbk7bzMGvdVoZj0CtBe6QFSNvV93yrwKaqG86umMPRM/F72KJQC8bHiJO3cX7DyLLSe8KsdXPR8y2T0Uv8M90m7pvW6wlb0k3U+9Qi1CvdaHPz03Kdq8SngUvWhDiTzoAoy9WPHTvGtV8joZA6i8nHLaPSXNAD13hhY9oAAPPkbkvjzqagi9dE5mukh9ub30rmY9d7Fdve9kMr4dqaK9NU96vdq+KL4azwo9h083Pkp6xDwFrPe8sUacvX0EHL4etKY8pvgNvcF7P7y9JL26GBlzvT1w3jxluXm9Qn4fPb0ezr3Zq5C8Wzm3PR9hQ7pNoXS72oSDvXL3tT2Pt149SWmgPGmRHzvd53g9sdAkPfyG0bx9GYy9lMwFvZqEGb02vHi8BgJRvioyzzyFKbQ9Z3xju5B9l718rhc9QOqYvZsYkTzc1EE8W+9OPbb0lrzaHgy8jI8FO8waXT3phPo8",
                "eaYAvuXvoDwjEYa9SQwmvORKLrxV1Z49nDzmva+W5zqUG0W7WTBQverAJzs+v0g9HatrPYRdtz1apL68Gc1vPa0GyD0klWI9GxhWPVzEIr0uxk08gJa1vaHwNj21mqe8KXKgPXzW1bx96RC+lmZJvSbeobsqMzK+gk0kPI0MqzxpLhu6/DHfu1DL8r3Iawe+U+lovQaHbr0fyXM9dQ8DvXNrMr3phYk93PmmPDlMvT0eQta95lS/u+jamb1yviQ7GgO+PFcXfD1DDPG9vkZjvdOKMT2r35i8+0sivVZisLzw/no9hKKNPcVPWb0rPIg89823u6D1Fb5Wgjm8BvQAvgi4AT2YBvM74MLXvCjDLr2T89a9B/a5vNggozwV9d07eG9ivLk+Ez3HTik7NZ7tvEDbhb3JzYU94MnevN7Xwrwg9De+0h/WvTwGOD2p54W93U4WvgpvZb1ORBS+WSZAvbINBr33jhQ97VHHvGNkzr3SdcU9bNBPOncuwL0SeKg9m3npvacyBr3/sKS8Gm4mPS9Ocj3ahCc+nMTlvRcfAT4oglc9bPoUvbdJnL3UP7w8VnehPMrWILy/ilQ9sWcYvWtPQDvH38U9oKidvRiG8jxrWTk8RzXmvC4TSzz9hRc9SLXCvQacFT3BbJa9TKcHvn/afbywWbA9LGD5PFSmWbvi5709BWm8PJgBMz3dk509BbOePboUcT31cfM8YoG0PDO8Gz1fuiC+LrnBPXV/ozzWl8G9Kqpjvc/U370QfM69qKvzvBl+brxrn3A6dAdzO9hEyzscqkC+/x0Yum7G0rxqeGA9Ru5Zu4T8hD1bBQu9YlilvR/c+bzcmA2+1Lk/vkxx8r1jzMe9kJd0vZ20lL0kbk++5QPNuXfqtT2+8I28gtdMujPErj1H4ok9hIutPJIT0rxCGtm9IDEGvdXay7zQghC+LpETvo71vT3x9c68MUv2PDX6HTx/bAm7gSj2O2hYrz3tzc29RkyLPUltA73ZekC9a01cvQBmCDt2woM8",
                "ii0vPXFx6ryojJm9t0UDvTGEAb0ubhW+tA5EvePoFT1eaOa9WRdhvWhE6r2FJVS9e4KLvNpgzb3y+Ao+m5wtPQ2cULyEJHY9pLQTvaPyJj3nNGy9KbROPW7UKL185su8IggHPWOLSr3F0pM94ID2u1FgkTxwWW68ZfHpu3EO7rxUO0G9nwCGPMCJjDy3e9o98CYpO50AnT33Q7O9rzhbvcYnMb72dJY9mTxKPhkd3z3eMwE9smU3PWF/OL0GKJe84CwgPgmtPb3Ifou9+tmzPI3jTz2HLKi8M4AGvc/YHj1VcgE9kQvHPZuptTsu42i9zQ/VPWwdvr2AqPq9R2m3vRGZeT08Wxy+Tg9tu4NjcTj6DJU8iqU7PStZW71c1To9E/cYvb79m71F9jK9m0v9Oj84rDwa6q+6fq5MvSWFnLt9bVG9MFMWvit+Gb5Y0iE6n9GKvmQfjrz0baG94QeIu8qWyjpwjhq8tuzCvVfYN71F/pO9y9Mtvew8p73GeyW9BrbdvIvgqrzBgE68vNypu4yVkL1qx7c9q7aPve1Hzbzvp/e8VPIevkwiBr5o+ZS9bFtmvd6BtDzgsZS9r87HvVUXmjx9Rlk9QosmPbMGbb3hw+S93zsaPcL7lb3x2ha+ciYMvvqUHj1tEOm9vk80vUuonj34URk9nBnGPJHfmr12cTW9Kil9Oksh4bjl/Ie8N3IFvY4aybxsY1g9YVssPUdHBD0LskE9MWa+vdX/9jx2fsU96powve1Gwbu/4w8++NCfvZklnzzCI8a9wGHoOhu2Aj08+Ui9UCfsPFc/hrrP5BW9CB6tPFVTPr1ETL283FMbvnBbf72EZrg9cVLYvX8PSz1mzRu9wnewvdESqD3eESs9cJrVvAb6HL3t5OW8gi7KvVct0DwoSxu9qPrjPZP2Z72beWC+5Iy6PCaBrL1qUxi+AjaQvarLNj2Rwb09g9HXPDyuvT1Vo2e52eHtvb0i6ryNB3A8u/BKvKqHET2yYZG9pmp/vQ9Lyz1zbpE9",
                "Ao2iPFq7vz3Yj7M8vqoUvWJuxL0Fp3K9lAABvZmKlrsLVDm96CGVPBqROz2+I1Y9qPl8Pb5A8bz/lvQ8IMkBvfXOgT2Jz1s8GGPIvSkQGb02e+c8pH8SPfHx772iA349MuN9vMtLg70WWHa8QoixPTW9GT2jEns9mUo8vRLvnDy1f1c94w34vCBwUTzDHhQ77macvX8hbTzsUry95KOfPe1TzzzrSk898i1JvWwBY70YXgM9W+6IvYdufzzydum9b9+LvMQ6NbzGFhu87KVSvCucOD1jxeK8KMQhPMQ10b3h84w9ROGpvEhi+LyzAki+RQAmviPFE74e5Si+alxrvbLmlz2dqoa9Ak/KvZMLzTxJG7O86naCPXHL67uvaTQ8hi3yvCo9VT02aco9i43uPUcTkbyGcKe8C7W2vFV/Cj1nJcc7zUs3vJFfJ70hSQg9EbQAPbDnXD0wl7y79OzFvPaNZT1+sd281rR3PIUiVD06azm91VPTvY69mzzq+Se+sNZbvbw2E74JvMW9aZg9PexUy7zxnxk94MiNPYuYEz2usyG9n9IsvS0cN7xQ5Fo9S/BrvHn/hD2KVmq8CEGuuxdDxL3Z9ri8AVA8vofD5T3TcCg9QeqIvZuHBr7xcgw9YXYavj5N1LxZG/I8v3eSvRcq5Dzx/188BgsEPqDc9r1PuYi8hxSfPcq5pz1VFWe9wRaeOzzfZ70IMRY9WLbHPSMUg7wro3284+D9u2HCNL3pw2S96CuVvSsrVT3i2RO8mEWFvW3Bjr1eXx26+h66PfOIt72OLSY9C1X7vCkftjwY6SO8g/ghPUtkNL7FPPw9mAYhvDBGPD2UPVc8KKq5vRbkzb36/Tg95VabvdPctTwKhim9cIKWPE1X7byNbJ47Kw67O21YRL2P02o9G71UvnpULb01D3e9td5Qvi64u7yxCQs9FRCAvVBhTb0FrQC+j4yavcVWGT0kdKy9nIE/PVXUHby96g09Jn4EPS9o4Lzq5Qc9ye7zO4B+1Lz60eK9",
                "kKOuPfhohb3aMqe9iYjRvf/XGr61ywG9kOovvvk/tLxPq4A9Po+QvZALCD3+DEw95USEPLIllTxORbI8LgG4vEaPArvpMwW7ee/bvekA9D14S/M98tV/vRHRLT1feQ++DJlpPZdQTL3cYSo818VqO3QqrL0ACqk9rK1jvRhSCD7YCTy954havG5D9jyUIYm8RfxGvRIuF7pKMiK9UuycvZj6cb3nBpU90X9gvQUMkL39bWw9cMnivQf+lLwSXr29MASFvThhiryx/uA91q91vbvZrLvM7Qi9B3X5vUNhcj0ASBu9CBHWvVLJ4D2Ow8S9+eGQPUDShj2UnzU9Auh2PGdN0r3xaxq9qd1CPQGphTyZB/O9U+j1PNZVUT1iEhk9OkNzvRPCK73kPkG+X5VJvTqCdL1f5ya+qeRLPcrHor0pbd+9dsJDPe9WkjwxvKa842vfuyb4kD0mCOk9ViuHPGPZXrxqDJo9wW3cvHNfmbyocL28s8eXOywGBD28ZHK8dR4qPK/tq7zq7i08HBORvTrfYr2VNt88oRStPZgxaD29PrM9lKPUPVPLDjxAgqw8y3wevShRbD0UnpW9illBvZzEMry5GLmO91a4jrJXuI5CVriOLbu6jnI3ug4VOboOYli5jl03ug7HrboOO4e6Dj3yuo4h2rmOmIW5js42uY5/5LkOmJe4jmjZuI5UCdm9pYeoPckUmT3TMf68sYYJPsbvrr0IsNS88jHXPN49GT6rAO49ptyEPcWtuL3b/0u9qaehPEb6rLy7DGY9q3bhvfzvjz39mZq9lEUivjZd6L0sgoK+/PWOPnejiTyg+aS9TWfwPGPPLT0vAoA93tIrvIGUML0QTAe9IaoEPX3Uczwb6Zq90DYFPFi9AjstkzG8IxSYO+pwPb5m6r09eJmlvmmTgD4RyZY9b3iTPbDEZz0kKAO9obfkukOH8jk/00a8kMg+Pbg/Hb3ia/88B0ZSPYaUhbsFMTQ80Aa3vNxhfL0Dmgy+uetRPYA7B71e0Qk+",
                "fSxjvYAox73FUSu93timPX69gDxofXW97eP8vRm0eb1X2ta8QtmBOw4jRD16sj89w1voO+jF5rzDFSM9ZLacvbhBBb2q8Qi+ZdlNvfS84zyvhVG8qejmvCW4jz3j0BM+RGdEvZ84ezwi1Ss9xurBPO0PFT0H2lW9be9ZPc66NjxYUNY8co0tvS00+r04W/29APL9vak0Rb5xZUQ979wuPb19SL1yGTa9BfYsPopD8L0YKLm8362svcG3zj1rFda8ThWMPY9RRz3IglG9K0onu+5yM7x27UQ9dhrVPLpCDD1ZEkS9wJT0PGU1szynMso619GxvCfhPD239qM9xQGWvQflkjvHCHk9iagTvcRbq7yWOjE9GowCvcIxoL0TKpY9WqC+vXQRzr2F7Tk9eKCEPPyuQ72ifPO9erUTPNaIbb35CQ88YVyzvcfVMT27Q9K9p4lHOtucsD3HpTk8wpINvbTxSLwbEAo9n047vbfGDLpjJLa8nN0WvU5cNL4H3Ka8m72ZvYNDnjpiVS87/LD8PH3DtL2d5bq7hkRKvBMz1Lzowr87tnT5ubk+Ozpvgwa8EznovbZKJb07YEY8X5a5jtpUuY67DruOVEu7jnAnu44Sm7mOwOK5jpk5vI7uAryOJIa7jgfLuY4sB7qOO+q6DkL6uI6UoroO4GO7jku9ug4BTr0O9+bBvY9AGD4ZrWm9ZFwWvirqn70MKnc9rLemvEaTKD0Fpw8+vXIBPVKo6rsmyou8EAAevUqo9zpX1pS7IG4avaN9vTyEYRW9huu8vQDcC733aSI82Pofvsg2Sb6+zp+9QC5SvcBHJ7wX6ZW9MFI3PbI747y2cd48zsFQvXaW67zqz/K8sNqNPOvXvTuo9AW8TBBaPT09sbwNBXS9"
            ]
        },
        {
            "shape": [
                120,
                121
            ],
            "weights": [
                "DuSqvA6DKLxQTIE8bioJPEJjFT03+TK9VT/HPCdq27wLIUc9hDu/vOsItLzdYEO8fbODPS4Gnruj+Z680g+suxWbGj1oWYg6wec8vEkfxDztiZU91zdAvFra7TyCsYE7UQV4PBaw1TxxrDK8SY29vHW5Kj0rDJU9lGHDO8XstDtGWeO81N4IPckJ/7wBPhy95pcbPIa+YLsD6Ii8k6tNvOcHprvO+DQ8SqObOnc6Cr2qKHC8n4bKPAu11rut5Sq9Bfi2vIxVAT0veyE8KBsoPL8IozzEqug7bVCbvG+MAz3oozA9Rbm2vGFGwLyakzO8qT8dvKJmzrurlOU9PillPBWYFb2wBKg8YxcNvQVT9TvYWb87fJzUvC1D2DsZS++8D0uIPE27ajz3rwo8NkQWvT24uLuBN1y9ZQaUPACNjrttwEo87Iu0ui1B2zvbYxi8wxoUPFNkhLw7UG88WXtPvIZSCb3zx7o8nD2IOgiRGzwuqA872sibvCkHtz1ppQg6ZpHQPMxOfLyVnRS8/j8PPZO9ZT21pgO8/LJJvbpr8rzTuym9z2JJvJ0JyLxgXLgO4FHuO+z8lbyvh7s7NzG2vOkJEDtwXws9rq3ku/fCE72eBN86D8G5jqcuDz2HJIM9+qMJvnXPjr1CqXY85/n3vOPlOL0GXxa9dNhYve9X0LwHPTC9n/3VvDFchT0Jv/G7CvQXvUJOab2jWx29KnyovXrX3jp8qxc9YbONPEuypb0Aoym8X7QqOwGSGL0bsD08N0M1PfrsO7yInh28v+zLvEvmjjx+LDW9lIcAvWvCF72lDcm73odQvSJWuDyxRR69wI4lvTn60Lx6jtq9z/9PPXJEb7yKfss8+262O+MOfj1GHJG7KYysvJFIg71k4MA9EgkDPQTUKDyQzAo9xbMCvISbKz3S/5g8bU2iPPLQQjxkjvI8xco4u853Qrxz+029D2NKu5JQvTwhTEu8hpCPvRs4B7205gO89pwsPIf/Nzx2rRQ8+eK4vQw3BT3KqpU9",
                "Wjydu2f1YL3zf1S9USaNPei7GzqX1hq98Jk/PHcIFD0c0mK9+TEkPOBe5LyZjSA9SRw7vVHxdr2Td6u9N3L2OSRoUrzd/YW8cnVuvCarMT0O14Q9NK0lPNkEhzzt8CM9n11YPIxSUjo3SAq++KpsPdLHBDylv6g8VmlOvWdQnT2GYcs9PUzXu6RMxrsoL9+8Tx65joA2aj3KO0K8YaXXvO64YLr+fxU9TJuEPFfcSzucu4w944XwvL6Au46yC/089OLgPKEcij2ns7yOtwa5jiThuA5b27kOdO+4Dsd2uY5dmroOIT67juJDuo4U6bmO+Kq7jpCzuw4qkrqOAjq5jixIuo6MrbuOFqW8jiUGug5YZrsOpgW7jgcKuY78qLuObSq7DtcIuY45H7uOube6Dov/u46Mx7sOy+K4jmGeuQ6E/rmOwRq5DuBauw5P97oOyqS4jnaduw6vLryOeMC5jmdYuQ7dsLuOVN+6DqJyvA4JWbiOX/m6DhhpuY5YvrgOOOO7jpA2uQ74/7iOAS68jjexu44x7LsORey6jl+guo6P/LgOMee5jkc+uw72aroO92i6jsU1uQ4gsLmO2jO5jpYJuY4N1LsO1U+6jnTmuo6oZLmOYLS6Drx5uY7ePLqOWYi7Droiuo7p3LmOBRW8jma6uA6yqLoOPze7jtuOuo4fbbuOXZ64DsK9uY4jM7uOgTC6jss+uY6yxrmOBdS4DpxluY7uqboOHYm6DpUevI4VNLmOxVO6jrUHuo6X07kObp63jmLuuo4XRLyOme66DhXpuY5kVriOQ2C6jrG0uo6GabqOvra7DpRNuo676LiODgm7jhKDuY5bPLqOnuO6jr1dug43NrsO7p+4jvd2uQ5S27sOxwW8Dn3DuA6EjLmOwOa5jhL9uo4QT7W9gSv3O28/VryO2aU85w8JvB1CsbxnKFm8xbbFvGUQ67uLiq49sNtovF14W7vP1Y48LeflOfAkw7tKniI8EojcvJCTYDycHMu8ouIBPJtXbL0Lq3W7",
                "QDlQvXEP/D2Dlw+7kBj1uqJPBj3U96C8aUcavQVDLD2Vtey8NgRGvXFo1TuMReW8fslQvQPusjwgSc68LqDOvFUGRrwdFO281UHXvE083Ltz9aY8POm9uP7z3LwgkQ289ng6PfuD1jveWL09WL8bvEwbnryVMgG9WJ+HvIFAq7uZiKi7bpWjPHBVvzwZpEi9uX9aPN9ooLsQya46sYqoPKCOsrwijqC6ruUbPDofAbwDKws8ZAYPvHH/kbnjXtG8/S19PAoDwrxgWSo9QXsJPLSyhjvc6gm8wLg6PPFxhTyRkay7H5vVu6k0PzsJ7aI7eC5mvLqfbLuNmoA8CjJJPLU6oLxeaQE9o4HkvDV1I70Jl/q6fp9kPCHvRry2jpk87n0NvJtR27zcLra5Q3mluzc4DjzeG7+8TVVPvEQ5Y7yFMhy80lj7vAXJE70Eevm8saTyPA7tnTxsf7oO7fkfu5SSTLsuPLu7LgKWvAQh/bvRmi+9+vxCPQlyCrw/DVW9ztm4DigQ2bwkNu+7zZwCPWV/vrqdiDQ9M7IJPIDGRDzlpqq8WIM5vd36tjzzbP28ftIdvWOFlrype+w8Hh1svAgHnLsN2s473UNzvMaHEbzXjm28QjQ5vHzGo7tOuz473Q8YPSbWsbx4dxO9TWOMPEqNzLzl8f48VeIAPRxKAL1obf68i70avCCbf7wyNE096YqUux1iZDzAuNe7/kC4u4qebrimTAy8rkV7PMzfk7zANXc8Nc4gvfyi5ru0L/y84M8bPLyjiD0aCwM8fF2EvK4DE73IUx88JEHkPEAGQD3IpiY9VbGKvAA3sT05QPY7YRCkPYhSBT2QR8U8UC35PFEMgbwXsTu9fyFVvTDpZTtFK/286lvVvNkBFzvwqrC8yHIkPZU7FD3Bu/A8V5UWPA1PhTwrRig8f+/juzv1VjxjKCm9lUmQvNrbGDzdQZu7O2g6vXgZyLxXf847JXqbvfbABjx7JQK9LO0qvcY0Vj0mtRk86reWu4sS8zz2/CK8",
                "go9ku8e6Iz0gZwy9hDWTOptZyLzD1qa8HWlnPJOkarz13sK8MyeOvKzaHT3kSAk6lrOLPMr5erxNvA+82hS5jj36jbvWprO84d6sOjccIDr9zW285TpIPdeWvzwcfA894KOOPAP7uI659CK8/8iEPAmCojxkDsw7JJeCu1IUNr2TVyO9r5ubPX75Cb3yDd485trbPArINLxbiOS83mQRvb1QGz0TgMk8ZR40vJ77rzxqHyQ94FYivJYdHT1GpC47ioRHvHZXrD1Iexa9i/CxPLCjNzx/qMs59WgzPekmjbvE/ua7Zl6xPA3EOL3wfJE8MquIvGjHzLzfS1O9DeqIvN+NMTz+Sgu86za4vGaMxLuPkuM8yJEMvSmUKLurfcm87yBWvCCwRrynTJ49efD3PLtcMTySZIS8gqwFPaB8/7ojuHK8ovWIvUXN6bxN7dq72oFAPfxGE72B5nk7eCY5vf2hMr1h/yW9bY6lPPdXE7zuleG8nASTvLdK/7xM7Le8CbQPPW+B6D2/Thc93Hh8PKs4NDxJ3IY84ZoovfJ7+Ty9AEe9IcW5vOHciDyyp5q8nukxvfxMgTzNmQi9wcMNvQNeuryg61+89kRLuTHhdjv6Y9k88UIvPTTOAL1Qywy987+HPGf3jjsXXVq6z5yOvR6yJzwhllk9FnA8Peg4kzwzCtE6LvofPCm0k7yS1ai8eAROPe1jkrxQ1ck809o+vbrDuY6BZjm8+b3jvDsulTwWQz48/IGdO3Y4aj196jG93AvxPLbH3zyEN7qOCehtPT3yJbzufHM8/rfEvI9aN72+oqO8DBqFOyvcUT0DtaS9/9T2vM9ko73Zz2G730i6PHgG1bgKA2695jVIPFsyMDytP+A865DlOwPaajrwsxG8AoxqPUwa+zxMgVE8Q5G7vF0NUL2BfrI7mXvUPZJb7jo8hZ68syG0uuUOEj30Qpk9D7uSPD+q3bu9xwO9rmk2PQjyP7yS0qo7zbZkvSlZHL0Y7Pa8xK31vLN9HrusNHs8",
                "6Od2uxcBR7x1rok8wwmPPdnUuDxJRiS8IWZWvaZ1qbsibx888o/IO/mhkLp/L3M8XaQNvP2ahz2/np28OglyvV9IzzyEwgG8lImivOINRrumPSU9ZdBwvBl4kTx7YDe9VoUNvE9umbx3oyY8ElNOvSK8rTwBZWW972/EPLedNT1KV1Y8eP3dvMMbE7zH3K+8ONZqvIG3Gz1PYq87W46BvIfcZzxu/3W8mzUvPC1siD2v26e6SCcXPO1oPr1QEBE9dSkBPX0ErDyANqa7DvUnPOB8qzwi6vy8Lb5jOgDo/bzRmiq7KiJmPW5nwTx6dBE9toaxvECDCDz9mSC8bIJXPL/41LxHJrkOqBKIPC3bV72IbLe8SiVlO5YoJzoeFl+9XTivO8UtZzx3qwK9hUW7js+XC7piyM48ErDxvC5aLLsIzXk8bmllPDC907yjLSs6R70UO87oFDxLOYC7e1KZvHFxjDwXS5I7K+3Suu1fF72c3k28xEjkPMUnArzv6289gBHJO7S/tzo+vS49qc8PvUHoBr3THbQ7rBMMvBGyQT1JVGW9Iv+aPGsfZzzWeY+8n5CJu0NsvjyFf8U73bsJuQlzCrwoYba8zd25vFlx27x4eti8UcSdOw9Jg7zFpo08NlRRvJ9jj7wjuha9uFMJO0FSlDzeLaW81gvCO9XviTxQZjK7sN95vD8DRrxcyCo8A/eLuwWHH7zGFJe8PTa3OvgTfbwlnYa8JgVPvKlGMT03S3K8HQMEPJTSTbxwkS29e9mlPBE1Dz3aTAC9HSELPShpsDzPUaC8DmYRvEb4ZbxiWvY8qlbWu4mRVL2DR7W7Tag+vDP6CboOX5S8aEm1PPh5L7wOFrY8WQ1avIyAaLy8gva7IxTePJNuHLz6jqO8RoUVvPfgCDxuslE80k/EO2Gzrzx9dN28mikdvVj+FL1FYqq7KOHTO2TYKj0SOwY8gaMpvJEbrTySMYC7Yxq5vPBGTDxbO0u9sJ24jn4AzDtwPyg8XCtWPXrXOrun36C8",
                "YjMTvX2fqbmH0qW8cNVmvXhXuw5d1va6qBSAvIRkoLxdkAi995Y6vZVxgrxtozW9hFKxPN33Bz0725O81vkWPKqu9DvXGSy8p9TXvEFtLbqum6g8n/HvvLDk+7yAGlA8mNaFvGNy6zs34kO9a7XFvDhoLj0TP647ZGDuvA9s/Tp5Isg8p2txO8d3rbuigus89205vc4d1jwt0hC9llqkOyGbgjyBZf08G52cvHufhbvfjI68BabhO9wT5zyjWJe8mzTlvGqg2LtUNIa8cZeMvE26wTzHUQG7BIQUvSRV9LuUPfg8B/FZPAeIbDtWSwK6UnJxvS0VEL0qOsq7A6tdPQV6bTmGeYe71Sq1PE9Rprwq0J27CVWkO9lZtD1pbFi8sxZhPDnWATxuS++8KSXAO2OJRz0wjta6Y0U9PQYj8Lwlp3o9xVb9PK0yvryEBBk8XVoNu25R37yTock6vbGuvZQRXLyjwJS8IOlPu0utKDyJJWa88rLDOyCRpby2MK48V4nNvDZeDbybHB68h7BwPN8DqLwbFcG72NjivGxvtjzki768Xc2MvL1+hjyyoZg7yIMhPF0czLzDlA09JNPoOvD9Pb0vLb+7+LAPveXAuI4vtCm8VEXcPKWEmjzqRh49bSFqvLGMkL1DKjc8m7MDuRNNTrxNKLqObgU7PJogl7zXE3w8YIHwPNKWgz39ITk8grwlPTgcsTw5pFm94yxAvEpQYbt38+I7X9SBPD0qSL0gA5C7JgMkuVEbvj1u5ty9xjo5PGkhzT0mk1g9hR5tves5WrwlbjY7VHCvvJ3pGjsKzWU8716vPTVpcDzrWUo9C8wNvNhzvr1GwV63mDRPvSRuTD3qktY8vK9SvTty3LtOuuY8BL8+O50tKr1S8La8ZtxLPPiUf72oWIg8N0BVPNeXCzy/gku9OH2hvNnR87x1qjO9xD1wvXxr+jzLvZE8nkd8vHJc2zxjPgc9yhkQvK9yBb0Vgx+9TEolPeHhyzvsVnq9x0zmOqIc6Dxj10q9",
                "OihXPZ1mv7urluK8goacPcTiuTwUFSq8Pr8tvT8n8jyxALa8WTULvCKl5ryKI+Q8GEGXu1+ONr2YmF28rkbJvMJFyz032v+8GBznvAvVvTzoaLu8KXnLu0o8dL0bj6O8bUaRO6MPl7x3Ez89GXbtvNwUY7okSci8yakkPZRXN72qBCu9EwpeuiSKhTwWCBO8Qr7jPQafnzzyCLs886Q9PFm+9LyF2VY8UqWnPOTNuTvBmriOsIkcPDGbZr0uUQs9GvYUOuy34Lwe24y9U1/VvGV+Fr1ocTg9gYW7jgTBw7uBzFu91tDLPLhVBj1iERK6aEEQPTQLAL1fjR48LxJXvAEdHzyopMW8GoRrvLqNH7vF8ui7rYdGuqDAg72LEDe8NQOXPE0eOr2Z6Bs96wdDPNMsPT3Kydm8g14XPcuzhTotgze99JYnPUaCKL1ygLS8CopVvUtRmz3wS6E8iWIuPWZ4cTxNgnQ8wZALvfcglT0UqyI7vz/5O+cH6jqJH647XdWJPNOj/zxNlM47guyWvHLHfzkATh+9u50qvQQAgDyGspU84Gb5vNKL+jySIw69SMM5vLZoAD1td5s8rNo2PFp/0LwJmHA6TgBMvDbZKj02v289tlSivCt3J7wlVc859OCOvPPihLyCuKg7faKiPObGO7zxkmo9owHUPAUZwzxWEWo8SIlWPO+7+rzCnS29S+I9vFJUmD0oWt88+XmbvNaAgb3P7GC9UtRXu5ZI1jymfQK9LExZPHsIKz1xIQI9FKBLvOqOhj0dJO87MDCLu/b9wTx5ZnS8bynBPBs0ybwKlbI9b7E3PFGkET3ElKa7wbsTvMgVsDhaXVw8oRyavTTtmjwmlNA8dnKEvamKvrzqF4Q8FOy4jv67JryKvsO8JXhevRV6fL2cuAq88pj5PADJnrzg1qI7XUr7PP/uuQ4sgqi8GsqjPMstb7vqF4U63eP2u2nJz7mRQwm9ZmitPNceI7zXxDq88KQvPJqywLyjzvo8yTROvIIyiDxb/Ou8",
                "u0hxvHsApjzo/HE914rPPGhhDjwtdyE9raxLvUB5y7wQ/w29afk+vXM4WT2NtJM9rV9Vuq9MaDw6rUi9fvjQvE5AgDrL+rE9dqmzvCU0ajr/CHu9+qB/PNG7qzryY4K86NUYvVu4Hz3d/ne7XdWHPKoppjxskDK8bYlwvMs65bu79JU8vn3CPNNGA71WIqy8nia8vGv5ULuV6yU7dO6OPcbrILw6u1Q8TaievH5brbwMLRq80jOpOv5d7zyWHNU6ENGXvEQFDbuta2M9nH+LvFQXd70RmeM8xh4DPDqBJbylr4y87vXZPNAVg7uc3qI8adGlPCyBITzUWEI9To+Ku7tlrLwz1My8asWYPMmJiDvdycC8XOJBvFgRWz2Hb/g8p4u5OpllUzzC7V48D7SfOpTenTxXKB28EfdzOQw+obsuuUY5hSGYvI2qiTv1aRK9yRgFvZe3iTttC5Y8pdOYO4rVsrzzezE9/RTHPPRNnboXH6K8cB+zPB8+uo5iD5w729QGPHx3Bb3bpxM90uX0PErfgb2fxiG9qqqIOy88i7xx9LuOdUQVvVJF1bydF7k6Fd2APQLq0TwODi67UvSsPAlbwLqeMXe8U/aXO5+DED2w9oW6Nny5PIbc87zv1US7BVFNPAq6jbyJAC29UIjZvGdMMT3kvwI8vUfSvJB9g7xIv2I8t0w5vWoHUjsQ2xe8c/50vIIyn7wRrr+8z2O7vPPlPL18dqu8RSixPbOHa7yf5T880Ek2Pa8X/7wVArE86drqvEhpXrzaIKW8Xp+1PJoYVLyIa2m7AogYu/wopbpWffO8TMYWvS166LsQ8We97O0tvFRfWbuFRwA5/JNfvC5nyDzm1868VoGxvLWdC72d4rA81Z+bPL33jLxIc+K89UbTvFNtLz2Ostu8ZNkUvHCpg7u+ne28qLUIPdoHPz3Ez346GttHPEUZELyow8Q6iYMUvU+AorwU9648k9ulO6C1Hj1k8BO75+eWvIOaWjwKIFM8KBmAvCckvrwwb+E8",
                "VJBDvON+3rwVM0K8uhbKuwb0sTyGSzg8VlDKvIjfx7ttNxM8ZAavOxoiRr3NYuQ8rmc1PS6LdjzQJ1O8r+KRvDdc4jxKgPG7U+X0vEE/XD2vxj+8nWGzPJj9AD0c5beOnHCSvHDSdbvtMCE8sfHqu366GLzMr7M9Wu8OveTdIrzS1Pc77025jmgxULz9EfO8cHiovNi+uI7HDriOGB+3jlxAuI7KIrmOSV64jt2Buo7R0baO16e5jgHKuI6+5rmOhGy3jiEguY7rCrmO3Ea4ji7Au46HL7iOJB25jhW4t45DwLuOsZq3jrhNuo5QLLqOfeG5jsG4uo4Li7kO3Vu6jokquo7LDbqOuVK7jo3WuY7tc7iOWHm7jv/ouY5q8rmOLRW6jjWfuY79D7uOKsy6jngUuY6+yrqOBZO5jkjwuo6e1LqOczq4jntmuo5DbLqOAre5jp5wuo6albSOPVy4DvLhtY4ZhLiOB7i3jgRPu46HNLeOGoW6jpP9tg6yaLSOw3O4jqv7uo46HLmOlC65jpkluI4Ta7iO4jy9Dk/cto6rnbmOVT25jv2Btw5sNLmOIFy4juLeuI4et7mOHQq5jlTQuI6cS7mO17i2jtjsuY67NrmOcca4jqwKu46YdriORlu4jjcvuY7SL7qOmgq4Dhw4uI7Nd7eO9Qa2Dugqu47Mu7iOpCu2jo74t45LNrmOof61jmzNtg5cr7eOjma6jmb/uA5soLaOgOm5jqRvuI68E7qOhSK6jiPMuA7o7bmOHUC1jmbRuQ6pSruOXF+7jqWkuo7Py7eOE/O6jrKUuY6VRLeOfZe4jpO/tI6dqLeOeQW4jt78jrsAkoY80XeqO4ZjuDr/cQS8oA9bvK/5JDtsEAs+8bS6OiRBmLwVOi29FnPsO7WfBryMuyG8rHl/PCDlsLsc4bG8DcLSvInY6jtSX1q9NsBmvNmByzzEnlS7Bc05vci9XzuDSV481HJmPGvoXzwgUkw9t52QvHIIkDwoAyA7lK5fvAEFBD0JjBy9",
                "LU0SPNUB8Dx19UY9Gyw4vFQQZb2FK2c8KiWLvNx+8Loxk508ULGRvAGYlbyIYIk56VCWPCBozDu1JIm8RH/TPAawN7x/JgG9KG2AvOQpgzo7z9W7D1RKvPwUdLzS9eQ8JnlXvGAliT1U9tG8tYtfvEF1xLwZFRW9AYBbvWxOTL3w6Wg8Nz0avFLqTbxoTw480asqvIhQvjv8qsK7B5fluzimFLw1KSS8yg+MvRuWtDwH3My7aEFHvFgey7xcC8m8hQSru9bhVDtimym8+D0wvVs6obyDaeS897HjvANpLb00tyg9nGUlPWm3tDtcRCW8hSZnOzzrGz2KnNm7YBM/vGALw7zVzNG8pNERvU74Ij0cAba85t5Ru2Nzkrybkdq8+kdOOo15uA6c43E7EVJ5vNpIir1X0Z+8JgINvdzolrws+Ie8sHhUPP8+BrzyoLmOwdG4uOJGQ7yYiyg9LEDxvBEZBTvzvra8rt4RPZfFC714Smi8mollPUQKKb16Ibi7cr7iOiejwDxKXWQ9XeQavQ1kGD1F5yW9RVI6vSMOBz0Gbri8IPFRPIh5uj2kPq47J7amvGXTrTuFgeQ6viv7vOxzFb3iC4g8Cfx5PDBLUL0sOAa9T5fdvOsag7ws/cI663Jtvcv/IbxnVjS90geaPHodtbsv44I7HFXOO5QqUT0m1Kk8F/qTvJwULDyB2mK8yz3cu9rBVT2vsLI9ShTpvN2o8jzlCCc89MiivAOJ07ywDrq84FiivEE+oTzfeDm+mqPtO2PPXTwgXQg9ke74vPgv2T0PxlC9vbsqvJiH6LyT9Wg9rpGUPBpEf7pPcjw79GeivFr8hzxN4qW8ZDDhvPr6s7yXWOy87XgzPG6Q6rzXOXU9Mxy9vKyntbwUmeO89oKFPHTpZzwJYLy8KHhPva34j72IPDu9SYCTvPQHKbjdU+k8lJ8QPRcORT0pqpq8WSMJPYcOmDw6Rp+6mYP4vFAEr7sEyEe7Ng6HPKpKlTxKJrG8L3pHPUmAHj0cO409",
                "hE0Qvb2hXrww5rmO6Km1Pdh6NT1Lgpo9hHDYPLpuBzwc1Bo85zeGvInqCT0TEj477bK7jnN0Ar1101+7ggzivWG4nT0XzEA89sf9O82xDz07yiw8SCHjPLpdVTv3XwW8ACofPRkNWrwPzAu8q9NJPQzl17x50au7BTcbPcc4UTxKjY89ZKuWO+1ttLxNMTO8RmY/PA9LkbyuhXe8Rth5utUNhrzdjwo82SJWPB/ZMT2alVe8/Of6PN8Z1D2SPcS8gTGPPBcuaT3ZFz87g2brPAiYj7zBSY482LjAPLZMxDxAmUa8vlMavTGisTzI55K704nnu13hRDz3/oG7/ZjxvJSAjLyzB8c8L4tyvPe55ruJaEM79jxCvO6g+ryURDg8iBedOzl5KT1orII7+XAYvdHwGrs+YeE81MOgvFK3WTxk0hs9oJ0BvJgDHDyiw9C7KVVuPGw/4Dyc75K89tMavN0xObzAxBS9vDTJu+B7nDpaXts71h6evORPo7uvEio975SbPMepjLy6rIK8Kf2JPSL22zzY9A69i5QtOoHqVD299JE9DIuQuEBNOD347pY7a/mdPOjtyjsswfw89vkcPK428jyrw9E8VXuyu8q1GjsUFM67jBPavEM74byZbAY9/afdu+kTc7syYBq6bFW3joZfajwUHpo8NUehvOSVGr016gA9grahPVCg6ry4nvk8WNj0PB5Sto5VV1Q8TMEAPJvzHb4j5bw71GgPvZTD3rs2qyw8kaKLvFxyKDx0HXI9hSigvDUqXL3Rchk9kgeVuyUw0DwbeY27LjwFvZBai7wDxm+8oG3SPJm9Gb0Vjuu8vtAEPYkYGT0XgE083lLkO6gJGrsY8Kw7OpO6PJUHEzp2ltA7kBC7vCFO2LtSSsm7ydVTvH5yNz3qkzi8d7TQuyYD57xbT5c8IJdpO8NDkLy5h+q7l6W/PAy6czuCDsu8KCsDvUvy1zxIfXO81zlqPVfH3rzBmT68E6TwPL5WnryLw1+6rYOQPPMjiLzH0BG9",
                "gbywuRITHb38n+Q8VAcyPL7IyDz+KRI9qYOOPIK83D3ZMGq67/pEPcc2bT192Rm8yF9ZO3VDi7swN5G88NasO9r/pry7OK86rzTSO57euzsfnUO6OMibvb4mFbxdTHI9MokvvW8lHbk+s2i8zs+OPDjWc70E3l+9T2F7vNzgQjwoNqs4XLoqOyYqWj3XuU47ev7aPB8Flrzs19A752ANPWIqcDx/ZMU8qUGJvJ7ob7u9uBE8HG3XO0BIjTxq2pY8ikzwvKVjUbwr+9u8T2E1vaweuo4gDYk8sChyOygSszt4vRY6zhW0vHEH3jsiEr08AIT7PH3hZ7rywLuO4t7DvK9T+zxvVQS9EfnmOxp5uryIipc7YhnquzdtabwHWSG8EYWgvCao1jolCpi8mJ0xPLT0lrwHIwi8fTw0uffQ5Lxk6MW8gyqwPD+UYLn9DH89r/0NvX70I73I7kc8m5U0PTmvJbyRXTQ9rSfbvHmwsrq8pYi8pazBPHuylbw3j0K9Cl2nPK2lfrzhGBa9Qww2vKE4Tb2JGve8qA96uu34GT0NPI89CtYivTdDHLxF46E84guhvKbXGD0wkM87BrNPvQOCOLt0Yuy8/CHKPKGKnzxP2EM7ie7pPCW40zunaQw9a5JRvQjcVrzxct05YJC5PH0M9bzVqzo7hSxouu9nRDupBgS94I1OvB0UqbxoaUw7zJV8PCxZmbwqhjA8KBvsvGgmNDu+cWu9pI7pPEBN0DwWdpc8Ck13O2hM8Dygasi7sxWNPeX/pjyRw3a8R7Qyvc+pFrxD7gC7UpTOvHU+3jtxlEY8rLiXO33QbzxDJQM9m426uwzdEb0i26I8gVW9u0uFBr3eVWk6QiSluj8OnLxeES48lUl+OvNwYbyZ+KK7h6UsPDNIOb3f7sK8CA7cvLLFp7ziJLkONfY9topopzzbQQU8lCnlPXdKkLyIvzK8vHGIvPJOOz3UqQm8Edu4DutWs7xbBaU8NzAVOV4CLL2Scpu7ZaTLvIK5sTxXLz29",
                "1WwcOxs6E73Y65u7AX6JPMgVsrshJhC9t+EkPeU0nTwKs9+8HFzDu3N4LrxcajA8ImUMPSngPT3r+148/LeIu7FrHr07MjK8nXcxvJxxf7ssVE88qz4XO/WcDT0eZj49H9TyPIcgCb3cRkM8U3GjvKe6er3ltsW8PnxQPP/fprwtJfc8afEAvYV8/byyELI7wGrkPCszLL0lbMY8jdJiPEB+VL0160c9LRMTPWkwZjzddEc8L5dEvAQAWLwchRS9qBo+u7aJY7zJR+y8zfGgvGUbfbzMlsm8VrtIvWRTRb2vAQO9Z3UMPXZg7buND548I+iWO4nQsjt2Eh28T6bEPCBYoTxuiLC89oJzukF997wcwAE9XtkKvcJ+ELysJgq9C0lKPVXdAzx1RqQ7/zyZO9HIwDxhUss6e5s6vS2n6bwlSoQ7yW2UvImpUby0Mfc7i9g6PYXxGz2evo88AHucPOss5DxN8BQ+55j0u1PvwDwd8Bk8MU/HunmCYz0HMy49yXNdPZo5Srxztti84aw/PXfzgrxahws9h2G5DrpDLzxPq209pM6oPU3UXT2tbWQ79lYVvaSxirrqT589eBSVPcDIu46yGds7yQPtPBzk5L3rqCG7YagTvdlpn7wuesm4tzCnuNNLsbzl5dq8BUhtPU74gz3GUfc8HE3tu1MQNjw7fT09tP0OvUAoMr36N+k8dLZHPHM9sTxCeJo8/mA+vWm7VTylMnU9TbA2PWOj+bw5oQw9yvPfPB6cF7vJtqg8SK/OvCgkjjvkZB68daqpvA4wbj16rlk9yT4nO6pNkD3pZ8W8TCWovNQIUrjPznI88DnFu0vCgDsZI3g8WldSPHUEqjx2rYC8s9TRvHFVf72Uzfu7vq2ROgwqMrtalro8zYPoOlYlqD1CuLm8LXUXPQq7Hj1b7JC54C4uPD99U7tt3hi9v5JPPIveAz2Opso8KoetuzpsyrvfHCQ8OAVGOVpyu7tSqyi8WfXDO0CEbDys9Ye8wUdbPL1657y9Tf87",
                "Sp1ivBmQjjuUrTq76kPMu3Sm+bv7NVW8ETRCOgotjbx65X47A+3PPCkNAjyd6bc8vvU3PKLvmzziIom85fyqOyEhLD0LtMq7TUkXvOUqQ7ylqWc8FwpbvLhwiryfbv27GQWvvGp4Qrz1iUQ8KHBWPNayEjz6gRI8GyFRvTJLuQ6VqaQ7T35AvEx3Cr1rhSk8KYqBPKRrIry3WG+8W8XOPNl2Qzu7FLqOi0NyvLyXpbzP16m98eD/vIzLerxVsh+9gYwSvWk2p7sAL7O8P64tPdZrkzzTmlm7ute6uxeqDr3lh+Q7RZvmPAapHTzEFa28KdepvERbJzySzG29EPGDPJbqzzuBMZ08xLCIPHJx4LtR/xY9+xh8vC+mNb24MFW8beqpPUxooTyJXlk9vK0/vBtdUbzoaGI7xemuPf6aRDyAukm8Z/rZu6qbzrrg44K8dgU5uyxpqrxLEGc7iacfveaH1Lwzzk+8VHY1OrujC72f5Yy7ZFWYu3lZcbwu7LW8e0tgOtnT27wM0Mi7kJ0cvLQKyjxrN1+8yr4FPB+vFj04TBs8c8S8PCmVlLwSMQw8K0BMu8Ngkjzh9V28aX1evATBAbwiuAo9bVdRO9oSTzkl7rM7OHDjvBsYzbquMAw6SnyQPOWTFr081T86krjFvIhEVT3UbuI7j3wEveKkrbzPJhq80OwJPcTymz3rJUM9Ij4xPRlmo7xqUtO7EfO6PDWAj7yqFKg7PIs4vGSJ4zxZW1o82QBCPBZgjL2ECs+82ns9PNagJrxXNoQ4bzSAvE8ZPT3wcQu99fEmu7ti1zsIGroOsgGYPPsxgzywDUk8syW+ulyVJrxOzEK9/Xy6O06kiDz71Bk9M2C5jlFG3zzLWru8tfiLvQtNlzwmQI88l5adPEWcUb0aQBk9BwuNvC8w57zFotQ8mMgdvd0Nkjt/H6G7ko8tPfQ7nDvLoUG8KxNHvOhuGbywqtq5ms07PVhliT1PnYc8FWImu1ImkDyI37i7hrZQvHd7rT3YCcc7",
                "uWUGvbwGQj2ZEY098Z4MPJWjhz3Di4W5Bwq6O+gOmbojfNi8P5spPBURaD17QhS9JVQKvYTBtbwVMYo9yKzruVfZprxGpTY8u/kXPfykFzzEgya9xE7MvIvDpLxmqKk8rVI4O9UteLwX3/K8jxHMvJhlEz2MDKo73jmfvfoECLyHr5O8Fcbuu17Kr7rmjH891XUXvAu/l7x6iQo9r7VTPIE9fTyQDvS836cgO6N3MD3HvoM89nMJPb6UqbuspxA9B2jDPP9R/TvyaI+8QCUSvbd8sbxTfKu92UHBPOnwnbz54Kk8TGKHvbKTg73fx9c806jkvAHUMDznBp68G6Xyu5xJ07rbj+a8ryEVPPVy4zyXZnu9OwyuPBeouTz+e8E8UErwuaJJlTyax1+8tjkKvfyHF70Tej09FW6JPRxdsbzoS2k7pz26jrU/PL0xd6k9cCONPXe5sTygaOA6PTKWPHjMqDw4hqa7Y2SIvJKNuw6LgjS9Vd+CvWbUhL0vpuE8MAhcPDZe9TyvRb67VwiHO3iZHbvkPtc8NTnNvLRod73LX2A8F4AlvPovOr1nMao6muu/ugoR1rxTCrg7XcgEPcFL9btNIG+8bDv2PLYSb7xIhWM7CgeNvMg68DxkEbS8ZDnKPHndIjylDYa8X1NmuoVYq7zkiRY9npGYvCsWk7r8ro+83mn4Ob9nI7yZ8dC8THX8vAwLa7zBdpY72IX6u3jvELyuZB+9Y+NRvItGX7x8EAq8d2QjPdCYDz2z5MC83fWTPJzsqjy35AK7bPG2PLX6PjxqTKy8Ps2MPGx4NL2YBK47fUjWvJRMDj3vkF+8hBUOPcDvUL0nRnC8lvvEux7zbT3xmg07DXpmO+9UrbzMt4A8EspOu8GvXzuW9zc9Iksluyjiojys01o9xDJUvbHDmrxGlHY9GTgsO6CJIT2v5UO7GGKSPLTEp7xJSe68Y9G1u0E6brzHFhc9CJ5Tu7TwfjwQMJC7A6ABuxT/qLo0HfE6xLYHvYNX4jtppK27",
                "+IWAu/jX4Tt7Bwc8eJDBvN3YTr0mKK08HKwjvC1gnzyTs2G8H6mXvBHkuw7Yc5O8aSjMPIW+prxIslU8ybO8vOzvyrtza948XHtZPG1s1DvV/bmOwgQsvUbaGTw7DZ474rvzunYWM72jzRG8b3twPPupwTsbM7+8L2QdPHzFWjxDsCG93cDNvCnCHb03xh+9zpPBO2d3iTwl6zO7ZIlyvO4aGryq0Kk7QlXRvN9ABbxl4Tu9HIKAvQIWkr2HG8U6+6trPdfP5br3yjG9GO0kvck39bxV0rm8cTfFPHvyYryuUhU9DX+UPFZcMbzhW7s8FKASPfFCo72n25u7Lj9OvAF2dzyzwBm9BuoqPC6PJj11QWO8N9psuvRVvDuAR4q89h7gvLyu+TlIAZe8aci1vOm4y7zmxtW8hMnmuz3TmzrohEo8NeRXu5ZKBL0dc647QJx+vQ2BSjyovBS9pR+OvSHN8rwHfHG8VmH5OoPyirzflJW8zPJWPA3bmLlWyW+96xOHPI/NKDt1O6O7u/iFvEo+DL19VOS8U9dOPN0H97wwJTY9Agwyvfz5szs9n4e8O3XzvERhUDzCAGC985lxPGxPvLyHmfS7TKPOvCwuJTrpxHe8s/lDO0wGnb0zAQI8mHYUvPs8qTsBctC8NNzLvChY1rzPhCi8H0s0vLFrHz32uA48corjvKmFsTwhK7uOX5HEvC8sXTwkZKw7npWpO86ojjya7+y7KD1Rua/N0Tp2qhO9ROG6jkMCgrybdbC86VasPffHs7yMwSs6h739vGSOkjt2frW7zD6iO29Tq7uYGAW9Ag42Pag5fL35BN68PPbYPCrZtruhayu99inAvAYkADtgTSM8XPvKPBrdMrtvnVa7V5bDOgBYqL3XsA274Dl4PH8Pib0d4JO8Kk1+vIICebxHuUS9LvekPKb9B70ZH0G82gG2vAbgabx4TVU97g4zvFBP5LwvccQ9Gu3tOyjGkbs+URi92l4kPMALMr1FMoI8PG8kvTu0PL1/pS88",
                "r5O/vPkJWjs0F4a8sUyMPBKHcDzwzy496EmhPEcl2zv1abY8AAnIuyPomDseYb68zPXbOn3t+LyeQv48IemsvGgSxjwozpS6jB0cO3Nd+7rf+Uk8w9zCPEwt+Lwu9hU9K1blPFOBlbyiGB86KgCkvDmLuzxXLik9V/CXPcPzEzz+Jhc9yAMuvVEM3jxUDty86japvDZeqjyMMjS9/ayxvJtrL7x7SYI8rBqAvJ8PFDqI0Bs9M49SPPabRzxxqEw9NddAPKCsVzwXVU89c40fPSAy0zvDiY88xOW/vPEcC7tyMo27/NCPvLLIoztA87o8bpa5jqmWrzsIKmQ8BsHpPHzGDj3d+xE93qu+uq7Xdzt2ycU83t33POQ2ug5M/mC8QlM8OkHLM70wDXK5OjdvvNUClbu/7AS98cxHvaOxn7x+wPA8aW4Uvf0E6Lwg8IK8v1sVvUaosTyBmYO8XGsZvfV/hLz2jm69OUyqu2BLA71xBkQ9FcPOPUJrT729pJS9nYkwPfMvAb3UyKC8QzF8O7Q5qT2zAW08vbcwPSdg6zylQ+w8FZg4PZoFIzw36AK+La+mOiIzO73nI1Q9ANzPPXId9LwjhBK8kOCcPZJ0DTz/4NO884tWvXJMgDwK2Ii7r1c2vBlDu7t/dm69+XcFvdmGMb10Cyy88CzCvDaxgjzsfi89z+kYvAHXHbwDVog8gg2cvEPpOzyuKKA8nRWNOkrSubypvUm7tE2xvXYggz0Dq5470v8WvbkKG72ZHwG91GilvFptDz01vHK7EUgSPfH2bzx55EC9B7u3vFQ/iT3K+ge9nmeru5YXxr2lxpM6QsuEPA9ulLwEBye7TW6BvbW3Or05Hws96YgtvHuf+Lw7hqe9+VclPQajEL3Amg09gaQ1Pb+CDz2Ko6G90mM0PcnjuTyXTqg6kqMLvQ2UxLzvIJs6iXdnvUSEJryfXFK9Gs8fPFU4uw48aqc8GhezPXlV2j1qAPe7od9HvGS5lb0Vbwq8AqosPUkUE73nBrqO",
                "AZUJvR/eN70pegs9IXqMO+R1pzz/Z+U7hwWcPQjPfrvlG4S97Wd3u3fLwjsQGI+8zmlLvQ49RT2eq0k9peBlvWtGqby587I8lWOdPMd+HrwWPaE8UNqFPU7LBbw4pVC9pjmCvOKQz7ych6G9dQ+nOwqfPb3LMQW96iPFPFsODT3V3409GAEIvZ4ZGzyE5Ee9O6D9PS6VsDxsDN68ZaiTvaXFmLzTWMG8vxSNOkoRcTzN3hw8wJyevMQ8OL300gA8vCJ1vQSgcjywUGC7+Pw9vQRBWrsVzWC9PrRoPN9pHL15E0i9c/raPDkU6rz+CvQ99LBhPD265zzDuPu7S/LKvAfACr1xEsw8QitDvffyFr1FM8C8+grAvJ+LUz2pP5A7YoJqPB0SLr0T7t48sEU9vKMffL0Kj5E7o2CNPGU1t7yWT0Q786AJvdXuOzz2og48e46hO9h1eb0FbUO6T8E+OtrEFL0t5ym9qXxDPcQHhzwVT629twXzO/8oDj2XIQ09nxWGuug7Uj3hPH88Jt83PHxUcLybV9I8kVkQO/YECD1H+Pc8ANBFvQUx8jzTNyE82JRzPU8LZTyWu7mOPOBMPVEN5jtFPdi8pYePvTLKTD0Mydk9NNM6PINTGD2DbXy81A+6DiHUrDn4kiW93IlUOzR6u46mKbkOSkK7jvoNuY7N/ruOvla6joc/uw4yBLoONty7jvh4uQ6xz7oOGEO4jjINuQ4fo7iO1rS6jvu/uo5ImLiOjXO7jtTsuI4GEbqOyLC6jvKfug6nyriO5m66jkTVu453urqOuq+6js2Iuo7kG7uO2xS4jioTug5+CLqOnkC6jjD8u476hroOeSq8Dh/buI4wt7uOHzO8jlEiuQ7jFrsOQru7jjxZuY7qQLqOpWW6DjoOu44CnroO8+K4jm7zuY4yd7uO2Qu8joIeu47LKruOgdu6jvSguY4PjbuOUiy5ju2Cuo5rsbiO6Gu6jkLeuY6RlLsOJ2e6jlNXuY7VPLqOpsu6jlwQuw7CZ7oO",
                "Jke7jrrFuo7qZrwO5326juwtu45GPbmOtZu6DnmOuY7/LLkOIP64jiZlu44NXrmOnJW6jsv5uo4RPLqO8ym7jry7uI4qhLmOmaq5jphZu47A6LmOgNG7juwNuY6hZLoOToC5DpqWuw58uLiOWhq6jr/duY57/bqOxoq7jgPju457dLmOP+e6jpAxuQ5ezbiOR4y6jmeBuY64cboObBq6jjm9vA5vC7mORcq5jnCRu45H0LmO85q4ji6lu46VlLmOEwO6jhisvA7HcLuOOy67jvrXmL38TbiOyFW7jvADtw45sLeOBs+4DnA1u45Dmr2OqxK7jpWCuY4/AbuO0ki6jlFzu44wEbuOX+24jiFwuI4NrbqOKBG6jql6u47/A7uOoRu5ji/3uo5Z9bsOH727jvTOuY6nzLuO+Cq5jlBHuY5e/7sO6mu5jiBWuQ4VELuOG0S7DksSuo6uHruOmo66jqTzuI5zk7iOjDC8jo6wuI77griOx5S6js93u44wFryOQ7i4jg7uuY69UbuOXxS7joLTuY5GJbuODQG4juRyu45alLgOACq6jrzJuo4U47mOM3y6DjfHuo4/srmOheS2jjChvI4AX7uOWOa5jvaBuo4m6LuOWpe5jmRauo6WArqOi/q6js9wuY7YmLeO3sC7jnL7uI4Tg7qODuu7DkB4uI4poLiOSqS7jkzPuw7BELuO5Y67jl8huI4XpbuO6EW5DgrkuY6wGrqOgnG7jjcwuY4DOrqOaeW3jopcuo78RrmOSQq7Dggeuo7HfrkOr5G5jjJQtI6Vh7iOy0K7DqQRu45w1buO4I+7jk9AuQ7ar7uOg/+4juMCuY6HHbqOaVe5jh/wuQ4VnrmOmu66jh7zu47GTLmOic24jleQuI4Wf7iOjz28jiQ4uY70TLkOTyi6joIUuo7T6Xq7PRttO61zArztCfg8BKWIPELhpLwDxyC80bYjPRxvATw1cTQ8+1cePRto1bt+sg873ISBvUb3Ar1vlp68WroXPBfjM73swQK9",
                "OOW3urrvwbtuQmQ8hLD4OgII5zwZAQ88H1RGvVjYdLtfl2C8R0SEPElTgztnVt+8PRXgPEJe8TtyajM7Hjiou4iOXD1psYC9l+E6vWWpSz3FCNy7FmX3vPYqYrws9aa81ngMvbUMyTtpea68UbSGPVpEL7zNlmI9V+BSPNMaHL1bDDC9BgxNOzyaVjyilmm92eqmvOmofbyzRJO9dJlAPLU/qTz373o9+DolO5DDIL09pWa98DPPO8Vq9bzJkuu7shsJPNspzrlTuIO8FjH0u3ieJr0VlZi74+fePJS237t9kB+9zKqUPdm+yDyvsp08qseJu5ctAjw/9Ia8nB/IOm6S8LulTCY83PKHO1p0ITx0mSO8sTgiPR6eQzxKRQ27ShW8vCfuy7yhYsE8Nv6BuIXP4jsXgki8avG6vKFOCz362hK8dsohPWNdG716Biw98k0JPZJCWr1PAgu8XWpqvCmsVLwOqrmOkB9mPIk6SL3VDBw6CeBqvFWlBLyBQNq729AwvMmykDqhO4y8Eh+6Duf8Kb25Pce7EaYRPcq4Yr0NgjC9MB93PPUTy7zUz2C8aHI+vJLnkzzkwAS7z54ovVpfJr1uEfw7Z3KEPOeyIj3bbMq8QoUUPUHYR7ymaY68AhNKPWZ5I7ytp5m8v6bzPHm0nj0OFbg7vQyAvXzzhLyEMFI94qPGvKJMR7waxrE8PH88vcKEBj2MbF08gKkEO9vQVr32leu6090bPCkyBrvtzK48U5PZvDKLYLuBrkE9yrDjPXEZEj0l4E09GF2yvMyK5ry73Ky7rSk4PQsz7TsJJqk6/UoOPetEZjyIRM091TUivUF/2rw5LxE8djUevCsMCTtBg0u9tn2AvTHvY7x1lwy8V0bVPHMzLT0Wt2q86DLhPPBa7bzW2qk6uuVTvSI6Ar2u5kW85rBoPJbJZzlDEkM8T5y9O/jjvLxVB547uoibPCtTiLzyira7WnP3PAOTJjyzf9e88teAvBGWbrxZvYi8EfqHPHo9vLwgtEM9",
                "KHgdPAfzxjyhowQ9ULF1PDi9mDwPeT+9pdUGveBRhzxu0Rq8of50PP7pd7zll8k8Paa5PPSMlbxEdGk7MxwlPYBugbvSEL48jWW7DogapDx/EhM9UOajPFFszzssBbe87jOqPcGALrx+zu48E/kePV+YuA72GWY8RKtdPK47Wr3DmTq9w3YVusVXIT0Tx7a8XmLiu6ZzMDx2n+e8bihXvccVI7xT3uG8XQCZO3YqUTzUuEA9cDBJO/sYgTlKqIA8lpYDvK99hjuioqM9pdHlPFL8pzycpcq8N7n1u09jiztf0Wu8dU6MvbEBrLzeoFY9sKT6Pcvc37vuxcO9hCDWu/zrhL07esy82aIHPCh7UDyiP6o8pjg3Ox6gDL0/SSY8qjf7PMf02zx6wxc8CSG0uyb56jtu9l29YQKkvJFrT7w3Uao8C5q0uyJiPTxrSr+8nDASvTGwOjx3OhQ9UdsSPGBMDr1QeSg9fqULPZwzhbxFLBG9U4CDPJkpHby08CC7wUrGu/y0SryNDgE9Un2CvNSgZLxV/EM8VS2YvDCa+7sYusI75GvlPNovBLzazxC8jDR4PGK4BT32tYU87d4wPfcMZrygXQm91PuvPD0GtLw4pZO86qIGvYxzYbw7Spy8KX6EPEmpAr0cRS07ucsDvNf6njz3+648g4JIPXFbWzvPIK889RpJPCMu3LwdSru8fQYWPVopfbs0V3m728OSPA9zoDtcjym93elnPV9mug5hjxA9mxu9vMCgHD3myOU8Gy8Qvf11djspzcG8L5quO3FW6zyMF7kO+VASPI9nfbzCb0+9msm5DpYuug5hOrkOdOK6jnEEuQ69Z7qOsge6Dulsuw6SqrgOkYG6DsPmuo4twbgOoY28Dg5Uuo5myLsO/L64jgPZuQ4UarsOv+S6DmQZuw7VHLoOCnC5DshRug7d6LoOGZ+7jslSuQ4rwrgOSPC6Dr8muQ47ubsOBYm5jhQQu47ZJbuOTd65Do3Nu44SwroOHZ27jq6vuI75IrsO",
                "btG5Dr22uY7S97sOCFe7jnzKuo4X0LsOu4i5Dhcluo4W/LiOAvW6DtysuA6prbyOh6+5jiMluQ5/UbkOvYi7jmOSu45wuruOiVW6jitwuQ5NYrkOWcG6Doblug4sELoO4hq8Dk4quY4jTbqOfOm6DiwGuw7XiLoO6ie6Dv8UvA6w+rqO+gy7DuyduA6AAbqOCAO6jub0vA51uLyOLdG5DopMvA7vbLqOzl+7Dvitug4/FLyOkG25Dle0ug6KirgORsy5DkEKug5ws7gOY3K5DlbBuY4YeLgOE4S5jubAuQ7e7bmOFu24jmZHug6F1rsOCAi8jqiXuA7oebsOzZW5jiNIuY5eTLiOlGi7jhgQu45Z47mO4iC8Ds5YuY40z7gOXHC6jj1duY59ZboOQ8i6jjotu44IMLsOyYC5jlgCuQ6TdbkOHZm0va4bmjuqBts7xpW9PO/10ryNKOs8ZqzpPMsYl7y4Ht68Vw+1vaL2WLxkeYK98CY3PDuICzu9NkY9OzMbvREgvzzjEks9Z1u0PdC1gjtzBpK9l2wDu4ci4jxj6lm9m4HGuyOhJr274p26nJ7hOuKQQbxd30U9wSzTPYwhgD0iPJ27P+fTPDZPjTtGpua6GRRLvfMPm72O+zG9PvkbPRakpbzV/2q9NBFuPECFlr33aQY98HacPcj5zTzvIwi985kIPetaBT22emW8/GQ8O8UA0btRWio9UcglPCnywDwRhGK7CSfNvWYhdTy+xI89pY87vTWL371NuRM8MPJxPcSwlDqY6Iu9TgxRPDJD5bt9Pk08qRlRPVhRj7tlQ0G8Z86ZvE0wWD0MrFY9lqFhPEWrgjxdWSc9tKKIvIrjBD04Q8A9FAGYvTbLFD1L/m29a224PHPG+jwy2WU9ZlcZvbZGNz0IjQS9iU8rvbKqCz053de71XJlPK7VtzxELLm6bEOoPKTpxbyQsOM81BgKu8WI+Dycj7M8eWFCPQQWXj3iHae8LgrwvKnnHryDJq676RS6jln5ETsYS/68",
                "pF0LvZ3j1Twg/E28GvmoPNblHzomUQA9shX/OWEhug6X65m8Fw0/PVYfVj192tK8IJ73Oz+msLtlCVw8zdyyPPY8sLyB3Jw9JNiAuwE3ED1e/om7wkItPcMjWzz9fj49Bqv6vMd+J70wHvC8ebyLPOtKObynQSw89UTHOojxcDxSv+W8pmkbvUCXBL1z9IM7CiOXPKI7Mjza3vk87mYUPY4Murz5fkO9K/kKuwdnBj2fWaG8gCWsO3o5czz1AWw9/Rvou2vUmDwl23g7MXgpvdnpBLzUKBI8A1YmPI54Rb3xtOY66sGtvIdr+DyErwa9ON8HPJljWrw/sj28osIeu2qCjbraG5+73TgBPVn6fr2yTD28XCGRvKvHizzSrBe9hg2DPTcol7oKL0G8wCDMvMZmmT0v+7A8DufdPMUApjsuqfO7DgaEPGzQWTyXN+4786ZMPEJDNjo42566nVODvDT50zxBAGG85rYTvZqbcT3apL0750QRvK1G47zJMYm8gYUPvSWUpLq1L068E8/GvCH32rtEisg8K2TBvAfzLLwmv9u8fTKYvKCnsTmMMWG8Sjaju+1oKzroyF48M8suO3baUTzZHaQ8fzsGvHCLiDohLvs8EmE3vSkiug6Iz/s7j1PyutwpjLqgLlm8NNwKvW7JqTzFnT68aA04PK8Ua7zJmriO4GICPNCru7rG8868qI8fvSXI7rxljEa8lY4IvXRuubtWHFM8riY+vC+1hT0hhgk+wxBBPWEKszyv4WY7nxQBPW0BoLzK/SW90iSbPPULgDt+yDY7UEi4OyXGPDwPq5q84EJQPdfQcD2pKVs7tto4PHn1AL0gihC9CyOSPP2vvjzcA1k86TFkPOkfljv1LIA8fDynu5JwK7yq/WI9YiiFusy+SD0noTU8h1M7uyGPyrth7EY8E4Q6PFJ55rvQWVe8alSjPDHjUb3SprI8wSxXPS6hRTyHbpK8oemQvFuW2TvsETI9kPl3PAoGuTwmxIA84a0DPf+ZELo20xG7",
                "hZiQvKguxbzUOwW9xuIlPRqPEzxHWh+8hO5vu15bjrwNQ7+7WqsBPPk2Cb3BVQW8lxhPvGsrI7yIv4c8CEHIvPAG1T2sFL68axuRPJQnB7z6+ha8SvBXO9zE5julBXE8BbXPuciY9Lybe0e9R4N+ukUybDzMxsE7jG8cPZBes7tcgr88UxOrPGIC9jsCH9+7jAlvPCdFEzzwuiW7k2ebvB8bYbufJvC7JniLvNSaITsbEHm8M2fnvF0z3jxSqLkOJxWeOyMZ3rxzYpC8U1o/PMXd67z25XW8JWn8POJrAT3lk9G7siG7DiCr2TtcVlA9wMgavm841jzoBpQ8yoUYO5cBBjsG5468GYI0PGs4yjsHagg9nDdovKLl/rvO3ta8/PmZvF/B8Drbv5g8KEH6vAL29zyk24w8fRyCvBwTwbyI1gM9EBzJupI5a7x4V5S7MkO5OmUoajsX0h49Q8FNvENytLzzm++8tVAgvQ+xSTwaDKO8xM+xPKsJhLwZilY531nKPPPEFjrcDLm8AF20PFOnlTtOlAe9VDAIve/Q2TzdCHM8vjytO4sLlTpQMC68j+ExPLVjqjzdsJq8uJgAPOuRHDsPZLY6EYKUOzUMdLvxipY8OuRyvdVui7s8/6I88oIOvShsRL2Kv8k7xCZhPLtjTjxWNhQ91RHvvPonH7xlqec8yf6xvJ/jqzzz00Y7k4C5PO+fpr2LSIm8XeUju0VKJby2iY090tk+PKuTp7usWOW7lyyzPLymoryHYri8NdExvMRuA7zSLw+9qs3uOws/prxaZLG6l94LPU7lIDwp9Jq8XdtXvHiwmzwDno+8vKLXO4AVojpqhaS8+7cHPG4sUz28lxK84ydEvFSNmTs79r68iM3gvOU8DruDofs6Cnq7DvLMrjxyPAk8CsCtPCzPLjxwMq+8cElQPU35lzxJOdW8vFZkvFLauY4u7CU8t1Mmu4sCgLxSS7kOg/y6jiMluw4LtbuOc2m8Dt3XuI52HbuOTLG4Dk5xuI4m47qO",
                "9xa6jp2Bug7i07UOXNa6jtjfuw6KrruOEHu5Dl9Ru457abqOdXK5DpLYuo7dY7oOu4O4joEKuo52e7uOAi25juiMvI5TJ7uORcW5jrSRuY7/PbqOB/66jgO7uI5bHbuOsZ25jnSlsg7gYbsOAmK4DlFkuY6cMbwOKu+7DrP4uY5v5biOKjm7jpr2tg75q7iOKje6jstavA5xYrYOd1i4jmZauY4uWLqO4UK6jlEyug4eWrmOuzq7DtSou44pB7yOgT25js9Wu44FJLmOGoe6DpUnuo5If7mOUVq7jiQOuo4k8LQOB565DpzJuQ51qLmO3Ye6DqiAuo5q4LuOQqy7jkyKuI50aLmOfPu6DlLmuY5DMbuOdgG5jmLCu46MiLqOaaW6jlCkuI7EY7sODVm6jjYHuY7207iOTnC5Dnaju46/fLyOkj24DhDYuQ5EdruOBD27DpAMt44yyLkO8xG5jicsug7WEbgOfJ+6DjiruY7A67aOx866jiCFuo7u+LiO3bC7jtYHuY7/WrqO/o26jnPfuQ6qYbmOSFe7DmFDu47fo7kOXvG8jiP+uA4QibuO3c27DpnYu47GwAK9TuqgvEqSND3Z4Mk8O3A+O8WB/zsaTDc9+PQrvZNZozzXrf28NTqXPElkwjynKFM9jW2vO/z6Db0NKUs9gK0mvZlJmbzHSCM8faCmOm+JHr2jUmk87d+wvCzvIb0Mhji9VtuSu8+tGT3Qel+80koivKaNZDwWbL+9d+kIPFWktbwjwra8/V/9vLcNAjucdeS7sJFPPT5Uh7zUjes8SOeVur9y77qujB49c7VovIUchTxcagi9idUcvEddVDwvHEK93LbdO6uuLDyq6IK9oOgZvKVXsj2uala7mFXdvBPPsrtzV249yGOkvAbgiDt0dWs7I+ryOmbADL1Pq7s8NN+NPZhKqry00HW80GGTvMQFbTwB/ZA7jnJcvFAImbyGJRa8b8heu76uQDpnO346RG0Uu0EUxztJ/Tm8kcsEvcfpsLxj+Qe8",
                "QtmLu5GeJjxtTVs9Az18vAEuhbzgjuo8748rPMB92jz00z281ydfOw/eLLsiq8E8K5+fPL8wWLwWJQG899C4vFoQnLw1HnY81xduvHn7Yb2lx7480mYMPTOfI71hWGQ8d+wdvTAjXTzg47kOvnrdvOCXpzzdB6q9LM34u421EDwzsIO97ysXvVyXLrvT/Ya8EJC5jjuQFb1ntbe68k8qvbLla71819G7DkaQvIx8PryGBSg83Pk/vaBTUL2Jna+6SSjOvAU7n7xAMR+9GP3MO2byBr0bYrG8cIzIu5cTFT1OjQa9hcXQPL8AjLl2szM9yCsgPXGp+LxF5Y88PZgJvaPOCb18b0Y99dyRvcoZnbzRpYe65aCeveMSyLwuDYs5kYU5vdQgGb1uqae6iTWOvHHweb2sAb28Jp+GvMT1SbwTax89n+atu0ZciT2Y7Qg9j2oSuzbaVL1Q3DU+HWmrPabvQb1xDV+6L5mZu6hgPrxYExA7tIdTvM05jLxiuiQ92DF5vXjt1rt8wui7ES/1vEn+g7wqtQK9pXxCvbroFzyeNSu8Da8CPch5ADxOMm68owfZvJZHqjssjv8571EoPPXULb24Q5G9GR0RPdHPiLvO2AA8tAg+O0yb2DxLIkm7O4yuPGXaGr3ds5s52qOJuyznhb0xDve9GAmPPGeArrzJfQW8vvecPZqF6Lxetw49eZkHudVXR71Ltt28mWbTukqX5ruNRI+9qQ6xvOxaBb1hEyo73TFMu3XBnrwYrlI8n3n2vJY6QjxZWys8j+u6DnkMxz3bzgI9DKWVPRrviTzkOKs8Za2hPCG/vTzcqe08l42cvIkduo4Wcow8MMWiPJxbar0dBk47f8X6OoqdmTz8q8c800s8uwoMkzue+5O8JC9NvNYGsLx00548pOLNOwr3KD05RIq8xiulPDI94LzMI8w8icEKOo9/LzwBGYs8Ye5TvHp2DLtD+IA9YDlgvM+5q7yeX6U8RTlCvTqELz3ofkW8/xHCvC8YCbxWZYE8",
                "2clXvE7HwDuS0Xq7Az2+PC2LGLwQ2wC9KjgSPdMx8LupxMO6bAMkPDEQjjwMfaO8xMyUOqspo7yQnte8oJsUvPMQeDy5oS89eKleOWqzwjxbRFs8bK0PvIZsnztXtKK80rusvE2oFz4RKRa82EYBvYt4dzyzcQ88lL1ZvYsTaz077v+8NRqCPbe0ODzQ2JU8Q80NvHWz+ru9Fae82euKvNLClbxowG+8K0AZud8A7rwFTLc6w6uuPKpX3jx0+js8cZfeOpQMnbyZY/G7Qso+uyY2IL09f8W7ffuLOgi92bwvWkc7Wh8ZPbELGLtAXHG8xuJLPM8FTzwksUQ9x130vBU8DrypJIO7HH0Vubw+CT0iWI07hwv+OkcHtzs62r68ZzaDvFmLvzzQF7C88JOKvJMwuQ4eyoy7fbcGPfUYbrx5DlA8f87cPLRhwrtLh0o7lA+/OzIc8zxtELsO767yvLCXabsTruu9N8fFPPJMYr2MnUe8cpbYPC1UCzpNTz69I+jhvCNXeLz5hNG89SovO5r6Gz1D2p08i/txPfAhx7oOJTM9NMasvDH+p71R3gg7KwWRvMxqPL3KDgW99Z6MvGVSFTwi18687aBSPEBJUr04iFm8nv5DPNO3mD0Vppi7yqBwOQXi/7xPjUK8DIf9PLZkNzv//R+85l9IvRxUIj3DZg29XvwSPZXPEL2DsOU7UuG4PNXgLzyYW8c8/1yjPaFUor2HhwW9rhZKvMQEALtqiP280reYvSTi3Tvwpxy7ZKOFPch5ybutLji9vFCCvQsHhbmXthe89jLGOzXyEb1G4zE9/ys1PfqTzLzkj0o9blFSvJqvdrzbrcQ8emAsvYP0Zr0+kSU6he/mvPtCrTw98tw8IwgJPpgFhDuGazi85Le2vBH+vzy3gAe8gAAFPdW087q8n688T4GBPMapaj25n+S71C6nvGF+fDxZaSs8U0B6vXpvezx0Dig8n+90vbE7ELyqO5s8eBdvPHhhQj0HpRA99AZLvVGPgjyfqbS7",
                "z/M4vZz2XL34h0M74sRavKegXjuUP7mOYCpSu7Ulgrw9PCu9cdMVu/DKdT0T3HI62dyDPZtMDjzJwBI8J6a6jlz5eT3aIcC8E3VcPHsXv7uNq1m8TVvZu2+p+roHhhu9dHdsPG4mBL2da4g9cCvzPFYv4jwuD688G+EOu4ixGD30Jqm8bgELvcpsEL3tLSC9zBndvHDWzLxtIbS8tYAVvUK4bz0ubA+9SOlUvKfbNLtF+da83FuFPOZll7wpTQc8s3uQvEISrTrSpni8mnCmPCZ8/rwCTyG8vymNPLpdtbw0Lb46Yau2PNOWSDzZaTo8sm5bu8HNwbx3uW66xVj5PCk/Nzxqnsg8xrzYvAdw37zc0I28EaZ8vFVNc7wufwO8lo3VPAwZbrtT+ag8nHkIOwvrBL0PnM284boyPSJ6Dr3dEOW8yJMXPTRj1rz989E8/X6nuzaBZ7t0a6C8y9k4vN7mGrw/DmG9wSYUvSQDAr1IipQ8haf3Ow71Ej3TItI8mkPpvM+WoT35eaC8PhMMvLLWFL0WbT28hMEFveTW7DoQTYU9KddTvRJuHbpNIs07J8lePR/erztlxiq9/JGGO3Tc6bz+Z4+7ZnhdPCk23juprkC9DvRyvRZgtruZ0tq78C5IPRfHi7xyY9q8Q7wZvMDJtbxDPDO9rwi6Dtvr/TxTHXG9n7rpvJB9ybpIYSM6T50JPU523LxIRVI8vXKPuxkCuA4YLhA8hmpbvGqo/jwPQriOKom5juAGu47KZrmOO9y5ju0puo77yroOxyq5DlYIvA4RTbqO13C7jsWruI467rkOD3W7jsAPuo7vkbuOCaa6jpdKuo7YNLqO34m5jv0Quw56jbiOg+67DorhuI6JMrmOgG+6DrRaug6gErmOmcW4Du/juI4ZDLyOKpS4jvW6ug5m1bkOMT24jnR2uo6YnrqOehC8jt4Suo5DzLwO5n27DizJuY5bKb4Oc366Dj9Aug4KtryOpGW7joucug6ZqbgOuQ25ji5auQ458rmO",
                "kx66jkEYuQ4HfruOmsS6Dk/QuY53mbWOwlq8jpmNu44GWbwOKnW7DrbtuA4rBbqOa2m6jkYLuw66wbuOG7+4jjGxug7UVbsOaem4jlzbu46ZXbgO8KS7DvS6u44smbqOREK6DmT5vA5skbqOpae5jqz2uI7LpbkO5dO6jiFHuY53droO7mW6DiGEuo4Qx7uOcpa5jinpu46LXLsO2PK7jjQ+uo6CYbqOUc67DpUvuw4tl7oOknK4jpdluY5607mOQjO5jrtzuY7BY7qO8Hi4ji7Cug6RZrkOMg67jmjOuY5PC7oODHq6DtoTuQ4rJrkOUfG6jtSAuo6iyboOWuW4DqkGu46vxLmO/b66DpE3vI6F3LC9968kvG0/pryGEUw8cJ5bvHE2xryk3Qm98v0VO9jOG70TchY91KNcPI1gCjw+1Jc74zOEOj+9UbyLMiy818BGPKREibylt9W8fAdGvNWKdj0KmfU8xCbxPNtkSL14p/U749dMvYRItbqlZBy96K04uyVPTrwNObG8SIjcvH6KizrHDZM7pYgFvRNIi7q8Gz699FTpvDddFL08AoK8rUExvFp8Cr2hUPK8oOmQO0Dh2TzDVwS6KSP5vBxpzjyUF489BJKKvHf6dDtW1zQ8YnbVu/qNDry8lao8el4sOySnHztsAVS9fR/tu1dZoTu8GhS8kJwTvOPDMr2chQS963LxPNnNMrxMDQI9QVN/vA/MOjx/vEu9dzCzPBYMcLzufkc9qiBdvMlE77xMvUc8Ms6qPMcyDT1mPGS80VfrOtD7kzyZTQc8e9wpvd5PLDyv1JS8eQMCvIHO2bwvMqm7V46MvJmd9rxWDwc8ww/HPCm2nrzGq2e7MJfFt14eu7yjS+K7BAccvHJx/LxvVS+765c2vNEAAbxWEG+8Pet8O3DEhbzI0QS9+n9BO+HaGTwt7biOietPPUzjRbsTacm8NsEQPNX0qLwEX8S8cMllPFN2ujsZ6727eQi3jqzk9Lr+XUG8uyZRPY/bu45FzrkO",
                "JFq5junouQ4ulLmO8y65jgkXuY5KrreO8Ji4jhDju44VG7kOm4G4DnvyuI6wmruOa4+4jn1kuI555rmONf+3jrYZuY6I17mOs663jnDnuY5DSbqOY9W4jjb7uY5nm7kO+hG5jpuuuY7d0riO7gi4jkLSuY4WJrsONWK6jmufuo5OV7uO7j+6joMJu46Ce7qOKVG4jta0uY59fbuOmUa6jtCDuY5FZriOQ8u4jgtuuI6JpbmOKFq5jlIduo4F8riOVvm4jvvXt44jrruOSa+5jlAiug5ZDbqOpBu6jqcHuY6X/LeOKTO6Dm5fuY4yermOBLi3jvbhuI7vprmOKjm6Drukuo6b+riOz264jnFIt45sxrqOhD+4jiJMuI4GorgOECG4jid8uo6qdLuORaq2jobQuY6kQbqO6ya4ju1huY4nB7sO5YW6jrzJuY7InreOgNu5jiSHuI7+driOlLK6jujCuI4T+7mOeBG7jsfOuo5I9rmOowm2jiutuY5bBLmOUZG4jkkKuY4AVbiOBU24jrD1uI7qfrkO/Wq5jqFYuI4fQrmOPpy6jgdFuI5nlbqOvD27jiLRuY7Xh7kO6gy5jppOuo4qnbuO11+4joDrt45FrLaOCuW3jnYMh7d0NLyOXme6DowbuQ6CS7mOc6u7DnuVu44xMbqO6JC7Dki/u454jbsOh8y5DuU0vA7nDLyOXqa5jguFuw7xOrqOTcq6DqgAvI6FjryOUDW7jsGOuI70MboO7A+5DvFkvI4zK7oOq3C5DubTuA5So7uOiEG7jpW8uw67+rqO6L+7jhNNu46DaLqOcs+4jvHcvI69T7qObum5jnbSu44oK7oOMsm6Dj7AuY4cTLyO01y8Dl+7u45wM7oOdHa7jlJ3uo78EboOApm7jqDBuo4OorqOWmC5jifouQ46NrwOvfK4DsRJuo7tgLiOkqO7jpPfvI737bgOOy67jsKyuA4YOLmOCOu5jikRuY4WULkOSna5DvY2vA6QiruOSaG7jnaFuY5ONLsO",
                "HN+5jplPuo5vYbuOrGe6jofHuY47PryO9Wy6jkqIu46FU7oOEua5Djv7uY7kF7kOEna7DolNuY4PFLsOwMi5Dkmiu45KpruO7S+7jvevug6xKLuOi6O7DngKu44USLuOyJi6jr0RvI7Q1rmODO66DoTou45ifLuOBEu5jkZuuY6kxrgOV3G6jqqDu462kbuO0RC7jt28uQ6DqLmOy0e6DlO7uo5IkboOXdu5DtKOuA5yHLyOevS5Dvaiug6Ik8m9Kr23jubiug6HULiOTHO5jmIlt454QrmOk3W6ji/rt44IbbmOpkO6DglBu46CdLiOMQi4jpdQuQ5LU7iOr9G6jqwPuI6OlbuO5Fa5jldzu47hmLuOvly6Du3Nuo5OQLqO8GO4jhIEu44XNbmONJu5jit8uo5O2bmOOBe5DhlBuI6fV7mObEa7jpGvt46sD7uOHwG6jiEDuo4NBbmODnK4jrjdu47X/7gOzgW5Dqwpu445wrmOJqq5jmNFu45yoLqOwA68jqJXtY7ZbLmO8Hi4jo70uI6rh7iOgVO3jtw7uY68ArmOWjO3jojbto4Uh7mOsiq6jo7Vuo7yTriORCu7jpjquA6vLLkO3mW1Dppeto5j6bmOmMe3jvnduo7GjrmO66y5jm+RuY5eZ7gOhWu4jpAbuA5USrmOE4S5DnlRuo6HZbmOmny3joEtuI6f0LqOQ4q3jnHwuY6f2rkOaJa4jiw+uY61qbcOTK+4jtKHuY49SbqOl6u6jhn2uI7MXbmOEX23jsjvuY7Lx7oOzs66DnTUt47LvbiOR+y4judXuo40XrmOpiy4joCnt44+grqOy/i5jumeuY4uerqOFTG6juECuY5r3riOe5S5Dka7ug67eLeOG1i7jtdxuo79iLuOed4ou/G3XjoEaOw7wb/evOTB7jq1yhk8taP8PCU8Lr0Y1be8CV1QO25QH7205JE87hbZvEwuRLzm05E8LJkhu8EuIz12uU09YEWOvM9Fs7wh6hO80vLZuyWueTuB4ty6",
                "Lc7AO6yqdjyd+0U8bfAAvTiSoby/Mx68YylROwMr3rxKPLC7BGhqO8xzkDzxFuq72KsqvYJiaDynID682iowPZ10fbzkQ6M7a6jnvFv3mrymu/a7kfWYvV8/nrzzFXa88/RRvZVn/rwU6uk8rlwfPLzIr7sgHhK9GwuQvEJ6Mb3tKiK7VZJvPX0nErw9UJA7LuAmOxGRBjyJgOM8wf77vEJkVj1A8/W8LN2Yu1SKUjyWsbk7O9YuvPQ1gbw3Jek7UIOdPJMW2zyufde80xQZvPhgubyOtbu883LNuqtB/jxzHui7JlEZPdZjbrrWIbQ8Xw9Cu/yQHLyP8NE7xkjCu4P+XrwSopi8v+ExPKDwAD1M77u8D5TNvP1ysTx6wTg9FfbKOqWCFryMB428JSzEPBcpgjzAJuI8pCIZO7vcQ71HRd87m0Czup9E5TpxY0i8Bz+5DqfqX7wHIeM8esmIun39LT0kLMK8OF4QvQg8B72rqCg8vyV3PAuQug54kxK9//RqPIVzsDv3v5k7upLYvGDKBbtotQg8698Oug4CCr3noa08aKXYPLj7Qz01c+o7fVE3PV2iWLxmouE8jJGaOxOLUbxIbQ2915Xeu6L4t7zPxxu6GsJwvaMsnjuoPhe9gX4SPsa79Turid27vxcOPHj8MzylgEO8UDzDPAbAKb1ZeDA6mzMhvCc7FTyuCy09Uolnu++1Jj09kpu79HiVu2hZczqlW3G7kYLjPAcDcrybFNY72KvYO5vFHr1szyK9rXGjuxUajzzPh4Q8kFBjPJq9PDzhERI9Z/Z7PCpjwLy88Oc7XpDoOoptIL0y6x282vScPOtfyjySHlq8IGo4vU8lMr357IG91FycvF0o4DvYOJW8HSq5PNK6D7zSOue8aHWfvCmUHb2uwyi9jKetPCt8IjxV6x48iRf/OtT7YDyBjoy8XS4mO9xQgrxBcDO8yOcJvDB9S7wxMKO80qzIvFr4Mr0Hqka8A6QMvcZQBL10LAQ9+uKLPAwmj7o7bY88",
                "h1fMvPgocbyP6KY8wSPjvKQzrDyQENs5qiX4vDo5o7s63t06Yr4/PARphLtY+Lm7QUATvAusuA6yS5q5TPJ7PLd69julYsU7R0lBPLo67Twq1pc8sMLtPHtUFrsRubmO8YNYvPgMVDym4su8dlCiOwaliLr1uAS8GJSXPBK+DLyRQLK8GrnEPHCtET1cya09sOeZPE6zkjxEHIC8foDQO3IpwrtZHS29A4MjvaiFlzzKLJI884QfvQLt4rvcASw9I6GsvBDKNz7OwYk8FsGwvKynv7ttSy28Hgm4PPuDGzwIi8q8dkA4vdU+CD3fIDq89A8FvXYxgDw5Daq7YVYRPaLnqrpb/J48m/YnOqowsDzYEOA7kScTPKkVXLxkfv06wSiyO9oi7byqNqc8z6pAvBiv5Tu5N868ZVT1un6ygjwGly48eNi/OzazQ7t9iwm9Rq9AOkHPpDza/3A8j9c2PAcwtLyA8KS9EPgvvWM+x7y34wm91PHkOzwbBLqQPYW6H+3xu+eO8zsfG4y8qrEuPM0iyjxUkSg6w4OJvMnrbLxhuRI70GrTO5FPN7z1+BC9cBGsPIHXaLziHbK7kvHwPBRKJrscg0q8uCllvIlhOrynCwo8YGttPYpWhD3NE6g8Rt3OOxmUfLriSXe8HQkqO8Kywzw8j5o85ziQvEOxortlI2e7wKRjO1fSYrw5xZ288iqbPMEXOLvQj7sOt4k/PBKINLyhL7S8zQmHvDhXjDzFhSS8O7+CvBowjDzmPMi89465Dt4iDD2OhFI8tAvXvI6j2zvko925ZRa8OQJY07qpuPe7eYDoPO3qAL0upXi83o6/vJWXKr1m4EU8toLovAJNo7w7P5m8DrAiPGdxJbspk768syHVO3IpHLt2yAu851OvuqhGB71eyz672Y5Pu0dRKjpSDJa7M3KEPMk6fL0js6i8EG6XPLcByrwDmqs82cpXvDD9ubwjq7E8mx/YO+TsgLyLhB486Y+5O6PQQDxLlZ69vBFcvHO1XT3uTrs8",
                "yAk8PQVDjLtQGTy8d/kUvR9mTrySTxW8nGhGvWhJSbyEpV28T9AQPVTFlTybzSq9tM3rvET9kryy8gm9ijRyubwSDztkuGI7HTZ1PWyjZ7y2YxG9/VgrvTBqQrxy+4U8XyTCvBdh1DxEQc28f/UgveIRk7yuj8K8bKUlPEB3rjw4ucq81QncvGLrwTogxJi8D2V8vN9OsD2cQm87UfXFu5Gzgz19NDc9YNFnPWllOb2DAh49LM+WvNtJRL0guao8xv0TvBAbHb0BsuQ8edjhu4y9WTxA1M28biq+vBscizsKVka8wkv/POxBQ72vEgC9lz4PvPyJTrxpD+48LCG4Dku4vbmySDu8sJuiu1Qoc71zlkG7g4oCvSexlrz5+rY8Jhs2vM8Wuw4m5lW8prIGvQHmQT3iKRe8WZkuutKd2jsIzU+83SIbPDv5Mzz3Pye7kkODuz/eC70Jnj+8cPmFOmT+kD0GLSg81hpjva0eMDzCMZ694cAbvcNiMrzvhLw9un2ePdR7mb3yMEg9iTvdvE8KCz1x8ky8f7UzvW9XZT2RqjY7A7MEPu5Rpr0hrB096frgvICGxLy0pws9cFGavGQ1XDp8L9K7L8/aPcEQpryfYiO9M7TYPSKbEr18prC9foqZPZiT9jwOk5g7GAR5vZj3L7qKu329Zt2Ovf9sT73CGMa8gqpBvW72xDxLfKA8FmGlvNmADb3I9DS567F8vGDlYzz6wiw9cwYOvbv0sbwxVA69V/B0uzxwuLxxsQK9MnmPvMesDTyWAQU8JodguhCewLz7ure8CQHOPJrNUTx6LzS93+e0vDMIODz5mEW9E9kFvdk/kz1JkX29vZ+nvOCioL1GXVC97H4uPCpNYbxkTxo857XLvDyo27vHFHy9M2WPvCoDk7tBWfe8tYD7vMf/sjxSNSe9tV04PFd+Lryp1R89H++DvCYmbb0n7WQ8Pb0qvXwKDzzL5yK9D5tvPBMauw7KOVc8rWeSPRwFiD3ZAwm8i4UuvdbvhDyb2Ps8",
                "H6mHvEKSoLy6n7oOBDb8vW6lSL2xkYY96bmzu0sb3zzFScQ65pMFPcyjD7kAEag9L3QpvYGN8rx/+Yi8U5ASvBHq3bywngo9n5wnvXZ4b7xd+YC8hSy9PApFubxxKBo81qclPA0NoLyKFkQ8njWdPLZ0rbw3SJG6sQhHPfkaqrrLY609AV6Hu7QU4LxSWwC9PcI3vC4DELu7NMI6y54rvTCfT7x4/uw7vXsWPJy6x7x29ns9MQ0TvBUhQLwRYAY94bSpvEuo8TzcsiI8hnPcvJ2/OL2iYLE8b0GCO1p7/7szEto8ILzPPBL+0jx1AXw89AnDPLX8i73EGsE8/pLeu4MC57o76lQ8mWEPPL7LSb13NVG7MXcFvQJJEzxTjAS95cfzui1KBb2Xl468YJc8vIHLLT3bvgK9V8PCOxox3bwud7+7BQF9PA00erz6V2I9xWJeO60fmjtkBBI7eUw6OieJ/LpoJtY7VBkVvFLnZTwyhig7r8UyvRn5mDzRjag65sx4PF5CZTx1Xe888dunOzMzf7xIEg87Rx3hO4niQ7t0jiM9HuSXPIL/pbywm748jlxBPedAQL0VDg886okrPD2z0Lqn57qOE471PPCRdT3/YdG9kWXouysVZDwmdRi9bojAvCjMMz1jm9q84nO6jkPUljyhv6a6OR/IvB1msjz1rjW91TFBvceXwzzqiXe8pmtnvJHmzbxlnho9FpVyPLt2Tjw0PRW9f4JsvPCjmzyw0dC8tUlqO3LvRz1HjYa6qA6tO2oq7bzxsyc9jgBgu8Fo3rxUs6a8xVwKuYvwkjsHNaq8RLVQvMdimDu8lfy86tvVu2CZ0Lx5MjE8vMyMvL9ybzw4jSw9M1JiO3Y8nzx7wNE99tl2PYltPjz0CVi9X+hwvPdCkzyPx4494EgyvUioBLp57sO6JJhevfp/FzuPVfy8IYzLvHovMD21qVk81GtruWt76rt3s6m8Lm2jvT8kEL1VSpQ8k2fMvLTqMj1kWDE906vLu7z5Hbrxp9y8",
                "qJiyPN9TFLy3rj27cyLevIR7zjwSrSO9SdqRPO5Vjr2LlpQ8rYUmPa8vAT2BADQ9PvmgO66SAL0K8Sk9hPiFvFV2Ij0R3Ig7jFEQve4ABT0TTZC8ijXBvNw+ILzPcDU8b0ELPEtVFbuDYjQ9m9Z3u5DC0DklmyU8q5rRPJE9jzz1nG492xBBvR9y9Dwsig89ngc6vNXGdbwsT5w8WHPLPHYIZDwQ1hs9iCe5jpmlSL39eJI6LPDoPLYC+zz5b7k8VcfiuwCL67tz7Se8XKw9OsQAuw7heyM820QvvRE7CL2XcOa7fyP5u+RYm7wKGhS6OGWXPPLGiD0UTMy73Kq+u5ldgDz5+vm8qzECPBUj6jwTBvw7h19FvSx/pbt22li9RzVFvDK+EDyXdpQ8lYAHOsQq4D1UOTm8INJIPAuh0TyfOqS7gAzNPGPlPLtAc4Q8FhcVvflwID0AnFY9nwLVOpObozsvvbI8JIUzvDJPN7ywQOw8yCuUO4URljxy3wi7PqMgvf/hE7z3hsC8a0aBPB+TVrtEPl49q8P8vKPVp7zivkO8lfj6ux0WRLuwKpG7FeyMujtakbzya4+9oHEbu4HzvD2KARQ8qsFXvC8whLuhUcm8JVPtPC2RJL1qZQS9i3tXvDtc6zxxaNy8CvgaujZ9nD3gXAQ9R+A2PAVDcruFO6w8t3tcPAs5bjzW/Rc81KcnPHrcHL320RW9A5CZvC1VhTyCpne9HpOHO+qcpTx9q/Q8nm9dPeQakrspglY9t7OSvNVq+Lyhpo26hUqOPBru6LwC9zI9a4aCO1UCYLzYwvQ8u3+cvNrFyTvWcYY7p0XGvJAeQbsCmoe7r1s9PdOSe7yWJ828JqolunZiuo569fG8ytb5OxACUD1O88W8zLNcu8nC4btNRM06Fg5SOwQl3zxG7LyOJab8POg977h+EIW9SBgivS+r5DtrErO8/W8QPEYk8LxW0CO8rLqAO6FUHzx9ioA9JayeO9obNr3mmsw78eeLvSyG7byvYnI8",
                "7WKGvCmxvby00Po8H/1FuZkYfTxFK0w8JtCpPJaNKToKxX685XfIPISWwbzXZna8Rcmau1n0FT23ZIK7ArrbPFM5HjuNFU09ZgdIPYISqjyUqAe8/ldxvMc90zz78gs71ds3vFD+9jzkxRu9qGvMO0XNZjzfsuc82TRAvaTK1LxKwWC475NxPGr6sbyDwYa8kix/uzoxKb1zG225lvQ0vCGFIr0os1U9WmCGPH5Vljx90sG6wr8MvS14TLxj9II81LV1vPq67bzlAZG8ibw7PEUjALzJXsC81ZXdvLeeSDztbpQ7xvYTvNCJfDyok6K8a6cDPFrvG7qrybY8+flGvF5ChbxFLiA9D00KPC4fUbymj/48bzszvPbGojqw5vG8iuELOyDXITyqSK67d6yRunLT6zzUNys8Y53xu/i037wwu6w8D9KgvCk2xztfBze8P6wqvG1oR71evCU81z7RvGyBtDyEddO74K4PvIb0wbuTobeO4TroPHiY6zzOCoQ6D7OGvefyGD3+aTS8IbGOOxOlv7ytDCy8Dcm4jjSfYjzSsoO5MtdGvCSCyLxwJG67koHcvB2s+jxkSqG8c5sdPKl4CryBvYg6NVUOPTRcFL13vlm8aaqKvD6ZKT2eGh89UgwbvaRdlDywEZq8WbmEOl7TRLxv+G88E22Bu9VgLDsE6hm9/a1DvF7t4TwJxTQ9WSwAuyv3SjrtA548nDm/vNMp/Dre49Q8gakJPfoFPboXSzW7Kp1nvZlQObw27AG9qg1QvY8EAD3ZrkE8Ec08vW0v0DuI15e8ZZuVOpmbxrxRYc887yw3vEiE/rtRoRU83hyBPbFDpzmnREC9Z7s1vajAR7ySDKa8GkPrvBkVAbxJUhM8S9s7vbludjo8AT+9lHFDvNEYuLsKoXo8EsC+vPpXd7yD7IK87DDzvLYnYTw2cGm7o3RuPJudrbz5fAM8GmCJvIf1N739jHC8r0JJvdizOT07qdm8YxtiPRoKnby9PNm89sCuu4xsOLqSTVe8",
                "dS+RO36TSTwnM+K7BgqmvLr6X7oyDNW5gwetPDIyWztqIYW8CIfbuuN7EjyTQr86DMmivAU7GT1ZZE+684Q3vWlxGD1qgAC8Haj6PFSLlTzj96a6wW23Do0N6ryWuxM9gzjLvfSOi7vmhSK9u3oQvMTpfjxziUu8mSl0vBE6uw6Lg+28JrSyO2VGcD3kHd+8aBlAPOSCv7q1NBs9NEEAvZd0qLzpQ+W8lU2uvOzCI714zgO7rGyVvULoHruoxWw93ipzPTrOczyiMfO69zhCPVvZpruNw9s8n64BviZ8Lr3HjjY9g/4rPAyWYj2RemC8Cfe3vMA8zLwTuzC9Re1hPdE/QL0viUk8kIkKvdzrNT2tmwC8gm3RvIGcr7w667A9IdFMPchnRT2oIMq8X/9ivXsAPL01nym92I1hvWCAFD3LenY8zyzIuW2hjjtHVGy9T7vSO6su9zkC1x09e4GKPQWwjLzwAcO9FonRPEwGID2wSog6wKrJO1XEwzwdK8S8joOFulh2dT31gta8s02NO2L+EzzeLjA8wY4Nu68Wbb1NFrK8pFngO3W6Aj0/I9U8BEdfPJbyJ7w3LJo8mODuOnESibtM3+i75UOtO8EKD71/FI88NBRWPJcBkD04F4o6A4l5PYAC2bmId8w8O0j/vG8T67oGFyk8RmKsuyF4urxZyZu8ebplvDOhpjxaAM07kv6RPRSN6LzNuB29ETVhvGnehjxlIUu9ahMEvb6I2Dy7JlE9BC9OPXcAvI59IV287jGcvYQ37bwr/Lm8IxWoPKZz2DyDyY48zs0PPSrEQ70srbmOThbgvJmFtrzWH1+9kZn1PEvh07v3+mG9t/VqPCi2/7xYtSu9ydOaOtReKzzMI5i8Zr0SvVUJCbwYTCI8uEruvBYxOjsxlkw9bOgVux4xCbzhx0a8Xr1cvF+SOT1Ci447dCguPUjaVrsm+CU9+zlXPM0PsLt1j/m8PMTtPFBGL732zKs9kTpKvSFB5LrWi1Q7tc8vPSN4/Tv1CJG8",
                "MoSFOm81BbzEfSO9pNiWuybmJDy+Ebc8yIpMPOfgjzxwFxW8kAAZvH85NrznTYE9HuR2vGAnuLxiLsC8Ud1bvNN2ir2JO3O8uEvjO5N7IT0rAno86KaBvLUVKTyfkji95Oc6PKSfVbs1lKY9BOw4vSbWqTwGwfy7VCOkvE8U/Dz/Z6m7sPMkPLBljTwKRds82KYDvZdsUzvTMHG6HkaaPM7SjbxBS1y9P9yBPGgupj1bQgC63bjXvKY0Kr1rpoa7SgBRvE0m6DxcpY+7yhTTOeooILsGV6M9Cz9nO28Gmbsh+Y482Rm7OrWHkDvSRoA8D1OUPOj3Zrtk55a8SwYuvXQmnj20QDU9jyWMvK08xrvL2fO8rBjbPPk8TrvU1bmO56yYPP0hxTy6+u88ZuFKPDa/Ar3+krW8bXYSPNwRtjxadwW84gq8DvOHczrBfka9ncxuvZIZBb1hSke8v3E1PCD2BzxdzsE8nbxZvS2ZQrxwSkE8dFiWvOXBIbzu9s47+fFRvU8cFT1hepG773JYPU3pUrmOCDw9wjOjvDK4I72bKww6ozE/PPe6m7yUYzw9VOulusHlRLxCSks9yOCuvMjXrLyGRCY8g4hdPEC6RjwPytI807ybPF50CrzfqeY8Q2BdPbAVBTxfev28rc3ZPHBCDDz6vUE7Ip74vP7JAj2QCwq9H1Z/PPDNKj2SpQE91kWPvG/6Qb1wEQo9V/9BPGGERDyoMzk84T4FPQwElL3LcUc9GYqNvNrjrTwTZOc8l2gaPM2lzzxWOpo8AeafOUQxjjsWzcc7bZeFvAE76LoeCB87ZlmVvA3qwjynz9c8sd6JPD1Mvbu7vbQ8W0YIPIAELrvqpRO90UpCPCsMFz10wnY9iaZtPRWXqrzJ6eY8CQ/ePInWubviIpi9iEndOyJ9BL30U0E8qoiUPLdZgT1KnFS8RzDWPDnvh7xPmJQ9FoOtPHpAAD0FDT69VBSJPe/HCDyTMxk9t4cFPNRFuztFO4W8u3N0O26hCz3I/WI8",
                "LAq5DoWnzjw84Yo8Dyf3PFRJPb1mkiU9roDKu+yGqDy+IBy9vVsdu+xkuo6NsMQ8eZM0Pf17Pr2ZL6U8PqUIPIvcSb1Yj4U7h3gNPDYJBj58oYo8v8X7vDbts70w6sO76lT0vG+bvrzQpo48XWwcPc9H87rosoy9oJ3qO3+ycDxbdfO7dT/+vMci47yNFJu89efzu552Iz1xyCQ9TPuXO199DDy/2EM7VF52vNGOH70jL5u83O4tvepzJT3+5B47/YMZvbvb9bwbCQo7QkGaPIHHQzyHzIU6HbkhvI8FMT2r4xG9k4Hxu3wsg7yzLpq8bjU6PQTnzrs/xAE+B2OBPCeMHz12X6w8DCOlvS1dqrspTT+8amyhuztUAj5Ye3i8JizUOz3XkLyC+TK7bQRPvTNxJD1aKFi9a9QEPviUNb3HhBK95G9WvKzivLyySRa9cKGzvNScmLxi7zE8XDkVPHP7NTwa4EY7d2EHvRJo8Ly1Az88++ScO4f7/7xyniq92fi4uxRxr7ytOj28JhkavQXUqD0IpGC8hNVBvbl5+TsqzUg9Q1kuPVRyS70uED89lpnBPMX6rbzqKwa8MvTxutuw6rwTsDE80kQMPTFFGz0P70m9FGWRPXFnKDydwi67CT48vQ7ZuA5iiC080pEaPDnSHj1TFz27jNLeu3XRQz0NhuE8wZiiO0Pd7DyPWbkOBKnAu8RCAbwjfde9KLCMvTfyTbwMqVS9+AtAPL5Cx7xXGTm9vOgFvMeDrrylwN68x6vaO00+3LxVo0Q9E+JQO4ew2byU4ys8ZNzLO0b6yDxHbqy8B/EDPYotFr2wcqW8IkWtPLbzELx885e8Mbb0PJ07AL3cN5+7/pWLPC6Jgj1CFBG9LMPUvC626bzsH8e7PCb8PPw0L7sQowc8/UZAPVOHAz2AgDI7b89EvHkUcD1riNi7BdPEvPpLRDyqXq+7veEYvZfDGDzHxce7TpOcOJ+ZJ7xPfxe8e6wrvC4M4jwScSu9spsEPRqbA71rPWO9",
                "DvuaOt+ljbwVZt68ZpOru4ZkVLyt7we9bk30vAW5FrxP5cw7CWrsvBAN/rzU5G68kzK+ut68Ibuowqq7xLu7vIQYH7z989i80QwJvCm947tfqjA9500CvUhBLrwJTjI8sxm1vOvXHjzJ5e68zELyvPVbLjwg0Ai9z7i5vMUwhrxVCiC9yGWPuuQt1LrEQdy81LWRPLGzUT1IMyo8XX4NPcDLIDvqHgi9OO1xO+QAFb3xG8W8tMzpOgMvKz1Pads9W7wqulDAsDvk97cOdGuOO2EfKD15iuK7v9BUPaCFCDwzNlS4D/Etup1437z6Szy8Yb+6joFKTj2xN8m7/3TBO3yjvI5YebsOejS7jvQKug6EHrqOwTe7DqAqu46KTrkOIDi5jnSIuw7ufrqO8bC5Du5buQ6ewbkOFcm7jk7ku46AZbqO4ua5jnSpu45g8LuO0b+5DrCTuw5WRLqOEaO8jrexu444l7mOjSG5joaYuo7e5boObga6jnCKu47NW7sOH9W7jnfruo4EVrkOCQC6jkMJuY4OQLsO4U65jikGu479ibqOhhS7DoMSuo71MrwOPma8Dj4nvI7aILoOfEK5jk8yu44+mbqOwSq5jkBWu46gqLmOkaK7jhL1uw6CbLwOph+7jposto6g97qOP2q6jiOFuo78k7qO1ba6juriuw4FfrsOKua5juWLuw7AWboOWCW5jtU5uI7BS7qOhey6jg/juY7tibsOvQ+5Dsk7uo6yW7oORo+5jpi5uY4uermOxPi7jrypuw5TOboOfgG5ju2muo5QJLyOyuC7DqkLuY6SS7qOj0+7jjjduI5rBryOffy4jmqJvI77eryONgm3js6ZuY6SeLwOhYO4ji9puI65nrwOcGK6jhFNuw5Z4riONHK8DsSXu44f+bsOlCC6jsipug64zbuOCoy7jqR8vI7FQbmOiLu8jkIFuo5aXb2OJZ+4jjTGvA7EobuOSsO5jsh19Lu0qLa84SBFvXSGmrvT0qC8HIwMPAMHtjvqxp68",
                "/L1zOmTMCL3z0Di9yS3du+NINz0FCzY8RmCCvSMSzTxwgRs8WAIPvetCBz1Ae9w8/F+fPDn44rytXhC9B8JDvPDaUL3uKMc7o1rjvLUb17saClg9h9eGPWvZajyF++E7K8TXu/cOVby0ABA8Se4dvQVzfDzZpwa9LzutPYfSqbxXhQm9FN+KPfsi3zyL/kE81RpSvJwphbsq+Ay4m7usvBEngDyX2mA8M0W6u7egkry+2t88O6WNO8J4mLxo6LQ8noCjvaft+jwIGtW8j3oivawKNb0yB7U8SXQnvWyDqzymrIm7b7lquzb3M7wR2Hy8hEvJvH6D/zqhJmA8vwu6O/lwNDzfQsi8r30tPSRaBLz3y5u8VVjjPEboDbxds6m9xxlnvRwUUTwbH0C718d2PCkkh72fgu67ujktPGjshTssUgm8CeKsO8daEb1a9jE7CnCbu1nYD7u5Ci095vTxPEWBhjxO1KW8ZeWlvABe+7z/bU68OF3ovAzZkryzvWw85LlKPTwCdz14ZpK8g5Aku9xAuY6r4ZK9qG0BPjMRtDyyp8Y9lH1Eu04EZjzNHw09i7/7uYX2NLzUWrqONBUyvKwjDr0M1ai9wFOXPG39eL11rek8uVJGvRYwCj0PJ7i8RdwUPDCeLL1XoSW9mn9aPJZb7Dv+Ho+8G6yovei2HbwE4sW7jFM8vce4hr1ouhW7XqaWPC7zEb1Nnzm9kNmUPVMugDzaDvM7+oAzPUHtgb16khA9wQyWPEGmiT14mT+8WgvbPAe3WryIA0o9R15gPSoC1bwZIa082lmpPIzKwL0t4w+9bMdEvcSrOz0vo5a5GVPFu/0GYr1IzLI9na5/PQYJujv0juu8tT1mvVTItTxAA6S8d+B6vavYQ73ne6I8tKYxvWEsXD2IQwY9oE1MPLSI87zAJLq8IquIPYH+jr0FuK+7q50HvXNQ+jqdVsC8L9dQvdW6T73tlzk8VALJu2hSybzwMxg9n1iJPOpNgj3AGBo7LQoAvWkj7LzSVym9",
                "rxYsvNa3lr1n7KM8yI6lvZR/BD1D/Xy9Ls4IveNEqD0+xgE854y7PO3h6LtJVAy9KbETPA8TEL3jbce7iUZzvZybSTs4gj09a1WWvF5Nj7214xS9A41HvZXSvjsKmQi9GnHZN1fJhzwJFGi8eDpFvYe7e7z+MLmOsgszO54zfr3iHJu7fJlAvSg7GL2VSL28k5KdPDqFerpEWS+9lkO5DqFqi7y8cBq9+6gYPcZBDj1ZfDK9OPPCPJthlDxaV7I88HkUPd6lYjwxItQ8ziQwvTABDDwosvW8zzWzPKQulbtqDh+9J7RNvKEGhLxGCR+8FXHVu5c0/zz4s568ukPjvPn+9zxKeYc882rXvNepeTwIZdm8qqXAO0Imh7zVuSO8SYDOPMKH5Dw8J5G8uP2Suw4YaT1vmXm8lCVoPQI4ZL3i2EG9rFGlOsWZSryk4Ug9fYMRPLRzz7wkDk29lOjxvPl72juGdui8nM4TveJVVLxTKp88DYravEVVNzzcyMY7/dl4vOSalL34gJM64iZzPIKh4jyzylq8K4IivA+KBT2hQ4M92srDO2XeGr3pzMS8mps3PRAWHTzIwBg8Q5b6PDTUhDwZJ4m8ACBYvGfIWjtrgyY73DwJPB7IET3jbY29ksD8u1JB8Dxpqvi8N41tvMPZar2EU+i7b7URvTn3sjpzslK8uNRbPOn6Hz1eYga9qsGRvHBjkbxFEBk97V8QPAkY1rx5/TO82FvyvMOZqbvOw8M8C6/CvJEqCjxpvRS9/jxqPHrBGb1/Sg89hmodvTJ2Pb0JsgE8LGC6joyLHj00gcA8bWXJPGcKiLwzs4I6XVdiPL/AgrxEAV+8tS8HPX68uY6jbD89S0CkPPoDE721sKG85SMXvbjad72m3r26rt4NPeITkzx6n6Q7ZMaHu4j/sryAObE7CavyvCmnrryzSUw9kewgPSZ3IbxGORY8tmpUPfLUhjws/oS9US2qu4pJuzz5xKK9sRoFPSjuGL37zUw8GvOHPNwjQDzaj029",
                "+DEevdpbVz1IxO28ZhNLvDbxLz121ii8esXYvPueH72oOye8NBZyPQp7yzu/ZKq7o1qNvZ1tybsD4Pe853MqvKQTFj15ROY6oBQcve5c7bwZ/kE9/hwSPb2LLDyIDTY8sAdlPUfwNDxWvUa91VQxvNK0mjzlYSm95if0vIFDw7zHt1Y9a3CnuoXdBj6gc9K8TLqwPEpdWrvpBpQ84EErPPhGv73pErO8+eaju8bHBr146CI8pDHEO9xqVD3DlBi9fG0KvdPgcb2Wfbo81H6wvMG41bwxFCg8OnkYO1Wkczxk4l096Rr/PIBEBzxJWGy9ALKZPEKQjjzAUH88MCFxPFm82rrFygW8UdiyPGUN9btx6Jg8v0+DPLOlKj0pMfU8WfZ6Oz6ODr1IZ2A6nZoDvW++vbwiSsI89uxNOypEug5qvlu9SygAOmLYrTymGAg8C15VvS/tkr33WJW8GpClPEM2+Ly44riOiVk5vczeNbuViS88YX8qvV/rJLwk1ym7ISyVvGWu0ryMdwK9dLZUvDh4ib2rgue83iGHOnnv4Lvgp/e780xOPAv787ykwXE9cFEDvTGDbb2GKL4733aEPXA22bz/cpy8rObpO05ZiL1CMQI9a8mVvHhuJr3otte8p79zPESgAz1sEOe8VMxwu5AglL1qQ2u8Lx7hPHyanzxzt188ficJPRarPD16xBu8PYrWunrqgr0SHCw7HpYnu6TFijxVaoq8SHW5PCdrtDz5JTa9DnGOvPiikTy81EC9Jhc3PEkj87uXu9k8pnd+vFeqIr0eBS899F4ZvdgvGb0W8288D1wZveUKuLz04708Q+mivMv3BL3rChi7GM9HPPsa6bzw6vO7Xpo9Owfexrwm0Jc838flu8WxEryCOT6868MHPR06xDzIVR082w4DvSmMMr3WHKm6LcRUPOYVlbuoxB29fF27u3Q6wLrpHqW8UT14PDu4m7pEYvq85/NKvS5aGj0BwDu8wCZBvS7fDz2dDL08toLgPHweCD0t8QS9",
                "kHyivLOLCLyh96c8l6gJvUruPb268pq8FLCyvOvyRDxFHrgOwbHTurMJLL1ZOFS7m+ozvGMKB70YZRI6SnK2O3jGGb3528u8IWq6DprdV7lLcBe9mRy/PbgrVj39qEw92/1nO5+pCrt4pWI8kEi3PPqFsLybTo89qanLvNNNKD1ZoFK9Jz/vO4f4uTygFb89ZQV8veCaeLyYXBI8mmZGOz3cg7wgitA8yOQAvLOB5DoFfqy81QpHvHr83T0+RJk9n7VLPTSFEL1gHq69hU5pvYAQoLxqC488CZTlPRJ7Zb3swZ48eZn7PMV4Ab0sKBi9au1fOz7gFztKG/i7yCQSvMf7hbpM8tc8XfgeveB8gTwfFhi9qm2jvAXhwrt+vGC80UZOvJWLLLztCao6ebKZPbgjl7ybO+a8ZTr1vPTMDLw87gU8LI13vAuDljwijWU9uR0yPXD4xbzBja88xG6BvQKRLD3UdSQ9oucqvA4EaLzaXDK5tx+hveqfvLrIVjc8ZdXVuSOHnrsySQ296issvaTOY7vK8zI9h0wku9J7r7wAsIO74wW0PMpvW7ptYLG9nmhtPBeqLbwHWQK8ixDPPC4ovLxn9uw7ifsQvW51NT2WMeK96sJdu6CPlLyRL1c7PPcbOzj6oD07DV47xp+quasyObxVq3q9NN18vOyy5zzHIfm8X1y5jvAQH73efaS8s3k3PYB/Cbx1+NO8grQLvUK+trpUno+9XLXwPJyOuY7B6eW7YAv2vL/ygb1zlroOOwm6jidauQ4JobkOLYi7Dt2gu46cc7uOGYm6jgNKuw5N4roOa927jso7uY6CuruOOLe8DoleuY6UF7sOvme7jjIYug5Wk7qOvam8jnBhuo4wDbkOm065DqcuuY6gerqOrZO5DpN4tg6j6rgOhrW1jvtdu47HXLiOIqG6jorEuo5f2LmOywa8jkCEuo4NxbiOHo+5DuxDuw7M/biO7cy6jsQAuQ5NJLqOWQS7jgwdvI77hrmOzkq7jnVVuY4PM7kO",
                "+Pq5DlFwuQ4NM7sObhS7DkTCuw61YLuOYxW8DhMdug4FtLmOpIi5jr3au47piLmOm1O5ji2luQ64sbkOp3q6DvEjuY4f0LyOb4G7jvD1uQ42+7eOJt+5Dokvuo77EbsOPRO6jt7Et45SjLuOsZy5DvBVuY6dh7qOxqG7DsiyuY4d7bmO3867jpEzuY4SOLmOwlS6jqSzuw6YPrqO9I+6DtSWt45bBLuOS5m6jqLDvA6947uOxvS2Dnl/uY45yLsOTye7DkpYuQ6TUrqOES+6DsN9ug4+ErqOnrO7Digqt46rlLkOFAu7jgfbuw6P07oOuoS6jt9vuY5oz7mOtS25jlK1uY5EcruO1r26joPhuA4d8ruOhm64jkKtug6Ks/i9UYy/ukfBqbzMvcY76wIPvb2S9LqL/xq5tuUDPSar+jkRobE6nQzSPEuQxLySYiE8gOMjPFgA1bzZsXm94B2vuwq/prsknHM8m413PESwkbx0Kx+84423PPDRsT2rlTq8khS9O64GR7xaKSm8SGopPaNQVDwBDFO9MWd9vFWS3Txt+os9gWUCPHCzHz1Nqug83RkHuw73hbxwWJK7vX+HvHNmFr2RCLY6oGNWvJIwIL0y/0q926qru3pvxjsR/JC8jEhTvI4507xcohC9w9P0u7ERBDk2IPs7a+6qu9dKED1jc+E8skR7PIBhULtYsCM9GMNLvPnbx7uPN0u60XP7vGz9ML2pCKm8Y9B5vEttuLv4wya9r3yLvMkw+rsvvz08GGlgvAjBRLzN1qo89YdiPZ7Tl7y8dvQ6GnfLvHeHFz1TDVe83YW3PAollrw9fyY9DlHXvIH6bTzw+1u88csROhbfOby2UhG9IpPDvEYFRr0DYQS9qzlIu4+V9rwEN0E73SjFO6naIj123pm8aKEFPO8Cj7zbeSq8NfTAvCUbobx5TIa7zZgpPCCaFjzturgObWE0vHn/2byUlDC81myNva8ZJjx7ICe9bbaIvLRK5jptt3i6MHi6DnJkN7xlI4k8",
                "83quvFKLMbxOJfe8JZ8JvREkgLuFWNy8sWauPaNCNrxEs9I85tmVvT92TD1ps6u8FIE4vYqaEL2B5IQ8Wb4TO952Fr3nG4U75qbGvDCeKbzJjje62kC3vCpPMTya8F88vUsqvaPPnDkmDxE9Ndr/O1sI9DzI6TY8PNQiPcmxnTxhmto837kDPXDGcTxM8y49zdcpPBICm7zDUWW8FYd4vME297tiUxA9XJN3PQTLEjwN/0Y9WL1FPclSSbxhHxi9iKUHvThRCT2DdwO7FVOmvF9MAzzuUhq8RSiTPXx1YDvkjnO8ETngO+D/t7wXm1o6w4D5vNlJerx8Wka9JJ6BPVWeC71t3Jw8o7lGPGY4QTxhOQI7+JK7vPMklbyQn4+8cAgmvYFSxb1rK4g7xWiyvAHqHz3d6dG8IKs7uoz5gr0Ll+y8BQsEPHPSFD2avQ68di6PutgirrzpTja98HkuPXFEHbyBNTq7MbRmO1/bS7r0YuU8Ffvyu3QHw7vL+046UjzdPLO+5rybV1A9bwEJPWPj1zsLHok8rO4LPQEliD0UXuO7zVpFPSIW8Dz4K9s7SLi4juZkRr1h5rC8QwMtvRtMw7wNESy8XAqNPbCqKruEjeA7uWa8PHnpuY6LJN083YOlPKp0Dr03cJ+8R+vUvHKjvLsayTS9vW0lvOz+6Do2vwu94294u6eTl7yfleC7S6EzvOrT47yY7zw8YLMuPCzDej2hFd68pynIvN6onLrxxBc81bKTu26nhT2hdiA7JODAvC/xbjtfW6S7SOuavPcY6ryqOhS9b2bLPLgK1zqpndg8Gh4/PFi7Cr1Z2hs7vG+DvWAgj7zT5Uw7FcMqPAmAAL3Pzg08XwwyOyunEj3GSA27Or2qvOJf67x5rmo9rWDgO8veH70CirK8GBBjPcCVVbqs1bu8FregPPsEIr1TrxA9+/NbPQY0L72yViQ82TInPenMBD20Qkm99yD9u/Vj8rv7XY88GJAkvEPT3zr9lEq9sX9FvJz+zD1ICrW8",
                "G3O2u/xU4Lx+n848X0XCvDJV67yFuUK9UA6pvPe8IL2gf188Sk5evbKEHrtOIOO8oK41PJVfOT0/dyY8JIgpvXz7ULzmAqg9jGTHPLLP3jzJM4s8gobPO5XlEL3NLZg8pczfPAK+GDz746q8UatdPOYED720QiQ81vPkvOhILzyaLze93M00PfuLKb3mKfe8U0ZQvWjAsI7U4Hy8heRnvRYktbx/O0I9JK1vvNkpTD3Ug7Q6BprLvJw/rzzHK7wOFKKNPKGJ7DzRCL26hFS7Di+yuo6EFrwO1G+5DsZJuw6szruORhS6jiLavI5KGroOBa65jlzzug51vbiOki+5jpIvu47kErmOoYG5jrCVuo5zg7mOHHq5DpJxu45nr7iOtAC5juTJuQ6TQ7iOTQ28jrNEuw7NJbyODnm7DkYUvA4n5bmOs3K6jtkGvI64IrmOULS5jv0Luo71KLwOzi+7DnCdu44dObkOJt64jizsuY4G37mOrFq6ji3ouw6Su7iOKB+7jpWqu456SLwOnTu5jlFIuY6tlrqOHaq6jhqUuo79uruOkOO7jm6fuY6x/7gOYBW4jrTzuY5ajLoOCuG4jgOMuw7W0bmORu+6jiyku44/y7mOTSi7Dqo+uQ6v3LmOuIS7jjgbu45UO7mO5QG6jjTxuA5VQ7iO+/24juG3uo4jqLwOIT+6jinDuI4++7mOgE66jpUCu44z7biOV3C5Dpf+uo5u67mOezS5jhaYuY7RhryOqGq5jp3buI5rALuO4bm8jpLIuI50r7eOBTK6jro5u44VLbmOVAO7juCluQ563bmOyGG5jjghu45cOLyOF7u4jg20uY6Zi7oOtKi5jmtkuY4TqLiOexi5jiBhvI5PlLuOWjS4jsTouI6qq7mOKOG5jkO/uY59WrsOnRG1vCL1HD3JyIS7HjKAPH0rfzzhnhI9o6TTvOXET7wvpvG8995KvMu1pLwskRi78/8XvBUjhTqCJac7MCaKvI5rcLxMQcQ8QPeYPBETm7y2yIS7",
                "y/V2uwDomruB0ZK9NnQBvQRa27wkA7S8F5fTPEg00DslfRK8Lwa2u9qQPT2uzMW81F8PvF7OhD2PjYo79k34vG5iuzxYu4W5qquzvNQmjDu56Oy8SrUgPCutJrz9/2690ZGdvGOD+Tx9mqA8IxTZvHerlbwdbgQ6Ou1QPCN5aDufFyk9oSe7OmaXxDwAAsc7DexyPa5W8ztKKxM8vpq7vF9Jjrv+Fu27glgsvcCYEbq9iwA8gIyGPMQYTLyFUqe8tInAvNKqLz3+ZKe894MGPXuYkTzbcgu8MnQDO+U6Xzsl0T07xqKgui0C5LzMQ4q8A0Zbu41f8jzYCSY8BSXLu7Rtlrw5QQ68qiwlvD8vyTxsNws9as6ivP5grTsPbEG8omnTPLo31DzCx++8HtVzPImX+TsV+NS8PayrvFFmKDvsqCi8xdLEvMmK0Dsjerm86Ri8PJKUcT32jqC8hF+6jnJ94Tqp3pg8XjclO5Bw1DsAXN48aiHFPSn3Lr2K87E73k1UPBW+uQ6M3vW8l5NsPOOxwrzvhroOOcC4jooluo7sj7mOPDK6Dk9TvI4jlLqObuO7juDGuw7FZ7gO2DO5jh7IuY5QkrqO6+65jkiauQ4WyrkOyya6Dro+uw7/07oOYBK5jmIhuQ7KR7wOnyO7Dna2u45f3rqOBMu5jqmzug5A07qO7YG3jo7OuQ5uIboODLm5juGWuo7Q9LmOTbm5joE0u451+biOIPO5jtH1uA5i07sO6066Djtvuw7VxbmOEuu4jhu5u44UUbgOL4y7jjMnuo4zQLsOM5i6jm2+ug7/lLoOx/K5DgxGuw7eObiOUfi5Di4kuY46GriO0p26jmmtuY6HfbsO5hq5jnM5ug6gsLgOWki4jjcHuY4b7rkOyby6jnCTug4KCroOW8C7Dg9juY50VLkOaee5jm2Qto4d87mOEOW5DuCcu45aErmO7UW7jkpuuQ780LsOgCm7joCauQ4FTbgOyAG6Dijiuw6RWrsOw8G4Dhsguw5QMbsO",
                "Xqm5jqXhuA5B6rkOHzC5jrReuI7xs7mOv9C6Dp96uQ7TnLiO9Uu5DqfTug7CxLqOEEe6Dppiuo6CZbiOXLC4jkbjto5uU7qOtzC6jiyouo6bf7iOm6u3jl8jvI66vbiO/KK5jtmCuo5K6LkODWm7Dq2cto5W6p69vdG7jmVhvI63ZrwOI3G8DseHuY6dCLoOioG7ju1Zu44JB7oOW165DtWwuI6/3boO4YC7DnuluY6idLkOB2C5DtVtvY6OHrkOIXW6jhH3uI6t+rcOgaS7Dgxguw43BrqOAiq6jnfzug5ErLqOcwa8DrGKu47iALkO4tm4jombuo6QwboOHTi5Dk7ou44GYbqOD/26jkBwuo4fX7kORPW6joAauo5FqrsOc465jmcgvY4VRbqO8b+6joT7uo63x7qO3Tm7DiHduo6ngroOv2e5DsxIuw4CXbsOLES8DslOug65JLsOJAO5juGuuA7WIbsOUXS7jrlOu46yobiOEJ66Diz+uQ6MJLuOIj24jnVIug5AurcObiO3jmyRug5QwLuOuy25jsT3vI42VLmOX127DlM+ug4dWLqOJJ67joFAuo4acriOILW8DoQau46vWrmOpdy4jkLCuw5DobsOD0a6jvsrug6HiboOJjO7jkLsu44zR7sOVWe7Dl0ouw6xPryO9Oi4DoCkuI7/8bkOfA25jhStuQ7Z7bkOx9u5Ds/SuY6DB7yO78+5DhSGuo5HZbkOxqW4DhFRu46Mt7yOjbq6jn7AuY5KDboOrTa7juiOuQ6X37gOWOe4DhOvuI4ILruO1oOLvQpFwTxZBJ282qSsOy8tPrwmMJM9X24iu7WZpbxmdbC8h7+9vIWQPTt4uPm8uEjUu+UorjynVIW8biJ/vK1AMD25g9A8l1ZiPRdu0TsiDe68cRrEPHmto7xAfhu9HoOfupkJeD3GVcS893tzPTZ1e7yhQtk8sLmnPYcBxDw/3Lg6/A00PAcaNDxbo3i8TBawvCRqB72WoCs8YAEzPd7M6rzTvNq8",
                "FV6rvM/w3jsMdeE8TF2CPem3PT3PPR+98amuO69SATsKgES8gmcCPD7GZTsqbWA847QnvUcalzwGQ2k8FhoSvFb0urx3m5I8Ag82ug2p1TydWFC9UJlZPTAgPr1egfe88+DgvFNbE7zW2MS8PakMu5y02bygdbO8bR7xvL3AIz379AU8iBuOPGPDtrzvGhy9MhEPvQ73xDwuLQ87saiBOySXDD2e+eW71006vB8DQD2uqQM9N3vQO7UGJz13xBq8sqLNu4Y097wTOYs8yP2Zu8wlQjxgl8o8pmiLuyNOBTu0inw6jMupvGcUaLvNjyw7ukGxvO2CiLyBJlM9FB01vNYQUbwkh2G94He6DlEB5bsWWHg8eI2Pu+KIDz2LEtW8AkkdvLIffzyeDve8aHn8vHhdug7W1Um8HUBmvCEgnbvStLsO+Cy6DgGSuo4mbbyOqDK7jqPxuQ64oruOz/C6jrz+uY47HLuOTTW8jgX0uY5D9rqOCMG5jvQBuw5HQLqOf8S7DsaYuI7p4LqOB3y5jjqIuY5rtLqOahi6ji3OuI7qvLiOV7q7jg3Nuo6yPbqO/JO5jvT+vA6sULuOD0i6jvrxuI5m8bgOu6m5jvEfuo5J9LmO8h67jsS6vQ5YILqOcuu5jhZcuY422buO6sK4jk2uuY7UeLqOgMm5jghRuo4/wbiO2zK6jmgCtw67uLqOpgi6jn6Ru45mUbkObDC5jpUCvA5HTboOt/m5DuufuI56abuOPky5jly+t45TYbmOLMK6Dttyug62dLmOdTW6jtIruY64dbqOlGO6jlwbvA4mTruOzmS4jrviuY7G0LmOeFS6jji1u44LrbuOCtq7jve8uI7HQLqOpvy6juajuo4sArmOFUS7jkL3uY5J0LgOmfm7jo5/uI6JNbsOdse4jugbuo5T87kOwUi7jk38u476qboOaOu6jp8Uu47k5rmOYqK7DmEzuo6EXLuOHxm6jpr3uo5Xi7iOg+m7jj4su44cKbuOeA66jqhmuY6d7rqO",
                "VoC5jgl+ug4DirwOn7m5juhquw6Yca4O2aS7DhTwuo5MCxO9Q6VRvT/jDDxt6xM9ObbSu8QiVr3xWQy9nvwHvdS7DL0+tym9cbtJPOowPL3Rz666m80Ju3otE7vpdiy8CwMFvPOjmbyH1EA9uf+MO8irIb2mYsy8GRqwvPYDGbygDbg8M/rUPFIESbyYlYG8cwQHvab8zjyjj8u74Biuu5oKlD3y92a9D8I7vfaIk7zIdvC7vxbOPL4jUr1XiQI9w1O+vEOQljyDkTw8eUdVPH5CND059/s6jJyFO7TXGr1/hQ+9v9qZvBiH1bs7qR09L72RPE28KDvCIiW92t0dvL0vkT0e2di9T9Q8u+D60Ty2j8E7y42LO8j+UL1yvQW9nREzPN6yAT2AXA297OkmvOcVrTy6Dbk8WJQrvZsgVT2YOp28rdOAPNkYS7vLTkK8CmUrvLg1tbzjmCC9SIiYPQz6drw2fJO8O+DNO/86sryi6pK8qP4xvJ6wcjubWbS6VgbSPEa9T7wQ+pA69DhauyIdHrsuGAK959PFvEgrVL0pmH+7Dq5bvFBGhTyIRu47YNI/PTjJp7u2lGo8ekgxPT2oBrxw/Gi8u/OEvaAyGL2QmbmOwLcAvay+Ob3DPYG8GFoLPXp4pTyrVFq9H5a4vGEVHbzzyqe8mBC6jlDz1ryYSIw8eee/PbBgpT3HdZ+7eAhDvGGHCjtvTmY9egmbvJ0t/rvfR8o7qtrPvLYadTs0FqC8RbpsvKnhPz2RL7e8FrDzO7hE3rzkPRo9fCX6vCS7jjuu1Cc887GRPfMuIzwW84e8RpRtuzCHLL3vUf884As3PRYC07ydemQ7Rm8qvYx82byayRs8EorcvJQrG7s5XDa8DY19vfM1/7ye1RW9pxmXvJ9zhjqlKS89JLpyPO18jLt77jc6SCJevM8+Vj0gcHY8mdwRPb57E71Hnqm7iGIju4+UnztrHd28snH2vHh1EDwspgg8gtaOvWeV0bxlKjo8Xfd4PPqYVD0uhsU8",
                "jzihPe7QGL0W7Us9h94IO0rOazthZpm8cgvsvAMr4DvtD+m8fPzYvNPFrDwDCIU8CBTQPD0pVr2JZgu87WDMuzjDTDyAUFS8d1JpvPV7NL07tDw7NDMKvfDRAz0UmeW7y6lNvLisiDwjqzy7BaCnPTINMz1qghC9goJLvGNiSLoQFy89hQODO35S0jzzjZ28IxknvAUho7qsjk09IP+ou3I8Nb345dG8/lqdvAu8HD1J5be8N5G4DoelM7kkKYK9tow2PU+q6rwXn9k6t9JyPXgLgjusmXG9dX/2vNCAu447YBE9nnYwuwKqs7yId6A7tPmNPbURJD3EETI84Sm5vDC1Oj1dYiQ7JBFHPM1hOzt1RqM8DAHYvFdG7Twtbwu6LqWHu2AnwLxZb8Y7Oj7QOo114rp6wJ487ZD2u7BrSzxdFny9jCifvO5IgTz8oB29VPRavIk+CL3w5K+9XXaoPOYx+rxLEpA9QSWrPNsibL1BKrQ8thyTu0Lv8LxtFji77DQGvW9N4rsQdza7ZAwGul/6W7wQqLM834zDPIaL4jsfJqG8STodPecqWLy7neY2926pu/Yx57ygReQ83b7LPJiHZr17Shu8L6alPDdb8D0gXTA7+/hfu+Ml6zs3Lg+91salvW1KfLxwXQc8Jp0svL17bb37QkE87zIjvOhTTjwhWXI7SAG6vLMXgbyeEC29t3GIPNPqljzI6/08mjOTPEVLh7v5B9g8EML0OzJTA7w8ZwE9dcS5PPq76rxxHlW8c4jHvK9t67zbdaU80GfUPLEwjLzIhg886dLLPGVAEr1smvk8NDECvX6UQzxM/LM6UzOJPDXDsbukwL86n7ZHvQo8X7z96TU965+iPSEA7Dykzve8MYTXPAeEu46v320859VHvVQl4Ly5eB+9N/iFPHIIWDx8C7y8yHRBPV/QlrsFULuOVFXAvEU+XztR1mW7WeUGPdrsEb3Qq/q8jNkWPIgtLLzfOyQ8zIoavJhw2LtEDZ48+jtgvHoqBb1o1RK7",
                "AvWYvJQnEj3MrSe8g3z+vO8WYTzMUaC6zg3Ou/tPWTxPI2Q8EAUevf/L27ynRLY8iEIpvIeoQz1i9Ec98+CCvNtyXr3vSY29uhNhPI1GvTwWk1883ekbvfkbmz25b7m8MShxPGwnxrze7Qs7t96fPFIwzru4wsm8rwETPIaWjD07Nyo9j9oYvEHKSLzGC4q5mEAMup8cgTzbORO9Y1ZRPDB3HD3MUMK87YW+O843Mryr7oI9hEDMvLDq9z2CkPW8I7GxPPecmbv41+U76h7XOlta0bvga7O8TIMnPCQIrLxcohG92VumvFrEaLzpRQa8J/fDOGLnMb3A4PA8rk3CPAUi1bx1Bi89s9DZugld5bpDvYG8OLASO2iIyjluX6i8pFBuPLX6LL2g7jw6bYihPDTa/ruoU2+8oOANPKhwFD3qVPW7qFxWPNxUD728OA68g3ilvNP1NT1xRJU6TLFMPRdfnzwF9iC8dbjPPZMVDb31uww8f08ivfqvO7wno7iOxZKJuR18a7qypS49iwdYPNWBFzwWF1u8gssfvX2Su7zaVNS6xpS5Dt84OLzeyWy8b4favPxYfzt9rhY8+V1cu00/YLwfVi06anTgPLB6nj1ZGMW8znc/vALgobznyqM85DyxO/dd17xOG2W8qwUaPRQe2jsnAVy8S8oqu/qiPL0qTYc9rFOYvE7egbt2y5a8bgk8u1mbRLxI6he9gIWou2AHIjwKIEG7J8r0O7on0bogUZy8lVZTPDdsWr3NYcK8kYLBvJvv4jyaEhw8I3gXPYPMYDtZ2yO8NldLvFQxmzyOdig8CiKfvDqcu7rHTeq8Ob19vP3OEb3UJg29tF2WvAWFibwoh8s7x3/CvDUCCr224iK9LBkGvbLDsDxuo4q8O4FJPSPA6zpt/sm6LeuFO9vvbDzWIR29sB+DPKV5zrw6VxO77fGLuxRGhbs6+Oy7I3vvvEm1pbsZoYS8upa+PIyQFjsuqBa9au8vPClLZDwNR0c8uw98vC6saD3bjaw7",
                "IN4JPQDV6Lu0tvi7TUixPCqgZzydN+O8dEpEPfYbwrx35Y885Y2LvCgTNb1PSaQ8w/3yO516gTtaPga87Duiu1rzEbyxboq84+XkvEv+cLzjz5C89p/1u6B/G70Chiy8Tgq8DpaVfLsSljG7zFChPDTqKr1EPSo8K3ieOpFaCDw2paM52N9yOirnug4KZIK8tLPjOxqmc7wY17sOnsu7Dm4huo4ePrmOrsO5jvr3uo4mnbuOADW8Dp4QvA4TpbqO4/K4jqYgt46TSboOude6jsuMu45y8LiO8Mm7jieauY447riO56O4jmJquo53JLyOcTG8jv6xuo64wroORbO6johtuo7xkbqOh++7jjw6u45Mz7iOWHi4jo5Oug7167qOFrO4jufJu459lLmOwwy5jkJJuI7Uu7uO9YK6jjRou47CKrmOe2q4jnvBuo7gt7qOYW+7jgSMuY6os7iOWQ26jnvZuQ73CLyOrfW6jjqWu46yfLiOtom6jpkEuo6JP7qO4Dy6jhHMuo78a7kOfDi8jiBpuw4b+biO3bG6jvEhvI50BrkOq5S6jm0juY6QP7iOO2W6jt8buo6dXLqOAre2jjmjuI67pLuOgjG6jjXeuo4sSLqO34S5jir+uo4Ny7mOQxK3DmjRuo72fbmO88a7jg3OuI6rvLuOS1i7jquwug7V97mOQVS3jrMHuo4rp7iOiuS7jmGduY79Ir0ObPC4jjynuY4AkrqOn5C6jkZnuo4YN7uO7d24jtmLsw5I5boOWfm6jlsGuY6uCbuOkd64Dg6Muw4X5bqOCKe7Do9iu44RKbqO1CS7jsG7uY4WKraOTkq7jgeLu46xNnu7c10SPZBmqbtodtU7pHcJvcmfjjvW/Am92RZFvcXVDT3Iaqe6zaMdPelt4Lxa1au6MfUKO3BAGb139Ks9B6mCugOTQLwJwgS7e+7oPJPG2zsjx2C8tpICPd2dnD12gyo9V9MSPJyk0jxKI5E8IV+OPI1gZjxLEjC84KquvGgp7bxhrTe8",
                "jsZ4vNb517sm6Ps87rAuvSE5+rs3WPM7EoWWPAU1LT2ScsE8T47yvKYQGL2BYoA7SpdLvOUJvbzlYCE8lwbeu1UHAT1jAqs9/QFjO3Vz6Tvpbog87HsOO8KGxrpNc7C83fi5u2A6WbySKCY7sjZCPZhQFT2amhQ9H2xOPdZYw7uJkSA8nXNZPBB4PLz7UAM9CbtNPMFHSjwokCA8H46zPPp58LuanVy6+HcZvQVkM7xgZLo8/RfWvL4pVbwglKg8hiaiPNfAK7xebMY8+F5GO8Ucl7wTS7q83En1u3koAT1m2IQ83+9qvGOVkTuQvmU9u1t+vWxj6jvlVHG8YqNBPdV0BTyEa4q8lJsTOw+o5TwAECK7jh2OPBC+7TsT3Y87bAzwPJb6+7tOd7iO37yOvFgIvjvCMfc8xpKjvHl3xTzX1OQ8z+wEPGD8XD1vYQ48cWe4Dvwz8DyDybc8m12evSJHHD28+c68acu8O5VyET1ttBa97ORdvEEMcrzwQKK8X2sZO8Xqgb2/QnG9mupTu3gNJDupMQy9UKtyvZdbazwvEtQ63TpMPQaUMzysrCW967agu/T3dTyQIp28fwUjPfW4Kb0FZY07bfhhPZv2f7r+FfC8sh1uOzkm1jxfw748i0EovPVdULxmJrq8b94wvJRS8zxHO5Q8M9t6OwVWQbyHEEM9XJBpvD3wOrzeMxA91VH7vE4gfr0p8c86L5ucPPla0Dyrww68rWYBPHTcAj2bNIE9BPDIvJKAwjtRqhG9IceCvf6mh7vjmuW6yg63u4hLtLwDG6q7Pwr1vBnAsrz39Nw85lEavdS90zxewQg9rFeMvPhi4bzrEvw7r/yxvKuKl7z7tPG79LQCvBgNYTxpU6k8edx6upuIDj0MNqA8bSkGverHBz3tMlA8/ioDvamXML1ex3+7CKkLPVnyAb285xY6kTuhPIH3gTxVx+I8BEihvAmb7bw3n5k8oEXyO5qAFbyTLs+7B45qvN/x57xr8Ps7mu+iPSWYNT3jP708",
                "jQ8GvKCJubyh5he9RQa5DkZ7JL2vHeo58Fk8vXX6qbseqsy8gssQPbHl6bwruwA9WhnzvG07uQ7pWRu9c2bQPK/bhTwq27eOIoG7jpPGuI5d8LeOFwa5DsUYvI6tvbsOspC6jruVuo6JnrgOAOK5jsTUuI7/lriOrK+3jonru447ubqOKEa6jrUbuo6Iy7uOryq8juPJuY7dBbsOslm7jlH7uo4IELoOZYC6jvm8uY4YKbmOFky7DqSLug4JpLuOFEK6DpMlvI6LtboONCO7jly8ug5kjLkOiHy5jqLIuo6wHLmOAXm7DqyGt47UObYOuKG4joCPu46s/rmOaLe7jnwWvA5l1LiO/ke3jip7u46PyrmOckG5jqWbu44dKLmOwBy7jqPXuo6pM7uO9e25DqR2u45WaruOYR+6DumAuo48YrqO4jS5jvWZu4612bsOpIm6DvrKuY5vFroOpqm6jru0u44ZMrmOVlW5jmExuw7r4rqOcOe5jikHtw6LwrkOBZ65jjMpuw48wLmOVs66jmpWuY63N7uO2WO7jvqVuo5F87gO/2q5jmxNuY4g/bqO9Me6Dpm/uQ6QyrgObIq4jkIwvI7ghreOHbK2jsZBuQ5627qOptW4jr6Bu44cCbuOOlu6jtcgvI6VargOgO25jnCvsg4A6LmOYs+7jp/quI4nz7oOonW5jrAGuY6M+bqObLO4jrWduo48orgOSXS5jgzxuQ6Ysji9yhyDPco1grx4rDu8FBalvKwFgTuxjoi8YO/Mu/PqizyPim68vNyIPGtop7y5icA82V6nPBBJsrwAB5s7ESHJPIa56TyeZJc9rzwJPfwUuzzK+gw9RKhRvXXcuLwZukm9NmWIvGZz+jvQ/dA8QHDovCTlpD1lH7c8+SZTPZyBsjxEFXq8ld3Fu3LPSbx0Wky8y3dNvBSMsT0UovM6QpDyPAdrTD0Z2oG8NlNPPbYZ4rz6d0Y9byOEPUO097x5Ljs9r+/CO5hGKjyeFzQ8XWv2vCJNQr34YMq8",
                "ZCzOvHFKvryYLhW8dmOXvPRZ7bz/I5G8wpIFPKNUPLyOcBE9mEMlO6AAcTtAM/I8j/2uPAy2kbw8mqk7kVLlOhcGZL0Ms1C8lWoGPS47bTzumAU9DBJRPLfizjyUv6C8gvEivbc0dL0ASqU76t4nPMGJXrtY2c+8+hJzu8eclTyPyZo89xXuu6Q4L7k+CtA8wUEsvQi6KbyFphi8TaWEO+KRH7yEQ6q6gEvaugbaAr0Mf+g8c2QaPGTWGrxLXVQ80yH8vJ90oDwpY8q7F8rFPINPEbwd9rWOha5kvE80EDw8zgU9BR5GOxTTLT2WJnS7FeMIvDYawrwUH/Q8g2e6DkcLpD033tm8g8LZvdKlPb0yFqy8p3MovVIfEDyiWEu8cvk1uq9b2LwA+/E8nzjwOxDpTTvCw668+Dh/PFoeKrwa2++8VNGAPQDVnzxTYy48JUnKPKV5rLxScC86lsiBOeOQQL00KK88nwJ+vZHcir0dqPq85UtsvCQr1bwYgOc8TqFmPTdfIz1iT7i881MxPK3FgzwH74C73CL6O+DiMLsS7Ko9uecNPbb4k7wmMZy83YeDvB1Faz3iEEg8O1SIvLR/gzwRFIQ7fHIsvFtTSDurvLI8U3nWOwTkgrxQO6y7ejcrPBZHEzw34vi8vVunvWe6h7xFdt68japhvNDTRTs7cqi8VRtavHd8prxpPWK9eEPtvFx+cDtXONY8JyZnPJ9gs7rQOd+6f6N9PNFJm71cWxa8NcQuPEaOGryRO6M8g48SPVL4CLtJqLW7DKv0O27s0DwkuKK7AdCPPLewhDwR/gI8DeaPvM87vDup9dE7UxSKPOvC1jtsDYY9hfu0vELmajyB86U9pTCxPIbljbocnbw8w2I6OylsHLzeIR88kUHPO57nQDwn8+U8t9iUPEPYJLu/TnM7StW0jtu6D733isA8TX+5PMamxDxbizA9adKFPRe8nDykmgA7PK68POJLuw6X9BE9mBiiPNY6sL3tmCG9/Q2avdjYRDxPl808",
                "EYzSPOK8sb0lfiy9WLWNPE3riTx7CA699uk3vXyMCzz4jQa9GCOFvZXpdT7MkaY9sIkpvbgYEb3uwbg8sa5LPJCMIz0Vmp09XMlAvUofmLtfECG9gSzHu4jd9bzIuIq6LZrsupWfLz1Xf8Q95SQjvas+Tzz1k+I9IDBpugti3jwD6Bo9hnkauxVyLbwjTRC8rmJQPQftyLzu6wk9vnUQvQVp4TmnJrk9KPu0vLF9QD36n7a8qsyCvD5Ra7umoJC8T+kOPAr73jyVXAm8owkaPHnwFr2HOnU95TapOgAMT7yyzra8KdBHPFw4lL0xDC490y7CvBDdsDzjyd28Qj1NPT540zg0eNU7VdDBPAoWWT1ULnK9F88kvWNcRbr6FgC9T+bGOx6PrjzTF7W8epRWPRnZOLyY3pw8DBQ0vRxHpD3WtY093p3AO6o4Xb3IHI08MeJyPZt14zxVdKc8NUD+OZFeAj0aX9m876eAu5vgKT28aeG66PWVvPH+VL2o/3i8Es2/PCOaCD28t668ypDKu9DrD71Q+zw9CtwDPVjgt44b0+c8pV65PO45DjtcjrU8DoJPPalCiD38sX67g08zPSPuyLmN4rgOsP7bPEKyKj15CBe+qnqlvAlDIjwv7VW8SiYXPQVfP70JOaE6VYfwPGv7lrttnyC96GQVPRkB6DxKxMa7ZWKmPNu3jjzALqK8UmkavWXGHr0towG8BBGFPYbuDr1/C2+88QkGvJBmBr1thZK89JGgPFvVK7wxauu6rJrPuzlcRD2Daxy91XDLuz4TBL1Xu+W72fKRO+pX0LxkeRg9Af7APU7vSL34KJ28JOinu/iJjbmKWL68WedOvOg1YDuX2HE9aOwJvdkbzzt8lHm8l4JbvBIn37tdpfU7jLELvbLL1rxgErU7iU2gO4t3hTyn79861HFRvF9EjLwYaLi8zP51vRFg2Ds78o+8QS4Uvf+4HD3LXDC9gj5RvT6AzrxSvxo76/QLPNASB71IEs+8tcRKu3AiLD2dC4U8",
                "WtVLvfZATj2SjIC9YmqQvD2DBL3X3j09txDpvIzZkjzoK1a9U9WLO6bOwrw2SNy8bvyUvN72zLwo0E286hywPItXPr1JLw+82IUPvIVBkzzaBYE8EG3/OYwmlb3BwB29OQn9vLy3Nr3KvaC88/MFPCj97zxLU8W8bJi8vMVu1zs+u7qOYT4jPIyXiL1qbt87ySk9PE4PZLxLgfY6eTZUvDDh2rx8QVQ7bNi6jmimhzycZw07TjxbPTc+vA6ls7uO9je7jv4puY4wjLoO5iS9jnk4uY74bbmOO4u7jiJEug7WYLqOA0u8DqWHug4ygLsOIfK4jtY0uY5MrLsOE1+7DjkivA6ygbqObU+5jodAvA7DBLyOSU67joakuI4RvryOSNK6DrkDvA7hx7oO5ri5DlpTuY5J0LqOLeK5juFquY75Q7uOgzO6jrkDu45xJrmOvSi5jsEevI7JT7kOQ3K6DowVvI4ghLuOHo+6jnu4vA7ioboOraO6jikmvI5Y4LuOrmq5DgVWuY7ukbuOlb67jndyu44QhbuO5c+7DktKuQ4Hi7kOAsq6jhnRuw6QU7uOuUW6DuKPuY5LsboOpJO8DruKuw4gYLoO5yC7jqTCuo7M0byO7yG5jq6sug67x7kOuma7jqwcuo5A0rmOMLW5Dlk5uo5y0LsOlx67jlwzuw5jprsO4HO7jlHSt44R4rsOwZS5DjW0uA4ONLwO+YW5jkT0ug4QmbqOhW65DlcxvI6Nc7kOKP25jnC9ug7ZqrmOn6+5jhTkuI50+7gONjq6DkL4uY4oxruOV+u5jtuzuA6MzbmOtmK5jtRhuo4cJrwOG2W6jgTiuQ5JWruOG6q7DiI7uo69U7qOtUm6jou7uo6Ca7mOY5a7Dp2psL2XcLY8L7JNvZFfOTtjxAC9CdG4PNvaKbwMvrC8PTWgPHHb5bxUcS+9w/eOO040bTwEAP+7XmARPEvhQjqsHqC6WJ2iu+d1Izv7C4K8PXmWPSqIbbzKGxg7Sxs/PNtNw7pNmjA9",
                "cjWUPL0h9DzEPam9wclmvdUrirvx5oc9xu1qO1VTADyb74E8TsCouziUmbyJSwa9Z9GLu09ofrwksH+8ycW6vK/txLxM9ow97JKAvM7UOzx1Eoa8sSHHvD2fVLxs+4K8AwzePNx1+Lya2ay8fz/avHgEtjvV2Ye7E909vVStrryVbGG8AVYDPbklOzz9JDQ9WegyPKbCgzwiAkO8Mi7bu1vPJjzqgdq8Dq5+PIRCtLu5Gus7QJXwPDJ2FT08uRC9EyEUPPkrAT3oayW98kcVvSHQEb0o9Ag95auDuxXP4Dwb4U+7GX2bu6YTM7yRS8A7CgQRvcDKIT2yvD68E2nnPA2CRT0CA8+7kzUlupzarryGGe88hoIRvRRwUDzyIyk5w0MUvUX+0juWIec8jdu4vHSjzrzUg+088VaUPGrcFDvuERQ8DZwTvSPjuo4psps8G3v4PQ99sj3uRA28L+X/OqqHSD1Vpfu6rY4yvZyrQzy0B7iOFGGDvAGcEjwirRm+dIS4jnvkuo6pBbqODli6jlhOug58ZLwOMRS5jrYCvA4DvLuOQUi7jtGLuo6VELyO9Su6jnEKu44RWLiOOZu6jr1bu47uBriOyNm5jiIUuY4qLLsOWuu7jh6guY6RMbqOp0W7jr5/uo5T4rmOiDW8jipIuo4EnruOzvS7jhObuI7ypLuOyqC7jgGvug4aO7iODpK7jkXBu44uxbiOjOq6jqCtuY4LjbmO/ri7jnI4uY7XCbqOVU27jh+ouo6+1rmOIrq5jkHpuo7LSryO1xC3jtV0uI4EPrqOFiy6jispvA57SrqO4KK6jumxt46G6LqO8Ce7jl2fuI7bo7qOChO5jtIvuY4tObmOXku5jlI5uY6f37kOpjW5DpJ9uY6qb7qOgGu7DhDOtw4DMLuO7bK6jgApuY5Tp7kOp0e7jnfBuY4KSrqOUhi5ji3/uI4AUriO2IC6Dh7Zuo6QFLqOZqO4jv0Iu45Ku7gOru67DoGIug5GZbqOydO7jnG3uw4eRriO",
                "0MO5jrgquo4NMrmODem4jhGWuY71t7iOwPa5jnhxuY472rmOZ8m5jsXSuI7YQriOKD+4jlr8u476LryOpe66jtHxuQ4kvbqONma6joCOuY4w1rkOCNi1jmazuw6HmbcO4S1kue8Q8TxhJaS8m6OzvA63AT3mwE+8uGeMuyEBgL3OhqS8d/+NvCYLW7132Ty8YJLbPOxDXzpI2bG8l+/ju0Sisryl1B69jlsvO7X7cr3aH1k73axOvesbM70zdQC9U91Qve0ZY7xagRs9AWIevGUJDjwjkK+9lICqPXVwdru98908ySWeOYTyybyqaic9aldAvMrYI72ptiA+7IcfOknsgzzBLtm9JdIkPKbKZT0Jflq9hvNGvaA+ADua66C9ABWzvTIQz7txdhW8Yddrvftd/jsvPhq96MOjPADEFD0vfWi9HbeYvGJEE70zbwa9+CvNOnOTNj0XuKY8ZLlAPTbz0Tw0gnu9SBPvvE2agbyRIws88B+lvIxy0rx6/RO9mERrPU8egL1JoeW8gFgzPHsnCTv69AS8KvAGuwNmUzxgdlE8suhAvQjgPT0IVFc7LG6KPZLBAz1c/pk8VO35O8Bhc7zQxNa7Paz9uYQ6k73v9l88cRRVO8/cPz0Zz6k9Rd0GPFfcOr0ojow9/usjPaxWuzwWlco8qwcLvR4Vb70u1wa934fOvCGx0jx9dVE9L3m7Dmwb5L0EwdK8vte8var4Bb1NZ5E7/ShDveImT7wG2Zk7X6jwvJIHuY6or5y8II3NvNDnjj0F2IC8mussvZYoFzx0PLi8hLR9u+7sJL1i8mO9J98sPS2EGz5377M8xnHOvMwFMjyMcTQ87+dNvZzgSbz8LEQ95ikWPPLofz0PCjK8lbk0vYsOzbxaT2W7x6QwPuKxhLyaRz089mNMu8yQirsGlzY8zTzyPDAXjDx2dS29AYF/PMJiFL2DmYI8Jxa5POT9ZD23ehq95eZOvNeJGz3LWZ+75jn0vEV6tDwVkEW8l7mUOx5DBj1KgY08",
                "eicYva+qAj1QRpc8h84UOtdxkDy6TdY8eP5BPVDmcj0Qn/w7il4Iu6qw4DseVu87Wj+kPMlgJb2pIqO8x9GPvHJRajuUrBA96US9vNdKorwA8Mu86mDjPKSDVzzvOTq8sWhSPcpjizrxrlY6a8RuOu7LdrzaEUC87csrPV4+WbuOlxC8z5U/vcTeX7woJLI82XqPPBDPIryiFR67iWGdvN1gPj2NMt27ePBTPHHY7jyLcQK606T1u3bbFz0GiCI8uNQhPU5JIrwh6Z06Je6VufepDzysGS+7jU2lPKzcbzyr88o8H4hrvFrKebwV76w8PJXJu212uA77AIG8pA6DPCCGdzuciMa4jdofPbpjsDt99VA8K7M5PDzZ2jxChbuO970nvO17CT2lmxe+jhI7vcB2Fj1arAi8f5wUvbi7BjzrSrS8dRwfvCglnzuxrqy7r+LFu1jrj71UmZK8uksZvTz+Lr2I+Xe9vrSovDWT07wD3hM9ncBHPCLNXjyHsuQ8PdxivcoILL2fPU07Qvfwu/7aB72b7DC7Qsz/vFo0Cb0v/3k97U2SvM+T/jzaaAC9CvFyPHZt4bzFaC68lOAevQsCCT3TXRY9G9lbva4NQj0oQ7885HrOOpZlY7z3i+K8zutSveVAxTvAIbq8eEc1PVPUgrzWqgk815g9PeaTCD2kjrM7f8+ru2/QJ72nxN+7D4cCvdv3ijsINow8GhbzPHAPyb3eTwC8WKwwPJ1iYb2K/ba9QDYFPaWv5bqmfDa82AP1vArHLT0vgMG8fSfkO90LobzNsQo7N97wvaqXdr39RFI8eaETvReZEzsMRCE9V3kMvFMLHDzb6RG8Zz/QvO99f719sYu8/W41vFsA9LwEjNK8kXqaPBiPxTx+jCu9W0AxPZZVmTmcmxG95mMovY9CBbxFx/a8dyAkPXnGoLyR0AS9yMR5PQ7UlzvyB6U72O54vPheGzz71rqOjhEovduC97yfs7M87JltPL7xwDzpRNg8HlDiO+i0qbwi2568",
                "ob+4ji/X3Lyvi++8l1NbPRNpu46bfboOavG4jnSxu47C1ruOUAq6jpuYuo4OtLuO/N66jk1KuQ7EVbsOeBC5jrFtu46/e7oOX8W7DkIYuo7c4buO7mi4jtzquI4nTrmOmLy5jncqvI6R27qOQRS7jhh0vI6+ebqO+B27jrfJuo71WLmOyLS6jiWGug6tsLmO0fS7jtyVuo7MALsOWi67ji5hu45sTbqOcMm5jsS8uY5bfbmOkS27jiF1uo55A7mODke4jtuSuo7tCLuOEz26ji7Juo5ijLeOUDa5jk4xu47ATrqOoCq7jvj2u47R47uOURK8jl09uo6ZlbqOYci4js17u46/nrsO3MG5jiiduI7heLoOqG65ju1XuY4VlLsOWYi7jucFvA4uSrkONf+7DgRMuo4I+7iOSSG8DqwLu44ETbyOb8S4DvmcuI7vzbmO0AC8jhDjuo4EVruOBD28jqZ/u47S6rmOLuW5jkFRvI6vZbmOuVe6jkAxuo710bmOggu8DvfUuY5fT7iOHQG4Dh8uug5Dm7mOvTC6jquFuY7FmLqOKuW4jh6IvA5Nk7iOqYK4jqL+uI42CrsO4huyjgY6uQ7ny7qOr4G6jmjjuI6Q/LsOs9S8DgTtuI5khLoOtN65joDCuI6i17mO+865jv5CArzpJzC76REdPf7gNr0O8i29kg07vRGqlbwwTac8tOn5vAixOL1K6QW8+2jrOFF29LzlkWO970YvvEfW9LyDaxa9J9S8PNu5kbwjKWS9gF/6PK2TojvK05k8mwNbvTpIS7sGDie9XhTcvK1k3rsloeG8saPuvRq+ZDxq16Q8jjQQPAbbP72q7Qa9dZkFPJoAW71yxxK9tTnaPbtMmzl2NhE8PmIlvbqOgLy4AyY8ojuTvFy3grx+tx+8JurnuxJKkDuVFfm8d5YevGmwCb2+/067jlh6vMtoMbzR0vm7Vk4DvWMEobz2W6M7NKBzPJurUD11eAI9U/kyvGyeCr0EvLQ7JHH3O3iHnbu4EcE8",
                "1L4UvIda8byLpCE9S0livMNei7zxSBy9VGM+vRq7fT3wKge95EHFOz57CjoS9hI9AC0NPXQELr0HiBS8dIvVvO0sq7sB5HA7rVbSvEGuj7x2nPW871FEO3tGk7yT3CS883fsPM6psryLxhe9PaIJvIVszTx1PLm8Kq2mu1CDuzy04PM8Kl5qu/vJqrzyNNu8hBlOOaalkb2NJyG8d90ZvFQeug7EZSa983gLvE8U+zwx2m06pvjHvAWwejph4Va8IlEbPN/qxLyUGbkO7wecOr+RN7woAMA9Me6AvLWD3bxJbR08a6hIu6z7Ib3agJY9WfnQPMcvczzjecq9ja36vAgQsLhVlX+86yYWvUkpBz28udK7d0t5vSN/Q73Ertq8SmwRug+Rqz2AxrC8gvYNve6aubwaxry8khSmPYQEMD0LIVg9ibC8PVg7mjsySKW9d/fIO7ggLb1sIHI8k8C/vTrXrbxHj8y8wOZ8uwZtLr2sNw69J/AMvWn5ND3Wqfa5YYPEPHDqJz0WgRc8EOt5vFmZpjyE5Wk8MKyDvMV0fDyb8qu8xY3nvHqeHzytkFm9OP6UvFlrLrwEjw6+msVpOyTQWz2Oszy8qeADPUmDKz7nZSK9gddxvR3jyTxIdQU+HoJAO5VEYTztD/67rGPjvM99ojuQ1Aa8qC+Fuzl0jTzNoAE8RTeYPFPbfr3zpbU8W5SdPIDkKb23AYk9487gvCMpmTwsQRS9m56VvUhAYLxEwOc8l8O1vDMxkjxoKXA9UcUBvKj5mLzuSJG8Cz6tOXiYpr169iQ876TDO4qUZ72tdSC9+geSPWC5EjxiuTi9KN4RPVwfRD155y89zYw7vQGlDTp9ZroOPSeoPDRX6D3wzSY+k783PSpSfL2Lm3C7F+/wPOArIrzXHe28PZ+5jrEptL3MgTa8SC8CvtwBqzuMyty8G8Z/OzZG87qmZoC8pPCBvMl4g7zSCqC9d6XaOk7dU7t1+ee7NzE2O7Swnb0muLK7doXru6P9q7wGOoO8",
                "wSsyvLuP67scb5W8VCxmPGDbtbvMWKg8JAySvEgo4jzPini899UHvTBltjy6q9A7dN+TPQJXC71E0vO8bwQLPSCA6z1D1BC9B1sXvWs9erxn9T89Tj4ePDO65Dxkh7m8BQYlPbzsDbwl6nG8nDiJPGHvcDzA88o64CROvRWdgjyIUzK6En41vF7WYjz/X1q7fovbOpGynzoPmJg8oIdEvLkwOTuzyJg8qZxxO59iYDxCX5I8r/Q/vYJIJ72kpte83ZyWvNXSqbrOkQo8zaKHPVM1yjynmVu6BOQiPc8vxTzGuhi8k3+qvIzYhDze+2e7REXTu7jMoDzYtis8BtNHPcIlBzxS0J26wKVuvMOaZTzFzgY9fwIpPPZgez3asKK84G6yPG96L72ULJG7fVzfu40VybyFTgE83KzrvDbDzTyBdre6NIKpuukyw7yAjA29rRnOO6awOLxKGNQ6K3k2vUFHoT18CLi8qYi4ju36Ob3Dcjk9CPgIPd7Oqbzjegk9+BVYPOrz7Lsu39e8qDp5POzCuY7S6NI86jhUu1fsh73PL7kOW466DgYeuQ7RpriOIum4Dr0NuY7GWrqODHO7DhTfuw5oLboOuSO5jpllt44qabqO+bu6jp29uQ7O2bsO6Oa5Dkf7uA5y27aOP0q6jpg6uo7/gbgOPbe5DkBDu47bDLsOV1m6DojWug5NrrsOFfG6julzuQ7V37gOU8S4DhlWug5gC7sOx+28jtDnug66lriOwjO7DpmSuA71y7kO3f+7DmhBuw4QyrqOhl24jgumuQ7pGroO09O4jow8ug6Om7oOyWm5jr1+uw7oGLsOYTC6DgkXuw5KCLuOExS5DoZ0uw6fCLmO/1G5jk2Xuo4m8rqOY/q5DrMgug4RSbgO2Gy5Dh+juY7FfroOvzK7DhJeuQ7gk7eOMeS4DgZ9uo6tOroOnnS3jllruY6QxLqO3YC5Dmnqu47KDrsOtkC7jjpJuw6lgboOxjm6jiJLuA45prkORYK5jiJtuA7sobgO",
                "sTC6Dmvxug6iQLkOMeu5jgKNuQ7/ybuOizW6DjYfuY5XiLmOHS27DhZNuw7IdLmOk2u5DrjeuA4Ze7qOR5K7DmH2uY4X+7kOkyW6jqWZuY7DnrgOxEq7jqFYuY7L3reOOay5DjDpuA7B7ruO0N27jh8OuY6Q+riOGHG6Djyxug4iPhy+T+g2u6JY2zxbfOK8EDicutsl2jpEBmI8Lz1BPPnfljyhAc+7dceXPbVttbvcvf88AfB4vFauOz0AhAQ7tIKdvMCGJr3Bzdu6vC+jPBtcATv5e4E879vROyrkp7tfXFW9pb+aPWJHNrzeM6A7dYJIPZimrzwOfIg8UgbwvNBGN7wWbL08YqKFPbYFGbxEPws9mIotvXaidjzyLJg8LHz1OyWaT73zXAG6WbFMvELtCT3OL+267dYAuxMNM7ycSA+9ftQcPbgCCrw7xPA8OTRAusyHtzxkr5w85F69O1u7aT0r6ju7aYk/PAA3jrqAtRC76l1OO+hadrzrcYc9sqpTvd/umT33bS69pt7UuZ9xX7zgKrw85bGRPEgInbvuKvK8JV1+u7M6JT2LbtY8McdHvPYbY70kpbi8nLYxPDZ4/T1EqxK9egghvfXA0rxLNqI8INdevKa8HLx7ckA7QuTIPKgIhbzAMVQ9IJnqvPcRpLtXYC28BclBPeJkpr0lH5q7G/TrvHalST27FMO8HnxTPc2pN7vPb068WEm1vCaLhjsxNd48/eTPPPjZMDwkKrsOSPNePN/pzrscJKI8FGQ1vQT/VjxUawy62LXKPOQqKzyAc5I9Ipu6jjApZDx0Kzo8EA3EvaJcuY6KJruOl0q4jmF1uQ5WrLeOFoq6jh1euo50aruO5BW7jgwJuo6pD7mOu4i6DvhauY6puLqOVx67jvPhuY5QNbmOHDm6jqRqu46PS7uOCr29jnDtuo6ExLmOvmO8joSguo4KHrmOgqO5jnBouQ5a7LmOQhK5jkhduY6MJrmO1gC6jvwQuY7tybuOwqe4jt18uo7mbbsO",
                "VMq8DiDBt47nirmO+fe6joqhu446ULkONWW7jmJnuo6O5bqO9Ni4jh/0uI4N+7iO8Im6jkqAu44IDbmOYGq6jhhnuo6TarqOw4W6jhBHuY4SVruOdAO6ji2Puo7FCrqO/Gq5jr87uY4o3LmOL8S6jkKkuI7ntLWOw5W6DsyiuY66ILmOcwu5jtQ9u44z8bqOKeu5jhbUuY6GrriOhta6jmvBuA5Z8LoO47+4jt7Iu460gryOope8jvoEuo5bVbqOEAq5juefu46bgbmOukG4ju0zuY6bb7kOl7e3jl4lvI5b7buO+Pa5jqgVuY5anLuO3hW8jjJYuY40/biOFKW4jqpkuo4rPbqORUO9jvoyu44a2LiOkJatjmk3uo435buONbu7jrXguY5siryOVPa6jsfIuY68urmOpyq4js2ytw5967qOJCO4jjaSlrs0y+s8DXUnPE1tIj1zDB+8/duEOx46pT3CtFK81JRYvQynXrw5KR28EXbjO/p8Bb1ZGrM8xku9vJYxWzy2equ7TGEgPFoaRDxK6AS8RdGUvWL8qjzFd/k8wT2QvQHqsD0QtJm8YuGuvIoAMLyMRYE8pnwbPcVb0D1HHAk9/zRzPXt9ib0gi689yxw0vMSbL7203X28wPICPMTnsDvy1Kq8iiIvvfZD7DzdGS29K1GZvNaphz3R9zE9b8WPvO5/p7zHmdO82t4ZvHlMFb3SUbq7NReaOwQ5b71wjGY9XPW/PBkRSzzPJYm86/z9PALvgzwopKS8IV4rO98c3z1IDHo8TaoyPezAvzvAEAE8Q2Kbu617AT0Odjq8clMHO/CfRr3hLpw8xOBkPf9Zd7wQpWQ9NmfevE/M7rvMKuM87YB0Pb2sKL3+GcQ9DUECvBbv2bxnigQ9/7UbPa3OHbxQbR89vrt7OnGX9rrxR2E90bZCveAPFD03lrE7l3VTPOWAEjz7NuG8oDMaPYVcpjwmcKi8mbmcPbAvhD1Nf9s8y1o9vLMlM70YYqC89+dCvfZCuo58DME8",
                "AnnXvPBYZb1Rbd68Ae0sPEGgnrpedg48R2nJPFCEUL3hqLoOcDHKvO+wQT0DV948Buq4jnVjuo6xSriOJIS7jsAuu46PlLqOpnW6juACuo64uLiOQ7y7juZ5uo4c0b4OrV66jhQ0uw7Cn7iOqtS5DloFu47RlLuOWve6DpW7uo4VUruOGqW7jv5Kuo59l7mOwyG5jsp5ug5qKbuO/ua5jkAhuo6AZ7uOi426jo3yu448CrsOhJO6jiYduo5wLruOury6jkrLuY5EUrkOz366jtM8u47qpbuO/lS6jhUTvI6hKrqOkym7Dn+cuI5HfLoOwvK6DmSnuY71AbwO17W5jgonu47drLkO1Sm7DvbmuI78frmOKHe4juQ4uo5S9bmOobS6jk94uo6bdrmO5WK6DpKfvA5y9buOyWW7jvx7uI5JVbmO1nO6DowIuY7yA7kOsvm7jsgBuY6LkbiOmTy5DtGTuw5F6LiOIme5jreKuY7MXbiO0IG7jj01uo61LrmONAu6jo/5u47ht7uOwO+5jgQCuo7BbbiOJPW4jj2/uI6/sLqOymS6DnMBuY6UWLmOjBK4jhEDvI4HyLoOt466jha2uo6hkrqOSH66jhZnu44EqLiOSAm8Dr6guw4e7rqORre7DrZOu47BmLiOgBm6jrZnuY6XZrmOLSW6DnTet45udruOPnW7jnpNuI6H/raOpB38vMXsJ70hwR28v66kvBubPb0l/Je7TYKHvXls4TxxCOy8Wr8Yu1b01Tt6Yvk8Kw+iu3cYBT3x2py8PXKovET6YLyrSom8OIOhvGqWVLyJQli9o5cpvVQ3dbvDFY29ubKhvKUMgz0VOaU82s6AvCQoVj3Gppi9ebonPeq+Jz3J0jI7B0feO92w1bwh6ae8NssEPY1xuLybeYG9dDoRvRnPkrx4Tt68HTyEvLA5hDzMAwm9TOONvAvWj7sH9dK8/uM4vX2pC7xqf6g8V48MPHpKu7xXLDi8pU/lPG1I5bu0jgu97rO7u808WbyBHz+8",
                "K4WsuwTG07xOng49iBTDuxVHLLwN4uO84C3HOk6EPz1HvAe9iUu9vCb2Izw3VT87J6ouvbRrQrzpk+U76dlVut5NLL17OAG9BTsPvAd5drwQukI8Hb2+vA8xJL3yenw9ILQcvHPknjqAVoC834jtvCfkuTy7AKG8leVMu0jm6bzmzFM8ZenCvD9NlLsuWIk838D/uwqQ9zk3Jla9KjdfvNQS6TuCj+C7LnWZO6uOK72uyLc6Yr8FPMrV4bx/qsU7dZS2DhZP4LwOBjq8ZhWEvaw0tbuqNzS89E0Yvf6f17wO7Wk7pdkJu4iRug4S6Sa8yEqyvIz/6T1snruOgva4jrc2uI4sBLuOENS3jhX/uY58N7uO/7O6jikmu45LTrmOJqG7DqdpuY6AK7sOCZG9jmKKuY7wGruOnvu4jmDmuQ5kfLuOs/C6jqM5u47UJLoOeh65jsUyug7hL7yO+IG6jqIbuY4H77mOqmO7jpGLu457KLiOz5u5jroBvI7Ax7uOaJC6jhEUu44aT7uONoi5jpA2uw5RF7mOSIu5joG6u44FdbqOffe5DifuuQ7ntbqOG2a8jnlzu47LTLyOdrG7Doi0uQ50CbuOH+m7jjKou44Q0ruOZsi4jmF7uY49TreOSsO4jnjluw7i0buO/Xu5jlEfu45dS7mOZM64jk7Hug6YZbqOa4+4joPfug4uK7mON/C5Dt5uuY6WZ7uO6HG6Dpc5t47+trqOsj+8jueTu47sx7yOxJ65DoHzuY5e9bmOaPu7Dl7cuI6WjriOv+q7jhJ6uY6ZXrmODdy6jl9ruo7cZLqOewm6DqgHuY6O2biOSzu6jvFVuo4WILkOilW6jq5Iuw5cJLmOBGy6jlLCuo4Tu7uOnrW6jkU+u45ZXbwOyMu5jl8Fso4ETbmOvWu6jj2Nu44aDbqOm3C6DuJDu46zULmOQYS4jkw9u46IFLkOm0u6ju5Gu4717lm83wUyve3tarzOkkG8dfkdPIs5jL38nDk8VV8vvd+jjzzDwxm9",
                "HSMyvQVaOb0qk+47z2SOPfQNW73JKes82I+PPFrjkr0NZRE7RMi/vOJyCT7eYXu9HBGavJNzi72OWAe9rqa2POxrF72+jvY8Zz9Uva/X7zzk2M68HaTAO+tex7wf9po8aSlwPEBZMDyiVyY9DuGkO9xDxD3SEB87/uMLvT2dBjyKrhi8+CyBPe5BKDxbKQ68QOc5PX2EGby64gC92SO8vJ1R57whSC29wW8TvSO007xhxKG8J8NyvJbbjL1LNy+93VDkvJlNNb3CNIG8b/gBPe09Tbxy4QM89Gjvu/wNwDw4Mwk8n2CpvB2PLLxN1lK9NsqLPTtcF70kYii7xIbsvFNxCz0L/n89nKmNO1BatDyTeXc58cxpux6xATw+FYk9pGzyvLvcPzxzpQm9LXOxu+lxHj37SXg90plBPIcRnTq9LAc8waBUvcBl4jqpU4g7z9hbuvpwxbxDllE9HeyJu1YZML1fNFe8JWuGvGLB4Lu1cNu8lTtLvU069bps8ba8KRalvFMp5DpCXrkOrZyUvPECoj1d/Qa8zC26OyIVGzyofHi8aGtePEZEdjxDXtw7DAq8DobOB72HT4K8QV6vPEggdj3qve47GcGnOx/h0Ly2eqU8Gr/yuy/cgbyXdsm84TaevG91LT22A5i8J3QUO3gwCb1T1Ee9lcijORuunrwvgoy8hdDFO1+gsDxhaVW9INe4OdMVCL1wwUS9ha+GPEMgfz2+llu9GCRJvOw5mbzKlTe9T+3qPCb3AT0ijCi7rP1/uZ0xlTxVC8+8n+BHPNCNkL2Yr3q9Ly06vQkHq7wXoKM9l1GjvNsIC7zs9H69DQIlvGdnLj0hu0O3cDQEvU1ORbzKoP28Axd/uwf0ELxOvFA8g3DCvLqhJb0oKGe8XETLOwe7TLzwDDI8+U31u1yJvT083ru8ZPKgPB+lKrwlUxa8sBQSukkv/DxyAWC9q4ooPatYDbxIRHC7MpS4vGxtnTvG75o8jZt6vFxOBLxOEHq9xI8hOm9NLzzmKE+8",
                "YDJ7ux7QNr1ifQg8t9cQvejwoLk71h49ZkgKO2QOOT1CRL28QVGuOs5OzryE5l88rKgMPBRJM728bDO9K26evNeqpLsB8Q68otzYvCsfAj0zaN286qSvO1eJ7bxZ1TK8re3QvMhqb7u/bg29/5q3DtDtojydFga9o+c/PPWAJrwQ82Y8q7pSvRZ6kTu6tOe7YNsEvYJMuY7YONO8sT5ZvBycbT2i/mq9UeOKurcVZz2IKq67dzI8vBQUe73P61i7fMgAvSy7tLzkUF689NwgPIJWajxyhbC8YsEAvWhmGjwDGQQ+BuMlPKfcUT0xWtW8V6OoO57YNTsUvFu8ha3avPoK1TvHXMG7Y9jbvAN+Aj1iSEm9xSbRvPu5przJ2607/Mi8O2okiTy7rPS86JytvAewETxxCew7OeqAvA2fnD0v1y+8IVsqPbDnPbyg2cQ809AwvfY0jDyAyqQ8XshaPBl96jzVlKC7J8OeOzZ/hzykCLw8ZcWJPMTTM7tSMeS8dEvsPPCEkTy8uTO8GoakO0/lDDx8nw49nHYavJ6vxzy6y9k8g1VJvatHnrwz90I8JSaOu6jIpbyh9I28n6hVvELOqryA+Ia70JjruwJFlrtV4AK8I+BDvfeFmrplZL08ETiPOwFRUzsw+aA8DqhvPGGAkDxH3lu8nsyovK8m/LwOERG9HI7yPAlAkTsj9yq7gWq4Oj/EvTzAT6o8VCsHPVBiizxhAX27GgVCvFjVUz1z0OY8V7A4vA2ZxLwVIUm8CbkxvOuPtrw2tbK8k7ISvW6juY4TKhs6mcDxu+izjzxRRXM9cj2wPPyrmrwlGeA8IdevPPGvzrwWHroOqDMcvSkHCj0qyCG9HxO3PODvwjwbXNa8LbLBu6iy2rttc8c8Vl7FPH6OCj0p14k9APP+uZJWlzxIDwW8/7Q9PHlkmzyBhnu93nWlvDrgGD2Spew8aEmFvKEOnbuZMsq8o3/SPGv0uD0AyJ07+xFCPVyMwTz0aDY88r//PJamS7we6dk8",
                "US1bO2OpCj2WZii85//+vBKkQrxBrQ49N1O+POV1Ab3sBOY8f7JjO1zbiTb+eX48WRvcOjEWBTyu8a28tbMovOCJNzzFVP08HTUCvAEMJrsJOas8ZjpxvPqdAT16pSA74OERvRgaD70vb187fkpKPB3tKjvwf1I9KhH7PI5SID2FXkq9ISuzvP4vvbv+YV878WsGPbv6lTz1WIM7/yq9PA8YFDo0Z8G3LVCsPM3+8Tuh+8S7PZYBvaPndL1aRUe8RwizPOqLzLysOyU93ANLPK/6n7simTC9Q3aHPDq2zLzh4Ss8yXKVvPkdpzyhvoW7WP0DvO5ETruwQP88Vco1u4PwBj1zQ9U8+TIKPT6JFzs26us82EuRu2r4qjvISQg8zcohPJkJw7wN1pA8i8unuhJFbDn2zboOz4g6u+l4+jwkYg27IN1YPO/dtDxy+J07FFWXPBnyUDyozg+8Mlq6DqShxbz5Eqi8TxizvR0VKzs/bPK8V4YcPFi/g7zjI1+6xAXOu2C3Cz2xHha9cHhOPIFVE7x29Ee9hh/OvHckqzxbXl884rE6uy50nb1e5Vk80bb4u1gWGD2MecA7wZvsPPMHRbyumTS9RCLLuALAYL34y6W8TYjbvL4WhTofPJc94wGHPd4pZr1jO/s7WJOGvc8VrLw5CZS85x0PvJgjOD2qjw29qCtovXby2Lskchu8PK0VPSOVDTsFQLo7V6oOukfMgDyq8SY9eez3vDLM/7xeGxM9PfJnPPPnM73ziAa94EATvQ/WqrwTX+U8T1bJPVhuNryiuRQ8V4EJvd7mAzs2BS68UGOBPTKQKrzfWXk9N1liPOxwBr1axu+8SAoSvB4HjLwK9xm9xSbpvJIyoDqMCJw8LOwzOwqFM72HNiM7/6sivb8o5zrBZEs9NtMUvEtorzsL1aw7Qz01vVvncrx9xsS8FlIlPrXgjzt68T692ucpPcNNDz0mshK9IfPSvHE05DwZoxQ9dN1Tu77CbTwpPAS9SJq0PJOx2TzP4J09",
                "khCRO0vwoL3IBWk9YwlMPBMEkLzBEt08HqW6jlc4AzxmlJy8+vnmO/lrXLwwg6k8/UyIPKD7WLyypKw8AFj7O0OOuY7ShDC9/+mQPT00sL0iNN07XCt1PPl8RbuDvqY87RgnPC+VuDtMd2U93PZGvXdELb3FOWW8MvMRvWVpTju2Hs+7SvaOPIcYST3xyiY8obH0PJEZTL11fDy9z9GiPXzZijtoAH67wLivPHEQGTz0Fys9ox9JPaFV7bwhqBY93bkdPLjsfb0/XOQ8tXMRPI1Y4Tv3K4G9CFC3Ox4q2LwCz3u84vsQPSg5Fb0sf3E89Gj3vCqz97wl1s48udELvPxV+Tzpdx69imobvJ6QVjym5iO9Tz6APOFuq7wGPy46e/0tvFB2qrugpFU85hO+PDBIir0hX0Q8yAMdOxnPsTtuB+O8oyCruysSBb0vctO7cH8QvQm/s7zt4Jq7KsMRvMjtc71im6Y8QW2NPM821zwOs1Y8H3ZdPOheHzxT6Qe9KdGVvGvqzbuaJr27+ozSvIkTzDoxifq8WvTsO6op+LuPPxy9PzaqvF9SJTwo4eu8NCzHOvSOCDzYqkk9mzuFuvSRr7yQcfK7xb/GvCBmajzFJpQ8/1JyvHEe/Trq2Q897zF/vEGA6zwdWy+80s26vJxfxTxUhxK93thcPGbHuA5RxJu8HRmfPD6KSzzg12C8OtoGvFgY2rw3Lv87iT6yvGEItrwq8riO8+TOvGjmubtUOYg8lOYDu/xA5by2Guw80/DxPHjYtjxFVvc8lgQSvJcVzLzTe807kkm7vN4qdDyqmEs9NtJ+O4oTVzxkP3c9JrAGPQ4ydLso82M7cTgxvDC9wT2g6f87mfHqO1qcRL1ow5C885qgvBEZGr3NS0E9xuPAPAdHJDwSsBi9IAf+PFdwSbvMb6W8K4OlvLN8AbyPnFa8Kas+vKe0z7v0TQS79DT7O+on7rsaEEe8tW3/vKNfyzmT2Yg8+xCrPMok+LwQEno9+D+QvCgqqjrq4g28",
                "zWdNvGtILbzVZjg6JwzTPFh+ZzpxzAm7a2XwOwCuITxb3qW84yjwvKQlRb1xvAQ8BYc4vEeQBr3pu1m8aNoRPLY1UbzT7J880uuMuz2BkTzVaS08fDkBujdUOD3BDgG9figwvZhAfrxDzBM95YCnvBd/Gbs4Jhi9zAYWvWqkhrzWx7E80CeROyl4NLs7ku+8Yxl0PDr7IT3InTW9FnrPPImKEz1SWJ28hqj7uqsLI7xmdQk6ThF1O5tcM7u5fFy9GueBvPsCu7xFy3w8BxZBPIZd4rxEaog8nWYpvb1VlDtU8bkOSPhaPeg1tLtpp/W8yP/YO3wM/Tx+Ak68Hkd/vImusDzyTIO8sEO6jrRp7DwFmY48pFRevHLCILzzzZU8q1l0vGOsPj3MZRs7nIcOPh6db72Z+DQ9BkmlPKGvQjw4wsE82U1wPRHkxrueH5c8hDBiPU8U4j33Hmu9GVckvbyA8rwldWu92y3aPMoPJTxPV3q81MCbO7VKC73v6BC6OV1WPKj2FL2DpEO8Q0fFvKT1MT0Z4QY9bV7LPduhIr09jmU733nivMwm0zxhoYe8Aeq4PdPCybzx60w8R3KMvDKbxruBSfa8E7WFvD4XGL3AWOw7DMtLPXgZAD5uVNg7YAtSPR1lXD2vwM48Y1CLPahHrrwCSRI90Cd1Ph8d8zxpqps8txYUPPSL3DzddJC9R2KCPcINkT1zuIw8mZE+vY7BgbzvM/C7RTBQPO+ySbwjZEY99IO9O4JSIbvWssG7plUDPdoxh7zpkqG7JEwVPb2FSbyNCY+9C1XuO8aeO72xTCU92cviPeHCi7xx+ge9/AhpPErpBLxukxS8AqrIOrWi6DrmdG07cLq2PC6LpzvAfjc9T1SKO82KC71K23C8s4VwO7RsBr1tzTq9ZRyFPNttgD1ARUC8EUgZPRFGBL0sC9y8Jga6Dk4PQz0TFbc7bZscvfrKiDxEjBk8Yr2MvTaNhTxrMJs8l5uavAiFu46sUQC9WU0gvKbfgb7sBAW9",
                "zf2dPI2uc7zhArC7x3w4vBSEDj1sOn097aV8PUuUzzwM6ye7iyZHPF+p1LtR+cA8ccLKPLQPRL3i+hi99ZCBOvb2kby2vJq8G4CtPMH/cTtDgv87PKwrvGbv/bwNrio9PKdluqksJbys4hy8cL0hveLWL71m84y78z/TvA7Qfj35jXS9et4+vYLEyDyFBjc8MsKXueMSU73xvgU76ZyuOzSqcbwrWFi8eJapPIpRKL0sEDy8/lj2u+Q8L73PRwC9WKkOvLx/3LzHVSC8njgWvXOqnDw96ca8UVbwO/JzdL3XLFi72v3APJojijvW4ak7+8h4POCkQr3pRwG9OOiivAogurxoQVO8dYmZuEhV0TwsUwo8ycGauzURiTz1L0m92vSMvNDXDLyClJS8FqMPvRxa3TopWsa79eQAvZ22nTwfEYi8rhjUu5LClLvWFlm8gdw4vBuDCz131RO7ro+1vGg/gr1a5fi7f3gsO46bzrsZeWq84My4u3utZzzERy+9g+L2vGWm2LuybZI8WcngvDmsm7xXXLi8eAmvOwI2CL0nXnO9qEgdu2mZuw5/eO+8JfQVvXG9Er1Tpuq842UyvU1EMbx2VCm9sjB0vCwnrLy87LoOmB1bvITxb72lPrA9"
            ]
        },
        {
            "shape": [
                120,
                121
            ],
            "weights": [
                "WHbQvHaekb23KLqOAp4DvUVMLTy6QpK7x8GUOysJcD20ouS8HE+TvXmCHb3Az2497ohSu6GKuY4xTOe8KpbuvJuoXToYY0S7MNy5PDt5NTzwZ+07jh8JvS9DWD21L5k8lMN9PaRrAD0oNb46ShZFvClLuw4TJ7sO7MW2vfK4HLxZINM8sty4jsC3xTv0hku8I3znvEBFpTuZdrmOBocbvesGTTwc9mu8CWjFvNlu8LzIF7qO+VAuO/Scuw6xLLwOvJW6jo26GDt1dIc8g18fvZ8zI72OXOo9ypKQPURJi7t1Vhu9+pbOvCwE9DyzlTW8qdC1vGi98Tve/xs9IRw5PWViu45sFHA9JPrwPCwEbj2A+Be9z2+cvNcFgb3DQ7oOfS81vJwyu7ybq5Y7eYG6jhahDz0Vh7sOaze8Ds5HED2+97kOtwvDPDgNmTuOvga7fjq2O7AMEry+27gOrZCiPHPFmLw4hLmOg2MWPUU4kTvvsRG9mbuMPFRRuY7YUdg8XdK7juLJvbwdThY9xOIwPcV1uQ4LQYm7SeUlPQTkbLwK5rqOwCZnvfKNu45I37I81Bm5jpVuNz3GXrsO3sUFPRCeiT3Y/k671ByvvFFCWb1nUfO8lNguPfryE72D4MO8diGSO+7SxzxfAYS9WBi7Dmz4PjuqWoc8ladFPJbdVT386Y49OPYKvLex572QK1i8AklaPenQ/7nsp7kOntUMPUZHbrxBwlK8uAhTvAFCpTytkcy85iGuPCZ6rbweVf+6MS6rvOuuWT3qTee8dzWeu6c2xzs1kbyO2za6DrW0P720zGm9E5fpPK0duw7JKoq8PBmROoPms7sP+WO80Yi7jgvfsL2LRzG94zw8PddQLr1Xb9Q735+4DkBGcDy93rkOP4y6jom0uI53zPY8Z1PtvBPinLxrOaG9YmG2PNhlFjy6UBG9O3cYPEmimjzjLcK7etr0PLD6Wb2MphE8Q+pcOz64S72kQ7qOBSAYvAj/jj3X4bQ9PT6Jva9Ghr0mXQm+",
                "yjqqDnc/NL0kraC7bEcAu1pku47YL9k6kci4jhDTuI4u2DI9NSG6jnnyXLuhtES9ctFmO0UHpLyQ/8E8Lo68DhMWUbwX85g8/bO6DgsNaD0UXT28cJc3vFnj97xOE7mOzmo3PLV5vA6heI28wMFdPETmS73Sk7kOHc/kutsQ4Lyv1Ks8mr65juO3h71EIrmOtK3Au2xzug43vlI9y1+5jopuHj1FOLE96OtYvU+Odrx8Sie8BqzBu4jOfL3nBDS85IpBO2jhoTu3IrmOQeu4jkL8uo69ILuOkKS6DkHFuI7SvLuOUvO6jopMuo5ykrsOtUq4jvDyuw7fIbsOJoG7jreMuI6TY7uOX0m7DhBfuo5+IrqOaGu5Dg28uo7NArqOqMO4jqWLuQ6V3rqOzSG5jou9uY5kx7iOimG5jsN0u44Il7qOcDS4Djl6u47uo7sOp3G7jufOuY7R87mOwVa5jgTJug58Q7yO5qa5jlU0u46Yj7mOAwi7jvRduo7GXbuOMO25Dl3CuY5xAbuOCbG7DnQUu461zLmOi4G5DsV5u44olrmOBLy7DlyCuA4Y77mOX0C6jp6su44C6biOaoO7Doh0u45uFbsOwl27jk5fuY6qXrqO+Ay7jnpluY6rFryOLwi5juxqug4JtrmOKTq7jij2uo6Q0biOiA68jnCcu46PE7qOhQG5DiohuY78DLkO7ha6jpHzug6NuriOaHO6js1QvI4kyLqOLJG6Ds/7uo4c87mOO1m6jrRnuY6A0biO5ii5jtc6u44JKbqOts24jqXruY4+wruO/oW7DnNQu46RcbiOWkG5DtMGvA6bFrmOSkC7jlNJuo49yLmO/zy6jscNsg5xwbiOFW66jrR/uo7p8LgORhq6joANuo6rq7qOc3q5jpjNu46NcEG93x+2PcTCO7yUi7uOXDpCPW1h+LxfMZc8lgWZPbiqUTvlbJ08wL8hPREJ2LzAQRg8DT/TvOe+uA7uLg48chcOPZghk73QbkQ9Tyq7vJ45ATygWDM9",
                "xQy1PPFoIjzq04W8QhvrO2WidjzT3Ya7hyxyvTCpuw7RJ7oONHpwvUvwgjyevCe9kZG7jkqzUbuqKv88cLeHO9UEyrwHsLmOY71JvPNjCruaqvY5bBVoOdQEQz3a+roOWnqmO8ZNuo7dLrmO1Iq5DtyYmzw0vTw8OkBXOweB/Lx386W86CADvU+QU7wvqGS8VXFPvKwsBjxW1sa8R6gTvI3dEzzc9yS9qNUcvSuSuw63cPi8QJC5vJIpHD0HwJM90zequwoRyjz/uLoOdMgJvFeirLwuM0w7M565DhoMEL0Zj7wOunO5Drt1dz2OHruO5evKu5dALz3iqRE8OkqRvGEiUbuK3LgOxsAqvM+8P72IOruOBLMoPQLQz7sXYJK8nW5ivAjNuQ6hrDU7UkK6jhRM9Tz48gi8eEzOPEUQuw4mrSi9Ic2sPAV8V71uf7oOwifDOyMDuw7pXhc9ivi5jtY3VD3ZXbgOFI8rvSA55jtePA+815I7vRImC7wa8Pa7H5y7u2jAmDsjpXU8qv9UvN/bmrvvJwQ80F+5jj3SjDwRZYk8A7JFvO5CuzzmY5c8GbjLu/wAmr00kCq9FjHIPPmToLxq87qOlK9OPDqpOTwmiFK8nOtEPKSL+7zDbj49mKWJvNxxqLxMNSU9UGofvd69rLvsAAg9t4+CPRBV+rtdrboOA8S6jj5uZ72uXQK9JFgTPdQ5u45a/O27cWa9vGZrTLzsFKi7yB68DvA0wrz9boO8Dj2rOzWE7bthZgo9jqu7DkWcXLt2XLiOM2u7jvzWuw523RA9mh/lO4l++TujLZ28aqLePUDEqbyKuMe7GTm/PBLxBD3cvS28LEHhPHQxNL3eUzO9OtqJu3QEOD2u8ruO+hHMPE0Inj3i8yU94liEvEW5e7yIEly9kYe4DusGIbzqUhq8aHSJvDm4ug7dEnk8+gm6Dr9/uI5n6nO851S5jg64w7xVve+8yVZBPddmUb1jBW689ga5DjmsDb3Es5+72vi6DlbB0TwFbdo7",
                "1z0dvHXg1zza3bsOHieQPL/3uY4mWgq9ktR/t5QRUTyyOroOoAYPvcG8e7u2c+08jVm7DvosO70N7biOylnnPMibuo4/lnq8/gO5juijLb3tNZK7TzSSPNRzrLyLUrq8OkKDPARhhTufQ5y819r7vLIma7xS0ea8eqaHOwdTug6Nyia9S04DPQsXSzxpkJe8qL5tvKyxmTyiYag82qyHOVvcRrzT1CY8BJC4jgivujwvJZe5ov9gPM0IB70GtdY8tTbUu6sRqTqzcqI7rVgOOwi8wrx6CF87CA8GOwmLrrz/TlU8Pn+5Dvi8uI7t6Uq9prgHvYvwCbzW/7qOCfLtO8Qr7bxNook8nTANO0Xwtg4PM5m7FXu7vDpFwju42xE85BuLvALauI7XLtu7mXi5ju7luo5+ireOfb0nPIN0krsPh5S8vbZNvGpxlLrtaww9KT20OqbdZD2wvSi8ZQeWPKmnjLw56li8njUBvaRb5bkpDfI77GS6jslxfbjLpHi8SeuaPJ0I4buvEAu83lMyPZm4uI5OitM8XYTCvFFVqbxCrLmOaG/XPPDEuA4r8riOm5zaPF4Puw5aVue8dUUnvDGTp7xHpqS8ta0evdpzuQ5Nnf67qFwZvIXpvI4gDXY8PDNDPB/xM71r3pE7XAm7jnPLkbpeFLmO72giPQ4qAzy1P3S8n2S4DvODyTyuZby7+Tbau5kHvA6X6Ii8PTe7jg0hzTzcOboOp9GPPI20uA7Rps46fvGSvPW7ID13/DI8pot6vACnM7z381A9yVMAvZY9lrzZ0YM7O1ZWvNZeaL068LmO/5KZPAClizz9nQA9Bvz9PHUIDTwV55+8UtMdvc6WKbzVv828EBJ2vPTlt478wRW8yMmcvD1XxryewhC8fnm4vAd2ET3USQ48RJslvB636TwycQ083DAaO/vLxDxncqY9zBlUvV0ftI7/ALqOcQvTuw5GE70L1Xc8T0e5jki4Fjs2ftM7QvAoO/W/47yOaboOcaSevCkchL2U5HO8",
                "fyc6vb6QIrw/v7sO0QDtPD6Stg6lRbwOPFq7Dk+brjzuvaG4MmJuu/AmWTxQ42U9i7qVvF7TPz0GH5C7/aWbO1GEKb38t348mxDAvPTFPr2fqOy8pL1CPMnzuw4t4H482yrOPCjYoTyivMs8pRmXvPiNEL1ZaLcOaqxfvKizhzvYXQ293mS6juK5Zr30l7AOLQG1DqPjAD136a4OeIJWPJ0qBL2V8W88w64rvUI9T7vuyLKOuRgYvex+PD3WVbqOR+8XPKtHxTw3sqI8lowrvTiKuA4omEO8Mt24DmzeGz32J7sOij1+PYL5tY7EG5M60DyTvOB8yzy+WLmOzmsdvSURvI79zUy7KCS3Du9EAz2FXbqOB6NZPEuh4DyfffC8awMEvKYeoTxvYic7cnIiu2LZwLsLt2i6ARO/vIwowjvUGtM8azS5Dq3p0bw5luE5WA5jPJ4m6byrc7c7zCllOyvsEj1F6FU9YvnGO8m3Qj3xP7mOzQ4MvDwwbbyb2ic9ogIIvZgdWT3zhw+94O+tvAclADwi8Py7hG0XPJLI47wseWG8xZkjvBDekTugzbuO0Uq5DlepIbxAbqQ8vzb1u6uFuY4KZPu8h7DcPEpQHbsSrws8+Hm8Dm+FKLtSUcS7UUXQvIRZMrpIjYs9nD+8jgM+h7yd7riO7cy6Dq11uI4tUr08ajo5u6519bv/Zp484ODzPIA0sTypbB0810NLO3+LoTznk4y8gVi1O6eDCTzNc0u8BTRcPOzhajyBwbgO0cmxPFrbZLyYMIE7mmsqOVvVnzyyXIa8Y6e6jmlzz7xsv0M82WgAPfRRuo78aV25EzG5jj8euo4gPwe9aaC4DiDmaz0t8nq8YVA3PbMhDTuGWxy8gJS5jvB8ZzwFf2k9XfG5DvyuDrp5YcS6t8wgPTp2qDsA07gOiJa0vLeguY6/5Ie87AHYu2xbHbzjQLsO3dcDvUCzKDzOYhI8Z9u4jj/sjTwuy7sOcCEYvJ4bu46AOmC8/Wq6DvNXAz2Ta0m8",
                "OPs0vOn/QLzUrQy8DcCYvDFdtryjRd28fj6uvOtiUbupwrgO9xW5jgkKuY4sjrmO8oW7DtqbvI4QX7sOIUq9DnqNuo68o7sOcqu7DjBSuw7yeruOtbqwDtLLuI7s57iO0Ju6juTIuo5l/rkOr3e6jgOOuA7DdrkOyoK5jmIOuo4vvLmOE6e4jh9iuY7UoLsOnFG5jonNuo7N+LwOx2i4juN3uY4dP7kOw+S6DqpBuo7F8biO4h25Dv+StA5EcbkOAMu3jtzbu45XSrmOyBS2juNZuo7J0K8O3vm1DoTIuI6FDrmOxmS6jimYu47gdriOqI+7DvEGu44t57kO8Q67js/Uu46OR7uOxS+5jsiyuo7JSruOepG5jpp6ug5CXLuO4wW4Dlwwu47eBLqOhxS5jolEuY5jWrqOEUS8jiFNuA5EHbcOYM26Dqs0u47KJbmOCJe6jpuLuo6DX7qOslO7DrmBuQ4UY7wOEdq7jkpRug4cGrsO33a5jr+pug6Ht7iOnIi8jgyZu45YtbwOqQa6jm/1u44+ubmOZpi7DvQKuY7rArUOk+e5jrtquY69HLqOnCC9jo43uw5EsrmOXwu8DpUEu45zZLmOLre6jrOruw6hb7gOO8K6DvpvuA4kjbuOUTy5jhhuu45k4riOdNy5DhT0uo5i5bqOzyW5jkksuI5fZx69a9qVPL1JaLzzh7iObGDNvCZt2DwknhU9mLdzPRM5b7z67xU9PBabu2NH6Typ8SK9Umu6PJKXug7tkBy88H1svO4VnryaGnw7b1vOu7X4KD1kbKe7zTwDOwnks7uw84U8oIVfPGRS97sDnPm7Qu8LPW7suI6+PbsOW+i3O3X7GL3A8Qa9vvy4jg5/pT1GcyQ8earpu0p+ADxBAbsOVaETO5BnqbymlNk8GlTUuxM5oLx+57kOWWBQvZ6wuo57EruONJe6jr30Mzyfq7s7xgnPvPf7W7zs6b866Ti0vOebxTwVK/88xgAoPZPppLw2GrG8L03EPJS8HL3llLA8",
                "ZTfCu3k3uo6kW328udeHuRbHiTxW+Ac9dHXyvEHYkLsi1ruO7InmvNVopLtrGYE80w27juwpJj3PLrqOxLe7jgIzRD2F/LmOAmjmuhGlpbvCf4O7wgdMvAGYqLs+r7uOPa46vPOVnztuerqOPr+JO4KGYTvy0N28pvazvMQRu44URQe9goO7jhd49zx6gte8alzBO7fqug7WyA29FLkovVYDAT0sqbqOHJSJPDdHvI5N4Z070qW7Dt3R+LzID7wOgWeWu4kOIjyOwlO8bPF0vOCl27wy0/08vdh3PSH3Ez3r3Bm91U8OvK2T1zzyjuq8Q6e7DrvvMb3OzLS8ENP8uyiMTrzYmIa7UJSGPLDLRL2dqx29jlNoPFdw9DscsLiOmSCNvMvCKDwOZSi8Nq+XvAMtRruvQWW8dhqxvDZaW7y1xL28oEHHPKSkWD1Ua9K8vM55vffe3js56rqO7Ry8DpSReLoY8iK5eFb/vBOquI4B6e88Q6OpvIYuJb0P0ZU8rtO6Dkyofjp2Wkq8oRMGu++U+jxE29m8k1e5jt9EdTwsSbkONja7jh2XuQ7hyUm7h8ORPKXK87w12ig9P5QUvbO19TxiEP687AhLvLCpuLuJCjA9/a8BvUF3GL34GlI8mJJ6u3tvzrzj7bsO3uI0vIdgQTztPqw8/9X0O1KBsLzptNI84v+tDnJxEjpZE6a7iH/nO1Fsug48Sgc872+5Dj1ato7Qwii9Yyq3jrzZCDwnO/y8rONbPBgaYzz/xaa8ujC6DjUePL2pfqK81DS6DrJRibtyrQs8OP2ZOwqzp7iA0bmOCcD+vPrIuA5ugvi8SR69vWv9/rtFGLoOcImHPZjsJDx/LaS994C6DqcwQLy3b7qOP+hqvc7luY4448K8Nu+4Dv+gZrx+KYe74dcXvLRLF71QKRq8KmUyOy8TdbzwoUS8wbUfPZjsmTxNd7mO7Se5jkcnvA6Hr7sOaPm5jmyquw47hrqO7eG6DkcCuw6wprmOufi5jnR3uQ5xsbsO",
